#version: 0.2
Â ¯
Â¯ Â¯
Ġ Â¯Â¯
Â¯Â¯ Â¯
ĠÂ¯Â¯ Â¯Â¯
Ġ Â¯
Â ±
Ã ¯
Â °
Â ³
ĠÂ¯Â¯ Â¯Â¯Â¯
Ä ¯
Â ·
Ã ı
Â¯Â¯ Â¯Â¯
Â ¿
Â¯Â¯ Â¯Â¯Â¯
Â° Â¯Â¯
Â± Â¯Â¯
Â· Â¯Â¯
ĠÂ¯Â¯ Â¯
Â¯Â¯Â¯Â¯ Â¯Â¯
Â¿ Â¯Â¯
Â° Â¯
Â± Â¯
Â¿ Â¯Â¯Â¯
ĠÂ¯Â¯ Â·
ĠÂ¯Â¯ Â¿
Â· Â¯Â¯Â¯
ĠÂ¯Â¯Â¯Â¯Â¯ Â°Â¯Â¯
ĠÂ¯Â¯Â¯Â¯Â¯ Â±Â¯Â¯
ĠÂ¯Â¯Â¯Â¯Â¯ Â·Â¯Â¯
Â± Â¯Â¯Â¯
Å ı
Ã ¿
Â ´
Ã Ĺ
ĠÂ¯Â¯Â¯Â¯Â¯ Â¿Â¯Â¯
ĠÂ¯Â¯Â¯Â¯ Â¿Â¯Â¯Â¯
Â± Â¯Â¯Â¯Â¯Â¯
ĠÂ¯Â¯Â· Â¯Â¯Â¯Â¯Â¯
Â ¹
Ã ĥ
ĠÂ¯Â¯Â· Â¯
ĠÂ¯Â¯Â¿ Â¯Â¯Â¯Â¯Â¯
Â° Â¯Â¯Â¯Â¯Â¯
ĠÂ¯Â¯Â¯Â¯ Â¯Â¯
ĠÂ¯Â¯Â¯Â¯ Â·Â¯Â¯Â¯
ĠÂ¯ Â¿
ĠÂ¯Â¯ Â±Â¯Â¯Â¯Â¯Â¯
Â° Â¯Â¯Â¯Â¯
ĠÂ¯Â¯ Â°Â¯Â¯Â¯Â¯Â¯
Â° Â¯Â¯Â¯
ĠÂ¯Â¯Â¿ Â¯
Ä °
ĠÂ¯ Â·
Ã ·
Ä ¿
Ä¯ Ã¯
Â± Â¯Â¯Â¯Â¯
Â´ Â¯Â¯
Ã¯ Ãı
ĠÂ¯Â¯ Â±Â¯
Â· Â¯
Â ¸
Ã ģ
Â¯Â¯ Â°Â¯Â¯
Ã ĵ
ĠÂ¯Â¯Â¯Â¯ Â±Â¯Â¯Â¯
ĠÂ¯Â¯ Â·Â¯Â¯
ĠÂ¯Â¯ Â°Â¯
Ã ±
ĠÂ¯Â¯ Â°Â¯Â¯
ĠÂ¯Â¯ Â±Â¯Â¯
ĠÂ¯Â¯Â¯ Â°Â¯Â¯Â¯Â¯
Ã ³
ĠÂ¯Â¯ Â¿Â¯Â¯
Ä ·
ĠÂ¯ Â±
Ä ³
Ã ĳ
ĠÂ¯Â¯ ÃĹ
Â¯Â¯ Â±Â¯Â¯
ĠÂ¯Â¯Â¯Â¯Â¯Â¯ Â°Â¯
Ã Ĳ
ĠÂ¯Â¿ Â¯Â¯Â¯Â¯Â¯Â¯
Â¿ Â¯
ĠÂ¯Â¯Â¯Â¯ Â°Â¯Â¯Â¯
Â¯ Â·Â¯Â¯Â¯
Ã Ģ
ĠÂ¯Â¯Â¯ Â±Â¯Â¯Â¯Â¯
ĠÂ¯Â¯Â¯ Â°
Â¯ Â¿Â¯Â¯Â¯
ÃĹ Â¯Â¯Â¯
Ġ Ä¯
Â¯Â¯ Â·Â¯Â¯
ĠÂ¯Â¯Â¯ Â°Â¯
ĠÂ¯Â· Â¯Â¯Â¯Â¯Â¯Â¯
ĠÂ¯Â¯Â¯Â¯Â¯Â¯ Â±Â¯
Â¯Â¯ Â¿Â¯Â¯
ĠÂ¯Â¯ Ã·
ĠÂ¯Â¯Â¯ Â±Â¯
ĠÂ¯ Â¿Â¯Â¯
Å ĵ
ĠÂ¯Â¯Â¯Â¯ Â¿
ĠÂ¯ Â¿Â¯Â¯Â¯
Ä ±
Â¯Â¯Â¯ Â±Â¯Â¯
Å Ĺ
Â¸ Â¯Â¯
Â± Â°Â¯
ÃĹ Â¯Â¯
Â¯Â¯Â¯ Â°Â¯Â¯
Å ¯
Ġ Ãı
Ġ Ã¯
Â¯Â¯Â¯Â¯ Â¯Â¯Â¯
ĠÂ¯Â¯Â¯Â¯ Â·
ĠÂ¯ Â·Â¯Â¯
Ã Ļ
Ã ¹
Ä ĥ
Å ĥ
Â¯ Â¿
ĠÂ¯ Â°
Ä ģ
Â´ Â¯
ĠÂ¯ Â·Â¯Â¯Â¯
ĠÂ¯Â¯Â¯ Â±
Â¯ Â·
Â¯Â¯Â¯ Â¿Â¯Â¯
Â¯Â¯Â¯ Â·Â¯Â¯
Ġ Ä¯Ã¯
Ä ı
Ã °
Ã Ķ
Â¯ Â±Â¯Â¯Â¯
Â· Â¯Â¯Â¯Â¯
Â· Â¯Â¯Â¯Â¯Â¯
Â µ
ĠÂ¯Â± Â¯Â¯Â¯Â¯Â¯Â¯
Â ²
Ã· Â¯Â¯Â¯
ĠÂ¯Â¯ Â±
Ã ĺ
Â¿ Â¯Â¯Â¯Â¯Â¯
Â± Â°Â¯Â¯
Â¸ Â¯Â¯Â¯
Ã Ħ
ĠÂ¯Â¯Â¯Â¯Â¯ Â´Â¯Â¯
Ã Ł
Ã ĩ
Ġ Ã¯Ãı
ĠÂ¯Â¯Â·Â¯ Â±Â¯Â¯Â¯
ĠÂ¯Â¯Â¯Â¯ Â¯Â¯Â¯Â¯
ĠÂ¯Â¯Â·Â¯ Â¿Â¯Â¯Â¯
ĠÂ¯Â¯Â·Â¯Â¯ Â±Â¯Â¯
Â »
Â¿ Â·Â¯Â¯
ĠÂ¯Â° Â¯Â¯Â¯Â¯Â¯Â¯
ĠÂ¯Â¿ Â·Â¯
Â´ Â¯Â¯Â¯
ĠÂ¯ Â±Â¯Â¯
Â³ Â³
ĠÂ¯Â¯Â¯Â¯ ÃĹÂ¯Â¯Â¯
Â¯Â¯ Â¿Â¯Â¯Â¯
Â¸ Â¯
Ä¯ Ãı
ĠÂ¯Â¯Â±Â¯Â¯ Â±Â¯Â¯
ĠÂ¯Â¯Â¯ Â·Â¯Â¯Â¯Â¯
Â¯Â¯Â¯ Â°Â¯
Ä¯ Ãģ
Ã· Â¯Â¯
ĠÂ¯ Â±Â¯Â¯Â¯
ĠÂ¯Â¯Â°Â¯Â¯ Â°Â¯Â¯
ĠÂ¯Â¯Â±Â¯ Â¿Â¯Â¯Â¯
ĠÂ¯Â¯Â¿Â¯ Â·Â¯Â¯Â¯
ĠÂ¯Â± Â°Â¯
Ġ Â¿
Â¯ ÃĹÂ¯Â¯Â¯
Â¯Â¯ Â·Â¯Â¯Â¯
ĠÂ¯Â¯Â¯Â¯Â¯Â¯ Â·Â¯
ĠÂ¯Â¯Â¯Â¯Â¿ Â·Â¯Â¯
ĠÂ¯ Â°Â¯Â¯
Ä¯ Ãĥ
ĠÂ¯Â¯Â¯ Â·Â¯
Â´ Â¯Â¯Â¯Â¯Â¯
ĠÂ¯Â¯Â·Â¯Â¯ Â·Â¯Â¯
ĠÂ¯Â¯ÃĹ Â¯
Â¯ Â±Â¯Â¯
ĠÂ¯Â¯Â±Â¯Â¯ Â·Â¯Â¯
ĠÂ¯Â¯ÃĹ Â¯Â¯Â¯Â¯Â¯
ĠÂ¯Â¿ Â·Â¯Â¯Â¯Â¯Â¯
ĠÂ¯Â¯Â·Â¯Â¯ Â°Â¯Â¯
ĠÂ¯Â¯Â¯Â°Â¯ Â±Â¯Â¯
Â¯Â¯ Â°Â¯Â¯Â¯
ĠÂ¯Â¯ Â°
Â¯ Â·Â¯Â¯
Â¿ Â±Â¯Â¯
Â¯ Â°Â¯Â¯
ĠÂ¯Â¯Â¯Â¯Â¿ Â±Â¯Â¯
ĠÂ¯Â¯Â¯Â¯Â· Â°Â¯Â¯
ĠÂ¯Â¯Â°Â¯ Â·Â¯Â¯Â¯
Å Ł
Â¯ Â°Â¯Â¯Â¯
ÃĹ Â°Â¯Â¯
Â¯Â¯Â¯ Â±Â¯
Â¯Â¯ Â·
ĠÂ¯Â¯Â¿Â¯Â¯ Â°Â¯Â¯
ĠÂ¯Â¯Â¿Â¯Â¯ Â±Â¯Â¯
ĠÂ¯Â¯Â¿Â¯Â¯ Â¿Â¯Â¯
Â¯Â· Â°Â¯Â¯
ĠÂ¯Â¯Â¯Â¯Â¯ Â·
ĠÂ¯ Â°Â¯Â¯Â¯
ĠÂ¯Â¯Â°Â¯Â¯ Â·Â¯Â¯
ĠÂ¯Â¯Â¿ Â°
ĠÂ¯Â¯Â¯Â¯Â¯ ÃĹÂ¯Â¯
ĠÂ¯Â± Â°Â¯Â¯Â¯Â¯Â¯
ĠÂ¯Â¯Â¯Â¯Â¯ Â±Â°Â¯
Å Ģ
ĠÂ¯Â¿ Â·Â¯Â¯
ĠÂ¯Â¯ Â´Â¯Â¯Â¯Â¯Â¯
ĠÂ¯Â¯Â¯Â±Â¯ Â°Â¯Â¯
ĠÂ¯Â¯Â¯Â°Â¯ Â·Â¯Â¯
Â±Â¯ Â°Â¯Â¯
Ä ¹
Å ĳ
Â°Â¯ Â±Â¯Â¯
Â´ Â¯Â¯Â¯Â¯
Â¯Â¯Â¯Â¯ Â°Â¯
Ã¯ Ã¯
Å Ĳ
Â¯Â¯ Â´Â¯Â¯
Â± Â´Â¯Â¯
Â¯Â¯ Â±Â¯Â¯Â¯
Ã· Â°Â¯Â¯
ĠÂ¯Â¯Â°Â¯ Â±Â¯Â¯Â¯
ĠÂ¯Â¯Â±Â¯Â¯ Â¿Â¯Â¯
Â¯ Ã·Â¯Â¯Â¯
Ã¯ Ãĵ
ĠÂ¯Â± Â°Â¯Â¯
Ä ´
ĠÂ¯Â¯Â±Â¯Â¯ Â°Â¯Â¯
Ãı Ãĥ
ĠÂ¯Â¿Â¯Â¯Â¯ Â±Â¯Â¯
Ä¯ Ä¯
Ä Ģ
Â¿ Â·Â¯
ĠÂ¯Â¯Ã· Â¯
ĠÂ¯Â¯Â¯Â¯ Â±Â°Â¯Â¯
Â¯Â¿ Â±Â¯Â¯
Ġ Â·
ĠÂ¯Â¯ Â´Â¯Â¯
Ä¯ Ã±
Ä¯ Ã¿
Â º
Â¯Â¿ Â·Â¯Â¯
ĠÂ¯Â¯Â¯ Â·
Â· Â°Â¯Â¯
ĠÄ¯ Ä¯
Â¯ Â¿Â¯Â¯
Å ¿
ĠÂ¯Â¯Â¯Â¯Â¯Â¯ Â¿Â¯
Ã ´
ĠÃ¯ Ã¯
Ġ Â³
Å ģ
Ãı Ãģ
ĠÂ¯ ÃĹ
Ã¯ ÃĲ
ĠÂ¯Â¯ Â¸
Ã ¸
Ä Ĺ
ĠÂ¯Â¯Â¯Â° Â¿Â¯Â¯Â¯
ĠÂ¯Â¯Â¯ Â¿
ĠÂ¯Â¯ Â´Â¯
ĠÂ¯Â·Â¯Â¯Â¯ Â°Â¯Â¯
ĠÂ¯Â¿Â¯Â¯Â¯ Â·Â¯Â¯
ĠÂ¯Â¯Â± Â°
Â°Â¯ Â·Â¯Â¯
ĠÂ¯Â¯Â°Â¯Â¯ Â±Â¯Â¯
Â» Â¯Â¯
Â¯Â¯ Â¿
ĠÂ¯Â¯Â¯Â¯ Ã·Â¯Â¯Â¯
Â±Â¯ Â¿Â¯Â¯
ĠÂ¯Â¯ Â±Â¯Â¯Â¯
Ä ĩ
Å Ħ
Ä ¸
ĠÂ¯Â¯Â°Â¯Â¯ Â¿Â¯Â¯
ĠÂ¯Â¿ Â¯
ĠÂ¯Â¯Ã· Â°
ĠÂ¯Â¯Â¯Â¯ Â´Â¯Â¯Â¯
Â¯Â¯Â¯Â¯ Â±Â¯
Ã¯ Ãĳ
Åı Ãģ
Ã ī
Ä¯ Ã¹
ĠÂ¯Â¯Â¿Â¯Â¯ Â·Â¯Â¯
ĠÂ¯Â¯Ã· Â¯Â¯Â¯Â¯Â¯
Ãı Ãı
Ä¯ Ã³
ĠÂ¯Â¯Â± Â°Â¯Â¯Â¯Â¯
Ã ħ
ĠÂ¯ Ã·
Â±Â¯ Â±Â¯Â¯
ĠÂ¯Â¯ Â¿Â¯Â¯Â¯
ĠÂ¯Â¯Â· Â°
Ã¯ ÃĶ
ĠÂ¯Â¯Â¯Â¯ Â¸Â¯Â¯Â¯
Â¯Â¿ Â°Â¯Â¯
Ãı Ã¯
ĠÂ¯Â¯Â¯Â¯Â¯ Â¸Â¯Â¯
ĠÂ¯Â¯Â¯Â±Â¯ Â¿Â¯Â¯
ĠÂ¯Â¯ÃĹ Â°
Ã Ľ
ĠÂ¯Â¯Â·Â¯ Â°Â¯Â¯Â¯
Â° Â°Â¯
ĠÂ¯Â¯ Â±Â°Â¯
ĠÂ¯Â¯Â¿ Â°Â¯Â¯Â¯Â¯
Å ĺ
Â°Â¯ Â°Â¯Â¯
ĠÂ¯Â¿Â¯Â¯ Â¿Â¯Â¯Â¯
ĠÂ¯Â¯Â¯Â¯ Â±
Â¿ Â¯Â¯Â¯Â¯Â¯Â¯
Â» Â¯Â¯Â¯
Â¯Â¯Â¯ Â´Â¯Â¯
Â±Â¯ Â·Â¯Â¯
ĠÂ¯Â¯Â°Â¯ Â¿Â¯Â¯Â¯
ĠÂ¯Â¯Â¯Â°Â¯ Â°Â¯Â¯
ĠÂ¯Â¯Â¯Â¯Â¯ Â¿
Ãı ÃĢ
ĠÂ¯Â¯ÃĹ Â°Â¯Â¯Â¯Â¯
Ã¯ Ãĥ
ĠÂ¯Â¯ Â°Â¯Â¯Â¯
ĠÂ¯Â¯Â·Â¯Â¯ Â¿Â¯Â¯
Â¸ Â¯Â¯Â¯Â¯
ĠÂ¯Â¿Â¯Â¯Â¯ Â°Â¯Â¯
Â ¼
ĠÂ¯Â¯Ã· Â°Â¯Â¯Â¯Â¯
Ã¯ Ãģ
ĠÂ¯Â¯ Â¸Â¯
Â°Â¯ Â¿Â¯Â¯
Â¯ ÃĹ
ĠÂ¯Â¯Â¯Â¯ Â°
Ä¯ Ãĳ
ĠÃı Ãı
ĠÂ¯Â¯Â¯Â¯Â¿ Â°Â¯Â¯
ĠÂ¯Â¯Â·Â¯ Â±Â´Â¯Â¯
ĠÂ¯Â¯ÃĹ Â¯Â¯
Ã¯ Ä¯
Â¿ Â°Â¯Â¯
ĠÂ¯Â¯Â¯Â¿ Â¯Â¯Â¯Â¯
Â¯ Â±Â°Â¯Â¯
Ä¯ Ãĵ
ĠÂ¯Â¯Â¯ Â´Â¯
Ã¯ ÃĻ
Â¯Â¯ Â±Â°Â¯
ĠÂ¯Â¯Â±Â¯ Â°Â¯Â¯Â¯
ĠÂ¯Â¯Â¿Â¯ Â°Â¯Â¯Â¯
ĠÂ¯Â¯Â¿ Â±
ĠÂ¯Â¯Â¸ Â¯Â¯Â¯Â¯Â¯
ĠÂ¯Â¯Â¿Â¯ Â¿Â¯Â¯Â¯
ĠÂ¯Â· Â¯
Â· Â°Â¯
Ã £
Â°Â¯Â¯ Â°Â¯
Ãı ÃĦ
Å Ķ
Â¯ Â¸Â¯Â¯Â¯
Ä¯ Äĥ
Â± Â±Â¯
ĠÂ¯Â¯Â· Â°Â¯Â¯Â¯Â¯
Â¯Â¯ ÃĹÂ¯Â¯
ĠÂ¯Â¯Â¯Â¯Â¯ Ã·Â¯Â¯
Ä¯ Âµ
Â±Â¯Â¯ Â±Â¯Â¯
ĠÂ¯Â¯Â·Â¯ Â·Â¯Â¯Â¯
ĠÂ¯Â¯Â¯Â°Â¯ Â¿Â¯Â¯
Åı Ãĥ
Ã¯ ÃĢ
ĠÂ¯Â¯Â¯Â¯ ÃĹ
ĠÂ¯Â¯Â¯Â±Â¯ Â±Â¯Â¯
Â¯ Ã·
Â° Â¿Â¯Â¯Â¯
ĠÂ¯Â¯Â¿Â¯ Â±Â¯Â¯Â¯
ĠÂ¯Â° Â°Â¯
ĠÂ¯Â¯Â· Â¯Â¯Â¯Â°Â¯
Å ³
Â¯Â¯Â¯ Â·Â¯
ĠÂ¯Â¯Â·Â¯Â¯ Â´Â¯Â¯
Ã¯ Ãĺ
ĠÂ¯Â¯Â±Â¯ Â·Â¯Â¯Â¯
ĠÂ¯ ÃĹÂ¯Â¯Â¯
ĠÂ¯Â¯ Â»
Å Ļ
ĠÂ¯Â·Â¯Â¯ Â·Â¯Â¯Â¯
ĠÂ¯Â¿ Â°Â¯Â¯
Â¯ ÃĹÂ°Â¯Â¯
Â· Â¯Â¯Â¯Â¯Â¯Â¯
ĠÂ¯Â¯Â¯ Â´
ĠÂ¯Â¯Â¿ Â±Â¯Â¯Â¯Â¯
Â¯ Â°
Â¯Â¯ Â°Â¯
Ã· Â¯
ĠÂ¯Â¯Â±Â¯Â¯Â¯ Â°Â¯
ĠÂ¯Â·Â¯Â¯ Â±Â¯Â¯Â¯
ĠÂ¿ Â¯Â¯Â¯Â¯Â¯Â¯Â¯
Ä ĳ
Ä¯ Äģ
ĠÂ¯Â¯ÃĹ Â°Â¯
ĠÂ¯Â¯Â¯Â¯ Â±Â´Â¯Â¯
Â¯Â¯ Â¿Â·Â¯Â¯
Ãı Ã±
Â¯Â¯ Â¸Â¯Â¯
ĠÂ¯Â·Â¯Â¯Â¯ Â¿Â¯Â¯
Â±Â¯Â¯ Â¿Â¯Â¯
Â±Â¯Â¯ Â·Â¯Â¯
Â¯ Ã·Â°Â¯Â¯
ĠÂ¯Â¯Â¯Â±Â¯ Â·Â¯Â¯
ĠÂ¯Â¿ Â·
ĠÂ¯Â¯Â¯Â¯Â¯Â· Â°Â¯
Â¯Â¯Â¯ Â·
Å ·
ĠÂ¯Â± Â°
ĠÂ¯Â± Â±Â¯
ĠÂ¯Â¯Â¯Â¯ ÃĹÂ°Â¯Â¯
Â¯ Â°Â¯
ĠÂ¯Â¯Â¯Â¯Â¯ Â¿Â·Â¯
Â±Â¯Â¯ Â±Â¯
Â¯Â¯Â¯ Â±Â°Â¯
Ãı Ä¯
ĠÂ¯Â¿ Â±Â¯Â¯Â¯Â¯Â¯
ĠÂ¯Â¯Â¯ Â´Â¯Â¯Â¯Â¯
ĠÂ¯Â·Â¯Â¯Â¯ Â±Â¯Â¯
ÃĹ Â¯
Ä Ł
ĠÂ¯Â¯Â±Â¯ Â±Â¯Â¯Â¯
Â ¶
ĠÂ¯Â¯Â¯Â¯Â· Â±Â¯Â¯
ĠÂ¯Â±Â¯Â¯Â¯ Â°Â¯Â¯
ĠÂ¯Â¿Â¯Â¯Â¯ Â¿Â¯Â¯
ĠÂ¯Â¯Â·Â¯ Â±Â°Â¯Â¯
ĠÂ¯ÃĹ Â¯Â¯Â¯Â¯Â¯Â¯
ĠÂ¯ Â±Â¯
Â¯Â¯ Â¿Â±Â¯Â¯
Â°Â¯Â¯ Â·Â¯Â¯
ĠÂ¯Â¯ Â´
ĠÂ¯Â¯Ã· Â°Â¯
ÃĹ Â°Â¯
Ä »
Â¯Â¯ ÃĹÂ¯Â¯Â¯
ĠÂ¯Â¯Â°Â¯ Â°Â¯Â¯Â¯
Å ±
Â± Â¿Â¯Â¯Â¯
ĠÂ¯Â¿ Â°Â¯
Â°Â¯Â¯ Â±Â¯Â¯
ĠÂ¯ ÃĹÂ¯Â¯
ĠÂ¯Â¯Â¯Â¯Â¯ Â»Â¯Â¯
Ġ Â¿Â·Â¯Â¯
Ã ĭ
ĠÂ¯Â¯Â¿ Â±Â¯
ĠÂ¯Â° Â°Â¯Â¯Â¯Â¯Â¯
ĠÂ¯Â¿ Â°Â¯Â¯Â¯Â¯Â¯
Â°Â¯Â¯ Â°Â¯Â¯
Ã ł
ĠÂ¯Â· Â°Â¯Â¯Â¯Â¯Â¯
ĠÂ¯Â·Â¯Â¯Â¯ Â·Â¯Â¯
Â¿ Â±Â¯
ĠÂ¯Â¿Â·Â¯ Â¿Â·Â¯Â¯
Ã¯ Ä³
ĠÂ¯Â¯Â¯Â¯ Ã·Â°Â¯Â¯
Â±Â¯Â¯ Â°Â¯
Â¸ Â¯Â¯Â¯Â¯Â¯
ĠÂ¿ Â·Â¯Â¯Â¯Â¯Â¯Â¯
Ã µ
ĠÂ¯Â¯Â¿Â¯Â¯Â¯ Â±Â¯
Â¯Â¯Â¯Â¯ Â·Â¯
ĠÂ¯Â¿ Â±Â¯
Â±Â¯ Â´Â¯Â¯
ĠÂ¯Â¯Â¯Â¯ Ã·
Â¯Â¯ Â±Â¯
ĠÂ¯Â¯Â¯Â·Â¯ Â¿Â¯Â¯
ĠÂ¯ Â°Â¯
Â¯Â¯Â¯ ÃĹÂ¯Â¯
ĠÂ· Â¯Â¯Â¯Â¯Â¯Â¯Â¯
Â¯ Â±
Â¯Â¯Â· Â°Â¯Â¯
Â±Â¯Â¯ Â°Â¯Â¯
ĠÂ¯Â¯ÃĹ Â±Â¯Â¯Â¯Â¯
Å Ľ
ĠÂ¯Â¯Â¿Â¯ Â·
Ã¯ Ã±
Â¿ Â¯Â¯Â¯Â¯
Â¯Â¯Â¯Â¯ Â°Â¯Â¯
ĠÂ¯Â¯ÃĹ Â¯Â¿Â¯Â¯Â¯
Â¯Â¯Â¯ Â¿Â¯
ĠÂ¯Â¯Â°Â¯Â¯ Â´Â¯Â¯
Ã Ĵ
Â¯Â· Â±Â¯Â¯
Â¿ Â°Â¯
Ġ Â¿Â¯Â¯Â¯
Ãı Âµ
ĠÂ¯Â¯Â¿Â¯Â¯Â¯ Â°Â¯
ĠÂ¯Â± Â±Â¯Â¯Â¯Â¯Â¯
ĠÂ¯Â¯Â· Â±
Ġ Â±Â¯Â¯Â¯Â¯
ĠÂ¯Â¯Â°Â¯ ÃĹÂ¯Â¯Â¯
ĠÂ¯Â¯Â¯ Â°Â¯Â¯
Ä¯ ÃĻ
ĠÂ¯Â¯ÃĹ Â±
Æ ı
Â¯ Â±Â¯
ĠÂ¯Â¯Â¯Â¯ Â»Â¯Â¯Â¯
ĠÂ¯Â¿Â·Â¯ Â¿Â¯Â¯Â¯
Â¯ Â´Â¯Â¯Â¯
ĠÂ¯Â¯Â°Â¯Â¯Â¯ Â°Â¯
ĠÂ¯Â° Â°Â¯Â¯
ĠÂ¯Â¯Â¿ Â°Â¯
Â° Â°Â¯Â¯
Â±Â¯ Â¿Â¯Â¯Â¯
ĠÂ¯Â¯Â¯Â° Â·Â¯Â¯Â¯
Å £
ĠÂ¯Â¯Ã· Â±
ĠÂ¯Â¯Â¯ Â°Â¯Â¯Â°Â¯
ĠÂ¯Â¯Â¯Â¯Â· Â¿Â¯Â¯
ĠÂ¯Â¯Â¯Â¯Â¯ Â°Â°Â¯
ĠÂ¯Â¯Â· Â°Â¯
ĠÂ¿ Â·Â¯Â¯Â¯
Ã Ĥ
ĠÂ¯Â¯Ã· Â±Â¯Â¯Â¯Â¯
Â¯Â· Â´Â¯Â¯
Ã¯ Ã³
ĠÂ¯Â¯ÃĹ Â¯Â¯Â·Â¯Â¯
Ä¯ Ãĩ
ĠÂ¯Â¯Â¿ Â·Â¯Â¯Â¯Â¯
ĠÂ¯Â¯Â¯Â¯Â¯Â¿ Â±Â¯
Â¯Â¯Â¯ Â¿Â¯Â¯Â¯
ĠÂ¯Â· Â°Â¯Â¯
ĠÂ¯Â¯ÃĹ Â±Â¯
Â° Â·Â¯Â¯Â¯
ĠÂ¯Â¯Â°Â¯ Â·Â°Â¯Â¯
ĠÂ¯Â¯Â¯ Â¸Â¯
ĠÂ¯Â¿Â¯Â¯ Â·Â¯Â¯Â¯
ĠÂ¯ ÃĹÂ°Â¯Â¯
ĠÂ¯Â¯Â¿ Â·Â¯
ĠÂ¯Â¯Â·Â¯ Â¿Â·Â¯Â¯
Â¯Â¿ Â¸Â¯Â¯
Ã ķ
ĠÂ¯Â¯ÃĹ Â¯Â¯Â±Â¯Â¯
ĠÂ¯Â±Â¯Â¯Â¯ Â±Â¯Â¯
ĠÂ¯Â¯Â¯Â± Â¿Â¯Â¯Â¯
ĠÂ¯Â¯ÃĹ Â¯Â¯Â°Â¯Â¯
ĠÂ±Â¯Â¯Â¯Â¯ Â¯Â¯Â¯
ĠÂ¯Â¯Â±Â¯ Â¿Â±Â¯Â¯
Â¿Â¯ Â·Â¯Â¯Â¯
Â¯Â¯Â¯Â¯ Â±Â¯Â¯
Â¯Â¯ Â´Â¯Â¯Â¯
ÃĹ Â¯Â¯Â¯Â¯Â¯
Â¯ Â±Â°Â¯
ĠÂ¯Â¯Â°Â¯ Â·
ĠÂ¯Â¯Â¯Â¯Â° Â°Â¯Â¯
ĠÂ¯Â¯Â» Â¯Â¯Â¯Â¯Â¯
ĠÂ¯Â¿ Â°
Ä¯ Ä¿
ĠÂ¯Â· Â°Â¯
Ä Ļ
Â± Â¯Â¯Â¯Â¯Â¯Â¯
Â¯Â¯ Â¿Â·Â¯
Ä ĵ
ĠÂ¯Â±Â¯Â¯Â¯ Â·Â¯Â¯
Â¯Â¯ Â±Â°Â¯Â¯
ĠÂ¯Â·Â¯Â¯ Â¿Â¯Â¯Â¯
ĠÂ¯Â¿ Â±Â¯Â¯
Ä Ħ
Ã §
ĠÂ¯Â¯Â¯Â·Â¯ Â±Â¯Â¯
ĠÂ¯Â¯Â¿ Â·
Â¯Â¯ Â·Â¯
ĠÂ¯Â¯Â· Â¯Â¯Â¯
ĠÂ¯Â¯Â°Â¯Â¯Â¯ Â±Â¯
ĠÂ¯Â¯Â¿Â¯ Â·Â°Â¯Â¯
ĠÂ¯Â±Â°Â¯ Â±Â¯Â¯Â¯
Â´Â¯ Â±Â¯Â¯
Â¯Â¯ ÃĹ
Â¯Â¯Â¯ Â·Â¯Â¯Â¯
Â¯Â¯Â¯ Â¸Â¯Â¯
Â¯Â¯Â¯Â¯ Â·Â¯Â¯
Ã Ī
ĠÂ¯ Â±Â¯Â¯Â¯Â¯
ĠÂ¯Â¯ Â¸Â¯Â¯
Ã¯ Ä±
Â¯ Â´Â¯Â¯
ĠÂ¯Â¯Â¯Â¯Â· Â´Â¯Â¯
Ġ Â¿Â¯
Ä¯ Ãħ
ĠÂ¯Â¯Â¯Â¯Â¯Â¿ Â°Â¯
Â¿Â¯Â¯ Â±Â¯Â¯
Â´Â¯ Â·Â¯Â¯
ĠÂ¯Â¯Â¿ Â´
ĠÂ¯Ã· Â¯Â¯Â¯Â¯Â¯Â¯
ĠÂ¯ Ã·Â°Â¯Â¯
ĠÂ¯Â¯Â¿Â¯ ÃĹÂ¯Â¯Â¯
Â¯Â¯ Ã·
ĠÂ¯Â¯Â¯ Â¸
ĠÂ¯Â¿Â¯Â¯ Â±Â¯Â¯Â¯
Ä ī
Â¯ Â°Â¯Â¯Â¯Â¯
ĠÂ¯Â¯Â±Â¯Â¯Â¯ Â±Â¯
Åı Âµ
Â ½
Ãı Ä°
ĠÂ¯Â¯Â°Â¯ Ã·Â¯Â¯Â¯
ĠÄ¯ Ãı
Ä¯ Ä³
ĠÂ¯Â±Â¯Â¯ Â·Â¯Â¯Â¯
Â· Â´Â¯Â¯
Â¿Â¯Â¯ Â¿Â¯Â¯
ĠÂ¯Â¯Â¯ Â·Â¯Â¯
ĠÂ¯Â°Â¯Â¯Â¯ Â°Â¯Â¯
ĠÂ¯Â¿ Â¯Â¯Â¯Â¯Â°Â¯
Â° Â¸Â¯Â¯Â¯
ĠÂ¯Â±Â°Â¯ Â±Â°Â¯Â¯
ĠÂ¯Â¯Ã· Â¯Â¯
Ġ Â°Â¯Â¯Â¯Â¯
Â¿Â¯Â¯ Â°Â¯Â¯
ĠÂ¯Â¯Â¯Â·Â¯ Â°Â¯Â¯
ĠÂ¯Â°Â¯Â¯Â¯ Â±Â¯Â¯
Â° Â¿Â±Â¯Â¯
ĠÂ¯Â¯Â±Â¯ Â¿Â·Â¯Â¯
ĠÂ¯Â¯ÃĹ Â°Â¯Â±Â¯Â¯
Â· Â±Â¯Â¯
Ã¯ Âº
Ã¯ Ã°
ĠÂ¯Â±Â¯Â¯ Â±Â¯Â¯Â¯
ĠÂ¯Â¯Â¯ Â¿Â¯
Ã¯ ÃĦ
Å °
Â¯Â¯Â¯Â¯ Â¿Â¯Â¯
Â¯Â¯ Ã·Â¯Â¯
ĠÂ¯Â¯Â¯Â¯Â¯ Â±Â±Â¯
ĠÂ¯Â¯Â¿Â¯Â¯ Â´Â¯Â¯
ĠÂ¯Â¯Â¿Â¯ Â¸Â¯Â¯Â¯
Â¯ Â·Â¯
ĠÂ¯ Â°Â¯Â¯Â¯Â¯
Â±Â¯Â¯Â¯ Â°Â¯
ĠÂ¯Â¯Ã· Â°Â¯Â±Â¯Â¯
ĠÂ¯ Ã·Â¯Â¯
ĠÂ¯Â±Â¯Â¯ Â¿Â¯Â¯Â¯
Ã· Â°Â¯
Â¯ Â»Â¯Â¯Â¯
Ã »
ĠÂ¯Â¯Â¯Â¯Â¯Â¯ Â´Â¯
ĠÂ¯Â± Â±Â¯Â¯
ĠÂ¯Â¯Â¯ Â¸Â¯Â¯Â¯Â¯
ĠÂ¯Â¯Â¿ Â´Â¯
Ġ Â±
ĠÂ¯Â¯Â¯Â¯Â± Â±Â¯Â¯
ĠÂ¯Â¯Â· Â¯Â¯Â¯Â±Â¯
ĠÂ¯Â¯Â· Â±Â¯Â¯Â¯Â¯
Â¶ Â¯Â¯
ĠÂ¯Â¯Â¯Â·Â¯ Â·Â¯Â¯
ĠÂ¯Â¯Â±Â°Â¯ Â±Â°Â¯
ĠÂ¯Â±Â¯Â¯Â¯ Â¿Â¯Â¯
Ã ļ
Â¿ Â¸Â¯Â¯
Â· Â±Â¯
Ä¯ ÃĢ
Ã ¡
Ãı Ãĳ
Å ĩ
Ġ Â·Â¯Â¯Â¯
ĠÂ¯Â¯Â°Â¯Â¯ Â¸Â¯Â¯
Â¯Â¯Â¿ Â°Â¯Â¯
ĠÂ°Â¯Â¯Â¯Â¯ Â¯Â¯Â¯
ĠÂ¯Â¯Â·Â¯ Â°
Ã ľ
Â¯Â¯ Â¸Â¯Â¯Â¯
Ä¯ Ä±
Ä¯ Åı
Â¯Â¯Â· Â°Â¯
ĠÂ¯Â¯Â´Â¯Â¯ Â°Â¯Â¯
Æ ĥ
Â¯Â¯Â¯Â¯ Â¿Â¯
ĠÂ¯Â°Â¯Â¯Â¯ Â¿Â¯Â¯
Â° Â¿Â·Â¯Â¯
Ãı Ã³
Â·Â¯ Â°Â¯Â¯
Â¯Â¯ Â°Â°Â¯
ĠÂ¯Â¯Â·Â¯ Â±
Ãı ÃĲ
ĠÂ¯Â¯Â¯ Â±Â¯Â¯Â±Â¯
Ä¯ Ä·
Ãı Ä±
Â¯Â¯Â¯ Â¿Â·Â¯
Ġ Â·Â¯
Åı Ãı
Ãı Âº
ĠÂ¯Â¯Â¯Â¯ Â¯Â¯Â¯
ĠÂ¯Â· Â±Â¯
Ä ħ
Â¯ ÃĹÂ¯Â¯
Åı Ã¯
Ä¯ Åĥ
Ãı Ãĵ
Â·Â¯Â¯ Â±Â¯Â¯
Â·Â¯ Â¿Â¯Â¯Â¯
Ã ²
ĠÂ¯Â¯Â¯Â¯Â¯Â· Â±Â¯
Â° Â¿
ĠÂ¯Â±Â°Â¯Â¯ Â°Â¯Â¯
ĠÂ¯Â·Â¯Â¯ Â°Â¯Â¯Â¯
ĠÂ¯Â¯Â´Â¯Â¯ Â·Â¯Â¯
Ã¯ Âµ
Â¯ Â±Â´Â¯Â¯
ĠÂ¯Â¿Â·Â¯Â¯ Â±Â¯Â¯
Ã¯ Ã¿
ĠÂ¯Â¿Â·Â¯Â¯ Â·Â¯Â¯
Â°Â¯Â¯ Â±Â¯
ĠÂ¯Â¯Ã· Â°Â¯Â·Â¯Â¯
Â·Â¯ Â·Â¯Â¯
Ã¯ Ã¹
Â°Â¯Â¯Â¯ Â°Â¯
ĠÂ¯Â¯Â¯Â¯Â· Â·Â¯Â¯
Ã¯ Ä·
ĠÂ¯Â¯ÃĹ Â°Â¯Â·Â¯Â¯
Â·Â¯ Â±Â¯Â¯
ĠÂ¯Â°Â¯Â¯Â¯ Â·Â¯Â¯
ĠÂ¯Â¿ Â¸
ĠÂ¯Â¯Â±Â¯Â¯ ÃĹÂ¯Â¯
ĠÂ¯Â· Â±Â¯Â¯Â¯Â¯Â¯
ĠÂ¯Â¯Â¯ Â±Â¯Â¯
ĠÂ¯Â¿Â·Â¯Â¯ Â°Â¯Â¯
Â±Â¯ Â°Â¯Â¯Â¯
Â¯ Â¿Â¯
ĠÂ¯Â¯Â¯Â¯Â¯ Â°
ĠÂ¯Â¯Ã· Â±Â¯
Â· Â·Â¯
Â¯Ã· Â´Â¯Â¯
Â±Â¯Â¯ Â±Â°Â¯
ĠÂ¿ Â¿Â¯Â¯
Â¯Â¯Â¯ Ã·Â¯Â¯
ĠÂ¯Â¯Â¿ Â´Â¯Â¯Â¯Â¯
Â» Â¯
ĠÂ¯Â¯Â¯Â° Â¿Â·Â¯Â¯
ĠÂ¯Â¯Â·Â¯Â¯ ÃĹÂ¯Â¯
Â·Â¯ Â¿Â¯Â¯
ĠÂ¯Â¯Â¯Â¯Â¿ Â¿Â¯Â¯
ĠÂ¯ÃĹ Â°Â¯Â¯Â¯Â¯Â¯
ĠÂ¯Â¯Â·Â¯Â° Â´Â¯Â¯
ĠÂ¯Â¯Â¯Â°Â¯ Â±Â°Â¯
Â³ Â¹
Â¯Â¯Â¿ Â±Â¯
ĠÂ¿ Â¯Â¯Â¯Â¯
Â¸Â¯ Â±Â¯Â¯
ĠÂ¿ Â·
Â°Â¯Â¯ Â¿Â¯Â¯
Â¯Â¯Â¯ Â¿
ĠÂ¯Â¯Â° Â°Â¯Â¯Â¯Â¯
Â¯Â¯ Ã·Â°Â¯Â¯
ĠÂ¿ Â¿Â¯Â¯Â¯Â¯Â¯Â¯
Ãı Ã°
Â¯ÃĹ Â±Â¯Â¯
ĠÂ¯Â¯Â¯Â¯Â¯ ÃĹÂ°Â¯
ĠÂ¯Â¿Â¯Â¯ Â°Â¯Â¯Â¯
ĠÂ¯Â¯Â°Â¯ Â±Â°Â¯Â¯
Ä ²
Ġ Â·Â¯Â¯Â¯Â¯
ĠÂ¯ Â¸
ĠÂ¯Â¯Â·Â¯Â¯ Â±Â°Â¯
ĠÂ¿ Â·Â¯
ĠÂ¯Â¯Â¯Â´Â¯ Â±Â¯Â¯
Â¯Â¿ Â¯Â¯Â¯Â¯
Â¯Â° Â°Â¯Â¯
ĠÂ¯ Ã·Â¯Â¯Â¯
Â¯Â¯ Ã·Â¯Â¯Â¯
ĠÂ¯Â¯Â±Â¯Â¯ Â±Â°Â¯
Ä¯ Ãī
Ã· Â¯Â¯Â¯Â¯Â¯
ĠÂ¯Â¯Â±Â°Â¯ Â±Â¯Â¯
ĠÂ¯Â· Â¯Â¯Â¯Â¯Â±Â¯
Â¯ÃĹ Â´Â¯Â¯
Â± Â·Â¯Â¯Â¯
Â±Â¯ Â±Â°Â¯
ĠÂ¯Â¯Â» Â¯
ĠÂ¯Â°Â¯Â¯ Â¿Â¯Â¯Â¯
Â° Â¯Â¯Â¯Â¯Â¯Â¯
ĠÂ¯Â¯Â·Â¯ Â¿Â±Â¯Â¯
ĠÂ¯Â¯Â¯Â° Â¿Â±Â¯Â¯
ĠÂ¯Â¿ Â¯Â¯Â¯Â¯
ĠÂ¯Â¯Â·Â¯ Â´Â¯Â¯Â¯
ĠÂ¯Â±Â°Â¯ Â·Â¯Â¯Â¯
Â¿Â¯ Â·
ĠÂ¯Â¯Â¯Â¯Â¯ ÃĹ
ĠÂ¯Â¯Â¿Â¯ Â´Â¯Â¯Â¯
Â·Â¯Â¯ Â·Â¯Â¯
ĠÂ¯Â¯Â¯ Â±Â¯Â¯Â°Â¯
Ä Ĳ
Â¯ Â¸Â¯Â¯
Å ¡
ĠÂ¯Â¯Â±Â¯Â¯ Â´Â¯Â¯
Â°Â¯ Â±Â°Â¯
ĠÂ¯Â¯Â·Â¯ Ã·Â¯Â¯Â¯
ĠÂ¯Â¯Â° Â°
ĠÂ¯Â°Â¯Â¯ Â·Â¯Â¯Â¯
ĠÂ¯Â¯Â±Â¯ Â¿
Â¸ Â°Â¯Â¯
ĠÂ¯Â¯Â¯Â¯Â° Â±Â¯Â¯
Ä· Âµ
Â± Â·
Â¯ Â±Â¯Â¯Â¯Â¯
Ã¯ Ä°
ÃĹ Â´Â¯Â¯
ĠÂ¯Â¯Â¿ Â±Â¯Â°Â¯Â¯
ĠÂ¯Â· Â·Â¯
Â¿Â¯Â¯ Â·Â¯Â¯
Â¯Â¯Â¯ Â·Â°Â¯
Ãı Ã¿
ĠÂ¯Â¿ Â·Â¯Â¯Â¯
Â·Â¯Â¯ Â°Â¯Â¯
Â±Â¯ Â·
Â°Â¯Â¯ ÃĹÂ¯Â¯
Â± Â¸Â¯Â¯Â¯
ĠÂ¯Â¯Ã· Â¯Â¯Â±Â¯Â¯
ĠÂ¯Â°Â¯Â¯ Â°Â¯Â¯Â¯
ĠÂ¯Â· Â¿Â¯Â¯Â¯Â¯Â¯
Â± Â¿
Ã ¤
ĠÂ¯Â¯Â¯Â¯ÃĹ Â±Â¯Â¯
Ä µ
ĠÂ¯Â¯Â¯Â± Â·Â¯Â¯Â¯
Â°Â¯Â¯Â¯ Â±Â¯
Ãı ÃĶ
Ä¯ Äı
Â± Â¿Â·Â¯Â¯
ĠÂ¯Â¯Â¯Â¯Â¯Â· Â·Â¯
Ġ Â³Â³
ĠÂ¯Â¯Â´Â¯ Â±Â¯Â¯Â¯
Â³ Â²
ĠÂ¯Â· Â¿Â¯
Â·Â¯ Â´Â¯Â¯Â¯
ĠÂ¯ÃĹÂ¯Â¯Â¯ Â°Â¯Â¯
ĠÂ¯Â· Â·Â¯Â¯Â¯Â¯Â¯
Â´ Â°Â¯
ĠÂ¯Â¯ÃĹ Â¯Â±Â¯Â¯Â¯
Â±Â¯ Â¿
ĠÂ¯Â¯Â¯Â¯Â¯ Â±
ĠÂ¯Â¿ Â±
Â±Â¯ Â´Â¯Â¯Â¯
Â±Â¯ Â·Â¯Â¯Â¯
ĠÂ¯Â¯ÃĹ Â±Â¯Â°Â¯Â¯
Â¸Â¯ Â·Â¯Â¯
Ä° Ã¯
Ã¯ ÃŁ
Â° Â·
ĠÂ¯Â¯Â¯Â°Â¯Â¯ Â±Â¯
ĠÂ¯Â¯Â¯Â¯Â¿ Â¸Â¯Â¯
Â¯Â¯ ÃĹÂ°Â¯Â¯
ĠÂ¯Â¯Â± Â±Â¯Â¯Â¯Â¯
ĠÂ¯Â¯Â±Â°Â¯ Â·Â¯Â¯
ĠÂ¯Â¯Â±Â¯ Â¿Â°Â¯Â¯
Â±Â¯ Â¿Â·Â¯Â¯
Â· Â°
Ġ Åı
Â±Â¯Â¯Â¯ Â±Â¯
ĠÂ¯Â¯ÃĹ Â¯Â·Â¯Â¯Â¯
Â´Â¯ Â°Â¯Â¯
ĠÂ¯Â¯Â· Â°Â¯Â±Â¯Â¯
ĠÂ¯Â¯Â°Â¯Â¯ ÃĹÂ¯Â¯
ĠÂ¯Â¯Â¯Â±Â¯ Â´Â¯Â¯
Â¯Â¯Â· Â´Â¯Â¯
ĠÂ¯ Â´
Â´Â¯Â¯ Â°Â¯
Â¯Â¯ Â°
Â¯Â¯ Â±
Â¿Â¯ Â°Â¯Â¯Â¯
ĠÂ¯Â¯Â°Â¯ ÃĹÂ°Â¯Â¯
Â¯Â¯Â¯ Â±Â¯Â¯Â¯
Â¿Â¯ Â¿Â¯Â¯Â¯
ĠÂ¯Â¯Â¿ Â¸
Â· Â´Â¯
ĠÂ¯Â¯Â· Â±Â¯
Ãĥ Ä¯
ĠÂ¯Â¯Â¯Â¯Â¯ Ã·
ĠÂ¯Â¿ Â¸Â¯
Ä¿ Ãģ
ĠÂ¯ Â»
Æ Ģ
ĠÂ¯Ã· Â°Â¯Â¯Â¯Â¯Â¯
ÃĹ Â±Â¯Â¯
ĠÂ¯Â¯Â±Â° Â¿Â¯Â¯Â¯
ĠÂ¯Â¯Â¿Â¯ Â¿Â±Â¯Â¯
ĠÂ¯Â¯Â¯Â´Â¯ Â·Â¯Â¯
Ã¯ Ä¿
ĠÂ¯Â¯Ã·Â° Â¿Â¯Â¯Â¯
ĠÂ¯Â° Â°
Å¯ Ãı
Â¯Â¯Â¿ Â°Â¯
Ã· Â´Â¯Â¯
ĠÂ¯Â¯Â¯Â¯ Â¿Â¯
ĠÂ¯Â¯Â± Â±
ĠÂ¯Â¯Â·Â¯Â¯ Ã·Â¯Â¯
Ãı Ãĩ
ĠÂ¯Â·Â¯Â¯ ÃĹÂ¯Â¯Â¯
Ä¯ Åĵ
Ã¿ Ãı
ĠÂ¯Â¯ Â´Â¯Â¯Â¯
ĠÂ¯Â· Â¯Â¯Â¯Â¯Â°Â¯
Â¯Â¯ Â»Â¯Â¯
Ġ Â¿Â¯Â¯
Ã¯ Åĵ
ĠÂ¯Â·Â¯Â¯Â¯ Â´Â¯Â¯
Â¹ Â³
ĠÂ¯Â¯Â´Â¯Â¯ Â¿Â¯Â¯
ĠÂ¯Â¯Â·Â¯ Â·
ĠÂ¯Â¿ Â´Â¯Â¯
ĠÂ¯Â¯Â·Â¯ Â¿
ĠÂ¯Â¯Â´Â¯Â¯ Â±Â¯Â¯
ĠÂ¯Â¯Â±Â¯ Â·
Ã¯ Åı
Ä Ľ
ĠÂ¯Â¯ÃĹ Â°Â¯Â°Â¯Â¯
ĠÂ¯Â¯Â¯Â¯ Â·Â¯
ĠÂ¿ Â¿Â¯Â¯Â¯
Å ī
ĠÂ¯Â· Â±Â¯Â¯
Ä¯ Åģ
ĠÂ¯Â¿ Â¿Â¯
ĠÂ¯Â¯Â¯Â¯Â¿ Â´Â¯Â¯
Ãı Ä³
ĠÂ¯Â¯Â¯Â¿ Â·Â¯Â¯Â¯
ĠÂ¯Â¯Â¿Â¯Â¯Â¯ Â·Â¯
ĠÂ¯Â¯Â°Â¯ Â¿Â·Â¯Â¯
ĠÂ¯Â¯ÃĹ Â±Â¯Â·Â¯Â¯
ĠÂ¯Â¯Â±Â¯ Â´Â¯Â¯Â¯
ĠÂ¯Â¯Â·Â¯ Â·Â°Â¯Â¯
Ã· Â±Â¯Â¯
Â¯Â¯ Â¿Â¯
Ã¯ Ãĩ
ĠÂ¯Â¯Â¯Â¯Â¯Â¿ Â¿Â¯
Ä¯ ÄĹ
Â¯Â¿ Â·Â¯
Â¯Â¯ Â±Â±Â¯
ĠÂ¯Â¿ Â¿Â¯Â¯Â¯Â¯Â¯
Â¯Â¯Â· Â±Â¯Â¯
ĠÂ¯Â¿Â·Â¯Â¯ Â±Â°Â¯
Ġ Â±Â¯
Ãı Ãī
ĠÂ¯Â¿ Â¯Â¯Â¯Â¯Â±Â¯
ĠÂ¯Â¯Â¯Â° Â¿
Â°Â¯ Â·
ĠÄ¯Ã¯ Ãı
Â¯Â¯Â¿ Â¸Â¯Â¯
Ä¯ Ã°
Â± Â±Â¯Â¯
Â¸ Â°Â¯
Ã¯ Ã´
Â» Â¯Â¯Â¯Â¯
ĠÂ¯Â¯Â¿ Â°Â¯Â±Â¯Â¯
ĠÂ¯Â¯Â¯Â¯Â± Â·Â¯Â¯
Â°Â¯ Â¿Â¯Â¯Â¯
ĠÂ¯Â¯Â±Â¯ ÃĹÂ¯Â¯Â¯
ĠÂ¯Â¿Â¯Â¯ Â¿Â·Â¯Â¯
ĠÂ¯Â¯Â° Â±
Â¿Â¯ Â¸Â¯Â¯Â¯
ĠÂ¯Â¿Â¯Â¯Â¯ ÃĹÂ¯Â¯
Â°Â¯ Â·Â¯Â¯Â¯
ĠÂ¯Â¯Â´ Â¯Â·Â¯Â¯Â¯
Â¿ Â¿Â¯
ĠÂ¯Â¯Â· Â°Â¯Â·Â¯Â¯
Åı Ä¯
ĠÂ¯Â± Â±
Â° ÃĹÂ¯Â¯Â¯
ĠÂ¯ÃĹÂ¯Â¯Â¯ Â´Â¯Â¯
Â±Â¯Â¯ Â·Â¯
Â¯Â¯Â¯Â¯Â¯ Â°Â¯
ĠÂ¯Â¯Â¯Â¯Â¯Â¯ Â¸Â¯
ĠÃ¯ Ä¯
Ä¯ ÃŁ
Å ħ
Å¯ Ãĳ
Â·Â¯ Â±Â¯Â¯Â¯
ĠÂ¯Â¯Â·Â¯Â¯ Â¸Â¯Â¯
Ä¯ ÃĦ
Æ ģ
ÃĹ Â´Â¯
Â¯Â· Â¯Â¯Â¯Â¯
Â¯Â¯Â¯ Â°Â¯Â¯Â¯
ĠÂ¯Â¯Â¯Â¯ Â»
ĠÂ¯Â¯Â¿Â¯Â¯ Â±Â°Â¯
Ãı Äģ
Â´Â¯ Â¿Â¯Â¯
Â¸Â¯ Â¿Â¯Â¯
Â¯Â¯Â¯ Ã·
ĠÂ¯Â±Â¯Â¯Â¯Â¯ Â°Â¯
ĠÃ¯ Ãĵ
ĠÂ¯Â¿Â¯Â¯Â¯ Â±Â°Â¯
Â¯Ã· Â±Â¯Â¯
Â¯Â¯Â¯Â¯ Â¯Â¯Â¯Â¯
Ä³ Ã¯
ĠÂ¯Â· Â¯Â¯Â¯Â¯
ĠÂ¯Â¯ÃĹ Â±Â¯Â±Â¯Â¯
ĠÂ¯Â¯Ã· Â´
ĠÂ¯Â¿Â°Â¯Â¯ Â·Â¯Â¯
Â¯Â¿ Â´Â¯Â¯
Å ´
Ä¯ ÃĲ
Ã¯ Ã£
Â¯Â· Â¯Â¯Â¯Â¯Â¯
ĠÂ¯Â°Â¯Â¯Â¯Â¯ Â°Â¯
ĠÂ¯Â¯Â¯Â¯Â¯ Ã·Â°Â¯
ĠÂ¯Â¯Â¯Â¯Ã· Â´Â¯Â¯
Ä¯ ÅĹ
Â·Â¯Â¯ Â¿Â¯Â¯
ĠÂ¯Â±Â°Â¯Â¯ Â¿Â¯Â¯
ĠÂ¯Â¯Â´Â¯Â¯ Â´Â¯Â¯
Ã± Ãı
ĠÂ¯Â¯Â¿Â¯Â· Â±Â¯Â¯
Ġ Ã¿
Ã¯ Ã¸
Â±Â¯ Â±Â¯Â¯Â¯
Â¯Â¯Â¯ Â¿Â±Â¯
ĠÂ¯Â· Â°
ĠÂ¯Â±Â¯Â¯Â¯Â¯ Â±Â¯
Â° Â¿Â°Â¯Â¯
ĠÂ¯Â¯Â±Â¯Â¯Â¯ Â·Â¯
Â°Â¯Â¯ Â¸Â¯Â¯
Â±Â¯ Â¿Â±Â¯Â¯
ĠÂ¯Â¯Â° Â°Â¯
Å ł
Â¿Â¯ Â±Â¯Â¯Â¯
ĠÂ¯Â¯ÃĹÂ¯Â¯ ÃĹÂ¯Â¯
ĠÂ¯Â¯Â¿ Â±Â¯Â¿Â¯Â¯
ĠÂ¯Â°Â¯Â¯ Â±Â¯Â¯Â¯
ĠÂ¯Â¯Â¿Â¯ Â±Â°Â¯Â¯
Ġ Â¹
Ä· Ã¯
ĠÂ¯Â±Â°Â¯ Â·
Ã Ĭ
Ä¿ Ä±
ĠÂ¯Â¯Â°Â¯ Â¸Â¯Â¯Â¯
ĠÂ¯Â±Â¯Â¯ Â°Â¯Â¯Â¯
ĠÂ¯Â¯Â¿ Â°Â¯Â°Â¯Â¯
ĠÂ¯Â¯Â¯Â·Â¯Â¯ Â±Â¯
ĠÂ¯Â¯Â°Â¯ Â¿Â±Â¯Â¯
Ä º
Â± Â±Â¯Â¯Â¯
Åı Ãĵ
ĠÂ¯Â¯Â±Â¯Â¯ Â·
Ã¿ Ä±
ĠÂ¯Â¯Â¯Â° ÃĹÂ¯Â¯Â¯
ĠÂ¯Â±Â°Â¯Â¯ Â·Â¯Â¯
Â¯Â¯Â¯ Â´Â¯
Â¯Â¿ Â¯Â¯Â¯Â¯Â¯
Ä· Ãĥ
Ä¯ Äĳ
ĠÂ¯Â¯Â±Â¯Â¯ Ã·Â¯Â¯
ĠÂ¯Â¯Â·Â¯ ÃĹÂ¯Â¯Â¯
ĠÂ¯Â· Â´Â¯
Â±Â¯Â¯ Â·
Ä¯ Ä¹
ĠÂ¯Â¯Â¯Â°Â¯ ÃĹÂ¯Â¯
Ä¿ Ä¯
Å¯ Âµ
ĠÂ¯Â¯ÃĹ Â¯Â¯Â¿Â¯Â¯
Â¯Â¯Â¯ Â¿Â°Â¯
Ġ Â°Â¯
Â°Â¯Â¯ Â´Â¯Â¯
ĠÂ¯Â¯Â¿Â° Â¸Â¯Â¯Â¯
ĠÂ¯Â¯Â¯Â¯Â¯Â¯Â¯ Â°
Â¯Â¯Â· Â±Â¯
Â¯Â¯Â¯ Â°Â°Â¯
ĠÂ¯Â¯Â· Â¯Â¯Â¯Â·Â¯
Â·Â¯ Â·Â¯Â¯Â¯
Â¯Â¯Â¯Â¯Â¯ Â±Â¯
ĠÂ¯Â¯Â°Â¯Â¯ Â±Â°Â¯
ĠÂ¯Â¯Â° Â±Â¯Â¯Â¯Â¯
Ä¿ Ã¯
ĠÂ¯Â¯Â·Â° Â¿Â±Â¯Â¯
ĠÂ¯Â¯Â¸ Â¯Â±Â¯Â¯Â¯
ĠÂ¯Â¯ÃĹÂ° Â¿Â¯Â¯Â¯
ĠÂ¯Â¯Â· Â´
ĠÂ¯Â¯Â¿Â¯ Â¿Â·Â¯Â¯
ĠÂ¯Â¯ÃĹ Â¯Â¿Â°Â¯Â¯
Â¶ Â¯
ĠÂ¯Â¯Â·Â¯Â¯ Â·
Â» Â¯Â¯Â¯Â¯Â¯
ĠÂ¯Â¯Â¿ Â°Â¯Â¿Â¯Â¯
ĠÂ¯Â¯Ã· Â´Â¯
Ã¯ Åĥ
ĠÂ¯Â¯Â¿Â¯ Ã·Â¯Â¯Â¯
Â¯ Â°Â¯Â¯Â¯Â¯Â¯
ÃĹ Â±Â¯
ĠÂ¯Â¯Â°Â¯ Â¿
ĠÂ¯Â¯Â¯Â¿ Â¿Â¯Â¯Â¯
ĠÂ· Â·Â¯Â¯
ĠÂ¯Â¯Â· Â·Â¯Â¯Â¯Â¯
ĠÂ¯Â¯Â¯Â¯Â¯Â° Â±Â¯
Ä¿ Ãı
Ã³ Ãı
ĠÂ¯Â¯Ã· Â°Â¯Â°Â¯Â¯
Ãı Ã¹
Â¿Â¯ Â·Â°Â¯Â¯
Â·Â¯ Â°Â¯Â¯Â¯
ĠÂ¯Â¯Â¯Â¯Â± Â¿Â¯Â¯
ĠÂ¯Â·Â¯Â¯ Â·
ĠÂ¯Â´ Â¯Â¯Â¯Â¯Â¯Â¯
ĠÂ¯ÃĹ Â±Â¯Â¯
Ãı Ã´
ĠÂ¯Â¯Â· Â°Â¯Â°Â¯Â¯
ĠÂ¯Â¿Â·Â¯Â¯ Â¿Â¯Â¯
ĠÂ¯Â¸ Â¯Â¯Â¯Â¯Â¯Â¯
Ã º
Â¯Â¯Â· Â·Â¯
ĠÂ¯Â¯Â¯Â¯Â¯ Â¶Â¯Â¯
ĠÂ¯Â¯Ã· Â¯Â¿Â¯Â¯Â¯
ĠÂ¯Â¯Â±Â° Â¿Â·Â¯Â¯
ĠÂ¯Â¯Â¯Â¯Ã· Â±Â¯Â¯
ĠÂ¯Â¯Â·Â¯ Â¿Â°Â¯Â¯
ĠÂ¯Â±Â°Â¯Â¯ Â±Â¯Â¯
ĠÂ¯Â¯Â¿Â¯ Â¿
ĠÂ¯Â±Â¯Â¯Â¯ Â´Â¯Â¯
ĠÂ¯ Â´Â¯Â¯
ĠÂ¯Â¯Â±Â¯Â¯ Â¸Â¯Â¯
Åı Ã±
Ã¯ Äģ
Ã¯ ÃĽ
ĠÂ¯Â¯Â¯Â·Â¯Â¯ Â°Â¯
ĠÂ¯ Â¸Â¯Â¯
ĠÂ¯Â¯Â¯Â´Â¯ Â°Â¯Â¯
Ġ Â´
Å¯ Ãģ
Â± Â°
ĠÂ¯Â¿ Â´Â¯Â¯Â¯Â¯Â¯
ĠÂ¯Â¿ Â¸Â¯Â¯
ĠÂ¯Â¯Ã· Â¯Â¯Â·Â¯Â¯
Â¯Â· Â¿Â¯Â¯
ĠÂ¯Â¯Â¯Â¯Â¯Â· Â´Â¯
Ãı Ãĺ
ĠÂ¯Â¯Â·Â¯ Â°Â°Â¯Â¯
Ã¯ Ãł
Â¿ Â°
Åı Ãĳ
ĠÂ¯Â¯Â¯Â° Â¿Â°Â¯Â¯
ĠÂ¿ Â¿Â¯
Â¸Â¯ Â°Â¯Â¯
ĠÂ¯Â¯Â¯Â° Â·
ĠÂ¯Â¯Â· Â·
Ã¯ Äĥ
Â¿ Â·Â¯Â¯Â¯Â¯Â¯
ĠÂ¯ÃĹÂ¯Â¯Â¯ Â¿Â¯Â¯
ĠÂ¯Â¯Ã· Â°Â¯Â¿Â¯Â¯
ĠÂ¯Â¿Â¯Â¯Â¯ Â´Â¯Â¯
Ġ Â±Â¯Â¯Â¯
Â°Â¯Â¯ Â·Â¯
ĠÂ¯Â¯Â¯Â± Â±Â¯Â¯Â¯
ĠÂ´ Â¯Â¯Â¯Â¯Â¯Â¯Â¯
Â¿Â¯Â¯Â¯ Â±Â¯Â¯
Ġ Â·Â¯Â¯
Åı Ã³
ĠÄ¯ Ã¹
Â± Â°Â¯Â¯Â¯Â¯
Ä¿ Ã±
ĠÂ¯Â±Â¯Â¯ ÃĹÂ¯Â¯Â¯
ĠÂ¯Â¯Â°Â¯Â¯Â¯ Â·Â¯
ĠÂ¯Â¯ÃĹ Â¯Â·Â°Â¯Â¯
Ä ĭ
ĠÂ¯Â¯Â¸ Â¯Â¯Â·Â¯Â¯
ĠÂ¯Â¯Â¯Â¯ÃĹ Â´Â¯Â¯
ĠÂ¯Â¿Â·Â¯Â¯ Â·
Ä Ī
ĠÂ¯ÃĹ Â°Â¯
Å ĭ
Â± Â¿Â°Â¯Â¯
Â¯ Ã·Â¯Â¯
Ä¿ Âµ
ĠÂ¯Â¯Â¯Â¯Â° Â·Â¯Â¯
ĠÂ¯Â¯ÃĹ Â´
Â¯Â· Â°Â¯
Ä¯ Ã´
Â¿ Â·Â¯Â¯Â¯
Â¯Â¿ Â¿Â¯Â¯
ĠÂ¯Â¯Â¸ Â¯Â¯Â±Â¯Â¯
Â¯Â¯Â¯ Â±Â±Â¯
Ä° Ãĵ
Ã¿ Ã¯
Â· Â°Â¯Â¯Â¯Â¯
ĠÂ¯Â¯Â¯Â· Â·Â¯Â¯Â¯
ĠÂ¯Â¯Â·Â° Â¿Â¯Â¯Â¯
Ġ Â°
Â¯ Â±Â¯Â¯Â¯Â¯Â¯
ĠÂ¯Â¯Â¿ Â°Â¯Â·Â¯Â¯
Ã ĸ
Â°Â¯ Â±Â¯Â¯Â¯
ĠÂ¯Â¯Ã· Â±Â¯Â±Â¯Â¯
Ä° Ãı
ĠÂ¯Â¯Â±Â¯Â¯ Â·Â°Â¯
ĠÂ¯Â¯Â¿ Â±Â¯Â±Â¯Â¯
Â°Â¯Â¯ Â±Â°Â¯
ĠÂ¯Â¯Â¯Â° Â°Â¯Â¯Â¯
ĠÂ¯Â¯Â¯Â¯ Â´
Â° Â±Â¯
ĠÂ¯Â¯Ã· Â±Â¯Â·Â¯Â¯
ÃĢ Ä¯
ĠÂ¯Â¯Â¯Â¯Â° Â¿Â¯Â¯
Ä° Ãĥ
ĠÂ¯Â¯Â°Â¯Â¯ Â·
Ä¯ Ãķ
Å ¹
ĠÂ¯Â±Â°Â¯ ÃĹÂ°Â¯Â¯
Ġ Â¸
Ä¿ Ãĥ
Â¯ Â»
ĠÂ¯Â¯ÃĹ Â´Â¯
Â¯ Â°Â°Â¯
Â¿Â¯Â¯Â¯ Â°Â¯
ĠÂ¯Â¯ÃĹ Â±Â¿Â¯Â¯Â¯
ĠÂ· Â·Â¯Â¯Â¯Â¯Â¯Â¯
Â±Â¯Â¯ ÃĹÂ¯Â¯
Äı ÃĢ
Â¯Â¯ ÃĹÂ°Â¯
Â¿Â¯Â¯Â¯ Â±Â¯
ĠÂ¯Â±Â°Â¯ Â¿Â¯Â¯Â¯
ĠÂ¯Â¯Â¯Â¸Â¯ Â±Â¯Â¯
ĠÂ¯Â· Â´Â¯Â¯Â¯Â¯Â¯
ĠÂ¯Â¯Â¯Â·Â¯ Â´Â¯Â¯
Â°Â¯ Â´Â¯Â¯
Ä¯ Ãµ
Ãı ÃĻ
Ä ĺ
Â´Â¯Â¯ Â·Â¯Â¯
ĠÂ¯Â¿Â¯Â¯ Â¿Â±Â¯Â¯
Ãģ Ä¯
ĠÂ¯Â· Â·Â¯Â¯
Ä ¼
ĠÂ¯Â±Â°Â¯Â¯ Â´Â¯Â¯
Â¸Â¯Â¯ Â°Â¯
Ġ Å¯
Â¯Â¯ Â°Â°Â¯Â¯
Åı Ä±
ĠÂ¯Â¯Â¯Â°Â¯Â¯ Â·Â¯
Â±Â¯ Â¿Â·Â¯
ĠÂ¯Â¿ Â¸Â¯Â¯Â¯Â¯Â¯
ĠÂ¯Â°Â¯Â¯Â¯Â¯ Â±Â¯
ĠÂ¯Â¯Â¿ Â¸Â¯Â¯Â¯Â¯
Â¯Â· Â·Â¯Â¯
Â¯Â¯ Â»Â¯Â¯Â¯
Â¯Â¯Â¯Â¯ Â´Â¯
ĠÂ¯Â¿Â¯Â¯ Â·
Â¯Â¯ Â·Â¯Â¯Â¯Â¯Â¯
Ä¯ Äĩ
ĠÂ¯Â¯Â¯Â´Â¯ Â¿Â¯Â¯
Ã Ĩ
ĠÂ¯Â¯Â¿Â¯ ÃĹÂ°Â¯Â¯
Â±Â¯Â¯ Â´Â¯Â¯
ĠÂ¸ Â¯Â¯Â¯Â¯Â¯Â¯Â¯
Ãı Ãħ
Ã¿ Ä¯
Â¿Â¯ Â´Â¯Â¯Â¯
ĠÂ¯Â¯Â¯Â¯ Â±Â¯
Â±Â¯ Â¸Â¯Â¯
Â·Â¯Â¯Â¯ Â°Â¯
ĠÂ¯Â¯Â¸ Â¯Â¯Â°Â¯Â¯
Â¯Â± Â±Â¯Â¯
ĠÂ¯Â· Â±
ĠÂ¯Â·Â¯Â¯ Â±Â°Â¯Â¯
ĠÂ¯Â¯ÃĹ Â¯Â¯Â¯Â°Â¯
Åı Ã¿
ĠÂ¯Â¯Â±Â¯ Â±Â°Â¯Â¯
Ġ Ä¿
Â° Ã·Â¯Â¯Â¯
Â¯Â¯Ã· Â´Â¯Â¯
ĠÂ¯Â±Â°Â¯ ÃĹÂ¯Â¯Â¯
ĠÂ¯Â¯ÃĹ Â¯Â¿Â·Â¯Â¯
Â±Â¯Â¯ Ã·Â¯Â¯
ĠÂ¯Â¯ Â»Â¯Â¯
Â±Â¯Â¯Â¯ Â·Â¯
ĠÂ¯Â¯Â´ Â¯Â¿Â¯Â¯Â¯
ĠÂ¯Â¯Ã· Â´Â¯Â¯Â¯Â¯
ĠÂ¯Â¯Â¯Â°Â¯ Â´Â¯Â¯
ĠÂ¯Â¿Â·Â¯Â¯Â¯ Â°Â¯
ĠÂ¯Â¯Â± Â±Â¯
ĠÂ¯Â¯Â·Â¯Â± Â±Â¯Â¯
Ã¯ ÃĴ
Â± Â¿Â±Â¯Â¯
ĠÂ¯Â¯Â¿Â¯Â¯ ÃĹÂ¯Â¯
ĠÂ¯Â¯Ã· Â¯Â¯Â°Â¯Â¯
ĠÂ¯Â¯Â¿Â° Â·Â¯Â¯Â¯
ĠÂ¯Â¯ÃĹÂ¯ Â°Â¯Â¯Â¯
ĠÂ¯Â¿Â°Â¯Â¯ Â°Â¯Â¯
ĠÂ¯Â¯Â¯Â¿ Â°Â¯Â¯Â¯
ĠÂ¯Â¯Â·Â¯ Ã·Â°Â¯Â¯
ĠÂ¯Â±Â¯Â¯ Â·Â°Â¯Â¯
ĠÂ¯Â¯ÃĹ Â°Â¯Â¯Â°Â¯
ĠÂ¯Â· Â´Â¯Â¯
Ä· Ä¯
ĠÃı Ã¯
Â° Â±Â¯Â¯
Ä ¡
Â¯Â¯Â¯Â· Â´Â¯
ĠÂ¯Â¯Â¿ Â¸Â¯
ĠÂ¯Â° Â±Â¯Â¯Â¯Â¯Â¯
Ãı Ä¿
ĠÂ¯Â° Â°Â¯Â¯Â°Â¯Â¯
ĠÂ¯Â¯Ã· Â°Â¯Â¯Â°Â¯
ĠÂ¯Â·Â¯Â¯ Â·Â°Â¯Â¯
Â¯ Â¸Â°Â¯Â¯
Â¯Â¯Â¿ Â¿Â¯
Â¿Â¯Â¯Â¯ Â°Â¯Â¯
Ã¿ Ã±
Â¿Â¯ ÃĹÂ¯Â¯Â¯
Ä £
Â¯Â¯Â¯ Â»Â¯Â¯
Åı Ãĩ
ĠÂ¯Â¯Â¯Â¯Â° Â´Â¯Â¯
ĠÄ¯ Ã¿
ĠÂ¯Â¿Â¯Â¯ Â·Â°Â¯Â¯
ĠÂ¯Â¯Â±Â¯ Â·Â°Â¯Â¯
ĠÂ¯Â¯Â¯Â¯ Â°Â¯
Â°Â¯ ÃĹÂ¯Â¯
Ã· Â±Â¯
ĠÂ¯Â¿Â·Â¯ Â·Â¯Â¯Â¯
ĠÂ¯Â¯Â¿Â¯ Â»Â¯Â¯Â¯
Ã· Â´Â¯
Ã¿ Ãģ
Ã¯ Ãħ
ĠÄ¯ Ã±
ĠÂ¯Â¯Â±Â° Â¿Â±Â¯Â¯
Â¿Â¯Â¯ Â±Â°Â¯
ĠÂ¯Â¯Â· Â±Â¯Â°Â¯Â¯
ĠÂ¯Â¯Â¯Â°Â¯ Â¸Â¯Â¯
Â¯Â¯Â¯ ÃĹ
Ä· Ãģ
ĠÂ¯Â±Â°Â¯ Â°Â¯Â¯Â¯
ĠÂ¯Â± Â·Â¯Â¯Â¯Â¯Â¯
Â´Â¯ Â±Â°Â¯
ĠÂ¯Â¯Â¯Â¯Â¯Â¯Â¯ Â±
ĠÂ¯Â¯Â¯Â¯ Â¸
ĠÂ¯Â¯Â¿Â° Â¿Â¯Â¯Â¯
Â´Â¯ Â·
ĠÂ· Â·Â¯Â¯Â¯
Â·Â¯Â¯ Â°Â¯
ÃĹ Â°Â¯Â¯Â¯Â¯
ĠÂ¯Â¯Â¯Â° Â±Â¯Â¯Â¯
Ãĥ Ã¯
Å Ĵ
ĠÂ¯Â¯Â´Â¯ Â°Â¯Â¯Â¯
Â¿Â¯Â¯ Â¿Â¯Â¯Â¯
Â¿ Â±
ĠÃı Ãģ
ĠÂ¯Â¯Â¿Â¯ Â±Â´Â¯Â¯
Ã· Â°Â¯Â¯Â¯Â¯
ĠÂ¯Â±Â¯Â¯ Â·
ĠÂ¯Â¯ Â¶
ĠÄ¯ Ãĵ
ĠÂ¯Ã· Â°Â¯
ĠÂ¯Â· Â°Â¯Â¯Â·Â¯Â¯
ĠÂ¯Â¯Â±Â°Â¯ Â°Â¯Â¯
ĠÂ¯Â¿ Â±Â¯Â¯Â·Â¯Â¯
ĠÂ¯Â±Â°Â¯ Â·Â°Â¯Â¯
ĠÂ¯Â¿Â¯Â¯Â¯ Ã·Â¯Â¯
Ä± Ãĵ
ĠÂ¯ÃĹ Â±Â¯Â¯Â¯Â¯Â¯
ĠÂ¯Â¯ÃĹ Â±Â¯Â¿Â¯Â¯
ĠÂ¯ÃĹ Â´Â¯Â¯
Â¿ Â¿Â¯Â¯Â¯
ĠÂ¯Â¯Â¯Â°Â¯ Â·
ĠÂ¯Â¯Â¯Â¯ÃĹ Â¿Â¯Â¯
Ä¿ Ãĳ
ĠÂ¯Â¯Â· Â´Â¯Â¯Â¯Â¯
Å¯ Ã¯
ĠÂ¯Â¯Â¯Â° Ã·Â¯Â¯Â¯
ĠÂ¯Â¯Â¯ Â»Â¯Â¯Â¯Â¯
ĠÂ¯Â¯Â¿ Â±Â¯Â·Â¯Â¯
ĠÂ¯Â¿Â¯Â¯ ÃĹÂ¯Â¯Â¯
ĠÂ¯Â¿ Â±Â¯Â¯Â±Â¯Â¯
Ã° Ãı
Ġ Ä·
ĠÂ¯Â¯Â· Â·Â¯
ĠÂ¯Â¯Â¯Â± Â¿Â·Â¯Â¯
ĠÂ¯Â¿Â¯Â¯ Â¿
ĠÂ¯Â¯ÃĹ Â°Â¯Â¿Â¯Â¯
Â±Â¯Â¯ Â¿Â¯
Ãı Åı
Ã¯ Ä¹
Ä¯ ÃĽ
Â¯Â¯Â¯Â· Â±Â¯
ĠÄ¯ Ãģ
ĠÄ¯ Ã³
ĠÂ¯Â¯Â¯Â¿ Â±Â¯Â¯Â¯
ĠÂ¯Â¯Â¿Â·Â¯ Â¿Â·Â¯
ĠÂ¯Â¯Â¯ Â´Â¯Â¯
ĠÄ¯ Ä¿
ĠÂ¯Â¯Â¯Â±Â¯ Â±Â°Â¯
Ã¯ Ãī
ĠÂ¯Â¿Â¯Â¯ Ã·Â¯Â¯Â¯
ĠÂ¯Â¯Â¯Â· Â¿Â¯Â¯Â¯
Ä· Ãı
ĠÂ¯Â± Â°Â¯Â¯Â¯
Ä° Ä¯
Åı ÃĢ
Â¯Â¯Â¯Â¯ Â´Â¯Â¯
Ġ Ãģ
Â¿Â¯Â¯ Â´Â¯Â¯
ĠÂ¯Â¯Â°Â¯ ÃĹ
Â·Â¯Â¯ Â±Â¯
ĠÂ¯Â¯Â°Â¯Â¯ Â·Â°Â¯
ĠÂ¯Â¯Ã·Â° Â¿Â·Â¯Â¯
Â¯Â¿ Â·Â¯Â¯Â¯
Â´Â¯Â¯ Â°Â¯Â¯
ĠÂ¯Â¯Â¸Â¯ Â°Â¯Â¯Â¯
ĠÂ¯Â¯Â°Â¯Â· Â±Â¯Â¯
Â¿Â¯ Â¿Â±Â¯Â¯
Â¿Â¯Â¯Â¯ Â·Â¯Â¯
Âµ Ã¯
Â¿ Â°Â¯Â¯Â¯
ĠÂ¯Â¯Â¯Â±Â¯Â¯ Â·Â¯
Â¿ Â°Â¯Â¯Â¯Â¯
Äı Ãı
ĠÂ¯Â°Â°Â¯ Â±Â°Â¯Â¯
ĠÂ¯Â¯Â°Â¯Â¯Â¯ Â¿Â¯
ĠÂ¯Â°Â°Â¯ Â±Â¯Â¯Â¯
ĠÂ¯Â¿Â°Â¯Â¯ Â¸Â¯Â¯
ĠÂ¯Â¯Â¯Â¯Â¯ÃĹ Â±Â¯
Â° Â·Â°Â¯Â¯
Åı Ä³
ĠÂ¯Â¯Â¯Â¯Â¿Â¯ Â°Â¯
Â¯Â¯Â¯ ÃĹÂ°Â¯
ĠÂ¿ Â¿
ÃĹ Â°
Ġ Â¿Â¯Â¯Â¯Â¯Â¯
Å §
ĠÂ¯Â¯Â´Â¯ ÃĹÂ¯Â¯Â¯
Æ Ĺ
Ãĳ Ä¯
Â¸ Â¯Â¯Â·Â¯Â¯
ĠÂ¯Â¯ÃĹ Â´Â¯Â¯Â¯Â¯
ĠÂ¯Â·Â¯Â¯ Ã·Â¯Â¯Â¯
ĠÂ¯Â±Â°Â¯ Ã·Â¯Â¯Â¯
ĠÃı Ä¯
Â¶ Â¯Â¯Â¯
Â± Â°Â¯Â¯Â¯
Â±Â¯ ÃĹÂ¯Â¯
ĠÂ¯Â¿ Â¯Â¯Â¯Â¯Â·Â¯
Â°Â¯ Â¸Â¯Â¯
Ä° Ãģ
Â¯Â· Â·Â¯
ĠÃ¯ ÃĲ
Â·Â¯ Â´Â¯Â¯
Ä¯ ÃĶ
Ä± Ã¯
ĠÂ¯Â¯Ã· Â¯Â¯Â¿Â¯Â¯
ĠÂ¯Â¿Â¯Â¯Â¯ Â¸Â¯Â¯
ĠÂ¯Â¯Â¿Â¯ Â¿Â°Â¯Â¯
ĠÂ¯Â¯ÃĹÂ°Â¯ Â±Â°Â¯
ĠÂ¯Â¯Â¯ Ã·
Ã³ Ã¯
ĠÂ¯Â¯Â±Â°Â¯ Â¿Â¯Â¯
Ã¯ ÅĲ
ĠÂ¯Â· Â°Â¯Â¯Â°Â¯Â¯
ĠÂ¯Â¯Â· Â¯Â¯Â¯Â¿Â¯
Ã¿ Ãĳ
ĠÂ¯Â¯ÃĹ Â¯Â¿Â±Â¯Â¯
Â° ÃĹ
ĠÂ¯Â± Â±Â¯Â¯Â±Â¯Â¯
ĠÂ¯Â¯Â¯Â¸Â¯ Â·Â¯Â¯
Â¯Â° Â´Â¯Â¯
ĠÄ¯ Ãĥ
ĠÂ¿Â·Â¯Â¯Â¯ Â°Â¯Â¯
ĠÂ¯Â¯Â¯Â± Â·
ĠÂ¯Â¯Â¯Â¯Â¯Ã· Â±Â¯
ĠÂ± Â°Â¯Â¯Â¯Â¯Â¯Â¯
Â¯Â¯Â¯ Â¿Â·Â¯Â¯
Â¯Â¯Â¯Â· Â·Â¯
Ä³ Ãı
Â¿ Â¿Â¯Â¯
Ä¯ ÅŁ
Ä¯ Åĳ
ĠÂ¯Â¿Â¯Â¯Â¯ Â·
Ġ Â±Â°Â¯Â¯
Æ ĩ
ĠÂ¯Â¯Â¿Â¯Â¯ Â·
Â¯Â¯Â¯ Ã·Â°Â¯
ĠÂ¯Â¯Â±Â¯Â¯Â¯ Â¿Â¯
ĠÂ¯Â· Â¯Â¯Â¯Â¯Â·Â¯
ĠÂ¯Â± Â¿Â¯Â¯Â¯Â¯Â¯
Â¿Â¯Â¯ Â·
Å ļ
ĠÂ¿ Â¯Â¯Â¯Â¯Â°Â¯Â¯
ĠÂ¯Â¿Â°Â¯ Â¿Â¯Â¯Â¯
Â¿ Â¸Â¯
ĠÂ¯Â¯Â¯Â± Â°Â¯Â¯Â¯
Ãı Ä´
ĠÂ¯Â¯Â· Â°Â¯Â¿Â¯Â¯
ĠÂ¯Â¿Â·Â¯Â¯ ÃĹÂ¯Â¯
ĠÂ¯Â± Â±Â¯Â¯Â·Â¯Â¯
ĠÂ¯Â¯Â´Â¯Â¯Â¯ Â°Â¯
ĠÂ¯Â¯Â¯ Â´Â¯Â¯Â°Â¯
Ä¿ Ä³
ĠÂ¯Â¿ Â±Â¯Â¯Â¿Â¯Â¯
ĠÂ¯Â¯Â¿Â¯Â¯ Â¿Â·Â¯
ĠÂ¯Â¯Â¯Â±Â¯ Â¸Â¯Â¯
ĠÂ¯Â¯Â±Â¯ Â¸Â¯Â¯Â¯
ĠÂ¯Â¿Â¯Â¯ Â±Â°Â¯Â¯
ĠÃ¯ Ãĳ
ĠÂ¯Ã· Â´Â¯Â¯
Ġ Äı
Â¿ Â±Â¯Â¯Â¯Â¯
ĠÂ¯Â·Â¯Â¯ Â±Â´Â¯Â¯
ĠÂ¯Â¯Â¯Â¯ÃĹ Â·Â¯Â¯
ĠÂ¯Â¯Â°Â¯ Ã·Â°Â¯Â¯
Â¯Â¯Â· Â´Â¯
Â·Â¯ Â¿Â±Â¯Â¯
ĠÄ¯ Åĥ
Äı Ãĥ
ĠÂ¯Â¿ Â´Â¯
Â¯Â¯Â¿ Â´Â¯Â¯
ĠÂ¯Â¯Â¯Â°Â¯ Ã·Â¯Â¯
Ã ¶
ĠÂ¯Â¯ÃĹ Â¯Â¯Â¯
Â°Â¯Â¯Â¯ Â¿Â¯
Â° Â´Â¯Â¯Â¯
Â¯Â¯Â·Â¯ Â±Â¯Â¯Â¯
Â¯Â¯ Â°Â¯Â¯Â¯Â¯
Ġ Ä°
Ä¯ Ä°
ĠÂ¯Â¯Â¯Â±Â¯ ÃĹÂ¯Â¯
Å¯ Ã±
Â´ Â¯Â·Â¯Â¯Â¯
ĠÂ¯Â¯Â¸ Â¯Â¿Â¯Â¯Â¯
Â¯Â¯ÃĹ Â±Â¯Â¯
ĠÂ¯Â» Â¯Â¯Â¯Â¯Â¯Â¯
ĠÂ¯Â¯Â· Â´Â¯
ĠÂ¯Â¯Â°Â¯ Ã·
Ä¿ Ã³
ĠÂ¯Â° Â¿Â¯Â¯Â¯Â¯Â¯
ĠÂ¯Â¿Â·Â¯ Â±Â¯Â¯Â¯
ĠÂ¯Â¿Â¯ Â°Â¯Â¯Â¯Â¯
ĠÂ¯Â¯ÃĹ Â¯Â¯Â´Â¯Â¯
Â¿ Â±Â¯Â¯Â¯
ĠÂ¯Â·Â¯Â¯ Â¿Â·Â¯Â¯
Ã Į
ĠÂ¯Â¯Â¯ Â»
ĠÂ¯Â¯Ã· Â¯Ã·Â¯Â¯Â¯
ĠÂ¯Â¯Â°Â¯Â¯ Ã·Â¯Â¯
Ã Ŀ
ĠÂ¯ Â¸Â¯Â¯Â¯
Â·Â¯Â¯ Ã·Â¯Â¯
ĠÂ¯Â° Â±Â¯
ĠÂ¯Â¯Ã· Â¯ÃĹÂ¯Â¯Â¯
ĠÂ¯Â¯Â¿Â´Â¯ Â°Â¯Â¯
Å Ī
Â¸ Â¯Â¿Â¯Â¯Â¯
ĠÂ¯Â°Â°Â¯ Â·Â¯Â¯Â¯
Â¯Â¯Ã· Â°Â¯
ĠÂ¯Ã· Â¯Â¯Â¯Â±Â¯Â¯
ĠÂ¯Â¯Â¯Â± Â¿Â°Â¯Â¯
Â¸Â¯Â¯Â¯ Â°Â¯
ĠÂ¯Â¯Â°Â¯ Â¿Â°Â¯Â¯
Å¯ Ãĵ
ĠÂ¯Â±Â°Â¯ ÃĹ
Ä¯ ÄĢ
ĠÂ¯Â¯Â¯ Â¶
Â¯ Â±Â±Â¯
ĠÂ¯Â° Â·Â¯Â¯Â¯Â¯Â¯
Â° Â±Â¯Â¯Â¯
Â¯Â¯Â¯Â¯Â¯ Â·Â¯
ĠÂ¯Â¯Â·Â¯Â± Â¸Â¯Â¯
Ãĥ Ãı
ĠÂ¯Â¯Â¿Â´Â¯ Â¿Â¯Â¯
ĠÂ¯Â°Â¯Â¯Â¯ Â´Â¯Â¯
ĠÂ¯Â¯Â¯ Â¿Â¯Â¯
Â¿Â¯ Â¿Â·Â¯Â¯
Ġ Â°Â¯Â¯Â¯
ĠÂ¯Â¯Â·Â¯Â¯ Â·Â°Â¯
ĠÂ¯Â¯Â¿Â¯Â¯ Â¸Â¯Â¯
Â¯Â¯Â¯ ÃĹÂ¯Â¯Â¯
ĠÃ¯ Ã¯Ãı
ĠÂ¯Â¯Â¯Â·Â¯Â¯ Â·Â¯
ĠÂ¯Â¯Â¸Â¯ Ã·Â¯Â¯Â¯
Æ Ł
Â° Â°Â¯Â¯Â¯
Å ķ
ĠÂ¯Â¯ÃĹÂ° Â¿Â·Â¯Â¯
ĠÂ¯Â¯Â¿Â¯Â¯Â¯ Â¿Â¯
ĠÂ¯Â¿Â°Â¯Â¯ Â±Â¯Â¯
Â±Â¯Â¯ Â¿Â·Â¯
ĠÂ¯Â¯Â¯Â¯Â± Â¸Â¯Â¯
Ġ Ã·
Â·Â¯ Â·
Â±Â¯Â¯ Â·Â°Â¯
Â°Â¯ Â°Â¯Â¯Â¯
Ġ Â±Â¯Â¯
ĠÄ¯ Ä·
ĠÂ¯Â¯Â¿Â·Â¯ Â¿Â¯Â¯
Ä¯Ã¯ Ãı
Â¯Â¯Â¯Â¿ Â¿Â¯
ĠÂ¯Â¯Ã·Â°Â¯ Â±Â°Â¯
ĠÂ¯Â·Â°Â¯ Â±Â¯Â¯Â¯
Â°Â¯Â¯ Â·
Â± ÃĹÂ¯Â¯Â¯
Â¯Â¯Â¯ Â¸Â¯
Â¿Â¯ Â¿
ĠÂ¯Â¯Â±Â° Â¿
Â± Â·Â¯
ĠÂ¯Â± Â°Â¯Â¯Â¯Â±Â¯
Ä §
Ãı Ä·
Â°Â¯Â¯ Â¿Â¯
Â· Â·Â¯Â¯Â¯
Ä¯ Å¯
Â¯Â¯ÃĹ Â´Â¯Â¯
Â± Â·Â¯Â¯
ĠÂ¯Â¯Ã· Â±Â¿Â¯Â¯Â¯
Â´Â¯ Â±Â¯Â¯Â¯
Ã «
Å ľ
Â¿Â¯Â¯ Â¿Â·Â¯
ĠÂ¯Â¯Â±Â¯Â¯ Â¿Â°Â¯
ĠÂ¯Â¿Â¯Â¯ Â¿Â°Â¯Â¯
ĠÂ· Â·
ĠÂ¯Â¯Ã· Â¸
ĠÂ¯Â¯Â´Â¯Â¯Â¯ Â±Â¯
Ä³ Ä¯
ĠÂ¯Ã·Â°Â¯Â¯ Â·Â¯Â¯
Ä ½
Ġ Ãĵ
Â·Â¯ Â¿
ÅĹ Âµ
Â¿Â¯Â¯ Â¿Â·Â¯Â¯
ĠÂ¯Â¯Â¯Â¯ Â¸Â°Â¯Â¯
ĠÂ¯Â·Â¯Â¯Â¯ ÃĹÂ¯Â¯
Ã¿ ÃĲ
ÃĹ Â¯Â¿Â¯Â¯Â¯
Ã³ ÃĻ
ĠÂ¯Â¯ÃĹÂ¯ Ã·Â¯Â¯Â¯
ĠÂ¯Â¿Â¯Â¯ Ã·Â°Â¯Â¯
Â¯Â¿ Â±Â¯
ĠÂ¯Â¯Ã· Â¯Â·Â¯Â¯Â¯
ĠÂ¯Â· Â°Â¯Â¯Â±Â¯Â¯
Â´ Â±Â¯
ĠÂ¯Â¯Â°Â¯Â· Â´Â¯Â¯
ĠÂ¯ Â´Â¯Â¯Â¯
Â¸Â¯ Â±Â°Â¯
ĠÂ¯Â°Â°Â¯ Â°Â¯Â¯Â¯
Ã ¼
Â¯Â¿ Â¿Â¯Â¯Â¯
ĠÂ¯Â±Â±Â¯ Â¿Â¯Â¯Â¯
Â·Â¯ Â·Â°Â¯Â¯
Ġ ÃĹ
ĠÂ¯Â¯Ã· Â¯Â¿Â±Â¯Â¯
Â·Â¯Â¯ Â·Â°Â¯
ĠÂ¯Â¯Â±Â¯ Ã·Â¯Â¯Â¯
Â¯Â· Â±Â¯
ĠÂ¯Â±Â°Â¯ Â¿Â·Â¯Â¯
Ä ¶
ĠÂ¯Â¿ ÃĹÂ¯Â¯Â¯Â¯Â¯
ĠÂ¯Â· Â¸Â¯
Ġ Âµ
Ã¯ Ä¸
ĠÂ¯Â¯Â¸ Â¯Â·Â¯Â¯Â¯
Â´Â¯Â¯ Â±Â¯
ĠÂ¯Â¿Â¯Â¯ Â´Â¯Â¯Â¯
ĠÂ¯Â±Â°Â¯ Â·Â´Â¯Â¯
ĠÂ¯Â¯Â·Â¯ Â¸Â¯Â¯Â¯
Â´Â¯Â¯ Â±Â¯Â¯
Ã ¥
Å Ĭ
ĠÂ¯Â¯Â¯Â±Â¯Â¯ Â¿Â¯
Å Ĥ
ĠÂ¯Â¯Â´Â¯ Ã·Â¯Â¯Â¯
ĠÂ¯Ã· Â±Â¯Â¯Â¯Â¯Â¯
Â±Â¯ Â±Â°Â¯Â¯
ĠÂ¯Â¯Â¯Â± ÃĹÂ¯Â¯Â¯
ĠÂ¯Â¿Â·Â¯ Ã·Â°Â¯Â¯
Â¿Â¯Â¯Â¯ Â·
ĠÂ¯Â¯Â°Â¯ Â°Â°Â¯Â¯
ĠÃ¯ ÃĶ
Ã ©
ĠÂ¯Â¯Â¯Â¯Â·Â¯ Â°Â¯
Â±Â¯Â¯ Â¸Â¯Â¯
ĠÂ¯Â¿Â·Â¯ Â¿
Ġ ÅıÃģ
ĠÂ¯Â°Â¯Â¯ ÃĹÂ¯Â¯Â¯
Â¿Â¯ Â±Â°Â¯Â¯
Â°Â¯ Ã·Â¯Â¯
Â·Â¯ Â±Â°Â¯
ĠÂ¯Â¿Â±Â¯ Â¿Â¯Â¯Â¯
Â° Â·Â¯Â¯
ĠÂ¯Â¯Â·Â¯ Â·Â±Â¯Â¯
ĠÂ¯Â±Â°Â¯ ÃĹÂ´Â¯Â¯
ĠÂ¿Â¯Â¯Â¯ Â±Â¯Â¯Â¯
Â·Â¯Â¯Â¯ Â±Â¯
ĠÂ¯Â¿Â·Â¯ Â·
ĠÂ¯Â¯Â° Â±Â¯
ÃĲ Ä¯
ĠÂ¯Â¯Â¯Â¯Â¿ Â»Â¯Â¯
Â¯Â¯Â¯Â¯Â¯ Â¿Â¯
Âº Ä¯
ĠÂ¯Â¯Â¯Â¿Â¯ Â·Â¯Â¯
ĠÂ¯Â±Â¯Â¯Â¯ ÃĹÂ¯Â¯
Â± Â±Â°Â¯Â¯
ĠÂ¯Â¯Â±Â¯Â¯ Â¿Â·Â¯
ĠÂ¯Â¯Â¸ Â¯Â¯Â¿Â¯Â¯
Ã· Â¯Â¯Â±Â¯Â¯
ĠÂ¯Â¯Â¯Â± Â¿
ĠÂ¯Â¯Â¶ Â¯Â¯Â¯Â¯Â¯
ĠÃ¯ Ã³
Â» Â±Â¯
ĠÂ¯Â¯Â¯Â·Â¯ Â±Â°Â¯
ĠÂ¯Ã· Â±Â¯Â¯
ĠÂ¯Â°Â°Â¯ Â°Â°Â¯Â¯
Ã¯ ÄĢ
ĠÂ¯Â¯Â· Â±Â¯Â±Â¯Â¯
ĠÄ¯ Ä³
ĠÂ¯Â¯Â± Â¿Â¯Â¯Â¯Â¯
ĠÄ¯ Åģ
ĠÂ¯Â¯Â¿Â¯ Ã·Â°Â¯Â¯
Ã± Ã¯
Ã· Â°
Â± Â´Â¯Â¯Â¯
Ãĵ Ä¯
ĠÂ¯Â¯Â¯Â¯Â¯ Â´Â°Â¯
Ä¯ Ã²
ĠÂ¯Â¯Â¿Â¯Â· Â´Â¯Â¯
ĠÂ¯Â¯Â¯Â¸Â¯ Â¿Â¯Â¯
Ä¯ ÄĻ
ĠÂ¯Â¯Â¿Â¯Â¯ Ã·Â¯Â¯
ĠÂ¯Â¯Â¯Â¯Â» Â°Â¯Â¯
Â±Â¯ Â°Â°Â¯
Â¸ Â¯Â¯Â°Â¯Â¯
Ã¯ Ãķ
Â°Â¯ Â¿Â·Â¯Â¯
ĠÂ¯Â¯Â¿ Â´Â¯Â·Â¯Â¯
ĠÂ¯Â· Â´
Ã³ Ãĳ
Â±Â¯ ÃĹÂ¯Â¯Â¯
Ã¯Ãı Ä¯
Â° Â´Â¯Â¯
Ã¿ Ä°
ĠÂ¯Ã· Â¯
ĠÂ¯Â·Â¯Â¯Â¯ Â±Â°Â¯
ĠÂ¯Â±Â¯Â¯ Â¿Â·Â¯Â¯
ĠÂ¯Ã· Â¯Â¯Â¯Â·Â¯Â¯
Â¿Â¯ Ã·Â¯Â¯Â¯
ĠÂ¯Â±Â°Â¯ Ã·
ĠÂ¯Â¯Â¿Â¯Â¯ Â¿Â±Â¯
ĠÂ¯Â¿ Â¯Â¯Â¯Â¯Â¿Â¯
ĠÂ¯Â¿ Â¿Â¯Â¯
ĠÂ¯ÃĹ Â´Â¯
Â·Â¯Â¯ Â·Â¯
ĠÂ¯Â¯Â¯Â¯Â¯Â¯ ÃĹÂ¯
ĠÂ¯Â¯Â¯ ÃĹ
ĠÂ¯Â·Â¯Â¯ ÃĹÂ°Â¯Â¯
Ä· Äĥ
ĠÂ¯Â¯Â± Â·Â¯Â¯Â¯Â¯
ĠÂ¯Â¿Â·Â¯ Â°Â¯Â¯Â¯
Ġ Ãĥ
Ġ Ã³
Ã¿ Ã°
Â°Â¯ Â¿
ĠÂ¿ Â¯Â¯Â¯Â¯Â±Â¯Â¯
ĠÂ¯Â¯Â¯Â¿Â¯ Â±Â¯Â¯
Â¯Â¯Â¯ Â·Â°Â¯Â¯
Ä± Ã³
Åı Ãī
Ãĵ Ã¯
ĠÂ¯Â±Â¯Â¯ ÃĹÂ°Â¯Â¯
Â± Â°Â¯Â¯Â¯Â¯Â¯
ĠÂ¯Â±Â¯Â¯ Â±Â°Â¯Â¯
ĠÂ¯Â¿ Â±Â¯Â¯Â°Â¯Â¯
ĠÂ¯Â¿Â¯Â¯Â¯ Â·Â°Â¯
ĠÂ¯Â¯Â¯Â·Â¯ Â¿Â·Â¯
Â´Â¯Â¯ Â¿Â¯Â¯
Â¸Â¯Â¯ Â±Â¯
ĠÂ¯Â¯Â¯Â¿Â¯ Â°Â¯Â¯
ĠÂ¯Â±Â¯Â¯ Â¿Â±Â¯Â¯
ĠÂ¯Â¯Â¿ Â´Â¯Â±Â¯Â¯
Â¸ Â¯Â¯Â±Â¯Â¯
Â¿ Â·
Â°Â¯ Â¿Â·Â¯
Å¯ Ãķ
Ã į
Â° Â°
Å¯ ÃĲ
Â¯Â¯Â¯Â¯ Â±Â°Â¯
ĠÂ¯Â¯Â¿Â¯ ÃĹ
Å¯ Ã¹
ĠÄ¯ Ãĳ
ĠÂ¯Â¯Â¯Â· Â±Â¯Â¯Â¯
Â· Â±
ÃĹ Â¯Â¯Â±Â¯Â¯
Ã¯ Ä´
Ä¯ ÃĴ
ĠÂ¯Â¯Â°Â¯ Â´Â¯Â¯Â¯
Ã¯ Äı
Â´Â¯Â¯Â¯ Â±Â¯
Ã· Â·Â¯Â¯
ĠÂ¯Â¿Â´Â¯Â¯ Â·Â¯Â¯
Â¯Â¯ Â±Â¯Â¯Â¯Â¯
Â± Â¿Â¯
Ã¿ Ãĥ
Â¯Â¯Â¯Â¯ Â±Â¯Â¯Â¯
Å¯ ÃĻ
ĠÂ¯Â¯Â¯Â± Â¿Â±Â¯Â¯
Â¯Â± Â·Â¯Â¯
ĠÂ¯Â¯Â¯Â¯Â·Â¯ Â±Â¯
ĠÂ¯Â± Â°Â¯Â¯Â¯Â°Â¯
ĠÂ¯Â¿Â°Â¯Â¯ ÃĹÂ¯Â¯
Ãı ÃŁ
Â¯Â¿ Â±Â¯Â¯Â¯
Ã¿ Âµ
ĠÂ¯Â¯Ã· Â±Â¯Â°Â¯Â¯
Ä¯ ÅĻ
ĠÂ¯Â± Â·Â¯
ĠÂ¯Â·Â¯Â¯ Â¿
ĠÂ¯Â¿ ÃĹÂ¯
Â°Â¯Â¯Â¯ Â·Â¯
ÃĢ Ã¯
ĠÂ¯Â¿Â·Â¯ Ã·Â¯Â¯Â¯
Ġ Â·Â¯Â¯Â¯Â¯Â¯
ĠÂ¯Â¯ÃĹÂ¯ Â±Â°Â¯Â¯
Ä¯ Âº
ĠÂ¯Â¯Â· Â±Â¯Â·Â¯Â¯
ĠÂ¯Â¯Ã·Â¯ Â¸Â¯Â¯Â¯
Ã· Â¯Â¯Â¯Â¯Â¯Â¯
Â´Â¯Â¯Â¯ Â°Â¯
Â¯Â¯Â¯Â¯ Â¸Â¯
Â¿Â¯Â¯ Â±Â¯Â¯Â¯
Â° Â·Â¯
ĠÂ¯Â¯Â¯Â¯Â¯Â¯ Â»Â¯
ĠÂ¯Â¿ Â´
ĠÂ¯Ã· Â¯Â¯Â¯Â°Â¯Â¯
Ã¯ ÅĹ
ĠÂ¯Â· Â·
ĠÂ¯ÃĹÂ°Â¯Â¯ Â·Â¯Â¯
Â± Â¿Â¯Â¯
ĠÂ¯Â¯Â¯Â¸Â¯ Â°Â¯Â¯
Ãĳ Ã¯
ĠÂ¯ÃĹ Â´Â¯Â¯Â¯Â¯Â¯
Â±Â¯ Â¿Â°Â¯Â¯
Â¸ Â¯Â·
Ä¯Ã¯ Ã¯
Ãģ Ã¯
Â¯Â¯ Â´Â°Â¯
ĠÂ¯Â±Â°Â¯Â¯ Â±Â°Â¯
ĠÂ¯Â¯ÃĹÂ°Â¯ ÃĹÂ¯Â¯
ĠÂ¯Â·Â¯Â¯ Â¿Â±Â¯Â¯
ĠÂ¯Â¯ÃĹÂ¯ Â´Â¯Â¯Â¯
Â¿Â·Â¯ Â¿Â¯Â¯Â¯
ÃĹ Â¸Â¯
Â·Â¯ Â¿Â·Â¯Â¯
ĠÂ¯ÃĹÂ¯Â¯Â¯ Â·Â¯Â¯
Â° Â·Â±Â¯Â¯
Ä± Ãģ
ĠÂ¯Â¯Â¯Â°Â¯Â¯ Â¿Â¯
ĠÂ¯Â¯Â¯Â¯Â¯Â¿ Â´Â¯
Å ¸
ĠÂ¯Â·Â¯Â¯ ÃĹ
Å· Âµ
Â¿Â¯Â¯Â¯ Â·Â¯
Â ¾
ĠÂ¯Â¯Â· Â°Â¯Â¯Â°Â¯
Ãĳ Ãı
Â¿Â¯ Â·Â±Â¯Â¯
Â¯Â¿ Â¿Â¯
Ã¿ ÃĢ
ĠÂ¿ Â¯Â¯Â¯Â¯Â·Â¯Â¯
Â° Â¿Â¯
Ä¯ Ãĭ
ĠÂ¯Â¿Â·Â¯Â¯ Â´Â¯Â¯
ĠÂ¯Â¯Â¯Â¿Â¯ Â¿Â¯Â¯
Â±Â¯ Â¸Â¯Â¯Â¯
ÅŁ Ãģ
Ãı ÃĤ
ĠÂ¯ÃĹÂ¯Â¯Â¯ Â±Â¯Â¯
Â¯Â¯Â¯ Â¿Â±Â¯Â¯
ĠÂ¯Â°Â¯Â¯ Â·
ĠÂ¯Â¯Â±Â¯Â¯ Â¿Â±Â¯
Â» Â°Â¯Â¯
Â¯Â± Â¿Â¯Â¯
Â¯Â¯Â¯ Â±Â°Â¯Â¯
ĠÂ¯Â¯Â±Â¯ Â±Â´Â¯Â¯
Ãı Ä¯Ã¯
Â¯Â¿ Â°Â¯
ĠÂ¯Ã·Â°Â¯Â¯ Â°Â¯Â¯
Â° Â¿Â¸Â¯Â¯
Â· Â¿Â¯Â¯Â¯
Ã¯ ÃĤ
Ãı Åĥ
Ä¯ Å¿
Â±Â¯ Â¿Â±Â¯
ĠÂ¯Â¯Â°Â¯Â¯ Â°Â°Â¯
ĠÂ¿Â·Â¯Â¯ Â·Â¯Â¯Â¯
Â¿Â¯Â¯ Â·Â¯Â¯Â¯
ĠÂ¯Â¿Â·Â¯ Â±Â°Â¯Â¯
ĠÂ¯Â¯Â´Â¯Â¯ ÃĹÂ¯Â¯
ĠÂ¯Â¿Â°Â¯Â¯ Â¿Â¯Â¯
Â¯Â¯Ã· Â±Â¯Â¯
ĠÂ¯Â°Â¯Â¯ Â·Â°Â¯Â¯
ĠÂ± Â±Â¯Â¯Â¯Â¯Â¯Â¯
Â° ÃĹÂ±Â¯Â¯
ĠÂ¯Â°Â°Â¯Â¯ Â¿Â¯Â¯
ĠÂ¯Â¿Â·Â¯Â¯Â¯ Â±Â¯
Â¯Â¯Â¯Â¯ ÃĹÂ¯Â¯
ĠÂ¯Â¿ Â¯Â¿Â¯Â¯Â¯Â¯
ĠÂ· Â·Â¯
Â·Â¯Â¯ Â±Â°Â¯
ĠÂ¯Â¯Â¿Â¯Â¯ Â¿Â°Â¯
ĠÂ¯Â¯Â´Â¯ Â·
ĠÂ¿Â¯Â¯Â¯ Â¿Â¯Â¯Â¯
Â·Â¯ Â¸Â¯Â¯Â¯
ĠÂ¯Â¯ÃĹÂ± Â¿Â·Â¯Â¯
ĠÂ¯Â¯Ã· Â°Â¯Â¯
ĠÂ¯Â±Â¯Â¯ Ã·Â¯Â¯Â¯
ĠÂ¯ÃĹÂ°Â¯Â¯ Â°Â¯Â¯
Ã± Ä¯
ĠÂ¯Â±Â°Â¯ Â°Â°Â¯Â¯
Â° Â¿Â¯Â¯
Â±Â¯Â¯ Â¿Â±Â¯
Ãģ Ãı
Â±Â¯Â¯ Â¿Â°Â¯
Ã± Ãģ
ĠÃ¯Ãı Ã¯
ĠÂ¯Ã· Â´Â¯Â¯Â¯Â¯Â¯
Ãı Äĥ
ĠÂ¯Â¯Â¯Â¯Â¿Â¯ Â±Â¯
Â¿Â¯ ÃĹÂ°Â¯Â¯
ĠÂ¯Â¿Â·Â¯ Â¿Â±Â¯Â¯
ĠÂ¯Â¯ÃĹ Â°Â¯Â¯
ĠÂ¯Â¯Â¯Â±Â¯ Â·
ĠÂ¯Â¯Â¯Â¯Â¯Â± Â·Â¯
Â¯ Â´
ĠÂ¯Â· Â¯Â¿Â¯Â¯Â¯Â¯
ĠÂ¯Ã· Â´Â¯
ĠÂ¯Â±Â¯Â¯Â¯ Â¸Â¯Â¯
Ä³ Ãĥ
Â´Â¯ ÃĹÂ¯Â¯
ĠÂ¯Â¯Â° Â¿Â¯Â¯Â¯Â¯
ĠÂ¯Â¯Â¿ Â±Â¯Â¯Â±Â¯
ĠÂ¯Â¯Â°Â¯Â¯ Â»Â¯Â¯
Ä± Ãĥ
ĠÂ¯Â¯Â¯Â¯Â» Â±Â¯Â¯
ĠÂ¯Â¯Â± Â°Â¯Â¯Â°Â¯
ĠÂ¯Â°Â¯Â¯ Â¿Â±Â¯Â¯
ĠÂ¯ÃĹ Â±Â¯
Â¶ Â¯Â¯Â¯Â¯
ĠÂ¯Â¯ÃĹ Â¯Â·
ÃĹ Â¯Â¯Â·Â¯Â¯
ĠÂ¯Â¯Â¯Â°Â¯ Â·Â°Â¯
Â±Â¯Â¯ Ã·
ÅĹ Ã¯
Â± Â¿Â¸Â¯Â¯
Â¿Â¯Â¯ Â¿Â±Â¯
ĠÂ¯Â¯Â» Â¯Â±Â¯Â¯Â¯
ĠÂ¯Â¿Â°Â¯ Â±Â¯Â¯Â¯
Â¯Â¯ÃĹ Â±Â¯
Â¿Â¯Â¯Â¯ Â±Â°Â¯
ÃĹ Â¯Â¯Â¯Â¯Â¯Â¯
Â¯Â¯Â± Â±Â¯Â¯
ĠÂ¯Â¯Â´Â¯ Â¸Â¯Â¯Â¯
ĠÂ¯Â¯Â¸Â¯Â¯ Â´Â¯Â¯
Åı ÃĻ
Ġ Ãĳ
ĠÂ¯Â±Â¯Â¯Â¯Â¯ Â·Â¯
Ä¯ Ä¯Ã¯
ĠÂ¯Â¯Â¯Â¯Â¯Â· Â¸Â¯
ĠÂ¯ÃĹÂ°Â¯Â¯ Â¿Â¯Â¯
Â° Ã·
ĠÂ¯Â±Â¯Â¯Â¯ Â±Â°Â¯
ĠÂ¿ Â¯Â¯Â¯Â¯Â¿Â¯Â¯
Â· Â·
ĠÂ¯Â¯Â¯Â° Â·Â°Â¯Â¯
ĠÂ¯Â¯Â¿ Â¿Â¯Â¯Â¯Â¯
ĠÂ± Â°Â¯Â¯Â¯
Ġ Â°Â¯Â¯
ĠÂ¯Â¯ÃĹ Â¯Â¯Â¯Â±Â¯
ÃĹ Â·Â¯
ĠÂ¯Â° Â°Â¯Â¯Â·Â¯Â¯
Â¿ Â´Â¯Â¯
ĠÂ¯Â¯Â· Â¿Â¯Â¯Â¯Â¯
ĠÄ¯ Äĥ
Ã° Ä¯
Â±Â¯Â¯ Â¿
ĠÂ¯Â· Â¿Â¯Â·Â¯Â¯Â¯
ĠÂ¯Â¯Â¯Â¯Ã· Â·Â¯Â¯
Â±Â¯Â¯Â¯ Â¿Â¯
Åı Ãħ
Ġ ÃŁ
ĠÂ¯Â¯ÃĹÂ° Â¿Â±Â¯Â¯
Â¯ Â°Â¿Â¯Â¯Â¯
ĠÂ¯Â¯Â°Â¯Â¯ Â¿Â·Â¯
ĠÂ¯Â± Â±Â¯Â¯Â°Â¯Â¯
ĠÂ¯Â¯Â´Â¯ Â±Â°Â¯Â¯
ĠÂ¯Â¯ÃĹÂ¯Â¯ Â±Â°Â¯
Â¯Â° Â±Â¯Â¯
ĠÂ¿Â¯Â¯Â¯ Â·Â¯Â¯Â¯
Ã³ Ä¯
Â¯Â¯Ã· Â´Â¯
Ġ Â»
Â¯Â¯ Â¶Â¯Â¯
Â» Â±Â¯Â¯
ĠÂ¯Â¯Â±Â°Â¯ Â·
Â°Â¯ ÃĹÂ¯Â¯Â¯
ÃĹ Â¯Â¯Â°Â¯Â¯
ĠÄ¯ Åı
ĠÂ¯Â°Â°Â¯ Â·
Â¯Â¯Â¯ ÃĹÂ´Â¯
Åı ÃĲ
ÃĹ Â¯Â±Â¯Â¯Â¯
Ã¯Ãı Ãı
ĠÂ± Â±Â¯Â¯
Ä¯ Ã»
ĠÂ¯Â¯Â¯Â· Â°Â¯Â¯Â¯
Â¯Â¯Â¿ Â¿Â¯Â¯
ĠÂ¯Â¯Â±Â¯ Â·Â±Â¯Â¯
ĠÂ¿ Â·Â¯Â¯Â¯Â¯
ĠÂ¯Â¿Â°Â¯Â¯ Â·Â°Â¯
Å¯ ÃĢ
ÃıÄ° Ãģ
Ä¯ Äī
ĠÂ¯Â±Â¯Â¯Â¯ Â·
Â¯ Â»Â¯Â¯
Ãı Ã¸
Ãĳ ÃĦ
Â° ÃĹÂ°Â¯Â¯
ĠÂ¯Â¯ÃĹ Â¯ÃĹÂ¯Â¯Â¯
Â¯Ã· Â·Â¯Â¯
Ä· Ã¿
Â°Â¯Â¯ Ã·Â¯Â¯
ĠÂ¯Â¯Ã· Â¸Â¯Â¯Â¯Â¯
Â°Â¯ Â·Â°Â¯Â¯
Â°Â¯ Â°Â°Â¯
ĠÂ¯Â¯Â¯Â¯Â¿ Â±Â°Â¯
ĠÂ¯Â¯Ã·Â° Â¿
Ã¿Ä± Ãĥ
Ã ½
ĠÂ¯ÃĹ Â¯
ĠÂ¯Â¯Â· Â°Â¯Â¯
Äı Ãģ
Â±Â¯ Â±Â±Â¯
ĠÂ¯Â¯Â· Â°Â¯Â¯Â±Â¯
Ä³ Ãģ
Â¿Â¯ Â·Â´Â¯Â¯
ĠÂ¯Â°Â¯Â¯ Â¿
ĠÂ¯Â¯Ã·Â° Â·Â¯Â¯Â¯
ĠÂ¯Â·Â¯ Â°Â¯Â¯Â¯Â¯
ĠÂ¯Â¯ÃĹ Â¸
Â¿Â¯ Â°Â¯Â¯
Â¯Â¿ Â°Â¯Â¯Â¯
Â¯Â¯Â¯Ã· Â´Â¯
Â± ÃĹ
ĠÄ¯ Åĵ
ĠÂ¯Â±Â°Â¯ Â¸Â¯Â¯Â¯
Ä¯ Ã£
Â¿Â¯ Â»Â¯Â¯Â¯
ĠÂ·Â¯Â¯Â¯Â¯ Â°Â¯Â¯
Â¯Â¯Â· Â·Â¯Â¯
Ã· Â¯Â¿Â¯Â¯Â¯
Â¿Â¯Â¯ Â¿
ĠÂ¯Â¯Ã· Â¸Â¯
ĠÂ¯Â¯Â¯Â¯Â¯Â° Â·Â¯
Âº Ã¯
ĠÂ¯Â¿Â¯ Â±Â¯Â¯Â¯Â¯
ĠÂ¯Â¯Ã· Â±Â¯Â¿Â¯Â¯
Â¿Â¯ ÃĹ
ĠÂ¯Â¯Â· Â¸
ĠÂ¯Â¯Â¯Â¯Â¿ ÃĹÂ¯Â¯
ĠÂ¯Â° Â±Â¯Â¯
Âµ Ä¯
Ġ Ãĩ
ĠÄ¯ Ã°
ĠÂ¯Â¯Â¿Â·Â¯ Â°Â¯Â¯
Â¸ Â¯Â¯Â¯Â¯Â¯Â¯
ĠÂ¯Â¯Â±Â¯Â¯ Â±Â±Â¯
ĠÂ¯Â± Â±Â¯Â¯Â¿Â¯Â¯
Å ¤
ĠÂ¯Â·Â¯Â¯ Ã·Â°Â¯Â¯
Ã° Ãģ
ĠÂ¯Â°Â¯Â¯ Â¿Â·Â¯Â¯
ĠÂ¯Ã·Â°Â¯Â¯ Â±Â¯Â¯
ĠÂ¯Â°Â¯Â¯Â¯Â¯ Â·Â¯
Â¯Â¯Â¯Â¯ Â·
ĠÂ¯Â±Â°Â¯Â¯ Â·
Â·Â¯Â¯ Â·
ĠÂ¯Â¯Â¿ Â°Â¯Â¯Â°Â¯
ĠÂ¯Â¯Â·Â¯ Ã·
ĠÂ¯Â¯Ã·Â°Â¯ Â·
ĠÂ¯ Â»Â¯Â¯
ĠÂ¯Â·Â¯Â¯Â¯ Â·
ĠÂ¯Â¯Â¯Â¯Â¯ÃĹ Â´Â¯
ĠÂ¯Â¯ Â¸Â¯Â¯Â¯
ĠÂ¯Â±Â¯Â¯ Â¿
Â¯Â¯ Â´Â¯
Â± Â±
ĠÂ¯Â± Â¿Â¯
Ã° Ã¯
ĠÂ¯Â¿Â·Â¯ Â´Â¯Â¯Â¯
ÃıÄ° Ãĥ
Â¿Â¯Â¯Â¯ Â¿Â¯Â¯
ĠÂ¯Â¯Ã·Â° Â¿Â±Â¯Â¯
ĠÂ¯Â¿ Â±Â¯Â¯Â¯Â°Â¯
ĠÂ¯Â¯Â¯Ã· Â¯Â¯Â¯Â¯
Â°Â¯Â¯ Â·Â°Â¯
ĠÂ¯Â¯Â·Â¯Â¯ Â¿Â·Â¯
Äı ÃĲ
ĠÂ¯Â¯Â± Â·
ĠÂ¯Â· Â¿Â¯Â¯
ĠÂ¯Â¯Â·Â¯Â¯ ÃĹÂ°Â¯
ĠÂ¯Â· Â¸Â¯Â¯Â¯Â¯Â¯
Â¯Â» Â°Â¯Â¯
ĠÂ¯Â¯Â¯Â¯Â· Â¸Â¯Â¯
ĠÂ¯Â·Â¯Â¯ Â¸Â¯Â¯Â¯
Â¯Â¯Â¯Â¯ Â°
Â± Â·Â°Â¯Â¯
ĠÄ¯ Äģ
Â¯Â° Â·Â¯Â¯
Ãı Ãµ
Â·Â¯ Â±Â°Â¯Â¯
Â¯Â¯ Â¸Â°Â¯
ĠÃ¯ Ã¹
Ã¯ Ä»
Å¯ Ä¯
Ä¿Ä± Ãģ
Ãı Åĵ
Â¿ Â´Â¯
Â°Â¯ Â¸Â¯Â¯Â¯
ĠÂ¯Â¯Â¿Â¯ Â±
Ä¯ Ã¸
ĠÂ¯Â· Â±Â¯Â¯Â±Â¯Â¯
ĠÂ¯Â¯Â±Â¯Â¯ Â»Â¯Â¯
ĠÂ¯Â¯Â¿Â¯Â¯ Â·Â°Â¯
Â² Â³
ĠÂ¯Â¯Â¯Â¯Â¯Ã· Â´Â¯
ĠÂ¯Â¯ Â¶Â¯
ĠÂ¯Â· Â·Â¯Â¿Â¯Â¯Â¯
ĠÂ¯Â¯Â·Â¯Â¯ Â±Â±Â¯
ĠÂ¯Â±Â¯Â¯ Â¸Â¯Â¯Â¯
Ã¯ Ã²
Ä¯ Äĵ
ĠÂ· Â±Â¯Â¯
Æ ĵ
ÃĲ Ã¯
ĠÂ¯Â¯Â¯Â¯Â°Â¯ Â°Â¯
Ä¯ Äµ
Â°Â¯ Â·Â´Â¯Â¯
ĠÂ¯Â· Â±Â¯Â¯Â¿Â¯Â¯
Ãĵ Ãı
ĠÂ¯Â¯Â·Â¯Â¯ Â»Â¯Â¯
ĠÂ¯Â¯Ã· Â¯Â¯Â¯Â°Â¯
Â¯Â¯Â¿ Â¸Â¯
Â¯Â¯ Â¸Â°Â¯Â¯
Â±Â¯ Â¿Â¸Â¯Â¯
Â·Â¯ Â¿Â°Â¯Â¯
ĠÂ¯Â·Â°Â¯Â¯ Â¿Â¯Â¯
Ä³ Ã±
ĠÂ¯Â¯Â° Â°Â¯Â°Â¯Â¯
ĠÂ¯Â¿ Â¿
Ä¿ Ãĵ
ĠÂ¯Â¯Â±Â¯Â¯ Â°Â°Â¯
Â¸Â¯Â¯ Â·Â¯
ĠÂ¯Â¯Â· Â±Â¯Â¿Â¯Â¯
Ä° Ã¿
Â·Â¯ Â¸Â¯Â¯
Â¸ Â¯Â¯Â¿Â¯Â¯
ĠÂ¯Â¯Â·Â¯Â¯ Â°Â°Â¯
ĠÄ¯ Ä¯Ã¯
ĠÂ¯Â·Â¯Â¯Â¯ Â¸Â¯Â¯
Â°Â¯ Â±Â°Â¯Â¯
ĠÂ¯Â¯Â°Â¯Â¯ Â¿Â±Â¯
ĠÂ¯Â¯Â» Â¯Â¯Â°Â¯Â¯
Â¯Â¯Â¯Â¿ Â¸Â¯
Â· Â·Â¯Â¯
ĠÂ¯Â¯Â¯Â¯ Â¯Â¯Â¯Â·
Ã¹ Ãı
ĠÂ¯Â¿Â±Â¯ Â°Â¯Â¯Â¯
ĠÂ¯Â¯Â±Â¯ ÃĹÂ°Â¯Â¯
Â¯Â» Â±Â¯Â¯
Ã¯ Ã¡
ĠÂ¯Â¯Â¯Â¯Â¯Â¿ Â¸Â¯
Ä¯ ÄŁ
ĠÂ¯Â¯Â¿Â¯Â¯ Â°Â°Â¯
Â¯Â° Â¿Â¯Â¯
Äı Ã¯
Â¯Â¯Â¿ Â¯Â¯Â¯Â¯
ĠÂ¯Â±Â±Â¯Â¯ Â±Â°Â¯
ÃĹ Â¯Â·Â¯Â¯Â¯
ĠÂ¯Â±Â°Â¯ Â¿
Ä¿Ä± Ãĥ
ĠÂ¯Â° Â°Â¯Â¯Â±Â¯Â¯
Â¯ Â°Â¯Â±Â¯Â¯
Ã¿ Âº
Ä¯ Ä²
ĠÂ¯Â¯Â° Â·Â¯Â¯Â¯Â¯
Â¸ Â¯Â±Â¯Â¯Â¯
ĠÂ¯Â¿Â¯Â¯ Ã·
Â¯Â¿ Â»Â¯Â¯
ĠÂ¯Â¯Â± Â°Â¯Â¯
ĠÂ¯Â°Â¯Â¯Â¯ Â±Â°Â¯
Â¯Â¯Â¯Â· Â¸Â¯
ĠÂ¯Â¯Â¯Â¯Â¯ Â¸Â°Â¯
ĠÂ¯Â¯Â¯Â± Â·Â°Â¯Â¯
Ġ Â²
Ä± Ä¯
ĠÃı Ãĳ
Â¯Â¯Â¯Ã· Â±Â¯
Â¯ Â¸
Åĥ Ã¹
ĠÂ¯Â±Â±Â¯ Â¿Â·Â¯Â¯
Ã¿Ä± Ãģ
Ġ Ä³
Åĥ Ã¯
Â¯Â¯Â¯ Â±
Â·Â¯Â¯Â¯ Â°Â¯Â¯
Â±Â¯Â¯ ÃĹ
Ä° Ã¹
Å¯ Ãĥ
ĠÃ¯ Ã±
Ġ ÃĢ
Â¯Â¯Ã· Â±Â¯
ĠÂ¯Â¯Â¯Â¯Â¯Â± Â¿Â¯
Ã¯Ãı Ã¯
Ãĳ Ãĥ
Â¯ Â´Â¯
Ä¯ Ä´
Åı Ãķ
Â¿Â¯ Ã·Â°Â¯Â¯
ĠÂ¯Â¯Â± Â¿
Åı ÃĶ
ĠÂ¯Â¯Â¿Â° Â¿Â°Â¯Â¯
Ä¯ Åī
Â°Â¯ Ã·
Â±Â¯ ÃĹ
Ä¯Ã¯ Ä¯
ĠÂ¯Â¯Â¯Â°Â¯ Â¿Â·Â¯
ĠÂ¯Â¯Â¸Â¯ Â±Â´Â¯Â¯
Æı Ãı
ĠÂ¯Â¯Â¸Â¯Â¯ Â¸Â¯Â¯
Ã¯ Åģ
ĠÂ¯Â¯Â¿ Â±Â¯Â¯
Â´ Â¿Â¯Â¯Â¯
ĠÂ¯Â¯Â¯Â±Â¯ Â¿Â·Â¯
ÃıÃģ Ä¯
Ä± Ãı
ĠÂ· Â±Â¯Â¯Â¯Â¯Â¯Â¯
Â¯ÃĹ Â¿Â¯Â¯
ĠÂ·Â¯Â¯Â¯Â¯ Â±Â¯Â¯
Ãĵ Ãģ
Â¸Â¯Â¯ ÃĹÂ°Â¯
ĠÂ¯Â° Â·Â¯
ĠÂ¯ÃĹ Â±Â¯Â¯Â¿Â¯Â¯
ĠÂ¯Â¯Â±Â°Â¯ ÃĹÂ¯Â¯
Â¯Â¯Â¯Â¯Â¯ Â°Â¯Â¯
Ä· Ã³
ĠÂ·Â¯Â¯Â¯Â¯ Â·Â¯Â¯
Ãı ÃĪ
Ã¯ Ã¯Ãı
ĠÃ¯ Åı
ĠÂ¯Â¿Â·Â¯ Â·Â°Â¯Â¯
ĠÂ¯Â¯Â¿Â± Â·Â¯Â¯Â¯
ĠÂ¯Â°Â°Â¯ Â¿Â¯Â¯Â¯
ĠÂ¿Â·Â¯ Â¿Â·Â¯Â¯Â¯
Å Ĩ
Â°Â¯ Â·Â°Â¯
Â°Â¯Â¯Â¯Â¯ Â¯Â¯Â¯
ĠÂ¯Â¯ÃĹ Â¯Â¿
ĠÂ¯Â± Â´Â¯Â¯Â¯Â¯Â¯
ĠÂ¯Â¯ÃĹ Â±Â¯Â¯Â°Â¯
ĠÃ¯ Ãģ
ĠÂ¯Â¿Â·Â¯ Ã·
ĠÂ¯Â¯Â¯Â¯Â±Â¯ Â±Â¯
Ä¯Âµ Ã¯
Ä Ĥ
ĠÂ¿ Â°Â¯Â¯Â¯Â¯Â¯Â¯
ĠÂ» Â¯Â¯Â¯Â¯Â¯Â¯Â¯
ĠÂ¯Â·Â¯ Â±Â¯Â¯Â¯Â¯
Â±Â¯Â¯ Â±Â±Â¯
ĠÂ¯Â¯Â¯Â¯Â¿ Â·
ĠÂ¯Ã· Â¸Â¯
ĠÂ¯Â¯Â·Â¯ Ã·Â±Â¯Â¯
Å¯ ÃĶ
ĠÂ¯Â±Â¯Â¯ Â¿Â°Â¯Â¯
ĠÂ¯Â¿Â°Â¯ Â·Â¯Â¯Â¯
ĠÂ¯Â¯ÃĹ Â¸Â¯
Â¿Â¯ Â±Â¯Â¯
Â¯Â· Â´Â¯
ĠÂ¯Â¯Â¯Â¯Â¯Â· Â¿Â¯
Ãı ÅĹ
ĠÂ¯Â¯Â±Â¯Â¯ Â·Â±Â¯
ĠÂ¯Â¯Â¿Â·Â¯ Â±Â¯Â¯
ĠÃı Ãĵ
Â¯Â¯Â¯Â¯Â¯ Â±Â¯Â¯
Ã· Â¸Â¯
ĠÃ¯ ÃĻ
Âµ Ãı
Ã± Ãĵ
ĠÂ¯Â¿Â±Â¯ Â¿Â±Â¯Â¯
Ä ł
Ä¯ ÅĽ
ĠÂ¯Â¯Â¯ Â»Â¯
ĠÂ¯ÃĹ Â°Â¯Â¯Â¯
Ã· Â±Â¯Â¯Â¯Â¯
ĠÂ¯Â¯Â±Â¯Â¯Â¯ Â´Â¯
ĠÂ¯Â¯ÃĹÂ¯Â¯ Â¸Â¯Â¯
ĠÂ¯Â¯Â±Â¯Â¯ ÃĹÂ°Â¯
ĠÂ¯Â¯ÃĹ Â°Â¯Â¯Â±Â¯
Â± Ã·Â¯Â¯Â¯
ĠÂ¯Â¿Â¯ Â°
ĠÂ¯Â¯ÃĹ Â±Â¯Â¯Â±Â¯
Â¯Â¯Â¯ Â´Â¯Â¯Â¯
ĠÂ¯Â¯Â°Â¯ Â±
ĠÃ¯ Ä³
ĠÂ¯Â¯Â¯Â´Â¯ Â±Â°Â¯
Â´ Â¯Â¿Â¯Â¯Â¯
Â¿Â¯ Â·Â¯Â¯
ĠÂ¯Â¯Â¯Â¯ Â¶Â¯Â¯Â¯
Â± Â·Â´Â¯Â¯
Ãı ÃĽ
Â°Â¯ ÃĹ
ĠÂ¯Â¿ Â¯Â·Â¯Â¯Â¯Â¯
ĠÂ¯Â¯ÃĹ Â¯Â·Â±Â¯Â¯
Â¿Â¯ Â¿Â¯Â¯
Â» Â°Â¯
ĠÂ¿Â¯ Â·Â¯Â¯Â¯Â¯Â¯
ĠÂ¯Â·Â±Â¯ Â±Â¯Â¯Â¯
Ä¯ Å£
Ã¯ Ä¯Ã¯
Ã± ÃĲ
ĠÂ¯Â¯ÃĹÂ°Â¯ Â·
ĠÂ¯Â· Â¯Â¯Â¯Â¯Â¿Â¯
Â¯ÃĹ Â°Â¯
ĠÂ¯Â¯Â¯Â¯Â¯Â° Â¿Â¯
Â¯Â¯ Â·Â¯Â¯Â¯Â¯
Ã¯ Å¯
ĠÂ¯Â¯Â°Â¯Â¯ Â·Â±Â¯
ĠÂ¯Â¯Â» Â¯Â¯Â±Â¯Â¯
ĠÂ¯Â¯ÃĹÂ± Â¿Â°Â¯Â¯
ÃĲ Ãı
Ã¯ Ã¤
ĠÂ¯Â¯Â¿Â¯ Â°Â°Â¯Â¯
Â¯Â¿ Â´Â¯Â¯Â¯
ĠÂ¯Â¯ÃĹÂ° Â¿
Â· Â·Â°Â¯Â¯
ĠÂ¯Â±Â°Â¯ Ã·Â°Â¯Â¯
ĠÂ¯Â±Â¯ Â°Â¯Â¯Â¯Â¯
ĠÂ¯Â¯Â¿ Â±Â¯Â¯Â°Â¯
Ã· Â·Â¯
ĠÂ¯Â° Â±
Â¯Â¯ÃĹ Â´Â¯
Â· Â°Â¯Â±Â¯Â¯
ĠÂ¯Â·Â¯Â¯ Â´Â¯Â¯Â¯
Â±Â¿ Â´Â¯Â¯
Åĵ Ã¯
ĠÂ¯ÃĹÂ¯Â¯ Â¿Â¯Â¯Â¯
Â¯ Â°Â¯Â·Â¯Â¯
ĠÄ¯Ã¯ Åĵ
ĠÂ¯Â¯Â¿Â± Â¿Â¯Â¯Â¯
Â¯Â¯Â° Â±Â¯
Ä³ Âµ
Ã¿ ÃĻ
ĠÂ¯Â¯ÃĹ Â¸Â¯Â¯Â¯Â¯
ĠÂ¯Â¯Â¯Â· Â·
Â±Â¯ Ã·Â¯Â¯
ĠÂ¯Â¿Â±Â¯Â¯ Ã·Â¯Â¯
ÃŁ Ãı
ĠÂ¯Â¯Â¯ÃĹ Â¯Â¯Â¯Â¯
Â¿Â¯Â¯ ÃĹÂ¯Â¯
ĠÂ¯Â¯Â°Â¯Â¯ ÃĹÂ°Â¯
ĠÂ¯Â¯Â·Â° Â¿
Ä¯ Å¡
Â±Â¯Â¯ ÃĹÂ°Â¯
Â·Â¯ ÃĹÂ¯Â¯
ĠÂ¯Â¯Â¯Â°Â¯ Â°Â°Â¯
ĠÂ¯Â¿Â¯Â¯ Â·Â±Â¯Â¯
ĠÂ¯Â· Â°Â¯Â¯Â¯
ĠÂ¯Â¯Ã· Â±Â¯Â¯Â°Â¯
ĠÂ¯Â±Â°Â¯Â¯ Â¸Â¯Â¯
Â¯Â¯Â¯ Â°
ĠÂ¯Â±Â°Â¯Â¯ ÃĹÂ¯Â¯
ĠÂ¯Â° Â¿Â¯
ĠÂ¯Â°Â°Â¯ ÃĹÂ°Â¯Â¯
Â¯Â¯Â¯ Â´Â°Â¯
ĠÂ¯Â¯Â¯ Â¸Â¯Â¯Â°Â¯
ĠÂ¯Â¯Â· Â±Â¿Â¯Â¯Â¯
Â±Â¯Â¯Â¯ Â°Â¯Â¯
Â¯Â¯Â· Â¿Â¯Â¯
ĠÂ¯Â¯Â±Â° Â·Â¯Â¯Â¯
ĠÂ¿Â·Â¯Â¯Â¯ Â¿Â¯Â¯
ÃıÂº Ã¯
ĠÄ¯Ã¯ Ãĵ
Ä¯ Åħ
Ãı Åģ
ĠÂ¯Â¯Â±Â°Â¯ Â±Â±Â¯
Â¯Â¯Â¯Â¯ Â±
ĠÂ¯Â¿ Â±Â¯Â¯Â¯
Ã± ÃĶ
ÃĢ Ãı
Â·Â¯Â¯ Â´Â¯Â¯
Â±Â¯ Â·Â°Â¯Â¯
Â±Â¯Â¯Â¯Â¯ Â¯Â¯Â¯
ĠÄ¯ Ä±
ĠÂ¯Â¯Â´Â¯ Â·Â°Â¯Â¯
Ã¯ Ãļ
Â¯Â¯Â¯Â¯ Â¸Â¯Â¯
ĠÂ¯Â¯Â·Â¯ Â·Â´Â¯Â¯
Ä¿ Ã¹
ĠÂ¯Â¯Â¯Â·Â¯ ÃĹÂ¯Â¯
ĠÂ¯Â¯Â°Â¯ ÃĹÂ´Â¯Â¯
ĠÂ¯Â¯Ã· Â¯Â¿Â·Â¯Â¯
ĠÂ¯Â¯Â·Â° Â¿Â·Â¯Â¯
ĠÂ¯Â¯Â¯Â±Â¯ Â°Â°Â¯
ĠÂ¯Â¯Â¯Â± Ã·Â¯Â¯Â¯
ĠÂ¯Â¯Â±Â¯ ÃĹ
Â·Â¯ Ã·Â¯Â¯Â¯
ÃĦ Ä¯
ĠÂ¯Â¯Â·Â°Â¯ Â±Â°Â¯
Ã¯ Ãľ
Â¿ Â¯Â¯Â¯Â¯Â°Â¯
ĠÂ¯Â¿Â·Â¯Â¯ Ã·Â¯Â¯
ĠÂ¯Â¯Â» Â¯Â¯Â·Â¯Â¯
Ä Ķ
Äĥ ÃĻ
ĠÂ¯Â°Â¯ Â°Â¯Â¯Â¯Â¯
ĠÂ·Â¯Â¯Â¯ Â°Â¯Â¯Â¯
Ã¯ ÄĹ
Â´Â¯Â¯ Â·Â¯
ĠÂ¯Â¯Â± Â±Â¯Â·Â¯Â¯
Æ Ħ
ĠÂ¯ Â»Â¯Â¯Â¯
ĠÂ¯Â°Â¯Â¯ Â´Â¯Â¯Â¯
Â· Â±Â¯Â¯Â¯Â¯
Â·Â¯ Â¿Â·Â¯
Â¯ÃĹ Â·Â¯Â¯
Â±Â¯Â¯ Â·Â´Â¯
ĠÂ¯Â±Â¯Â¯ Â·Â´Â¯Â¯
ĠÂ¯Â¯Â¿Â° ÃĹÂ¯Â¯Â¯
Â°Â¯ Â¿Â¸Â¯Â¯
Ä¿ Ä¯Ãĥ
ĠÂ¯Â¯Â¿Â¯ Â°
ĠÂ¯Â¯Â¿Â¯Â¯ Â¿
ĠÂ¯Â¿Â¯Â¯Â¯ ÃĹÂ°Â¯
ĠÂ¯Â·Â¯Â¯Â¯ Â¿Â±Â¯
Ãĩ Ä¯
ĠÂ¯Â¯Â¯Â·Â¯ Â·
ĠÂ¯Â¯Â±Â¯Â¯ Ã·Â°Â¯
Â¯Â· Â¸Â¯Â¯
ĠÃ¯Ãı Äģ
ĠÂ¯Â· Â¿
ĠÂ¯Â¯Â¯Â¯Â´ Â±Â¯Â¯
Â±Â¯ Â°
ĠÂ¯Â¯Â·Â° Â·Â¯Â¯Â¯
ĠÂ¯Â¯Â¯Â¯Â±Â¯ Â°Â¯
Â¸ Â±Â¯
ĠÂ¯Â¯ÃĹ Â±Â¯Â¯
Å¿ Ãģ
Â´Â¯ Â°Â¯Â¯Â¯
ĠÂ¯Â¯ÃĹÂ° Â·Â¯Â¯Â¯
ĠÂ¯Â±Â¯ Â±Â¯Â¯Â¯Â¯
ĠÂ¯Â¯ÃĹÂ±Â¯ Â±Â°Â¯
ÃĲ Ãģ
ĠÂ¯Â¯Â±Â¯ Â°Â°Â¯Â¯
Â¿Â¯ ÃĹÂ´Â¯Â¯
ĠÃı ÃĲ
ĠÂ¯Â¯Â¯Â´Â¯Â¯ Â±Â¯
Ġ ÅĹ
Â¯Â¯Â¯ Â¸Â¯Â¯Â¯
Ãı Ãĭ
Â±Â¯ Â·Â´Â¯Â¯
Ä¿Ã³ Ãģ
Â°Â¯ Â°Â¯
ĠÂ¯Â·Â°Â¯ Â·Â¯Â¯Â¯
ĠÂ¯Â¿ Â°Â¯Â¯Â¯Â°Â¯
ĠÂ¯Â¯Â·Â¯Â¯ Â·Â·Â¯
ĠÂ¯Â¯Â¯Â°Â¯ Â±Â±Â¯
ĠÂ¯Ã· Â±Â¯
ĠÂ¯Â¯Â¯Â´Â¯ Â´Â¯Â¯
ĠÂ¯Â¯Â¿Â±Â¯ Â´Â¯Â¯
Â± Â±Â¯Â¯Â¯Â¯
Â¯Â¿ Â¸Â¯Â¯Â¯
ĠÂ¯Â°Â°Â¯Â¯ Â´Â¯Â¯
Åı Äģ
Â´ Â¿Â·Â¯Â¯
ĠÂ¯Â¯Â¿Â¯Â¯ Â±Â±Â¯
ĠÂ¯Â¯Â¯Â°Â¯ Â¿Â±Â¯
ĠÂ¯Â¿Â¯Â¯ Â¸Â¯Â¯Â¯
Ä¯ ÃĤ
ĠÂ¯Â¯Ã· Â°Â¯Â¯Â±Â¯
Â¯Â¯ Â´
Ä¯ Äħ
ĠÂ¯Â¯ÃĹ Â¯Â¯Â·
Å¯ Ã³
ĠÂ¿Â·Â¯Â¯ Â·
ĠÂ¯Â·Â°Â¯ Â¿Â¯Â¯Â¯
Ãı Ã¯Ãı
ĠÂ¯Â¯Â· Â´Â¯Â·Â¯Â¯
ĠÂ¯Â¯Â¿Â¯ Â°Â±Â¯Â¯
Ãĳ ÃĢ
Â¯Â¯Â¯ ÃĹÂ±Â¯
ĠÂ¯Â¯Â± Â±Â¯Â±Â¯Â¯
ĠÂ¿Â·Â¯Â¯Â¯ Â±Â¯Â¯
Â·Â¯Â¯ ÃĹÂ¯Â¯
Ã· Â¯Â¯Â¯Â¯
Å¯ Ä±
ĠÄ¯Ã¯ Ä¯
Â°Â¯ Ã·Â¯Â¯Â¯
ĠÂ¯Â¯Ã· Â¯Â±Â¯Â¯Â¯
ĠÂ¯Â°Â¯Â¯Â¯ ÃĹÂ¯Â¯
ĠÂ¯Â·Â¯Â¯Â¯ Â¿Â·Â¯
ĠÂ¯Â°Â°Â¯ ÃĹÂ¯Â¯Â¯
ĠÂ¯Â¯Â¯Â¯Ã· Â¸Â¯Â¯
Ã¯Âº Ä¯
Ã¯ Åĳ
Â¿ Â±Â¯Â¯Â¯Â¯Â¯
ÅĹ Äĥ
Â±Â¯Â¿ Â¿Â¯
Â° Ã·Â°Â¯Â¯
Â¿ Â·Â¯Â¯Â¯Â¯
ĠÂ¯Â¿ ÃĹ
ĠÂ¯Â· Â±Â¯Â¯Â°Â¯Â¯
ĠÂ¯Â¯Â¯Â·Â¯Â¯ Â¿Â¯
ĠÂ¯Â¯Â¯Â¶ Â¯Â¯Â¯Â¯
ĠÂ¯Â¯Â±Â¯ Â»Â¯Â¯Â¯
ĠÂ¯Â¯Â¸ Â°
ĠÂ¯Â¯Â¯Â¯Â´ Â°Â¯Â¯
ĠÂ¯Â¯Â·Â¯Â¯ Â·Â±Â¯
ĠÂ¯Â¯Â¿Â¯Â· Â¿Â¯Â¯
ĠÂ¿Â¿Â¯Â¯Â¯ Â±Â¯Â¯
ĠÂ¯Â¿Â¯Â¯ Ã·Â±Â¯Â¯
Ġ Ä±
ĠÂ¯Â¯Â¿ Â¿
Â¿Â¯ Â°Â¯
ĠÂ¯Â±Â¯Â¯Â¯Â¯ Â¿Â¯
ĠÂ¯Ã·Â°Â¯Â¯ Â¿Â¯Â¯
ĠÂ¯Â¯Â¿ Â°Â¯Â¯Â±Â¯
ĠÂ¯Â± Â±Â¯Â¯Â¯Â°Â¯
ĠÃ¯ Ã¸
ĠÃı Ãĥ
ĠÂ¯Â¯Â¿Â° Â·
ĠÂ¯Â¯Â±Â° Â·
ĠÂ¯Â±Â¯ Â¿Â¯Â¯Â¯Â¯
Ã¯ ÃĪ
Â¿Â¯Â¯ Ã·
ÅĹ Ãĥ
ĠÂ¯Ã· Â¸Â¯Â¯
ĠÂ¯Â¯Â» Â¯Â¿Â¯Â¯Â¯
ĠÂ·Â¯ Â±Â¯Â¯Â¯Â¯Â¯
Â° Â±
Â°Â¯ Â¿Â±Â¯Â¯
ĠÂ¯Â¯Â¯Â· Â¿Â·Â¯Â¯
ĠÂ¯ÃĹ Â°Â¯Â¯Â¯Â¿Â¯
Â¯Â¯Â¯ Â¶Â¯Â¯
Â°Â¯ Â¿Â°Â¯Â¯
Ã¿ Ãĺ
ĠÂ¯Â¿ Â¯Â·
ÅĹ Ä¯
ĠÂ¯Â·Â¯Â¯ Â¿Â°Â¯Â¯
ĠÂ¿ Â¿Â·Â¯Â¯Â¯Â¯Â¯
Â´Â¯Â¯ Â¿Â¯
ĠÂ¯Â¯Â±Â¯Â¯ Â¿
ĠÂ¯Â¯Â¯Â¯Â¯ Â´Â±Â¯
Ãı Äı
ĠÂ¯Â¯Â¿ Â°Â¯Â¯
ĠÄ¯ ÅĹ
ĠÂ¯Â¿Â¯Â¯Â¯ Â¿Â·Â¯
ĠÃ¯ Ãĥ
ĠÂ¯Â¯ Â¸Â¯Â¯Â¯Â°Â¯
ĠÂ¯Â¯Ã·Â° Â¸Â¯Â¯Â¯
Â· Â±Â¯Â¯Â¯
Ãı Å¯
Â±Â¯ Â·Â°Â¯
ÃĹ Â¯Â°Â¯Â¯Â¯
ĠÂ¯Â¯Â°Â¯Â¯ Â¿
ĠÂ¯ÃĹÂ°Â¯Â¯ Â´Â¯Â¯
Â¯Â¯Â¯ Â±Â¯Â¯Â¯Â¯
Â¿Â¯Â¯ Â±Â°Â¯Â¯
ĠÂ¯Â±Â¯Â¯ ÃĹÂ´Â¯Â¯
ĠÂ¯Â¯Â¯Â¯Â·Â¯ Â·Â¯
Ã¿Ä± Ãĵ
ĠÂ¯Â¯Â¿ Â¸Â¯Â¿Â¯Â¯
ĠÂ¯Â°Â¯Â¯Â¯ Â·
ĠÂ¯ÃĹ Â¯Â¯Â¯Â¯Â±Â¯
Â±Â¯ Â·Â·Â¯
Ä³ Ã¿
ÅĹ Ãı
ĠÂ¯Â·Â¯Â¯ Â»Â¯Â¯Â¯
ĠÂ¯Â°Â°Â¯ Â·Â°Â¯Â¯
Â¯Â¯Â¯ Ã·Â°Â¯Â¯
Ä· Ã±
ĠÂ¯Â¯Â¯Â¯Â°Â¯ Â±Â¯
Ãı Ä¹
ĠÂ¯Â¿Â·Â¯ Ã·Â±Â¯Â¯
ĠÂ¯Â¯Â° Â±Â¯Â°Â¯Â¯
Ã¯ ÅĶ
ĠÂ¯Â¯Â¯Â± Â±Â°Â¯Â¯
ĠÂ¯Ã· Â¯Â¯Â¯Â¿Â¯Â¯
ĠÂ¯Â¯Â¸Â¯ Â±Â°Â¯Â¯
Â· Â¿
ÃĻ Ä¯
Ä¯Ãı Ä¯
Â¯Â¯ Â¸Â¯
Â´ Â¯Â¯Â¯Â¯Â¯Â¯
ĠÂ¯Â°Â¯Â¯ ÃĹÂ°Â¯Â¯
ĠÂ¯Â¿Â·Â¯Â¯ ÃĹ
ĠÂ¯Â¯Â±Â° Â¿Â°Â¯Â¯
ĠÂ¯Â¯Â¸Â¯Â¯ ÃĹÂ¯Â¯
ĠÂ¿Â¯Â¯Â¯Â¯Â¯ Â±Â¯
ĠÃ¯Ãı Ã¿
ĠÂ¯Â¯Â·Â¯Â¯Â¯ Â´Â¯
ĠÂ¯Ã·Â¯Â¯Â¯ Â¸Â¯Â¯
ĠÂ¯Â± Â·
ĠÂ¯Â¯Â¯Â° ÃĹ
ĠÂ¯Â¯Â´Â¯Â¯ Â·
ĠÂ¯Â¯Â¯Â¿ Â´Â¯Â¯Â¯
Â¯Â¯Â¯Â· Â´Â¯Â¯
ĠÂ¿Â¯Â¯Â¯ Â°Â¯Â¯Â¯
ĠÂ¯Â¯Â·Â¯Â± Â¿Â¯Â¯
Å Į
Â±Â¯Â¯ Â·Â±Â¯
Â°Â¯ Â±Â±Â¯
Äı Ä¯
ĠÂ¯Â±Â°Â¯ Â¿Â±Â¯Â¯
ĠÂ·Â¯Â¯Â¯ Â¿Â¯Â¯Â¯
Â· Â¸Â¯
Ãı Ãļ
Ã± ÃĻ
Ã³ ÃĢ
ĠÂ¯ÃĹÂ¯Â¯ Â·Â¯Â¯Â¯
ĠÂ¯Â¿Â±Â¯ Â·Â¯Â¯Â¯
ĠÂ¯Â¯Â¿Â·Â¯ Â´Â¯Â¯
ĠÂ¯Â¯Â¯Â¯Â¯ Â´
ĠÂ¯Â¯Â·Â¯ ÃĹÂ°Â¯Â¯
ĠÂ¯Â¯Â°Â¯Â¯ Â±Â±Â¯
ĠÂ¯Â¯Â¸Â¯Â¯ Ã·Â¯Â¯
ĠÂ¯Â¿Â·Â¯Â¯Â¯ Â·Â¯
Â¯Â¯Â° Â±Â¯Â¯
ĠÂ¯Â¯Â¯Â¿Â¯Â¯ Â±Â¯
Â±Â¯Â¯Â¯ Â±Â¯Â¯
ĠÂ¯Â¯Â±Â¯ Ã·Â°Â¯Â¯
ĠÂ¯Â¯Â¯Â±Â¯ Â¿Â±Â¯
ĠÂ¯ÃĹ Â°Â¯Â¯Â¯Â±Â¯
Â¯Â¯Â¯Â¯ Ã·Â¯Â¯
Â·Â¯ ÃĹÂ¯Â¯Â¯
ĠÃ¯ Ã°
ĠÂ¯Â¯Â¯Â¯Â· Â±Â°Â¯
ĠÂ¯Â·Â¯Â¯ Â±
Â¯Â¯Â¿ Â´Â¯
ĠÂ¿Â¯Â¯Â¯Â¯Â¯ Â°Â¯
ĠÃı ÃĢ
ÃŁ Ã¯
ĠÂ¯Â¯Â· Â¸Â¯Â¯Â¯Â¯
ĠÂ¯Â¯Â°Â¯ Â»Â¯Â¯Â¯
ĠÂ¯Â°Â¯Â¯ Â±Â°Â¯Â¯
ĠÃĹ Â¯Â¯Â¯Â¯Â¯Â¯Â¯
Â±Â¯Â¯ ÃĹÂ´Â¯
ĠÂ¯Â¯Â° Â¿
Ã¯Ãĳ Ä¯
Â¯Â± Â¸Â¯Â¯
ĠÂ¯Â¯ÃĹ Â·Â¯Â¯Â¯Â¯
ĠÃı ÃĶ
ĠÂ¯Â¿Â·Â¯ Â¿Â°Â¯Â¯
Ã ¨
Ä¯ ÄĽ
Â· Â°Â¿Â¯Â¯Â¯
ĠÂ¯Â· Â°Â¯Â¯Â¯Â±Â¯
ĠÂ¯Â·Â¯Â¯Â¯ Â¿Â°Â¯
Äı ÃĶ
Ãĩ Ãı
Â±Â¯Â¯Â¯ Â´Â¯
Åı ÃĦ
ĠÂ¯Â· Â·Â¯Â¯Â±Â¯Â¯
Ä· Ãĳ
ĠÂ¯Â¯Â¯Â°Â¯ Â¿Â°Â¯
ĠÂ¯Â¯Â¯Â±Â¯ Â±Â±Â¯
ĠÂ¯Â¯Ã·Â± Â¿Â·Â¯Â¯
ĠÂ¯Â¯Â±Â¯ Â±Â±Â¯Â¯
ĠÂ¯Â¯Â±Â¯Â¯ Â·Â·Â¯
Â´Â¯ Â´Â¯Â¯
ĠÂ¯Â¯Â¯Â·Â¯ Â¸Â¯Â¯
ĠÂ¯Â¯Â´Â¯Â¯ Â·Â°Â¯
Â¯Â¯Â¯ Â°Â¯Â¯Â¯Â¯
Â¯Â¯Â¯ Ã·Â¯Â¯Â¯
Â± Â¿Â¯Â¯Â¯Â¯
Â¯Â¯Â· Â¸Â¯
ĠÂ¯Â±Â±Â¯ Â±Â¯Â¯Â¯
Ä¯ Ãĺ
Äĥ Ãı
Ã¿ Ä°Ãĥ
ĠÂ¯Â±Â°Â¯Â¯Â¯ Â·Â¯
Ã± Ãĳ
ĠÂ¯Â± Â´Â¯
ÃŁ Ãģ
ĠÂ¯Â¯Â¯Â´Â¯ ÃĹÂ¯Â¯
Ä¿Ã± Ãģ
Ä¯ ÅĦ
Ä¯ Åĩ
ĠÂ¯Â· Â¯Â·Â¯Â¯Â¯Â¯
Åĵ Ãı
ĠÂ¯Â±Â°Â¯Â¯ Â¿Â·Â¯
ĠÂ¯Â¯Â´ Â°Â¯Â¯Â¯Â¯
ĠÂ¯Â» Â°Â¯Â¯Â¯Â¯Â¯
ĠÂ¯Â¯ÃĹ Â±Â¯Â´Â¯Â¯
ĠÂ¯Â¯Â± Â±Â¿Â¯Â¯Â¯
ĠÂ¯Â¯Â¿Â°Â¯ Â±Â°Â¯
ĠÂ·Â¯Â¯Â¯ Â·Â¯Â¯Â¯
Â°Â¯Â¯ ÃĹ
ĠÂ¯Â¯ÃĹ Â·
ĠÄ¯ Ä¯Ãı
ĠÂ¯Â¯Â¯Â±Â¯ Ã·Â¯Â¯
ĠÂ¯Â¯Â± Â°Â¯Â¯Â±Â¯
ĠÂ¯Â¯Â¯Â¿ Â¸Â¯Â¯Â¯
ĠÂ¯Â¯Â´ Â¯Â¿Â·Â¯Â¯
ĠÂ¿Â·Â¯Â¯ Â±Â¯Â¯Â¯
ĠÂ¿Â¯ Â¿Â¯Â¯Â¯Â¯Â¯
Æ ĳ
Â¯Â¯Â¯ Â¸Â°Â¯
Ã¯ Åĺ
ĠÂ¯Â·Â¯ Â°
ĠÂ¿Â·Â¯Â¯Â¯ Â·Â¯Â¯
ĠÂ¯Â·Â°Â¯Â¯ Â¸Â¯Â¯
ĠÂ¿Â¿Â¯Â¯Â¯ Â°Â¯Â¯
ĠÂ¯ÃĹ Â±Â¯Â¯Â°Â¯Â¯
Â¯ Â±Â¯Â°Â¯Â¯
Â¿Â¯Â¯ Â°Â¯Â¯Â¯
ĠÂ¯Â· Â±Â¯Â¯Â·Â¯Â¯
ĠÂ· Â±Â¯Â¯Â¯
ĠÂ¯Â¯Â¿Â·Â¯ Â·Â¯Â¯
ĠÂ¯Â¯Â·Â¯Â° Â±Â¯Â¯
ĠÂ¯Â¯Â±Â¯Â¿ Â´Â¯Â¯
Ãı Ã¯Ã¯
ĠÂ¯Â¯Â¯ Â¸Â¯Â¯
Â°Â¯ ÃĹÂ´Â¯Â¯
ĠÂ¯Â¯Â·Â¯ Â¿Â¸Â¯Â¯
ĠÂ¯Â¯Â·Â¯Â¯ Â¿Â±Â¯
Ã¹ ÃĶ
ĠÂ¯Â¿Â±Â¯ Â±Â¯Â¯Â¯
ĠÂ¯Â¯Â¯Â¯Â¯ Â»Â±Â¯
Ä¯ Å±
Â· Â°Â¿
Åı Ã¯Ã¯
ĠÄ¯Ã¯ Ã¯
ĠÂ¯Â¯Â¿Â° Â¿Â·Â¯Â¯
Â¯ÃĹ Â¯
ĠÂ¯Â¿Â°Â¯ Â°Â¯Â¯Â¯
ĠÂ·Â¯Â¯Â¯Â¯ Â¿Â¯Â¯
ĠÂ¯Â·Â·Â¯ Â¿Â·Â¯Â¯
Ä¿Ä± Ãĵ
Ãı ÃĬ
ÃĹ Â¯Â¯Â¯Â¯
ĠÂ¯Â· Â·Â¯Â¯Â°Â¯Â¯
Â¸ Â¯Â·Â¯Â¯Â¯
Å¯ Ã°
ĠÂ¯Â° Â°Â¯Â¯Â¯
ĠÂ¿ Â±Â¯Â¯Â¯Â¯Â¯Â¯
ÃıÄ° Ãĵ
Â±Â¯ Â¿Â°Â¯
ĠÂ¯Â¯Â°Â¯Â¯ Â¿Â°Â¯
Â¶ Â¯Â¯Â¯Â¯Â¯
Â¿Â¯Â¯Â¯ Â¿Â¯
ĠÂ¯Â¯Â¿Â¯Â¯ Â»Â¯Â¯
Åĵ Äģ
ÅĹ Ãģ
ĠÂ¯ÃĹ Â¿Â¯Â¯Â¯Â¯Â¯
ĠÂ¯Â¯Â¿ Â¸Â¯Â±Â¯Â¯
ĠÂ± Â±Â¯Â¯Â¯
ĠÂ¯Â¯Ã·Â±Â¯ Â±Â°Â¯
Æ Ĳ
Ã¯ ÅŁ
ĠÂ¯Â¯Ã· Â¯Â¯Â±Â°Â¯
ĠÂ¯Â¿Â¯Â¯Â¯ ÃĹ
Â¸Â¯ ÃĹÂ¯Â¯
ĠÂ¯Â¿Â·Â¯Â¯ Â±Â±Â¯
Ã¯Ãĥ Ä¯
ĠÂ¯Â¯Â¿Â± Â±Â¯Â¯Â¯
ĠÂ¯Â°Â¯ Â±Â¯Â¯Â¯Â¯
Â¯ Â¸Â¯
Ã¯ Ãĭ
Â¿ Â¿
Â±Â¯ Â±
ĠÂ¯Â¿ Â°Â¯Â¯Â¯
ĠÂ¯Â¯Â±Â¯ Â¿Â¸Â¯Â¯
Â¯Â¯ Â±Â¯Â¯Â¯Â¯Â¯
Â¿Â¯Â¯ Ã·Â¯Â¯
ĠÂ¯Â¯Â¿ Â¸Â¯Â·Â¯Â¯
ĠÂ¯Â°Â¯Â¯ Ã·Â¯Â¯Â¯
ÅıÂµ Ã¯
Â¯Â·Â¯ Â¿Â¯Â¯Â¯
ĠÂ¯Â· Â°Â¯Â¯Â¯Â°Â¯
ĠÂ¯Â¯Ã· Â¯Â¯Â¯
ĠÂ¯Â¯ Â¶Â¯Â¯
Â·Â¯Â¯ Â¿Â¯
ÃĲ Ãĥ
ĠÂ¯Â·Â¯Â¯Â¯ Ã·Â¯Â¯
ĠÂ¯ Â¸Â¯
Ãı ÅĢ
Â·Â¯Â¯Â¯ Â·Â¯
ĠÂ¯Â· Â¯Â·
ĠÃ¯ Ã¿
ĠÂ¯Â¯Â¯Â¯Â· ÃĹÂ¯Â¯
Ä¯ Å·
ĠÂ¯Â¯Â¿ Â´Â¯Â¯Â°Â¯
ĠÂ¯Â¯Â¿Â¯Â¯ Â¿Â¿Â¯
ĠÂ¯ÃĹÂ°Â¯Â¯ Â±Â¯Â¯
Â´ Â¿
ÃĹ Â·Â¯Â¯
ĠÂ¯Â¯Â°Â¯ ÃĹÂ±Â¯Â¯
ĠÄ¯ Åħ
ĠÃ¯Ãı Ã³
Ã¯ Ä¯Ä¯
Â· Â¿Â±Â¯Â¯
Ã· Â¯Â·Â¯Â¯Â¯
ĠÄ¯ ÃĻ
Åĵ Ä¯
ĠÂ¯Â¯Â¯Â´Â¯ Â·Â´Â¯
ĠÂ¯Â±Â±Â¯ Â¿Â±Â¯Â¯
ĠÂ¯Â¯Â¯Â¯Â¯Â¯Â¯ Â¿
ĠÅı Ãĵ
ĠÄ¯ Ãĩ
ĠÂ¯Â¿Â¯Â¯Â¯ Â±Â±Â¯
ĠÂ¯Â¯Â± Â±Â¯Â°Â¯Â¯
Â· Â¿Â·Â¯Â¯
Â´Â¯ Â·Â°Â¯
ĠÂ¯Â¿Â· Â°Â¯Â¯Â¯Â¯
ĠÂ¿Â·Â¯Â¯ Â¿Â¯Â¯Â¯
Â¿Â¯Â¯Â¯ ÃĹÂ¯Â¯
Ä° Ã³
Ã¯Ãı Ä¯Ã¯
Ã± ÃĢ
ĠÂ¯Â¿Â·Â¯Â¯ Â¿Â·Â¯
Ã¯Ã¯ Ä¯
ĠÂ¯Â¯Â» Â¯Â·Â¯Â¯Â¯
ÃıÃ± Ãģ
Ã¯ Äĳ
Åı Ä¿
ĠÂ¯Â± ÃĹÂ¯Â¯Â¯Â¯Â¯
ĠÂ¯Â±Â¯Â¯ Â´Â¯Â¯Â¯
ÅĶ Ãģ
ĠÂ¯Â¯Â±Â¯Â¿ Â¿Â¯Â¯
ĠÂ¯Â¯Â¯Â°Â¯Â¯ Â´Â¯
ĠÂ¯Â¸ Â°Â¯Â¯
Â¿Â¯Â¯ Â¿Â±Â¯Â¯
Â±Â¯ Â»Â¯Â¯
Åı Ãĺ
ÃĹ Â±Â¯Â¯Â¯Â¯
ĠÂ¯Â¯Â¿Â¯ Ã·
Åĵ Ãģ
Ä¯Âµ Ä¯
ĠÂ¯ÃĹÂ¯Â¯ ÃĹÂ¯Â¯Â¯
Ã¯ Ãĸ
Â´ Â°Â¯Â¯
ĠÂ¯Â¯Â±Â¯ Â±
Äģ Ãı
ĠÂ¯Â·Â°Â¯ Â·Â°Â¯Â¯
ĠÂ¿Â¯ Â±Â¯Â¯Â¯Â¯Â¯
ĠÂ¯Â¿Â¯ Â±
ĠÃ· Â¯Â¯Â¯Â¯Â¯Â¯Â¯
Ãı Ä¸
Â¸ Â¯Â¿Â·Â¯
ĠÂ¯Â¯Â·Â¯Â¯ Â¿Â°Â¯
ĠÂ¯Â°Â¯Â¯Â¯ Â¸Â¯Â¯
Ä¯ ÅĲ
Ä¿ Ä¯Ãĵ
ĠÂ¯Â¿Â·Â¯ Ã·Â´Â¯Â¯
Ä¹ Ã¯
ĠÂ¯Â¯Â·Â°Â¯ ÃĹÂ¯Â¯
ĠÂ¿Â¯ Â°Â¯Â¯Â¯Â¯Â¯
Å ĸ
Â· Â°Â¯Â·Â¯Â¯
ĠÂ¯Â± Â±Â¯Â¯Â¯
ĠÂ¯Â¯Â¯Â´ Â¿Â¯Â¯Â¯
Ġ Â±Â°Â¯
Â¯Â¯ Â±Â´Â¯Â¯
Ãı ÅĦ
Â±Â¯Â¯ Â°Â°Â¯
Â±Â¯Â¯Â¯ Â·Â¯Â¯
Ä± Ãĳ
Â± Â±Â¯Â¯Â¯Â¯Â¯
Ãı Ä¯Ãģ
Ãĥ Ä¯Ã¯
Ã· Â¯Â¿Â±Â¯Â¯
Ã³ ÃĲ
Ä· Ãĵ
ĠÂ¯Â¯Â° Â·
ĠÂ¯Â°Â¯Â¯Â¯ Ã·Â¯Â¯
ĠÂ¯Â¯ÃĹÂ¯Â¯ Ã·Â¯Â¯
Ġ Ã±
Â¯Â¯ Â¿Â¯Â¯Â¯Â¯Â¯
ĠÂ¯Â¯Ã· Â·
ĠÂ¯Â¯Ã· Â´Â¯Â±Â¯Â¯
ÃĦ Ã¯
Â³Â³ Â³
ĠÂ¯Â°Â¯ Â¿Â¯Â¯Â¯Â¯
Ġ ÃĲ
Â±Â¯Â¯ Â·Â¯Â¯Â¯
Â¸ Â¯Â¿Â·Â¯Â¯
Ä¯ Å³
Ä¯ Ã¡
ĠÂ¯Â¯Â¯Â° ÃĹÂ°Â¯Â¯
Â¯ Â°Â¯Â°Â¯Â¯
ĠÂ¯Â¯Â· Â´Â¯Â±Â¯Â¯
Ãĥ ÃĲ
Â·Â¯ Â°Â°Â¯
ĠÂ¯Â±Â¯Â¯ Ã·Â°Â¯Â¯
ÅĢ Ã¹
ĠÂ¯Ã· Â¿Â¯
ĠÂ¯Â¯Â¯Â°Â¿ Â¿Â¯Â¯
Â¯Â¯Â¯ Â¿Â°Â¯Â¯
Ãı Ã£
Â±Â¯ Â·Â±Â¯
ĠÂ¯Â¿Â´Â¯Â¯ Â±Â¯Â¯
Â¯Â¯ Â»
Åĥ Ãı
ĠÂ¯Â¯Â¿Â° Â¿Â±Â¯Â¯
ĠÂ¯Â¯Â´Â¯ Â·Â´Â¯Â¯
ĠÂ¯Â¯Â¯Â´Â¯ Â·
Â¯Â¯Â¯ ÃĹÂ°Â¯Â¯
Â° Â°Â¯Â¯Â¯Â¯
Â· Â°Â¯Â¯Â¯Â¯Â¯
Ã¿ Ãĵ
ĠÂ¯Â¯Â¿Â¯ ÃĹÂ±Â¯Â¯
Ãı Ä¯Ãĥ
Â·Â¯Â¯ Â·Â¯Â¯Â¯
Â·Â¯Â¯Â¯ Â·Â¯Â¯
Ãĵ Ä°Ãĵ
ĠÂ¯Â¯Â° Â±Â¯Â¿Â¯Â¯
Â¯Â¯Â¯Ã· Â¸Â¯
Â· Â¿Â¯Â¯
Â±Â¯Â¯ Â¿Â¯Â¯Â¯
Åı Äĥ
Â¿Â¯ Â¿Â°Â¯Â¯
ĠÂ¯Â·Â¯Â¯ Â·Â´Â¯Â¯
ĠÂ¯Â¿Â·Â¯ ÃĹÂ¯Â¯Â¯
ĠÂ¯Â¯Â° Â°Â¯Â·Â¯Â¯
ĠÂ¯Â¯Â±Â°Â¯ Ã·Â¯Â¯
ĠÂ¯Â¯Â¯Â¯Ã· Â¿Â¯Â¯
Ã¯ Ä²
ĠÂ¯Â¿ Â±Â¯Â¯Â¯Â±Â¯
ĠÂ¯Â± Â¸Â¯Â¯Â¯Â¯Â¯
ĠÂ¯Â¯ÃĹ Â¯Â¯Â¯Â·Â¯
Â¸Â¯Â¯Â¯ Â±Â¯
ĠÂ¯Â±Â¯Â¯Â¯ Â·Â°Â¯
ĠÂ¯Â¯ÃĹÂ¯ Â¸Â¯Â¯Â¯
ĠÂ¯Â¯Â° Â°Â·Â¯Â¯Â¯
Æı Ã¯
ĠÂ¯Â°Â¯Â¯Â¯Â¯ Â¿Â¯
ĠÂ¯Â·Â¿Â¯ Â±Â¯Â¯Â¯
ĠÂ¯Â¯Â· Â·Â¯Â·Â¯Â¯
ĠÂ¯Â¯Â·Â¯ Â»Â¯Â¯Â¯
ÃŁ Ä¯
ĠÂ¯Â¯Â¯ Â¶Â¯
ĠÂ¯Â¯Â°Â¯ Â¿Â¸Â¯Â¯
ÃŁ Ãĥ
ĠÂ¯Â¯ÃĹÂ° Â·
ĠÂ¯Â°Â°Â¯ Â¿Â·Â¯Â¯
ĠÂ¯Â¯Â¯Â¯Â¸ Â±Â¯Â¯
Â¹ Â²
ĠÃ¯Ãı Ãı
Â± ÃĹÂ°Â¯Â¯
Â·Â¯Â¯ Â¿Â°Â¯
Â°Â¯ ÃĹÂ°Â¯Â¯
Ä· ÃĢ
ĠÂ¯Â¯Ã· Â´Â¯Â·Â¯Â¯
ĠÂ¯ÃĹ Â¯Â¯Â¯Â¯Â°Â¯
ĠÂ¯Â¯Â±Â°Â¯ Â·Â°Â¯
ĠÂ¿Â·Â¯ Â¿Â¯Â¯Â¯Â¯
Ã¿ Ä³
ĠÂ¯Â¯Â¿Â¯Â¯ Â·Â±Â¯
ĠÂ¯Â±Â¯Â¯ Ã·
ĠÂ¯Â¯Â±Â°Â¯ Â¸Â¯Â¯
ĠÂ·Â¯ Â·Â¯Â¯Â¯Â¯Â¯
ĠÂ¯Â¯Â· Â¿
ĠÂ¯Â· Â·Â¯Â¯Â·Â¯Â¯
Ãĵ Ãĥ
Ã± Ãĥ
ĠÂ¯Â¯Â±Â¯Â¯ Ã·
ĠÂ¯Â¯Â¯Â° Â±Â°Â¯Â¯
Äı Ãĵ
ĠÂ¯Â°Â¯Â¯ Â¸Â¯Â¯Â¯
Â¯Â° Â¿
Ã¿Ã± Ãģ
ĠÂ¯ Â´Â¯
Â± Â°Â°Â¯Â¯
Â±Â¯ Ã·
ĠÂ¯Â¯Â¯Â±Â¯ Â·Â°Â¯
ĠÂ¯Â¯Â¯Â± Â°
ĠÂ¯Â¯Â¿Â° Â·Â°Â¯Â¯
ĠÄ¯Ã¯ Ãĥ
ĠÂ± Â°
ĠÂ¯Â¿Â± Â°Â¯Â¯Â¯Â¯
ĠÂ¯Â¯Â·Â¯Â¿ Â´Â¯Â¯
Â±Â¯Â¯ Ã·Â°Â¯
Â°Â¯ Â·Â´Â¯
Â±Â¯ Ã·Â¯Â¯Â¯
ĠÄ¯ Âµ
ĠÂ¯Â° Â°Â¯Â¯Â¯Â°Â¯
Ãĩ Ã¯
Ä¯Ãı Ã¯
ĠÂ¿ Â°Â¯Â¯
ĠÂ¯Â¯Ã·Â°Â¯ Â·Â°Â¯
Â¯Â¯ Â°Â¯Â¯Â¯Â¯Â¯
Â·Â¯Â¯ Â¸Â¯Â¯
ĠÂ¯Â¯Â·Â¯Â¯ ÃĹ
ĠÂ¯Â¿Â¯Â¯ ÃĹÂ°Â¯Â¯
Äģ Ãĺ
ĠÂ¯Â±Â¯Â¯ ÃĹ
ÃıÃģ Ä¯Ãı
ĠÂ¯Â¯Â¯Â¯Â¯ÃĹ Â·Â¯
Ãı ÃĴ
Â°Â¯Â¯ Â¿Â·Â¯
ĠÂ¯Â¯Â¯Â° Â·Â±Â¯Â¯
ĠÂ¯Â¯Â° Â°Â¿Â¯Â¯Â¯
ĠÂ¯Â¿Â·Â¯Â¯ Â·Â°Â¯
ĠÂ¯Â¯Â°Â¯Â¯Â¯ Â´Â¯
ĠÂ¿Â¿Â¯Â¯ Â¿Â¯Â¯Â¯
Â°Â¯Â¯ Â»Â¯Â¯
Â¿Â¯ Â±Â¯
ĠÂ¯Â¯Â¯Â°Â¯ Â»Â¯Â¯
ĠÂ¯Â¯Â¿Â° Ã·Â¯Â¯Â¯
ĠÂ¯Â¿Â·Â¯Â¯ ÃĹÂ°Â¯
Â¯Ã· Â¸Â¯Â¯
ĠÂ¯Â¯Â» Â¯Â°Â¯Â¯Â¯
ĠÂ¿Â·Â¯Â¯ Â±Â°Â¯Â¯
Â¯ Â´Â¯Â¯Â¯Â¯Â¯
Â± Ã·
Â·Â¯Â¯Â¯ Â±Â¯Â¯
Ã¿ Ã¿
Ä° Ãĳ
Ä¯Ãĥ Ä¯
ĠÂ° Â°Â¯Â¯Â¯Â¯Â¯Â¯
Ãĳ ÅĦ
Â´Â¯ Ã·Â¯Â¯
ĠÂ¯Â¯Â¯Â·Â¯ Â¿Â°Â¯
Â± Â·Â¯Â¯Â¯Â¯
ĠÂ¯Â· Â±Â¯Â¿Â¯Â¯Â¯
Ã³ Ãģ
ĠÂ¯Â¯Â¯Â° Ã·
Â¯Â¯Â·Â¯Â¯ Â±Â¯Â¯
ĠÂ¯Â¯Â° Â°Â¯Â±Â¯Â¯
ĠÂ¯Â¯Â¿Â¯Â· Â·Â¯Â¯
Â°Â¯Â¯ Â´Â¯
Â¿Â¯Â¯Â¯ ÃĹ
ĠÂ¯Â¯Â¿ Â¿Â¯
Åı Åı
ĠÂ¯Â·Â¯Â¯ Â±Â±Â¯Â¯
ĠÂ¯Â±Â°Â¯Â¯ Â°Â°Â¯
ĠÂ¯Â¯Â¸Â¯ Â±
Â° Â±Â°Â¯Â¯
Â· Â°Â¯Â¯Â¯
Â¯Â¯Â¯Â¯Â¯ Â°
Â¹ Â¹
Ãĥ Ä¯Ãı
ĠÂ¯Â¯Ã· Â¯Â¯Â¯Â±Â¯
ĠÂ¯Â¿Â¯Â¯ Â·Â´Â¯Â¯
Ä´ Ã¯
Ġ Â°Â°Â¯Â¯
Â¯ Â°Â¯Â¿Â¯Â¯
Ã¯ ÅĢ
Ä¯ ÅĢ
Ä¯ Åķ
ĠÂ¯Â¯Â· Â¸Â¯
Â¸ Â±Â¯Â¯
Ä· Ä¯Ãĵ
ĠÂ¯Â·Â¯Â¯Â¯ Â°Â°Â¯
ĠÄ¯Ã¯ Ä·
ĠÂ¯Â¯Â¯Â¯ÃĹ Â¯Â°Â¯
ĠÂ¯Â¯Â´ Â±Â¯Â¯Â¯Â¯
Â°Â¯ Â·Â·Â¯
Ãĥ Ä°
ĠÃ¯ ÃĢ
ĠÂ¯Â°Â°Â¯ Ã·Â¯Â¯Â¯
Â¯Â¯Â¯Â¯ Â·Â°Â¯
Â°Â¯ Â°
Â±Â¯ ÃĹÂ°Â¯Â¯
ĠÂ¯Â¯Â±Â¯Â¯ ÃĹ
ĠÂ¯Â¯Â¯Â° ÃĹÂ±Â¯Â¯
ĠÂ¯Â¿Â¯Â¯Â¯ Â°Â°Â¯
ĠÂ¯Â¯Â¯Â¯Â¯Ã· Â¸Â¯
Â° Â·Â´Â¯Â¯
Â°Â¯ Â¿Â°Â¯
ĠÂ¯Â¯Â¿ Â´Â¯Â¯
Ãĳ Ãģ
ĠÄ¯ Ãħ
ĠÂ¯Â¯Ã· Â¯Â·
ĠÂ¯Â¯Â¯Â±Â¯ Â¿Â°Â¯
ĠÂ¯Â¿Â¯Â¯Â¯ Â»Â¯Â¯
Å¯ Ãĺ
ĠÂ¯Â¯Â¯Â¯Â· Â»Â¯Â¯
Â°Â¯Â¯ Â°Â°Â¯
ÃĹ Â¯Â¯Â¿Â¯Â¯
ĠÂ¯Â± Â·Â¯Â¯
ĠÂ¯Â±Â±Â¯ Â·Â¯Â¯Â¯
ĠÂ·Â¯Â¯Â¯ Â±Â¯Â¯Â¯
Ãı Ä¯Ä¯
Â¯Â¯Â¯Â¯ Â°Â¯Â¯Â¯
Â¯Â¯Â¯Â¯ Â¿Â·Â¯
Â¿Â¯Â¯ Â°Â°Â¯
Â·Â¯ Â¿Â¸Â¯Â¯
ĠÂ¯Â± Â´Â¯Â±Â¯Â¯Â¯
ĠÂ¯Â¯Â¯Â¯Â¿ Ã·Â¯Â¯
Ä± Âµ
ĠÂ¯Ã· Â°
Â¯Â¿Â¯ Â°Â¯
Ã¯ Ä¯Ãı
ĠÂ¯Â¯Â¯ Â¸Â¯Â¯Â±Â¯
Ã± Ã´
ĠÂ¯Â¯Â¸ Â¯Â¿Â°Â¯Â¯
ĠÂ¯Ã· Â¯Â¯Â¿Â¯Â¯Â¯
ĠÂ¯Â°Â°Â¯ Â¸Â¯Â¯Â¯
Â¯Â¯ÃĹ Â·Â¯
ĠÂ¯Â¿Â·Â¯Â¯Â¯ Â¿Â¯
Ġ ÅıÃĥ
Â±Â¯Â¯ Â±Â¯Â¯Â¯
Â¿Â¯Â¯ Â·Â°Â¯
Â¿Â¯Â¯ Â¿Â°Â¯
ĠÂ¯Â¿ Â»Â¯Â¯Â¯Â¯Â¯
ĠÂ¯Â· Â¸
ĠÂ¯Â¿Â¯Â¯Â¯ Â¿Â°Â¯
Â¸Â¯Â¯ Â±Â°Â¯
ĠÂ¯Â·Â¯Â¯Â¯ Â¿
Ã´ Ãı
ĠÂ¯Â¯Â¸ Â°Â¯Â¯Â¯Â¯
ĠÂ¯Ã· Â°Â¯Â¯Â¯Â°Â¯
Ã¯Ã± Ä¯
ÃıÃ° Ãģ
ĠÂ¯Â¯Â¯Â¯Â¿Â¯ Â·Â¯
ÅıÄ³ Ãģ
Â± Ã·Â´Â¯Â¯
Ãı Ã²
Ãı ÃĨ
ÃĹ Â¯Â·Â°Â¯Â¯
ĠÂ¯Â¯Â°Â¯ Ã·Â´Â¯Â¯
Ã¹ Ä¯
ĠÂ¯Â° Â°Â¯Â¯Â¯Â±Â¯
ĠÂ¯Â±Â¯Â¯ Â·Â±Â¯Â¯
ĠÂ¯Â¿Â·Â¯Â¯ Â¸Â¯Â¯
ĠÂ¯Â¯Â´Â¯Â¯ Â¸Â¯Â¯
ĠÂ¯Â¯Â±Â°Â¯ Â´Â¯Â¯
ĠÂ¯Â¯Â¿Â±Â¯ Â±Â°Â¯
ĠÂ¯Â·Â·Â¯ Â±Â¯Â¯Â¯
Â° Ã·Â±Â¯Â¯
Ä¯ Ä¯Ãı
Â¿Â¯Â¯Â¯ Â´Â¯Â¯
ĠÂ¯Â¯Â¯Â¯Â¯Â¯ Ã·Â¯
ĠÂ¯Â¯Â¯Â±Â¯ Â¿
ĠÂ¯Â±Â¯Â¯Â¯ Â¿Â±Â¯
ĠÂ¯Ã· Â·Â¯
Ġ Ä¿Ãģ
Ã¯ Äĩ
ĠÂ¯Â¯Ã· Â¯Â°Â¯Â¯Â¯
ĠÂ¯Â·Â¯Â¯ Â·Â±Â¯Â¯
Â¯ÃĹ Â¯Â¯Â¯Â¯Â¯
Â¯Â¯Ã· Â¸Â¯
ĠÂ¿Â¿Â¯Â¯Â¯ Â·Â¯Â¯
ĠÂ¯Â¿ Ã·Â¯Â¯Â¯Â¯Â¯
Ä¿ Ä¯Ãģ
ĠÂ¯Â¯Â±Â¯ Â·Â´Â¯Â¯
Â¯Â¿ Â¸Â¯
ĠÂ¯Â¯Â·Â° Ã·Â¯Â¯Â¯
Â¯Ã· Â¿Â¯Â¯
Ä¿Ä³ Ãĵ
Ãı Åĳ
Â±Â¯Â¯ Â´Â¯
ĠÂ¯Â± Â´
Â¿Â¯ Â¿Â¿Â¯Â¯Â¯
ĠÂ¯Â¯Ã· Â±Â¯Â¯Â±Â¯
ĠÃı Ã¿
Âº Ãı
ĠÂ¯Â¿Â°Â¯Â¯ Ã·Â¯Â¯
Â¯Â° Â·Â¯Â¯Â¯
Æı Ãģ
Â¸ Â¿Â¯Â¯Â¯
Ã³ Ã±
ĠÂ¯Â± Â´Â¯Â·Â¯Â¯Â¯
Â± Â·Â±Â¯Â¯
Â°Â¯ Â±
Â´ Â±Â¯Â¯
ĠÂ¯Â· Â¸Â¯Â¯
ĠÂ¯Â· Â¯Â¿Â·Â¯Â¯Â¯
ĠÂ¯Â¯Â±Â¯ Ã·
Ãĳ Ä³
Â¯Â· Â¿Â¯Â¯Â¯
Ã° Ãĵ
ĠÂ¯Â¯Â¿Â° Â¿
ĠÂ¯Â¯Â¯Â· Â·Â°Â¯Â¯
ÃıÄ± Ãĵ
ĠÂ¯Â¯Â¿ Â·Â¯Â¯Â·Â¯
ĠÂ¯Â¯Ã· Â¯Â¿
Åĥ Ä¯
ĠÂ¯Â·Â¯Â¯Â¯ Â·Â°Â¯
ĠÂ¯Â¯Â·Â° Â¿Â°Â¯Â¯
ĠÂ¯Â±Â° Â¿
ĠÂ¯Â¯ÃĹÂ± Â¿
ĠÂ¯Â¯Â·Â°Â¯ Â·Â°Â¯
ĠÂ¯Â¯Â·Â¯Â¿ Â¿Â¯Â¯
ĠÂ¯Â¯Â¯Â¯Â·Â¯ Â¿Â¯
Â±Â¯ Â°Â¯
Â¿Â¯ Â±
ĠÄ¯ Åī
ĠÂ¯Â¯Â± Â±Â¯Â±Â°Â¯
Â» Â¯Â±Â¯Â¯Â¯
ĠÂ¯Â¯Â´Â¯Â¯ Â»Â¯Â¯
ĠÂ¯Ã· Â·Â¯Â¯Â¯Â¯Â¯
Â· Â¿Â¯
Â¿Â¯Â¯ Â¸Â¯Â¯
Â±Â¯Â¯Â¯ Â¿Â¯Â¯
ĠÄ¯Ã¯ ÃĶ
ĠÂ¯Â¿Â·Â¯ Â·Â´Â¯Â¯
Â±Â¯Â¿ Â´Â¯Â¯
ĠÂ¯Â±Â°Â¯Â¯Â¯ Â¿Â¯
Â¯ Â´Â°Â¯
Â·Â¯ Â°Â¯
ĠÂ¯Â¯Â¯Â° Â¿Â¸Â¯Â¯
ĠÂ¯Â¯Â¯Â°Â¯ Â·Â±Â¯
ĠÂ¯Â¯Â¯Â¯Â¿ Â·Â°Â¯
Å¯ Ã¿
ĠÂ¯Â¯Â» Â°Â¯Â¯Â¯Â¯
ĠÂ·Â¯ Â°Â¯Â¯Â¯Â¯Â¯
ĠÂ¯Â¯Â¯Â¯Â¿Â¯ Â¿Â¯
Â¿ Â°Â¯Â¯Â¯Â¯Â¯
ĠÂ¯Â¿ Ã·Â¯
ĠÂ¯Â¯ÃĹ Â·Â¯
ÃĻ ÃĦ
ĠÂ¯Â°Â°Â¯ ÃĹÂ´Â¯Â¯
ĠÂ¯Â¯Â·Â¯Â· Â·Â¯Â¯
ĠÂ¯Â·Â´Â¯ Â±Â¯Â¯Â¯
ĠÂ¯Â¯Â¯Â¿Â¯Â¯ Â°Â¯
Â¯ Â±Â¿Â¯Â¯Â¯
Ãı Ãł
Â¿ Â¯Â¯Â¯Â¯Â±Â¯
Â±Â¯Â¯ Â·Â·Â¯
Ä³ Ãĳ
Ä³ Ã¹
Â¿Â¯ Ã·
ĠÃ¯ Ãĺ
ĠÂ¿ Â¸Â¯Â¯
ĠÂ¯Â°Â¯Â¯Â¯ Â·Â°Â¯
ĠÂ¯Â¿Â·Â¯Â¯ Â·Â·Â¯
ĠÂ¯Ã· Â¯Â¯Â¯Â¯Â°Â¯
ĠÂ¯Â¿Â±Â¯Â¯ Â·Â°Â¯
ĠÂ¿Â·Â¯Â¯Â¯Â¯ Â±Â¯
Â¯Â¯ Ã·Â¯
ĠÂ¯Â¯Â¿ Â¸Â¯Â°Â¯Â¯
Åı Ä¯Ã¯
ĠÄ¯ ÃĢ
ĠÂ¯Â·Â¯ Â±
ĠÂ¯Â¯ÃĹÂ±Â¯ Â·
ĠÂ¯Â¿Â¸ Â¯Â¿Â¯Â¯Â¯
Ä¯ Ä£
ĠÂ¯Â¯Â¿Â¯ Â±Â±Â¯Â¯
Ã· Â¯Â¯Â°Â¯Â¯
ĠÂ¯Â¯Â°Â¯Â¯ Â·Â·Â¯
ĠÂ¯Â¯Â¯Â±Â¯ Â»Â¯Â¯
ĠÂ¯Â° ÃĹÂ¯Â¯Â¯Â¯Â¯
Ã¯Ãĵ Ä¯
ĠÂ¯Â¯Â´Â¯Â¯ Â±Â°Â¯
ĠÂ¯Â¿ Â¿Â¯Â¯Â°Â¯Â¯
ĠÂ¯Â¿ Â¯Â¿Â¿Â¯Â¯Â¯
Ã· Â±Â¯Â¯Â¯
Ã³ Ãĥ
ĠÂ¯Â¯Â±Â¯Â¯Â¯ Â¸Â¯
Â¯Â¯Ã· Â¯Â¯Â¯Â¯Â¯
Ä¯ Ã§
Ã¿ Ä°Ãģ
Ãĥ Ãĳ
Â·Â¯ Ã·Â°Â¯Â¯
Ãĵ Ä°
ĠÃ¯ Ä·
ĠÂ¯Â¯Â¯Â·Â¯ Ã·Â¯Â¯
ĠÂ¯Â±Â°Â¯Â¯ Â¿
ĠÂ¯Â±Â±Â¯ Â°Â¯Â¯Â¯
ĠÂ¯Â·Â°Â¯Â¯ Â´Â¯Â¯
ĠÂ¯Â¯Â°Â°Â¯ Â°Â°Â¯
ĠÂ¯Â¯Â¿Â¯ Â¿Â¸Â¯Â¯
ÃĢ Ã±
ĠÂ¯Â¿Â¯Â¯Â¯ Â·Â±Â¯
ĠÂ¯Â¿Â¯Â¯Â¯ Â·Â·Â¯
ĠÂ¯Â¯Â´Â¯Â¯Â¯ Â·Â¯
ĠÂ¯Â¯Â¿Â¯Â¿ Â¿Â¯Â¯
Â°Â¯Â¯ Â·Â±Â¯
Â·Â¯Â¯Â¯ Â¿Â¯Â¯
Â´Â¯Â¯ Â·
ĠÂ¯Â¿Â¯Â¯ Â°Â°Â¯Â¯
ĠÂ¯Â·Â¯Â¯ Â°Â°Â¯Â¯
Ä¯Ãģ Ã¯
Â¯Â¯Â¯Â¿ Â´Â¯
Ã· Â¯Â¿
Â¯Â°Â¯Â¯ Â°Â¯Â¯
Â¯ÃĹ Â±Â¯
ĠÂ¯Â¯Ã·Â± Â¸Â¯Â¯Â¯
ĠÂ¯Â¯Â¿Â· Â·Â¯Â¯Â¯
ĠÂ¯Â¯Â¯Â°Â¯ Â¿
Ã¹ Ã¯
ĠÂ¯Â¯ÃĹÂ¯ Ã·
ĠÂ¯Â¿Â· Â°
ĠÂ¯Â¯Ã·Â´Â¯ Â±Â°Â¯
Ãı ÅĲ
Â°Â¯ Â·Â±Â¯
Ã· Â±
ĠÂ¯Â¯Â·Â¯Â¯ Â¿
ĠÂ¯Â¯ÃĹ Â¯Â¿Â¸Â¯Â¯
Â´Â¯ Â·Â´Â¯
Ã¯Ã° Ä¯
ĠÂ·Â¯ Â¿Â¯Â¯Â¯Â¯Â¯
ĠÂ¯Â¯Â¯Â¯Â±Â¯ Â·Â¯
Â±Â¯ Â±Â¯
Åı Ã¹
ĠÂ¯Â· Â¿Â¯Â·
ÃĹÂ¯Â¯Â¯ Â°Â¯
Å¿ Ã±
ĠÂ¯Â°Â°Â¯ ÃĹ
ĠÂ¯Â¿Â¸Â¯Â¯ ÃĹ
ĠÂ¯Â¯Ã· Â±Â¯Â¯
ĠÃı Ã±
ĠÂ¯Â°Â¯Â¯Â¯ Â¿Â·Â¯
Ã¯ÃĲ Ä¯
ĠÂ¯Ã· Â¸Â¯Â¯Â¯Â¯Â¯
ĠÂ¯Â¯Â» Â¯Â¯Â¿Â¯Â¯
ĠÂ¯Â¯Ã·Â°Â¯ Ã·Â¯Â¯
ĠÂ¯Ã·Â°Â¯Â¯ ÃĹÂ¯Â¯
ĠÂ¯Â¯Â·Â¯Â± Â·Â¯Â¯
Â¯ Â¸Â°Â¯
Ã¯ Ãµ
Ã¯ Ã»
Ã¿ Åĺ
ĠÂ¯Â¿ Â»
ĠÂ¯Â¿ Â¿Â¯Â¯Â±Â¯Â¯
Â·Â¯ Â±Â¯
Ä³ Äĥ
Â´Â¯ Â¸Â¯Â¯
ĠÂ¯Â¯Â° Â°Â¯Â¿Â¯Â¯
ÃıÃģ Ä¯Ãĵ
Â¯ÃĹ Â´Â¯
ĠÂ¯Â¯Â¯Â¯Â¯ÃĹ Â¸Â¯
Â±Â¿ Â¿Â¯Â¯
Â¯Â¯Â± Â·Â¯Â¯
Â¯Â¯Â¯ Â¿Â¸Â¯Â¯
Ãı Ä¯Ãı
ĠÂ¯Â¯Â°Â¯ Â¸Â°Â¯Â¯
ÃĶ Ã¯
Ãĺ Ä¯
ÅŁ Ãĥ
ĠÂ¯Â±Â±Â¯ Â¿
ĠÂ¯Â¿Â°Â¯ Â±Â°Â¯Â¯
ÃıÄ± Ãģ
ĠÂ¯Â¯Â°Â° Â·
Â¯Â¯Â¯Â¯ Â¿
ĠÂ¯Â¯Â·Â¯ ÃĹ
ĠÄ¯ Å¯
ĠÂ¯Â¯ÃĹÂ°Â¯ ÃĹÂ°Â¯
ĠÂ¯Â¸ Â°Â¯Â¯Â¯Â¯Â¯
ĠÂ¯Â¯Â±Â¯Â· Â·Â¯Â¯
ÅıÄ± Ãģ
Â¯Â¯Â¯ÃĹ Â¸Â¯
Ä¿Ä³ Ãģ
Å µ
Ġ Â±Â¯Â¯Â¯Â¯Â¯
Ġ Âº
Åı ÃŁ
Åı ÃıÃ¯
Ä° Ã±
Ã³ Âµ
ĠÂ¯Â¯ÃĹ Â°Â¯Â¯Â·Â¯
ĠÄ¯Ã¯ Åı
ÃıÃı Ã¯
ĠÂ¯Â°Â°Â¯ Â·Â´Â¯Â¯
ĠÂ¯Â¯Ã·Â°Â¯ Â´Â¯Â¯
ĠÂ¯Â¯Ã· Â¯Â¿Â°Â¯Â¯
Â±Â°Â¯ Â±Â¯Â¯Â¯
ĠÂ¯Â·Â¯Â¯Â¯ Â»Â¯Â¯
ĠÂ¯Â¯Â¯Â¿ Â·
Ä¸ Ä¯
ĠÂ±Â¯Â¯Â¯Â¯ Â°Â¯Â¯
ĠÂ¯Â¯Â°Â¯Â· Â·Â¯Â¯
ĠÂ¯Â¯Â°Â° Â·Â°Â¯Â¯
ĠÂ·Â¯Â¯Â¯Â¯Â¯ Â°Â¯
Ġ Â¼
Ã¯ Ã§
ĠÂ¯Â¯Â¿ Â¶
ĠÂ¯Â¯Ã· Â¯Â·Â°Â¯Â¯
Â¯Â· Â¯Â¯Â¯Â¯Â¯Â¯
Ä¯Ä¯ Ä¯
ĠÂ¯Â¯Â¸ Â±
ĠÂ¯Â¿Â°Â¯Â¯ Â·
ĠÂ¯Â¯ÃĹÂ°Â¯ Â´Â¯Â¯
ĠÂ¯Â¿Â±Â¯Â¯ Â¿Â°Â¯
ĠÂ¯Ã·Â¯Â¯ Â±Â¯Â¯Â¯
ĠÂ¯Â· ÃĹÂ¯Â¯Â¯Â¯Â¯
ĠÂ¯Â± Â±Â¯Â¯Â¯Â±Â¯
ĠÂ¯Â¯Â± Â·Â¯
ĠÂ¯Â¿Â·Â¯ Â¿Â¸Â¯Â¯
ĠÂ¯Â¯Â·Â° Â°Â¯Â¯Â¯
ĠÂ¯Â°Â°Â¯Â¯ Â°Â°Â¯
ĠÂ¯Â·Â±Â¯ Â°Â¯Â¯Â¯
Â¯ Â´Â¯Â¯Â¯Â¯
Â± ÃĹÂ±Â¯Â¯
Â´ Â·
Â´Â¯Â¯ ÃĹÂ¯Â¯
ĠÂ¯Â¯Â±Â¯ Â°
Â·Â¯ Â·Â±Â¯Â¯
ÃĹÂ¯Â¯ ÃĹÂ¯Â¯
ĠÃı ÃĦ
Â¯Â° Â¿Â±Â¯Â¯
ĠÂ¯Â±Â¯ Â¿
Â°Â¿ Â¿Â¯Â¯
ĠÂ¯Â´ Â¯Â¯Â¯Â±Â¯Â¯
Â¯Â¯ Â¸
Â±Â¯Â¯ Â»Â¯Â¯
ĠÂ¯Â· Â¿Â¯Â¯Â°Â¯Â¯
ĠÂ¯Â¯Â°Â¯Â¯ ÃĹ
ĠÂ¯Â± Â¿Â¯Â¯
ÃĲ ÃĦ
Ã° Ãĳ
ĠÂ¯Â°Â¯Â¯ Â·Â´Â¯Â¯
ĠÂ¯ÃĹ Â·Â¯Â¯Â¯Â¯Â¯
Â¯Â° Â¿Â·Â¯Â¯
ĠÂ¯Â¯Â¯Â¸Â¯ Â±Â°Â¯
Â¯Â¯ÃĹ Â¸Â¯
ĠÂ¯Â¯Â¸Â¯Â¯Â¯ Â±Â¯
Â¯Â¯Â¯ Â·Â¯Â¯Â¯Â¯
Â¯Â¯Â¯ Â¿Â¯Â¯Â¯Â¯
Â°Â¯ ÃĹÂ´Â¯
ĠÂ¯Â¯Â· Â·Â¯Â±Â¯Â¯
Ã· Â¸Â¯Â¯
Ãĵ ÃĢ
ÃĻ Ã¯
Äĥ Ã¯
ĠÂ¯Â°Â¯Â¯ ÃĹ
ĠÂ¯Ã· Â±Â¯Â¯Â±Â¯Â¯
ĠÂ¯Â¿Â±Â¯ Â¿Â·Â¯Â¯
Â¯Â¯Â·Â¯ Â°Â¯Â¯Â¯
ĠÂ¯Â¿Â¯Â¯Â¯Â¯ Â´Â¯
ĠÂ¯Â¯Ã·Â´Â¯ Ã·Â´Â¯
Ġ Â¸Â¯
Ã¯ ÅĻ
Ãı Ã¡
Â±Â¯Â¯Â¯ Â¸Â¯
Â¯Â· Â¸Â¯
ĠÂ¯Â¯Â¿Â¯Â¯Â¯ Â´Â¯
Â¯Ã· Â¯Â¯Â¯Â¯Â¯
ĠÂ¯Â¿Â°Â¯Â¯ Â´Â¯Â¯
ĠÂ¯Â¯Â·Â± Â¿Â·Â¯Â¯
Â¯Â¯Â·Â¯ Â±Â´Â¯Â¯
ĠÂ¯Â¯Â¯Â¯Â¯Ã· Â·Â¯
Â¯Â¯Â¯ ÃĹÂ¯
Ãı ÄĢ
Ãĥ Âµ
Â´Â¯Â¯ Â±Â°Â¯
ĠÂ¯Â¯Ã· Â·Â¯Â¯Â¯Â¯
Åĵ Âµ
Å¯ Äı
Â» Â¯Â±Â¯Â¯
Â» Â¯Â°Â¯Â¯
ĠÂ¯Â¿Â·Â¯Â¯ Â°Â°Â¯
ĠÂ¯ÃĹ Â¯Â¯Â¯Â¯
ĠÂ¿Â·Â¯Â¯ Â°Â¯Â¯Â¯
Ã¯Ä± Ãģ
Ã¯ Ä¯Ãĥ
ĠÂ¯Â¯Â¯Â¯Â¯ Â·Â¯
Ä¯ Ä¡
Ãĥ Ãĥ
ĠÂ¯Â¯Â±Â¯Â¯ Â·Â´Â¯
Â¿Â¯ Ã·Â´Â¯Â¯
ĠÄ¯ Ä°
Äı Âµ
ĠÂ¯Â±Â¯Â¯Â¯ Â¿Â·Â¯
ĠÂ¿ Â±Â¯Â¯
ĠÂ¯Â¯Ã·Â° Â·
ĠÂ¯Â¯Â¸Â¯ Â°Â´Â¯Â¯
ĠÂ¯Â¯Â» Â±Â¯Â¯Â¯Â¯
ĠÂ¯Â¿Â°Â¯ ÃĹÂ¯Â¯Â¯
ĠÂ¯Â¯Â¿Â°Â¯ Â´Â¯Â¯
ĠÂ¯Â¿Â±Â¯Â¯ ÃĹÂ¯Â¯
Ã¯ Ãº
Â· Ã·Â¯Â¯Â¯
Â°Â¯ Â¿Â±Â¯
ĠÂ¯Â¯Â¿ Â·Â¯Â¯Â°Â¯
ĠÂ¯Â¯Â¯Â¯Â¯Â¯ Â¶Â¯
Ä° Åı
Ãģ Ä¯Ãı
ĠÄ¯ Ä¹
Â·Â¯Â¯Â¯Â¯ Â±Â¯
ĠÂ¯Â¯Â¯Â· Â¿
ĠÂ¯Â¯Â±Â° ÃĹÂ¯Â¯Â¯
Â¯Â¯Â¿ Â»Â¯Â¯
ĠÂ¯Â¿Â°Â¯ Â¿Â±Â¯Â¯
ĠÂ¿Â·Â¯Â¯ ÃĹÂ¯Â¯Â¯
ĠÂ¯Â¯Â°Â¯Â· Â¿Â¯Â¯
Â±Â¿ Â¿Â¯Â¯Â¯
Ã¯ Äī
ĠÂ¯Â¯Â· Â±Â¯Â¯Â°Â¯
Ã± Ãĺ
ĠÂ¯Â¯ÃĹ Â¯Â¯Â¯Â´Â¯
Â¿Â¯ Â°Â°Â¯Â¯
Äĥ Ãĳ
Â´Â¯Â¯Â¯ Â·Â¯
ĠÂ¯Â¯Â±Â° Â¿Â¸Â¯Â¯
Ã¯ÃĢ Ä¯
ĠÂ¯Â¯Â·Â± Â¿
ĠÂ¯Â¯Ã·Â¯Â¯ Ã·Â¯Â¯
Â¯Â¯Â¯ Â°Â±Â¯
Ä¯ Äĭ
Â±Â¯ Â´Â°Â¯
Ä° Ä¿
Â·Â¯ Â±Â±Â¯
Ãĵ ÃĲ
ĠÄ¯ ÃĲ
Â¸Â¯Â¯ Â¿Â¯
Ã° ÃĶ
ĠÂ¯Â¯Â¸ Â¯Â¿Â·Â¯Â¯
ĠÂ¯Â¯ÃĹÂ° Â¸Â¯Â¯Â¯
ĠÂ¯ÃĹÂ¯Â¯ Â±Â¯Â¯Â¯
ĠÂ¯Â¯Â¿Â·Â¯ Â±Â°Â¯
ĠÂ¯Â¯Â¿Â· Â·
ÅıÃ³ Ãģ
ĠÂ¯Â¯Â¯Â¯Â¸ Â¿Â¯Â¯
Ã¯ ÄĻ
Â°Â¯ Â·Â¯
Ãĥ Ã±
ĠÂ¯Â¿ ÃĹÂ°Â¯Â¯Â¯Â¯
ĠÂ¯Â¯Â¿Â¯ ÃĹÂ´Â¯Â¯
ĠÂ¯Â¯Â·Â¯Â¯ Ã·
Ä³ Ãĵ
Â¿Â¯ Â°
ÅĹ Ã³
ĠÂ¿Â·Â¯Â¯Â¯ Â±Â°Â¯
ĠÂ¯Â¸ Â¯Â¯Â¯Â·Â¯Â¯
Â¯Â¯Â¯Â¯Â¯ Â´Â¯Â¯
Äı ÃŁ
Â» Â¯Â¿Â¯Â¯Â¯
ĠÂ¯Â¯Â´Â¯Â¯ Â¿Â±Â¯
ĠÂ¯ÃĹ Â°
ĠÂ¯Â¯Â¸Â¯ Â´Â¯Â¯Â¯
ĠÂ¯Â±Â¯ Â±
Å »
Â± Ã·Â°Â¯Â¯
Ãĳ Ã³
ĠÃ¯ Äģ
Â´Â¯ Ã·Â´Â¯Â¯
Ãĺ Ã¯
ĠÂ¯Â±Â¯Â¯Â¯ Ã·Â¯Â¯
ĠÂ±Â¯Â¯Â¯Â¯ Â±Â¯Â¯
ĠÂ¯Â¿Â¸ Â¯Â¿Â¸Â¯Â¯
ĠÂ¿Â· Â¿Â¯Â¯Â¯Â¯Â¯
Â°Â¯ ÃĹÂ°Â¯
Â¸ Â¿Â·Â¯Â¯
ĠÂ¯Â¯Â·Â¯Â¯ Ã·Â°Â¯
ĠÂ¯Â¯Â± Â±Â¯Â¿Â¯Â¯
Â´Â¯Â¯Â¯ Â¿Â¯
Ã¯Ã¯ Ã¯
Å± Ãĵ
Â¯Â·Â¯ Â°Â¯
ĠÂ¯Â¯Ã·Â±Â¯ Â·
Ãı Äĩ
ĠÂ¯Â¯Â¿ Â·Â¯Â¯Â±Â¯
ĠÂ¯Â¯ÃĹ Â¯Â¯Â·Â°Â¯
Â¯Â· Â·Â¯Â¯Â¯
Ã° ÃĲ
ÃıÃģ Ä¯Ä³
Åĺ Ãĥ
Ã² Ãı
ĠÂ¯Â¯Â¯Â¯Â´ Â·Â¯Â¯
ĠÂ¯Â¯Â¿Â¯ Â°Â´Â¯Â¯
Ä° Ä¯Ã¯
ĠÂ¯Â¯ÃĹ Â¯Â¯Â¯Â¿Â¯
ĠÃı ÃıÃ¯
ĠÂ¯Â¿Â´Â¯Â¯ Â¿Â¯Â¯
Â° Ã·Â´Â¯Â¯
Â´ Â¯Â¿Â·Â¯
ÃĹ Â±
Ä¿ Ã¿
ĠÂ¯Â¯Â¯Â° Â¸Â¯Â¯Â¯
ĠÂ· Â¿Â¯Â¯Â¯Â¯Â¯Â¯
ĠÂ· Â°Â¯Â¯Â¯Â¯Â¯Â¯
Ã¯Ãĳ Ãı
ĠÂ¯Â¯Â·Â± Â¿Â°Â¯Â¯
ĠÂ¯Â¿Â±Â¯Â¯ Â±Â°Â¯
Â¯Â¯Â± Â·Â¯
ĠÃ¿ Ãģ
ĠÂ¯Â¯ÃĹÂ´Â¯ ÃĹÂ´Â¯
Ġ Â´Â¯Â¯Â¯Â¯
Â´Â¯Â¯ Â´Â¯
Â·Â¯ Ã·
ĠÂ¯Â¯Â°Â¯ Â°
ĠÂ¯Â¯Â±Â±Â¯ Â±Â±Â¯
ĠÂ¯Â¯Â¯Â¯Â¯ Â»Â°Â¯
Â· Â·Â´Â¯Â¯
Â¿ Â°Â·Â¯Â¯Â¯
Â¿Â¯Â¯ Ã·Â°Â¯Â¯
Â¿Â¯Â¯ Â±Â±Â¯
Â¿Â¯ Â¿Â¯Â¯Â¯Â¯
ĠÄ¯ Äı
ĠÂ¯Â¯Â¯Â°Â¯ ÃĹÂ°Â¯
ĠÂ¯Â·Â¯Â¯ Ã·Â´Â¯Â¯
ĠÂ¯Â¯Â¯Â´Â¯ Ã·Â¯Â¯
ĠÂ¯Â¯Â¿Â± Â¿Â±Â¯Â¯
ĠÂ¯Â¯Â´ Â°
ĠÂ¯Â¿Â°Â¯ Â¿Â°Â¯Â¯
ĠÂ¯Ã·Â¯Â¯ Â·Â¯Â¯Â¯
ĠÂ¯Â·Â±Â¯ Â·Â¯Â¯Â¯
Â¯Â¯Â° Â´Â¯Â¯
ĠÂ¿Â¿Â¯ Â¿Â¿Â¯Â¯Â¯
Ġ Åĵ
Â¯ Â±Â¯Â±Â¯Â¯
Â¯Â¯ Â»Â±Â¯
Â´ Â¯Â¿Â·Â¯Â¯
Â·Â¯ Â¿Â±Â¯
Ãĵ Âµ
ĠÂ¯Â¯Â±Â¯Â¯ Â¿Â¿Â¯
Ä¯Ãı Ãı
ĠÂ¯Â±Â°Â¯ Ã·Â´Â¯Â¯
ĠÂ¯ÃĹ Â°Â¯Â¯Â¯Â°Â¯
ĠÂ¿Â·Â¯Â¯ Â¿Â·Â¯Â¯
ĠÂ¯Â·Â°Â¯ Â°Â¯Â¯Â¯
ĠÂ¿Â¯ Â·Â¯
Â±Â¿ Â»Â¯Â¯
ĠÂ¯Â¿Â¸Â¯Â¯ ÃĹÂ¯Â¯
ĠÂ·Â¯Â¯Â¯Â¯Â¯ Â±Â¯
Ä¯ ÅĶ
ĠÂ¯Â¯Â·Â¯Â¯ Â·Â´Â¯
Â¿Â¯ Â¿Â¯
Â¸Â¯Â¯ Â·
ĠÂ¿ Â¸Â¯Â¯Â¯
ĠÂ¯Â±Â°Â¯Â¯ Â¿Â±Â¯
ĠÂ¯Â¯ÃĹÂ°Â¯ Â·Â°Â¯
Æı Ã¿
ĠÂ¯Â¿Â±Â¯Â¯ Â·
ĠÂ·Â·Â¯Â¯ Â·Â¯Â¯Â¯
ĠÂ¯Â¯Â±Â¯ Â°Â±Â¯Â¯
Â¸Â¯Â¯ ÃĹÂ´Â¯
ĠÂ¯Â¯Â¯Â¯Â· Â°Â°Â¯
ĠÃ¯Ãı Ä¯
Ä¯Ãģ Ä¯
Â¯Â±Â¯Â¯ Â·Â¯Â¯
ĠÂ¯Â¯Â´Â¯ Ã·
Â°Â¿ Â´Â¯Â¯
ĠÂ¯Â» Â±Â¯
ĠÂ¯Â¯Â·Â·Â¯ Â·Â·Â¯
Ä¿Ä³ Ãĥ
Ã ¢
Â°Â¯Â¯ Â±Â±Â¯
ÃĹ Â±Â¯Â¯Â¯
ĠÂ¯Â¿ Â¿Â¯Â·Â¯Â¯Â¯
ĠÂ¯Â¿ ÃĹÂ¯Â¿Â¯Â¯Â¯
ĠÂ¯Â· Â»Â¯Â¯Â¯Â¯Â¯
Ä¿ Ãĩ
ĠÄ¯ ÄĹ
ĠÃ¯ Äĥ
ĠÂ¯Â° Â·Â¯Â¯
ĠÂ¿ Â°Â¯Â¯Â¯
ĠÂ¯Â¯Â¿Â°Â¯ Ã·Â¯Â¯
ĠÂ¯Â±Â±Â¯Â¯ Â·
Â¯Â¯Â° Â·Â¯
ĠÂ¿Â¯Â¯ Â°Â¯Â¯Â¯Â¯
ĠÂ¯Â¯Â°Â¯Â¿ Â´Â¯Â¯
Â¯Â¯Â¯Â¯ Â·Â¯Â¯Â¯
Â°Â¯ Â±Â¯
ĠÂ¯Â· Â¯Â¿
Â´Â¯Â¯ Â´Â¯Â¯
Ãģ Ãĵ
ĠÂ¯Â¯Â°Â¯Â¯ Â´Â°Â¯
ĠÂ¯Â¯Â±Â¯Â¯ Ã·Â±Â¯
ĠÂ¯Â¯Â¿Â¯Â¯ Â·Â·Â¯
ĠÄ¯ Ãķ
ĠÂ¯Â·Â¯Â¯ ÃĹÂ±Â¯Â¯
Äĥ Ä¯
Â» Â¯Â·Â¯Â¯
ĠÂ¯Â¯ÃĹÂ± Â¿Â±Â¯Â¯
ĠÂ¯Â¯ÃĹÂ±Â¯ Â¸Â¯Â¯
Ġ Â´Â¯
Â¯Â¯Â¯ Ã·Â´Â¯Â¯
ÃĲ ÃĢ
ĠÂ¯Â¯Â¯Â°Â¯ Â·Â·Â¯
ĠÂ¯Â¿Â¯Â¯Â¯ Â¿Â±Â¯
ÅĲ Ãģ
ĠÂ¯Â¯Â¯Â· ÃĹÂ¯Â¯Â¯
ĠÂ¯Â¯Ã·Â° Â¿Â°Â¯Â¯
ĠÂ¯Â¯Â¿Â± Â°Â¯Â¯Â¯
Â¯Ã· Â°Â¯
ĠÂ¯Â¯ÃĹÂ± Â·Â¯Â¯Â¯
ĠÂ± Â±
ĠÂ¿Â¿Â¯Â¯ Â¿Â·Â¯Â¯
ĠÂ¯Â¸ Â°Â¯
ĠÂ¯Â·Â¿Â¯ Â°Â¯Â¯Â¯
ĠÂ·Â·Â¯Â¯Â¯ Â°Â¯Â¯
ĠÂ¯Â¯Â·Â·Â¯ Â·
Ã¯ ÄĲ
ĠÂ¯Â¯Â¯Â¯Â¯ Â»
Â°Â¯Â¯ Â¿
Â¿Â¯Â¯ Â¿Â¿Â¯
ĠÂ¯Â¿ Â¿Â¯Â¯Â·Â¯Â¯
Ã· Â¯Â¯Â·Â¯Â¯
Äı Ãĺ
Â¸Â¯ Â°Â¯Â¯Â¯
ĠÂ·Â¯ Â·Â¯
ĠÂ¯Â¯Â±Â¯Â· Â¿Â¯Â¯
ĠÂ¯Â¯Â¯ Ã·Â¯
Ä¿ Ãħ
ĠÂ¯Â¯ÃĹ Â´Â¯Â·Â¯Â¯
ĠÂ¯Â¯Ã· Â·Â¯
ĠÂ¯Â¿Â·Â¯ Â¸Â¯Â¯Â¯
ĠÂ¯Â°Â¯Â¯ Â¿Â°Â¯Â¯
Â¯Â±Â¯Â¯ Â±Â¯Â¯
Â¯Â¯Â¿ Â°Â¯Â¯Â¯Â¯
Â¯ÃĹ Â°Â¯Â¯Â¯Â¯
ĠÂ¯Â¯Â¯Â¯ÃĹ Â¯Â±Â¯
Â¯Ã· Â¯
ÃıÃ´ Ãģ
Ġ Äĥ
Ġ ÅıÃı
ĠÂ¯ Â»Â¯
Ã¯ Äĵ
Ä¯ Ãº
Â¯Â¯Â¯Â¯Â¯ Â±
Â·Â¯Â¯ Â¿Â±Â¯
Ã¿ Ãĩ
Â´ Â¿Â±Â¯Â¯
Ã³ Ãĵ
ÃĢ Ãĳ
Â´Â¯ Ã·Â´Â¯
ĠÂ¯Â±Â°Â¯ Â¿Â°Â¯Â¯
ĠÂ¯Â¯Â¿Â° Â°Â¯Â¯Â¯
ĠÂ¯Â¯Â¯Â¯Â± ÃĹÂ¯Â¯
Â¯Â°Â¯ Â±Â¯Â¯Â¯
ĠÂ±Â¯ Â¿Â¯Â¯Â¯Â¯Â¯
ĠÂ¯Â·Â´Â¯Â¯ Â±Â¯Â¯
Ã¯ Å¿
Â¯Â¯Â¯Â¯ Â¿Â¯Â¯Â¯
Â·Â¯Â¯ Â¿
Â°Â¯ Â¿Â¿Â¯
ĠÂ¯Â¯Â· Â´Â¯Â°Â¯Â¯
Åı Ãĭ
ÃĹ Â¿Â¯Â¯
ĠÂ¯Â¯Â¯Â° Â°
ĠÃ¯ Ä¿
ĠÂ¯Â° Â¿
ĠÄ¯Ã¯ Ä¿
ĠÂ· Â±
ĠÂ¯Ã· Â°Â¯Â¯Â¯
ĠÂ¯Â¯Â¯Â´Â¯ Â·Â°Â¯
ĠÂ¯Â¯Â¯Â°Â¯Â¯ Â¸Â¯
ĠÂ¯Â¯Â·Â°Â¯ Â·
Â¯Â¯Ã· Â·Â¯
ĠÂ¯Â¯Â¯Â´Â¯Â¯ Â·Â¯
Â¯Â¯ Â»Â±Â¯Â¯
Ã¿ ÃĶ
ĠÂ¯Â¯Â¯Â° Â±
ĠÂ¯Â¯Â¯Â±Â¯ Â·Â±Â¯
ĠÂ¯Ã· Â´
ĠÂ¯Â¯Ã·Â± Â·Â¯Â¯Â¯
ĠÂ¯Â±Â±Â¯Â¯ Â±Â±Â¯
ĠÂ¯Â¯Â¯Â¯Â´ Â¿Â¯Â¯
Â±Â¯Â¯ Ã·Â´Â¯
Â±Â¯ Â±Â±Â¯Â¯
ĠÂ¯Â¿ Â±Â¯Â¯Â¯Â·Â¯
Ä³ Ã³
Ãĳ Ä´
ĠÂ¯Â° Â±Â¯Â¯Â±Â¯Â¯
ĠÂ¯Â±Â°Â¯Â¯ ÃĹ
ĠÂ¯Â±Â¯ Â·Â¯Â¯Â¯Â¯
Â¯Â± Â·Â¯Â¯Â¯
ĠÂ¯Â¯ÃĹÂ± Â·
ĠÂ¿Â¯ Â±Â¯
ĠÂ¯Â¿Â¸ Â¯Â¯Â·Â¯Â¯
Ġ Â±Â±Â¯
Â± ÃĹÂ´Â¯Â¯
Ãı Ãľ
Ã¿ Ã³
Ä¿ Ãī
ĠÃı Ä¿
ĠÂ¯Â·Â¯Â¯ Ã·
Â¯Â¿ ÃĹÂ¯Â¯
ĠÂ¯Â¯Â¯Â± Â´Â¯Â¯Â¯
ĠÂ¯Â¯Â± Â¿Â¿Â¯Â¯Â¯
ĠÂ¯Â¯Â° Â·Â¯
Â¶ Â¯Â·Â¯Â¯
ĠÂ¯Â·Â±Â¯ Â±Â°Â¯Â¯
ĠÂ¯Â´Â¯Â¯ Â·Â¯Â¯Â¯
Ãı Å³
ĠÂ¯Â¿ Ã·
ĠÂ¯Â¿ Â¿Â¯Â¯Â¿Â¯Â¯
ĠÂ¯Â· Â¸Â¯Â±Â¯Â¯Â¯
ĠÂ¯Â¯Â°Â¯ Â±Â±Â¯Â¯
Ã³ Ä·
ĠÂ¯Â± Â¸Â¯
Â¸Â¯Â¯ ÃĹ
ĠÂ¯Â° Â´Â¯Â¯Â¯Â¯Â¯
ĠÄ¯Ä¯ Ã¹
Ä¯Ãĳ Ä¯
ĠÂ¯Â¯ÃĹÂ°Â¯ Ã·Â¯Â¯
ĠÂ¯Â·Â°Â¯Â¯ ÃĹÂ¯Â¯
Äµ Ã¯
ĠÂ¯Ã·Â´Â¯ Ã·Â´Â¯Â¯
Â¯ Â±Â¯Â¿Â¯Â¯
Â° Â±Â¯Â¯Â¯Â¯
Â· Â°Â¿Â±Â¯Â¯
ĠÂ¯Â¯Â¿ Â±Â¯Â¯Â·Â¯
Â·Â¯ Â·Â¯
ĠÄ¯ ÃŁ
Å¯ Ä°
ÃĻ ÅĦ
ĠÂ¯Â¯Â¯Â± Ã·Â°Â¯Â¯
Åģ Ã¯
ĠÂ¯Â¯Â¸ Â¯Â·
Â¯Â¯Â¿ Â°
Â¯Ã· Â´Â¯
ĠÂ¯Â¯Â¿Â·Â¯ Â¿Â¿Â¯
ĠÂ¿Â¿Â¯Â¯ Â±Â¯Â¯Â¯
Â· Â°Â¿Â·Â¯Â¯
ĠÂ¯Â¯Â¿ Â´Â¯Â¯Â±Â¯
Â·Â¯Â¯Â¯ Â¿Â¯
ĠÂ¯Â¯Â¿Â¯ Â¸Â°Â¯Â¯
Â¯Â¯Â·Â¯Â¯ Â´Â¯Â¯
ĠÂ¿ Â¿Â·Â¯Â¿Â¯Â¯Â¯
Âº Ä¯Ã¯
ÃıÃ¯ Ä¯
ĠÂ¯Â°Â°Â¯ Ã·
ĠÂ¯Â¯Â¯Â´ Â·Â¯Â¯Â¯
ĠÂ¯Â¿Â· Â±
ĠÂ¯Â¿Â±Â¯ Â´Â¯Â¯Â¯
ĠÂ¿Â¯Â¯Â¯ ÃĹÂ¯Â¯Â¯
ĠÂ¯Â¸ Â¯Â¯Â¯Â±Â¯Â¯
ĠÂ¯Â¿Â¸Â¯Â¯ Â·Â°Â¯
ĠÂ¯Â¯Â¯Â¯Â°Â¯ Â·Â¯
Ġ ÃĦ
ĠÂ¯Â¯ Â±Â¯Â¯Â¯Â¯
Ã¯ ÅĦ
Â¿ Â°Â¯Â¿Â¯Â¯
Â·Â¯Â¯ Ã·
Å¯ Äģ
ĠÂ¿ Â¸Â¯Â¯Â¯Â¯Â¯Â¯
ĠÂ¯Â¯ÃĹÂ¯ Â°Â°Â¯Â¯
ĠÂ¯Â¯Â¿Â± Â·Â°Â¯Â¯
ĠÂ¿Â·Â¯Â¯ ÃĹ
ĠÂ¯Â¯Ã·Â± Â¿
ĠÂ¿Â·Â¯Â¯Â¯ Â¿Â·Â¯
ÃıÂº Ä¯
ĠÂ¯Â·Â¿Â¯ Â¸Â¯Â¯Â¯
ĠÂ¯Â¯Â¯Â¯ Â¶
Â±Â¯Â¯ Â¸Â¯
ĠÂ¯Â· Â»
ĠÂ¯Â± Â·Â¯Â¿Â¯Â¯Â¯
ĠÂ¯Â¯ÃĹ Â°Â¯Â¯Â¿Â¯
Â´Â¯ Â±Â°Â¯Â¯
ĠÂ¯Â¯Â° Â¿Â·Â¯Â¯Â¯
ĠÂ¯Â¯Ã·Â¯ Â´Â¯Â¯Â¯
ĠÂ¯Â¯Â¯Â¯Â° Â¸Â¯Â¯
ÃĹÂ¯ Â´Â¯Â¯Â¯
ĠÂ¯Â°Â¯ Â°
Â¯Â·Â¯ Â±Â¯
ĠÂ¯Â¸ Â¯Â¯Â¯Â°Â¯Â¯
ĠÂ¯Â¯Â¯Â¯ Â¿Â¯Â¯
Â° Â¿Â¯Â¯Â¯Â¯
Â·Â¯Â¯ Â±Â¯Â¯Â¯
ĠÂ¯Â¯Â¯ ÃĹÂ¯
Ãĥ ÃĢ
ĠÂ¯Â¯Â¿Â¯ Ã·Â±Â¯Â¯
Ãĵ Äģ
ĠÂ¯Â¯Ã· Â°Â¯Â¯Â·Â¯
ĠÃ¯ Ã¯Ãĵ
Äģ Ä¯
Â¯Â· Â°Â¯Â¯Â¯
Ä¯Ãģ Ãı
Ä¹ Ä¯
ĠÂ¯Â¯Â±Â° Â±Â¯Â¯Â¯
ĠÂ¯Â¿Â°Â¯ Ã·Â¯Â¯Â¯
ĠÂ¯Â¯Â¯Â¿Â¯ Â´Â¯Â¯
Â°Â¿ Â±Â¯Â¯Â¯
ĠÂ±Â¯Â¯Â¯ Â¿Â¯Â¯Â¯
Â¯Â¯Â¯ Â°Â°Â¯Â¯
Â¯Â¯Â¯ Â»Â¯
ĠÂ¯Â¯Â¯Â¯ Â·Â¯Â¯
ÃĹ Â°Â¯Â±Â¯Â¯
ĠÂ¯Â¿ Â°Â¯Â¯Â¯Â±Â¯
ĠÂ¯Â· Â´Â¯Â¯Â·Â¯Â¯
Ä¿ Âº
ĠÂ¯Â¿Â¯Â¯ Â¿Â¸Â¯Â¯
Äı ÃĦ
ĠÂ¯Â¿Â·Â¯ Â·Â±Â¯Â¯
Â¯Â·Â¯Â¯ Â·Â¯Â¯
Â¯Â°Â¯Â¯ Â·Â¯Â¯
ĠÂ¯Â¯Â¸Â¯ Â°
ĠÂ¯Â¯Â» Â¯Â¯Â´Â¯Â¯
ĠÂ¿Â¯ Â¿Â¯
ĠÂ¯Ã·Â°Â¯Â¯ Â¸Â¯Â¯
Â½ Â³
ĠÂ¿Â· Â·Â¯Â¯Â¯Â¯Â¯
Â±Â¿ Â°Â¯Â¯Â¯
Â¿Â¯Â¯ Â·Â´Â¯
ÃĹ Â¯Â¿Â·Â¯Â¯
ĠÂ¯Â± Â¿Â¯Â·Â¯Â¯Â¯
Ãĳ Ãĵ
ĠÄ¯ Åĳ
Ä± Ã±
ĠÃı Ãĩ
ĠÃ¯ Åĵ
ĠÂ¯Â±Â°Â¯ Â·Â±Â¯Â¯
ĠÂ¯Â¯Â¯Â·Â¯ Â¿
ĠÂ¯Â¯Â¯Â· Â´Â¯Â¯Â¯
ĠÂ¯Â¯Â» Â°
ÃıÄ± Ãĥ
ĠÂ¯Â¸ Â¯Â¯Â¯Â¿Â¯Â¯
ÅıÄ± Ãĥ
Â¯Â´ Â°Â¯Â¯
Â¯Â¯ Â»Â°Â¯Â¯
Â± Â·Â¯Â¯Â¯Â¯Â¯
Ãı ÅĶ
ĠÂ¯Â¯Â¯ Â°Â¯Â¯Â¯
ĠÂ¯Â¯Â¿ Â·Â¯Â¯
Åı Ã°
ÃĹ Â¯Â·
ĠÂ¯Â¿ Â´Â¯Â¯Â¯Â°Â¯
Ã· Â¯Â¯Â¯Â°Â¯Â¯
ĠÂ¯Â¯Â±Â¯ Â°Â´Â¯Â¯
ĠÂ¯Â¯Â·Â¯Â¯ Â¶Â¯Â¯
ĠÂ¯Â¯Ã· Â¯Â¯Â´Â¯Â¯
ĠÃı Åı
Â´Â¯ ÃĹ
ĠÂ¯Â·Â¯Â¯Â¯ Â±Â±Â¯
ĠÂ¯Â¯Â¯Â± Â¿Â¸Â¯Â¯
Äı Ã°
ĠÂ¯Â¯Â¯Â·Â¯ Â¿Â±Â¯
ĠÂ¯Â±Â¯ Â°
ĠÂ±Â¯Â¯Â¯Â¯ Â¿Â¯Â¯
ĠÂ±Â¯Â¯ Â±Â¯Â¯Â¯Â¯
Ä ķ
ĠÂ¯Â¯ Â°Â¯Â¯Â¯Â¯
Ä¯ Ä»
Â¯Â¯Â¯Â¯ Â¿Â±Â¯
Ãĵ Ã°
ĠÄ¯ Äµ
ÃĻ Ãı
ĠÂ¯Â¯ÃĹÂ¯ Ã·Â°Â¯Â¯
ÅŁ Ãı
Ä¯Ã± Ãı
ĠÂ¯Â¯Â¯Â· Â¿Â±Â¯Â¯
ĠÂ¯Â¯Â¸ Â°Â¯
ĠÂ¯Â¿Â· Â±Â¯Â¯Â¯Â¯
ĠÂ¯Â±Â±Â¯Â¯ ÃĹÂ¯Â¯
ĠÂ¯Â¯Â¿Â´Â¯ Â´Â¯Â¯
ĠÂ¯Â¯Â·Â¯Â° Â¸Â¯Â¯
Â¯Â¯Â± Â¿Â¯Â¯
ĠÂ¯Â¯Â´Â¯Â¯Â¯ Â¿Â¯
ĠÂ¯Â¯Â¯Â¯ Â¸Â¯
Â· Â´Â¯Â¯Â¯Â¯
Ãı ÅŁ
Ãı Å¿
Â¿Â¯Â¯ Â±Â¯
Â±Â¯ Â·Â¯
Â±Â¯ Â·Â±Â¯Â¯
ĠÂ¯Â¯Â· Â±Â¯Â¯Â±Â¯
Ã¿ Ä·
Â·Â¯ Â·Â·Â¯
ĠÂ¯Â¯Â¯Â±Â¯ Â·Â·Â¯
Â´Â¯ Ã·
Â¯Â°Â¯Â¯ Â±Â¯Â¯
ĠÂ¯ÃĹ Â±Â¯Â¯Â·Â¯Â¯
Â¯Â° ÃĹÂ¯Â¯Â¯
ĠÂ¯Â¿Â±Â¯ Â·Â°Â¯Â¯
ĠÂ±Â¯Â¯Â¯Â¯ Â·Â¯Â¯
ĠÂ¯Â¯Â·Â¯Â¯Â¯ Â¸Â¯
ĠÂ¯Ã·Â°Â¯Â¯ Â±Â°Â¯
ĠÂ¯Ã·Â¯Â¯ Ã·Â¯Â¯Â¯
ĠÂ¿Â¿Â¯Â¯Â¯ Â·
Ġ Åĥ
Â¯ Â¶Â¯Â¯Â¯
Â¯Â¯Â¯Â¯Â¯ Â·Â¯Â¯
Â·Â¯Â¯ ÃĹ
Â¿Â¯Â¯ Ã·Â¯Â¯Â¯
ĠÂ¯Â¯Â· Â±Â¯Â±Â°Â¯
Â°Â¯Â¯Â¯ Â°Â¯Â¯
Â·Â¯ Ã·Â¯Â¯
Åĵ Ã±
Â¸Â¯Â¯Â¯ Â·Â¯
ĠÂ¯Â¿Â·Â¯ Â°Â°Â¯Â¯
Ä´ Ä¯
Ã¯Ãģ Ä¯
ĠÂ¯Â°Â°Â¯Â¯ Â·
ĠÂ¯Â¯Â¯Â¸ Â¿Â¯Â¯Â¯
ĠÂ¯Â» Â±Â¯Â¯Â¯Â¯Â¯
ĠÂ¿Â¯Â¯ Â¿Â¯Â¯Â¯Â¯
ĠÂ¯Â¯Â¯Â¯Â» Â·Â¯Â¯
ĠÂ¯Â¯Â°Â¯Â¿ Â¿Â¯Â¯
ĠÂ¯Â¯ÃĹÂ´Â¯ Â±Â°Â¯
Ä¯ Æĥ
Ãı Åĺ
ĠÂ¯Â¿ Â¯Â¿
ĠÂ¯Â· Â°Â¯Â¯Â¯Â¿Â¯
Ãĵ Ãĵ
ĠÂ¯Â¿Â¯Â¯ Ã·Â´Â¯Â¯
ĠÃ¯ Äı
ĠÂ¯Â° Â¿Â¯Â¯
ĠÂ¯Â¯Â¯Â± Â·Â±Â¯Â¯
ÃĶ Ä¯
ĠÂ¯Â±Â°Â¯ Â¸Â°Â¯Â¯
ĠÂ¯Â¯Â¯Â·Â¯ Â±Â±Â¯
ĠÂ¯ÃĹ Â±Â¯Â¯Â±Â¯Â¯
Ã¸ Ãı
Ä¸ Ä¯Ã¿
ĠÂ¯Â·Â¯ Â°Â¯
ĠÂ¯Â¯Â¯Â¯ÃĹ Â¯
ĠÂ¯Â±Â±Â¯ Â±Â±Â¯Â¯
Å± Ãģ
ĠÂ¯Â°Â¯ Â·Â¯Â¯Â¯Â¯
ĠÂ¯Â¯Â·Â± Â¿Â±Â¯Â¯
ĠÂ¯Â¯ÃĹÂ± Â¿Â¸Â¯Â¯
ĠÂ¿Â·Â¯Â¯Â¯ Â´Â¯Â¯
ĠÂ¿Â¿Â¯Â¯ Â·Â¯Â¯Â¯
ĠÂ±Â¯ Â·Â¯Â¯Â¯Â¯Â¯
Å¯Âµ Ä¯
ĠÂ¯Â¸Â¯Â¯ Â¿Â¯Â¯Â¯
Ġ Å¯Ãı
Â·Â¯Â¯ Â¿Â·Â¯
Â´ Â·Â¯Â¯
ĠÂ¯Â¯Â¯Â¯Â¯Â¯ Â±Â°
ĠÂ¯Â¿ Â¿Â¯Â°Â¯Â¯Â¯
Ã³ Ã°
ĠÂ¯Â¯Â¯Â± Â±
Ãĩ Ãĥ
ĠÂ¯Â¯Â¿Â± Â·
ĠÂ¯Â±Â±Â¯ Â·
ĠÂ¯Â·Â°Â¯ Â¿Â±Â¯Â¯
Â· Â¯Â¯Â¯Â¯Â¯Â¯Â¯
Ãı ÃĮ
ĠÂ¯Â¯Â· Â°Â¯Â¯Â·Â¯
ĠÂ¯Â¿ Â±Â¯Â¯Â¯Â¿Â¯
Ãĳ Ä¿
ĠÂ¯Â¿Â¯Â¯Â¯ Ã·Â°Â¯
ĠÂ¯Â° Â·
ĠÂ¯Â¯Â¯Â± Â¸Â¯Â¯Â¯
Â¯Â· Â±Â¯Â¯Â¯
Â¯Â·Â¯Â¯ Â±Â¯Â¯
ĠÂ· Â°Â¯Â¯
Ã´ Ä¯
ĠÂ¯Â¯Â¿Â±Â¯ Â¸Â¯Â¯
ĠÂ¯Â°Â¯ Â¿
ĠÂ¯Â¯Ã·Â´ Â¿Â·Â¯Â¯
ĠÂ±Â¯Â¯Â¯ Â·Â¯Â¯Â¯
Ġ ÃĻ
Ġ Ãĺ
ĠÂ¯Â¯Â¯Â¯ Ã·Â¯
ĠÂ¯Â¯Â¯Â¯Â¯ Â¸
Â¯Â¯Â¯Â¯ ÃĹÂ¯
Â°Â¯Â¯ ÃĹÂ°Â¯
Â´ Â·Â¯Â¯Â¯
ĠÂ¯Â¯Â±Â¯Â¯ ÃĹÂ±Â¯
ĠÂ¯Â¯Â¯Â°Â¯ Ã·Â°Â¯
ĠÃ¯ Åĥ
ĠÂ¯Â¯Â¯Â± Â¿Â¿Â¯Â¯
ĠÂ¯Â±Â¯Â¯Â¯ Â¿
ĠÂ¯Â¯Â¿Â° Â±Â¯Â¯Â¯
ĠÂ¯Â¯Â´Â¯ Â°Â°Â¯Â¯
ÃıÃı Ä¯
ÃıÂµ Ã¯
ĠÂ¯Â°Â°Â¯Â¯ Â±Â°Â¯
Ã¯Ä± Ãĥ
Â¯Â¿Â¯ Â±Â¯
ĠÂ¯Â¯Â°Â° ÃĹÂ¯Â¯Â¯
ĠÂ¯Â¯Ã·Â´Â¯ Â·
ĠÂ¯Â¯Â¯Â¶ Â¯Â±Â¯Â¯
Ġ Ã¹
Â° Â°Â¯Â¯Â¯Â¯Â¯
Â°Â¯Â¯ Â¸Â¯
Åı ÃĤ
Ãĵ Ã±
ĠÂ¯Â¯Â¯Â°Â¯ Â¿Â¿Â¯
ĠÂ¯Â¯Ã· Â¸Â¯Â±Â¯Â¯
Ä± Ã¿
ĠÂ¿ Â±Â¯Â¯Â¯
ĠÂ¯Â¯Â¯Â·Â¯ Â·Â°Â¯
ÅŁ Ä¯
Å¿ Ãı
ĠÂ¯Â±Â± Â°Â¯Â¯Â¯Â¯
ĠÂ¿Â¯Â¯Â¯Â¯Â¯ Â·Â¯
Ġ Äģ
Â¯ Â¿Â¯Â·Â¯Â¯Â¯
ĠÂ¯Â¯Â¯Â¯ Â°Â¯Â¯
ĠÂ¯ Â´Â¯Â¯Â¯Â¯
Â° ÃĹÂ´Â¯Â¯
Â¯Â¯Â¯Â¯ Â¿Â°Â¯
Â¿ Â´Â¯Â¯Â¯Â¯
Â·Â¯Â¯ Â¿Â¯Â¯Â¯
Â¿Â¯Â¯Â¯ Â¿Â·Â¯
ÃĹ Â¯Â¿Â°Â¯Â¯
Ä¯Ã¯ Ã¯Ãı
ĠÂ¯Â¯Â±Â¯ Â°Â·Â¯Â¯
Ã³ Ä°
Â¿Â¯ Â¿Â¿Â¯Â¯
ĠÄ¯ Ãī
ĠÂ¯Â¿Â¯Â¯ ÃĹ
Äģ ÃĻ
Â¸Â¯ Ã·Â¯Â¯
ĠÂ¯Â¯Â¯Â·Â¯ Â¿Â¿Â¯
ĠÂ¯Â°Â¯Â¯Â¯ Â¿Â±Â¯
ĠÂ¯Â¯Â¸ Â±Â¯Â¯Â¯Â¯
ĠÂ¯Â¯Â¿Â± Â±Â°Â¯Â¯
ĠÂ¯Â¯Ã·Â± Â¿Â±Â¯Â¯
ĠÂ±Â¯ Â±Â¯Â¯Â¯Â¯Â¯
ĠÂ¯Â¯Â¯Â¿Â¯Â¯ Â·Â¯
Â¯ Â±Â¯Â·Â¯Â¯
Â± Â¸Â¯Â¯
Â¿ Â¿Â¯Â¯Â¯Â¯Â¯
ĠÂ¯Â¯Â±Â¯Â¯ Â±
ĠÂ¯Â¯Â¯Â°Â¯ Â·Â´Â¯
Ã¹ Ãĵ
Äģ Ã¯
ĠÂ¯Â¯Â± Â¿Â°Â¯Â¯Â¯
ĠÃ¯Ãı Ã±
ĠÂ¯Â°Â¯Â¯ Ã·Â°Â¯Â¯
Â¯Â¯Â· Â¿Â¯
ĠÂ· Â±Â¯
Ä¯Ã± Ä¯
ĠÂ¯Â¯Â¿Â± Â¿Â°Â¯Â¯
ĠÂ¯Â°Â°Â¯ Ã·Â°Â¯Â¯
Ã¯Âµ Ä¯
ĠÂ¿Â¯Â¯Â¯Â¯ Â´Â¯Â¯
ĠÂ¯Â·Â·Â¯ Â·Â¯Â¯Â¯
Å ¨
Â¿ Â¸
Ã¿ Åı
Ãĥ Ãģ
ĠÂ¯Â¯Â·Â¯ ÃĹÂ±Â¯Â¯
Â°Â¯Â¯Â¯ Â¿Â¯Â¯
ÃĹÂ¯Â¯ Â±Â°Â¯
Ã¹ ÃĲ
ĠÂ¯Â¯Â± Â±Â¿Â·Â¯Â¯
Ã·Â¯Â¯ Â±Â°Â¯
ĠÂ· Â¿Â¯Â¯
Ã¯Ã± Ãģ
ĠÂ¯Â¿Â¸ Â¯Â¯Â°Â¯Â¯
ĠÂ¯Â·Â·Â¯ Â±Â±Â¯Â¯
ĠÂ¯Â·Â¯Â¯Â¯Â¯ Â´Â¯
ĠÂ¯Â¯Â¿Â¯Â¿ Â´Â¯Â¯
Â¯Â¯Â¯Â¯ Â±Â´Â¯Â¯
Â¿Â¯Â¯Â¯ Ã·Â¯Â¯
Â°Â¯Â¯Â¯ Â´Â¯
Ã³ Ä±
ĠÂ¯Â¿Â¯Â¯Â¯ ÃĹÂ±Â¯
ĠÂ¯Â¯Â¯Â· Â¸Â¯Â¯Â¯
Â¯Â¿Â¯Â¯ Â°Â¯Â¯
Â¶ Â¯Â±Â¯Â¯
ĠÂ¯Â¯Â¿Â±Â¯ Â¿Â±Â¯
ĠÂ¯Â¿Â´Â¯Â¯ Â°Â¯Â¯
ĠÂ¯Â¯Â¯Â°Â· Â·Â¯Â¯
ĠÂ¯Â·Â´Â¯Â¯ Â°Â¯Â¯
ĠÂ¯Â¯Â· Â·Â¯Â°Â¯Â¯
ÃĹ Â°Â¯Â¯Â¯Â¯Â¯
ĠÂ¯Â¯Â·Â¯ Ã·Â´Â¯Â¯
ĠÂ¯Â¯ÃĹ Â´Â¯Â±Â¯Â¯
ĠÃı Ã³
ĠÃ¯ ÅĲ
ÃĻ ÃĢ
ĠÃ¯Ãı Ãĥ
Â¸Â¯ Â°Â°Â¯
ĠÂ¯Â±Â¯Â¯Â¯ Â¿Â°Â¯
ÅŁ Ã¯
ĠÂ¯Â°Â¯Â¯Â¯ Â¿Â°Â¯
Â¯Â¯Â¯Â· Â±Â¯Â¯
Ä» Ã¯
ĠÂ¯Â°Â¯ Â±
Æı Ä¯
ĠÂ¯Â¯Â¸Â¯Â¯ Â·
Â¯Â¯Ã· Â¸Â¯Â¯
ĠÂ°Â¯Â¯Â¯Â¯ Â·Â¯Â¯
ĠÂ¯Â¯Â¯Â´Â¯Â¯ Â¿Â¯
Å ²
Â±Â¯Â¯ Â¿Â¿Â¯
Â±Â¯Â¯ Â¿Â¸Â¯
Â¿Â¯Â¯ Â´Â¯Â¯Â¯
Â¿Â¯Â¯Â¯ Â¸Â¯Â¯
Â¿Â¯Â¯Â¯ Â·Â°Â¯
ĠÂ¯Â¯Â· Â±Â¯Â·
Åı Ä·
Åı ÃıÄ¯
ĠÂ¯Â· ÃĹÂ¯
Â¸ Â·
ĠÂ¯Â¯Â·Â¯Â¯ ÃĹÂ±Â¯
Ã± Ã°
ĠÂ¯Â¯Â°Â¯Â¯ Â¶Â¯Â¯
ĠÂ¯Â± Â±Â¿
Ä³ Äģ
ĠÄ¯ Ã£
ĠÂ¯Â¯Ã· Â¯Â¯Â·
ÅĹ Ã±
Äı Ã¿
ĠÂ¯Â¯Â¸Â¯ Â¸Â¯Â¯Â¯
ĠÂ¯Â¯Â´ Â¯Â¿
ĠÂ¯Â·Â°Â¯Â¯ Â·
Â¯Â¯Ã· Â·Â¯Â¯
ĠÂ¯Â¿Â± Â°
ĠÂ¯Â´ Â¯Â¯Â¯Â°Â¯Â¯
Â¯Â¯Â° Â·Â¯Â¯
ĠÂ±Â¯ Â°Â¯Â¯Â¯Â¯Â¯
ĠÂ±Â¯ Â·Â¯
ĠÂ¯Â¯Â¯Â¯Â¸ Â´Â¯Â¯
ĠÂ¯Â¯Â¯Â¯Â¯ Â±Â¯Â°
ĠÂ¯Â¯Â¿ Â°Â¯Â¯Â·Â¯
ĠÂ¯Â¯Â±Â¯ Ã·Â±Â¯Â¯
Ä· Ä¿
ĠÂ¯Â¯ÃĹ Â´Â¯Â°Â¯Â¯
ÃĢ Ä¯Ã¯
ĠÂ¯Â¯Â¯Â¯Â· Â·
ĠÄ¯Ã¯ Ä³
Â» Â¯Â¿Â¯Â¯
ĠÂ¿ Â¿Â¯Â¯Â¯Â¯
ÄĢ Ãı
Âº Åı
ĠÂ¯Ã· Â¯Â¯Â¯Â¯Â±Â¯
ĠÂ¯Â¯ÃĹÂ¯Â¯ Â»Â¯Â¯
ĠÂ¯Â°Â°Â¯ Â¿
ÃıÃ° Ã¯
ĠÂ¯Â´ Â¯Â¯Â¯Â·Â¯Â¯
Â¯ Â¸Â¯Â¯Â¯Â¯Â¯
Â¯Â¯Â¯Â¯Â¯ Â´Â¯
ĠÂ¯Â¯Â¯ Â±Â¯Â¯Â¯
ÃĹ Â¯Â±Â°Â¯Â¯
ĠÂ¯Â· Â¸Â¯Â¯Â±Â¯Â¯
Â·Â¯ Â·Â°Â¯
Â¸ Â¯Â¿
Äı Ãĳ
ĠÂ¯Â±Â¯Â¯Â¯ Â»Â¯Â¯
ĠÂ¯Â±Â°Â¯ Â´Â¯Â¯Â¯
ĠÂ¯Â°Â¯Â¯ Ã·
ĠÂ¯Â¿Â·Â¯Â¯ Ã·Â°Â¯
Å± Ã³
ĠÂ¿Â¯Â¯Â¯ Â·
ĠÂ¿Â¯Â¯ Â±Â¯Â¯Â¯Â¯
Â¯Â¯Â¯ÃĹ Â·Â¯
ĠÂ¿Â·Â¯Â¯Â¯Â¯ Â°Â¯
Ġ ÃĶ
Â±Â¯Â¯ Ã·Â±Â¯
Â°Â¯ Â´Â¯Â¯Â¯
Â°Â¯ Â·Â±Â¯Â¯
ĠÂ¯Â¿ ÃĹÂ¯Â¯
ĠÄ¯ Ãµ
ĠÂ¯Â·Â¯Â¯Â¯ Â·Â·Â¯
ĠÂ¯Â¯Â¯Â± ÃĹ
ĠÂ¯Â¯Â¯Â± ÃĹÂ°Â¯Â¯
Â¯Â· Â´Â¯Â¯Â¯
ĠÂ¯Â¯Â¯Â·Â¯ Â·Â·Â¯
Ã¯Ã¯ Ãĵ
ĠÂ¯Â¯Â±Â° Â°Â¯Â¯Â¯
ĠÂ¯Ã· Â·Â¯Â¯
ĠÂ¯Â¯Â¸Â¯ ÃĹÂ¯Â¯Â¯
ĠÂ¯Â±Â° Â°Â¯Â¯Â¯Â¯
Â¯Â°Â¯ Â±Â¯
ĠÂ¿Â·Â¯Â¯Â¯ Â·
ĠÂ¯Â¯Â¯Â¯Â¯Â± Â´Â¯
ĠÂ¯Â´ Â¯Â¯Â¯Â¿Â¯Â¯
Â¯ Â¶Â¯Â¯
Â¯Â¯ Â¶Â¯Â¯Â¯
ĠÂ¯Â¯Â¯Â¯ Â´Â¯
Â±Â¯ Â°Â°Â¯Â¯
Ã¿ ÃĤ
ĠÂ¯Â¿ Â»Â¯
ĠÂ¯Â¯Â¿Â¯ Â°Â¿Â¯Â¯
Ã· Â¯Â±Â¯Â¯Â¯
Â¿Â¯ Â´Â¯Â¯
Â¿Â¯ ÃĹÂ±Â¯Â¯
ĠÂ¯Â¯Ã· Â¯Â·Â±Â¯Â¯
ĠÂ¯Â° ÃĹÂ¯
ĠÂ¯Â¿Â·Â¯Â¯ Â·Â±Â¯
Åģ Ãı
ĠÂ¯Â¯Â¯Â¯ÃĹ Â¸Â¯Â¯
ĠÂ¯Â¯Â¸Â¯Â¯ Â·Â°Â¯
ĠÂ¯Â°Â¯Â¯Â¯Â¯ Â´Â¯
Ä·Âµ Ã¯
Â±Â¯Â· Â´Â¯
ĠÂ¯Â¿Â¸Â¯ Ã·Â¯Â¯Â¯
ĠÂ° Â°Â¯Â¯Â¯
Ġ Â¸Â¯Â¯Â¯
Ġ Æı
Â· Â°Â¯Â°Â¯Â¯
Â°Â¯Â¯ Â¿Â±Â¯
Â¿Â¯Â¯ Ã·Â´Â¯Â¯
Â°Â¯ Â»Â¯Â¯
ĠÂ¯Â¯Â· Â´Â¯Â±Â°Â¯
ĠÂ¯Â¯ÃĹ Â±Â¯Â¯Â·Â¯
Â¿Â¯ Â·Â¯
Å¯ Åı
ĠÃı Ä³
Â¯Â¿ Â±Â°Â¯
ÃĶ Ãı
Â¸Â¯ Â±Â±Â¯
Ã§ Ãĥ
ĠÂ°Â¯Â¯Â¯Â¯ Â±Â¯Â¯
ĠÂ¯Â¯Â¿Â´Â¯ Â·
ĠÂ¯Â´ Â°Â¯Â¯Â¯Â¯Â¯
ĠÂ¯Â¿Â¯Â¯Â· Â·Â¯Â¯
Ġ Ã°
Ġ Åģ
Ġ ÃĹÂ¯
ĠÂ¯ Â¶
Â¯Â¯Â¯Â¯ ÃĹÂ°Â¯
Â´ Â¸Â¯Â¯Â¯
ÃĹ Â¯Ã·Â¯Â¯Â¯
ĠÂ¯Â¿ ÃĹÂ¯Â±Â¯Â¯Â¯
Ä° Ãĩ
Ä· Ä±
ĠÂ¯Â° Ã·Â¯
ÃĶ Ãģ
ĠÃ¯Ãı Ãģ
Ä¯Ãĥ Ã¯
Â¯ÃĹ Â¸Â¯Â¯
ĠÂ¯Â¯ÃĹÂ¯Â¯ Â°Â°Â¯
Ä¯Äĥ ÃĻ
ĠÂ¯Â¯Â» Â¯Â±Â´Â¯Â¯
ĠÂ¯Â¿Â°Â¯ Â¿Â·Â¯Â¯
ĠÂ¯Â¯ÃĹÂ±Â¯ ÃĹÂ¯Â¯
ĠÂ¿Â¯ Â°Â¯Â¯
Â¯Â·Â¯ Â±Â¯Â¯
ĠÂ¯Â¯Â±Â± Â¿Â±Â¯Â¯
ĠÂ±Â¯Â¯ Â°Â¯Â¯Â¯Â¯
Â· Â¸Â¯Â¯
Â¯Â¯Â¯Â¯ Â°Â°Â¯
Åı Ä°
Åı ÃĽ
Â´ Â¯Â¯Â¯Â¯Â¯Â¯Â¯
ĠÂ¯Â¯Â°Â¯Â¯ Â¿Â¿Â¯
Ä· Åĥ
ĠÂ¯Â± Â¿
ĠÂ¯Â¯Ã· Â´Â¯Â¯Â°Â¯
ĠÂ¯Â° Â±Â¯Â¿Â¯Â¯Â¯
Ãĺ Ãı
ĠÂ¯Â°Â¯Â¯ ÃĹÂ´Â¯Â¯
ĠÂ¯Â¯Â° Â°Â¿Â±Â¯Â¯
Ä¸ Ã¯
ĠÂ¯Â¿Â¯ Â°Â¯
ĠÂ¯Ã· Â¯Â¯Â¯Â¯
ĠÂ¯Â±Â° Â¿Â¯Â¯Â¯Â¯
ĠÂ¯Â±Â° Â¿Â·Â¯Â¯Â¯
Â¯Â°Â¯ Â°Â¯
ĠÂ¯Â±Â¯ Â·
ĠÂ¯Â¯Ã·Â°Â¯ Â¿Â·Â¯
Ä ļ
Â¯Â¯Â¯Â¯ Â·Â·Â¯
Â·Â¯Â¯ Â·Â´Â¯
Â¿Â¯Â¯ ÃĹ
Åı Åĥ
Ã¿ Ä°Ãĵ
ĠÂ¯Â¯Â¿Â¯ Â»Â°Â¯Â¯
Â±Â¯Â¯Â¯Â¯ Â°Â¯
ĠÂ¯Â¯Â°Â¯Â¯ Ã·Â°Â¯
ĠÂ¯Â¯Â¯Â° Â´Â¯Â¯Â¯
Ã° Ãĥ
Ã¯ÃĲ Ã¯
ĠÂ¯Â¯Â¯Â¯Â° ÃĹÂ¯Â¯
ĠÂ¯ÃĹÂ¯Â¯Â¯ ÃĹÂ¯Â¯
ÄŁ Ãı
ĠÂ·Â¯ Â±Â¯
ĠÂ¿Â¯Â¯Â¯Â¯ Â±Â°Â¯
Â°Â· Â·Â¯Â¯
ĠÂ¯Â¯Â¯Â¯Â» Â¿Â¯Â¯
ĠÂ¯Â·Â¯Â· Â·Â¯Â¯Â¯
Â¯Â¯Â¯ ÃĹÂ´Â¯Â¯
Ã¯ Åī
Â· Â±Â¯Â¯Â¯Â¯Â¯
Ãı Ãķ
Â¯Â¯Â¯Â¯ Ã·
Â¯Â¯Â¯Â¯ Â¸Â¯Â¯Â¯
Â¯Â¯Â¯Â¯ Â»Â¯Â¯
Â¿ Â¸Â¯Â¯Â¯
Ãĥ Ã°
Ä° Äĥ
ĠÂ¯Â¿Â¯Â¯ Â±
ĠÃ¯ Ä¯Ã¯
Â´Â¯ Ã·Â°Â¯Â¯
ĠÂ¯Â¯Â° Â¿Â±Â¯Â¯Â¯
ĠÂ¯Â¯Â¿Â° ÃĹÂ°Â¯Â¯
ÅĲ Ãĥ
Â·Â°Â¯ Â±Â°Â¯
Â¯Â° Â±Â¯
ĠÂ¯Â±Â¯ Â¿Â±Â¯Â¯Â¯
ĠÂ¯ÃĹÂ¯Â¯ Â°Â¯Â¯Â¯
ĠÂ¯Â·Â°Â¯ Â±Â°Â¯Â¯
Ġ Â¸Â¯Â¯
Ġ Ãī
Â¯Â¯Â¯ Â»Â¯Â¯Â¯
Â±Â¯Â¯ Â±
Â·Â¯Â¯Â¯ Â´Â¯Â¯
ĠÂ¯Â¯Â·Â¯ Ã·Â·Â¯Â¯
Ä° Ã¯Ãı
ĠÂ¯Â¯Â±Â¯ ÃĹÂ±Â¯Â¯
Â¸ Â¯Â·Â°Â¯
Ãĳ ÃĲ
ĠÄ¯ Å¿
ĠÂ¯Â¯Ã· Â¯Â¯Â¸Â¯Â¯
Â¸Â¯Â¯ ÃĹÂ¯Â¯
ĠÂ¯Â±Â¯Â¯Â¯ Â°Â°Â¯
ĠÂ¯Â¿Â°Â¯ Â¿
ĠÂ¿Â¯Â¯Â¯ Â¿
ĠÂ¯Â°Â°Â¯Â¯ Â¸Â¯Â¯
ĠÂ¯Â·Â°Â¯ Â·
Ã¯Ä± Ä¯
ĠÂ°Â¯Â¯Â¯Â¯ Â°Â¯Â¯
Â¯Â¯Â° Â¿Â¯
ĠÂ¿Â¯Â¯ Â·Â¯Â¯Â¯Â¯
ĠÂ¯Â¯Â·Â· Â¿Â·Â¯Â¯
ĠÂ¯Â¯Â¯Â¯Â±Â¯ Â¿Â¯
Ġ Â¸Â¯Â¯Â¯Â¯
Ã¯ ÄŁ
Â¿Â¯Â¯Â¯ Â´Â¯
ĠÂ¯Â¯Â· Â±Â¯Â¯
ĠÂ¯Â¿ Ã·Â°Â¯Â¯Â¯Â¯
Ã³ Ä¿
Ä³ Ä±
Â» Â¯Â°Â¯Â¯Â¯
Ã´ Ã¯
ĠÂ¯Ã· Â¿Â¯Â¯
ĠÂ¯Ã· Â°Â¯Â¯Â¯Â±Â¯
ĠÂ¯Ã· Â°Â¯Â¿Â¯Â¯Â¯
ĠÂ¯Â¯ÃĹÂ° Â¿Â°Â¯Â¯
Ãµ Ãı
ĠÂ¿Â¯Â¯Â¯ Â¿Â·Â¯Â¯
Â¯Â·Â¯ Â°Â¯Â¯
Ġ Ä·Ã¯
Â· Â¿Â°Â¯Â¯
ĠÂ¯Â¯Â¯ Â»Â¯Â¯
Åı ÃıÃı
ÃĹ Â¯Â¿Â±Â¯Â¯
ĠÂ¯Â¯Â°Â¯ Ã·Â±Â¯Â¯
Ã³ Ã¯Ãı
ĠÂ¯Â¯Ã· Â±Â¯Â¯Â·Â¯
ĠÂ¯Â¿Â¯Â¯ Â±Â±Â¯Â¯
Ä± ÃĻ
ĠÂ¯Â° Â±Â¯Â¯Â·Â¯Â¯
ĠÂ¯Â¯Â± Â±Â¯Â¯Â°Â¯
ĠÂ¯Â¯Â¿Â° Â·Â±Â¯Â¯
ÅĢ Ã±
ĠÂ¯Ã· Â±Â¯Â¯Â·Â¯Â¯
Â¯Â° Â°Â¯Â¯Â¯
ĠÂ¯Â¯Ã·Â°Â¯ ÃĹÂ¯Â¯
ĠÂ¯Â¯Â¿Â´Â¯ Â±Â°Â¯
ĠÂ¯Â¯Â¯Â¯Â¯Â¯Â¯ Â´
ĠÂ¯Ã·Â¯Â¯Â¯ ÃĹÂ¯Â¯
ĠÂ¯Â¯Â¯Â¯Â°Â¯ Â¿Â¯
Ãı ÅĪ
Â¿Â¯Â¯ Â·Â·Â¯
Â±Â¯ Â¶Â¯Â¯
ÃĹ Â°Â¯Â¯Â¯
ĠÂ¯Â¯Â¯Â¯Â¯Â¯ Â°Â°
Ä¿ Ä¿
ĠÂ¯Â¯Â°Â¯Â¯ Â°
ĠÂ¯Â¯Â¯Â° Â·Â´Â¯Â¯
ĠÄ¯ Ä´
Â´Â¯ Â°Â°Â¯
Â¯Â· Â¶Â¯Â¯
Â¯Â¯Â· Â¸Â¯Â¯
Ä¯Ä¯ Ã¿
Â¯Â¿Â¯Â¯ Â¿Â¯Â¯
ĠÂ¯Â¯Â±Â° ÃĹ
Ã¯Âº Ãı
ĠÂ¯Â¿Â¸ Â¯Â±Â¯Â¯Â¯
ĠÂ¯Â¯Â°Â° ÃĹÂ°Â¯Â¯
ĠÅı Ãĳ
ĠÂ¯Â¸Â¯Â¯ Â·Â¯Â¯Â¯
ĠÂ¯Â¯Â°Â¯ÃĹ Â¿Â¯Â¯
Ä Ĵ
Æ ĺ
Ġ ÄŁ
ĠÂ¯ Â´Â°Â¯
Ä¯ ÄĦ
Ãı Ä¯Ã¿
Â¿ Â±Â¯Â±Â¯Â¯
Â°Â¯Â¯ Â¸Â°Â¯
Â¿Â¯Â¯ Ã·Â±Â¯Â¯
ĠÂ¯Â¿ Â´Â¯Â¯Â¯Â±Â¯
Ãĳ Ä°
ĠÄ¯ Äĩ
ĠÂ¯Â¯Ã· Â¯Â¯ÃĹÂ¯Â¯
Ä± Ã¹
ĠÃı ÃĻ
ĠÃ¯ Ã´
Äı Ä°
ĠÂ¯Â¯Â± Â°Â¯Â¯Â·Â¯
Â¸Â¯ Â¸Â¯Â¯
ĠÂ¯Â¿Â·Â¯Â¯ Â·Â´Â¯
Ã¯Ãĵ Ã¯
ĠÂ¯Â¯Â´Â¯Â¯ Ã·Â¯Â¯
ĠÂ¯ÃĹ Â¯Â¯Â¯Â¯Â·Â¯
ĠÂ¯Â¯Â±Â° Â±Â°Â¯Â¯
ĠÂ¯Â¯Â¯Â´ Â°Â¯Â¯Â¯
ĠÂ¯Â¯ÃĹÂ°Â¯ Â¿Â·Â¯
ĠÂ¯Â¯ÃĹÂ°Â¯ Â±Â±Â¯
ÃıÃ± Ã¯
ĠÂ¯Â¯Â´ Â¯Â¿Â±Â¯Â¯
Â¯Â± Â¯Â¯Â¯Â¯Â¯Â¯
Â¯Â± Â°Â¯Â¯Â¯Â¯
ĠÂ¯Â¯Â·Â°Â¯ Ã·Â¯Â¯
Â¯Â¯ÃĹ Â·Â¯Â¯
ĠÂ¯Â¯Â¯Â¸ Â¯Â·
ĠÂ¯Ã·Â¯Â¯Â¯ Â´Â¯Â¯
ĠÂ¯Â¯Â°Â° Ã·Â¯Â¯Â¯
ĠÂ¯Â° Â·Â¯Â¿Â¯Â¯Â¯
ĠÂ¯Â° Â°Â¿
ĠÄ¯Ã¯ ÃĲ
ĠÂ¯Â¯Â° Â±Â·Â¯Â¯Â¯
ÅĢ Ã¯
Åĳ Ãģ
Å¿ Ãĳ
ĠÃ¯Ã¯ Ä¯
ĠÂ¯ÃĹ Â´Â¯Â·
ĠÂ¯Ã· Â¿Â¯Â¯Â¯Â¯Â¯
ÃıÃĢ Ä¯
Ã¯Ãĥ Ã¯
Â¯ÃĹ Â¸Â¯
ĠÂ¯Â¯Â¯Â¯Â° Â±Â°Â¯
ĠÂ¯Â¯Â¯Â´Â¯ Â¸Â¯Â¯
Â¯Â± Â°Â¯Â¯Â¯
ĠÂ¯Â¯Â·Â¯Â° Â·Â¯Â¯
ĠÂ¯Â¯Ã·Â±Â¯ Â±Â±Â¯
ĠÂ¯Â¯Â¯Â» Â¯Â°Â¯Â¯
Ġ Ä³Ã¯
Ä¯ Ã½
Â· Ã·
Åı Åģ
Â´ Â·Â¯
Ã· Â¯Â°Â¯Â¯Â¯
Ä¿ Ä·
Â·Â¯ Ã·Â±Â¯Â¯
ĠÂ¯Â± ÃĹÂ¯
ĠÃ¯ Ä°
Â´Â¯ Â±Â±Â¯
ĠÂ¯Â¯Â± Â´
ĠÂ¯Â±Â°Â¯Â¯ Â·Â°Â¯
ĠÂ¯Â¯Â¯Â´ Â¿Â·Â¯Â¯
Â¯Â¯Â¯Â· Â¿Â¯
Â¯Â±Â¯ Â¿Â¯Â¯Â¯
ĠÅı ÃĶ
ĠÂ¯Â» Â°Â¯Â¯
ĠÂ±Â¯Â¯Â¯ Â°Â¯Â¯Â¯
ĠÂ·Â¯Â¯ Â°Â¯Â¯Â¯Â¯
ÅıÄ³ Ãĥ
ÃıÄ´ Ãģ
Ġ ÅŁ
Ġ Å¿
ĠÂ¯Â¯ Â»Â¯Â¯Â¯
Ä¯ ÆĢ
Â°Â¯Â¯ Â·Â¯Â¯Â¯
Â°Â¯Â¯ ÃĹÂ´Â¯
ÃĹ Â¯Â¿
Ä° ÃĻ
Â·Â¯ ÃĹ
Ä· Ä³
ĠÃı Ã¯Ãı
Ã·Â¯Â¯Â¯ Â°Â¯
ĠÂ¯Â±Â°Â¯ ÃĹÂ±Â¯Â¯
ĠÂ¯Â¯Ã·Â¯ Â±Â°Â¯Â¯
Â¯Â¿Â¯Â¯ Â±Â¯Â¯
ĠÂ¯Ã· Â¸
ĠÂ¯Â¯Â» Â±
ÃıÂµ Ä¯
Ä¿Âµ Ä¯
Ġ Â°Â¯Â¯Â¯Â¯Â¯
Ġ Â´Â¯Â¯Â¯
Ġ ÄĹ
Ä¯ Æģ
Ä¯ ÅĴ
Â¿Â¯Â¯ ÃĹÂ¯Â¯Â¯
Â±Â¯Â¯Â¯ Â´Â¯Â¯
Åı Ã¯Ä¯
Ãĥ Ä±
ĠÂ¯Â· Â»Â¯
Ã· Â°Â¯Â±Â¯Â¯
Â¸ Â¯Â¿Â¸Â¯Â¯
ĠÂ¯Â¯Â°Â¯ Â±Â·Â¯Â¯
ĠÂ¯Â¯Â¿Â¯Â¯ ÃĹÂ°Â¯
ĠÂ¯Â± Â¸
Ãĳ Ã°
ĠÂ¯Â¯Â¯Â°Â¯ ÃĹ
ĠÃı Ä°
ĠÃı Ãĺ
ĠÃ¯ ÅıÃģ
ÃĻ Ãĥ
Â¯Â¿ Â¯Â¯Â¯Â¯Â¯Â¯
ĠÂ¯Â° Â´Â¯
ĠÂ¯Â¯Â¯Â± Â°Â°Â¯Â¯
Âµ Åı
ÃŁ Ä³
ÃŁ Ãĩ
ĠÂ¿ Â±
Â¯Â·Â¯Â¯ Â°Â¯Â¯
ĠÂ¯ÃĹ Â·Â¯
Â¯Â°Â¯ Â·Â¯Â¯Â¯
ĠÂ¿Â·Â¯Â¯ Â¿
ĠÂ¿Â· Â¿Â¯
ĠÂ¯Â·Â¿Â¯ ÃĹÂ¯Â¯Â¯
ĠÂ¯Â¯Â¯Â°Â¿ Â´Â¯Â¯
ĠÂ¯Â¯Â¯Â¯Â¸ Â·Â¯Â¯
ĠÂ¯Â¯Â¯Â» Â¯Â±Â¯Â¯
Â¯Â¯Â´ Â°Â¯Â¯
Â· Â·Â¯Â¯Â¯Â¯
Â· Â·Â¯Â¯Â¯Â¯Â¯
Â· Â¿Â¯Â¯Â¯Â¯
Ãı ÅĽ
Â±Â¯ Â»Â¯Â¯Â¯
ĠÂ¯Â¯Â· Â´Â¯Â¿Â¯Â¯
ĠÂ¯Â¯Â· Â¯Â¯Â¯Â¯Â°
Ãĥ Ä¯Ä¯
ĠÂ¯Â· Â±Â¯Â¯Â¯Â°Â¯
Â·Â¯ Â°
ĠÂ¯Â¯Â°Â¯ Â±Â´Â¯Â¯
Ã³ Ä³
ÃĹÂ¯Â¯Â¯ Â°Â¯Â¯
ĠÂ¯Â¿Â¯Â¯Â¯ Â¿
Â¯Â¿ Â·
ĠÂ¯Â±Â¯Â¯ Â¸Â°Â¯Â¯
Ä¯Ãı Ãģ
ĠÂ¯Â°Â¯Â¯ Â·Â±Â¯Â¯
Â·Â°Â¯Â¯ Â·Â¯Â¯
ĠÃ¯Ã¯ Åĵ
ĠÂ¯Â¯Â·Â° Â·
Åĺ Ã¯
ĠÂ¯Â¯Â´ Â±
ĠÂ¯Â¯Â´ Â°Â¯
ĠÂ¯Â¯Â·Â°Â¯ Â¸Â¯Â¯
ĠÂ¯Â·Â°Â¯Â¯ Â·Â°Â¯
Ã¯Âº Ä¯Ã¯
Â¯Â¯Â° Â¿Â¯Â¯
Â¯Â¸ Â±Â¯Â¯
Ã ¾
Ä¯ Ä¯Ãĥ
Â¯Â¯Â¯Â¯ Ã·Â°Â¯
Â¿ ÃĹÂ¯
Ã¿ Ä¸
Ä° Âµ
ĠÂ¯Â· Â¿Â¯Â¯Â¿Â¯Â¯
Â·Â¯ Â±
ĠÄ¯ Ä¯Ã¿
ĠÂ¯Â¿Â¯Â¯Â¯ Â·Â´Â¯
Å¯ Äĳ
ÃŁ ÃĢ
Â» Â¯Â¯Â°Â¯Â¯
ĠÂ¯Â±Â¯Â¯Â¯ ÃĹ
ĠÂ¯Â°Â¯Â¯ Â°Â°Â¯Â¯
ĠÂ¯Â°Â¯Â¯ ÃĹÂ±Â¯Â¯
ĠÂ¯Â¯Â° Â°Â¯Â¯Â°Â¯
ĠÂ¯ÃĹ Â´
ÃıÃı Ãı
ĠÂ¯Â¯Â¿Â¯Â¯Â¯ Â¸Â¯
ĠÂ¯Â¯Â·Â° ÃĹÂ¯Â¯Â¯
ĠÂ¿Â·Â¯Â¯ Â·Â´Â¯Â¯
ĠÂ¿Â¯Â¯Â¯ Â±Â°Â¯Â¯
ĠÂ¯Â¯Â¿Â°Â¯ Â¸Â¯Â¯
ĠÂ¿Â¿Â¯Â¯Â¯ Â¿Â¯Â¯
Â¯Â¯Â¯Ã· Â·Â¯
ĠÂ¯Â·Â¯Â¯Â· Â¿Â¯Â¯
ĠÂ¯Â¸Â¯Â¯ Ã·Â¯Â¯Â¯
Ä ¾
Å ¥
Å Ŀ
Â¯ Â¸Â¯Â¯Â¯Â¯
Â¯Â¯ ÃĹÂ¯
Ã¯ Å·
ĠÂ¯Â· Â·Â¯Â¯Â¿Â¯Â¯
Â·Â¯ Â¿Â¿Â¯
Ä· Ä¯Ã¯
ĠÂ¯Â¯Â¯Â° Ã·Â°Â¯Â¯
ĠÄ¯ ÅĻ
ĠÂ¯Â¯Â¯Â± Â·Â´Â¯Â¯
ĠÄ¯Ã¯ Ã¿
Â¸Â¯Â¯Â¯ Â¿Â¯
ĠÂ¯Â±Â¯Â¯Â¯ ÃĹÂ°Â¯
Â¯Â±Â¯Â¯ Â°Â¯Â¯
Â·Â°Â¯Â¯ Â°Â¯
ĠÂ¯Â¯Â¯Â¯Â± Â»Â¯Â¯
Â¯ÃĹ Â·Â¯
ĠÂ¯Â¯ÃĹÂ°Â¯ Â°Â°Â¯
ÄŁ Ã¯
ĠÂ¿Â·Â¯Â¯Â¯ Â¿
ĠÂ¯Ã·Â°Â¯Â¯ Â·
ĠÂ·Â¯Â¯Â¯ Â¿Â·Â¯Â¯
Ã¯Âµ Ã¯
ĠÂ¯Â¿Â¯Â¯Â¿ Â´Â¯Â¯
Å į
Â· Â¸Â¯Â¯Â¯
Â°Â¯Â¯ Â·Â·Â¯
Â±Â¯Â¯ Â·Â°Â¯Â¯
Â°Â¯ Â°Â°Â¯Â¯
Â°Â¯ Â¿Â¸Â¯
Ã¿ Ã´
Ã· Â¯Â¯Â¿Â¯Â¯
Ãĵ Ä°Ãĥ
ĠÂ¯Â¯Â¿Â¯Â¯ Ã·Â°Â¯
ĠÂ¯Â¯Â¯Â¯Â¿ Â±Â±Â¯
Â±Â°Â¯ Â±Â¯Â¯
ĠÃı Äģ
ÃĻ Ä°
ĠÂ¯Â° ÃĹ
ĠÂ¯Â° Â¿Â¯Â·Â¯Â¯Â¯
Ã° ÃĢ
ĠÂ¯Â±Â¯Â¯ ÃĹÂ±Â¯Â¯
ĠÂ¯Â¯Â¯Â·Â¯ Â°Â°Â¯
ĠÂ¯Â¯Â´Â¯Â¯ Â·Â±Â¯
ÃıÃģ Ã¯
ĠÂ¯ÃĹ Â°Â¯Â¿Â¯Â¯Â¯
Ä¸ Ãı
ĠÂ¯Â·Â¯ Â±Â¯
ĠÂ¯Â¯Â» Â¯Â±Â°Â¯Â¯
ĠÂ¯Â¿Â°Â¯ Â¸Â¯Â¯Â¯
ĠÂ¯Â¿Â°Â¯ Â·Â°Â¯Â¯
Â¯Â±Â¯ Â±Â¯
ĠÂ¯Â·Â°Â¯Â¯ Â¿Â±Â¯
ĠÂ¯Â¯Â¿Â´ Â¿Â¯Â¯Â¯
ĠÂ± Â±Â°Â¯Â¯Â¯Â¯Â¯
ĠÂ¯Â¸ Â±Â¯Â¯
Â¿Â¯Â· Â¿Â¯Â¯Â¯
ĠÂ¿Â¿Â¯Â¯Â¯ Â±Â°Â¯
ĠÂ°Â¯ Â°Â¯Â¯Â¯Â¯Â¯
ĠÂ¯ÃĹÂ´Â¯ ÃĹÂ´Â¯Â¯
Ġ Ã¸
Â¿ Â´
Â¿ Â¿Â¯Â¯Â¯Â¯
Ãĥ Åı
ĠÂ¯Â¿ Â¿Â¯Â¿Â¯Â¯Â¯
Ä° Äı
Ã³ Ãĺ
ĠÂ¯Â¯Â¯Â° Â°Â±Â¯Â¯
ĠÄ¯ ÃĶ
ĠÂ¯Â¿Â¯Â¯ Â»Â¯Â¯Â¯
ĠÂ¯Â·Â¯Â¯ Â¿Â¸Â¯Â¯
ĠÂ¯Â¿Â·Â¯ ÃĹÂ°Â¯Â¯
ĠÂ¯Â±Â¯Â¯ Â°Â°Â¯Â¯
Â¸Â¯ Â±Â°Â¯Â¯
ĠÂ¯Â¯Â° Â±Â¿Â¯Â¯Â¯
ĠÂ¯Â¯Â¯Â¯Â¯Â· Â»Â¯
Ä¹ Ãı
ĠÂ¯Â¯Â±Â°Â¯ Ã·
ĠÃıÃı Äģ
ĠÂ¯Â¯Â¯Â´ Â¿
Â¯Â°Â¯ Â±Â°Â¯
ĠÂ¯Â¿Â±Â¯ Â¿
Â¯Â± Â±Â¯Â¯Â¯
ĠÂ¯Â¯Â·Â°Â¯ Â´Â¯Â¯
ĠÂ¿Â¿Â¯Â¯ Â±Â°Â¯Â¯
ĠÂ¯Â·Â·Â¯ Â°Â¯Â¯Â¯
ĠÂ¯Â¯Â·Â±Â¯ Â¸Â¯Â¯
ĠÂ¯Â¿Â´Â¯Â¯ ÃĹÂ¯Â¯
ĠÂ¯Â¿Â¯Â¯Â¿ Â¿Â¯Â¯
Ġ ÃĪ
Ä¯ Å°
Â· ÃĹÂ¯Â¯Â¯
Â· Â·Â±Â¯Â¯
Â¿ Â°Â¯Â±Â¯Â¯
Â°Â¯ Â´Â°Â¯
Â°Â¯ Ã·Â´Â¯Â¯
Â±Â¯ Ã·Â°Â¯Â¯
ĠÂ¯Â¯Â· Â¿Â¯
Â¸ Â¯Â·Â·Â¯
Ãģ Ä¯Ã¯
ĠÂ¯Â¯Â°Â¯Â¯ ÃĹÂ±Â¯
ĠÂ¯Â± Â±Â¯Â¯Â¯Â·Â¯
Â¿Â¯ Ã·Â±Â¯Â¯
ĠÂ¯Â¯Ã· Â¸Â¯Â·Â¯Â¯
Åĥ Ã±
Âµ Ä¯Ã¯
ÃŁ Ã±
ĠÂ¯Â°Â¯Â¯Â¯ Â°Â°Â¯
ĠÂ¯Â±Â°Â¯Â¯ ÃĹÂ°Â¯
ĠÂ¯Â¯Â¯Â· Â±Â°Â¯Â¯
ĠÂ¯Â¯Â¯Â· Â·Â±Â¯Â¯
ĠÂ¯Â¯Â¸ Â¯Â¿
Ã¸ Ä¯
Ä¯Ã³ Ã¯
ĠÂ¯Â°Â°Â¯ Â¸Â°Â¯Â¯
ĠÂ¯Â¯Â¿Â°Â¯ Â·
ĠÂ¯Â¯Â¯Â¿Â¯ Â±Â°Â¯
ĠÂ¯Â¯Â·Â¯Â· Â¿Â¯Â¯
Â¯Â¯Â¿Â¯ Â°Â¯
ĠÂ¯Â¯Â°Â°Â¯ Â´Â¯Â¯
ĠÂ¯Â´Â¯Â¯ Â¿Â¯Â¯Â¯
ĠÂ¯Â¯Â¯Â» Â¯Â·Â¯Â¯
Ġ Ãķ
Ã¯ Å°
Â° Â·Â¯Â¯Â¯Â¯
Â±Â¯Â¯ ÃĹÂ±Â¯
Â±Â¯Â¯ ÃĹÂ¸Â¯
Â¿Â¯Â¯ Â°Â¯
Â¿Â¯Â¯ Â·Â°Â¯Â¯
ĠÂ¯Â¯Â¿ Â¸Â¯Â¯
Åı Åĵ
Åı Âº
ÃĹ Â°Â¯Â·Â¯Â¯
ÃĹ Â¯Â¿Â¸Â¯Â¯
ĠÂ¯Â¯Â¿Â¯ Â»
Â·Â¯ Â°Â°Â¯Â¯
Ãģ Ä¿
ĠÂ¯Â¯Â°Â¯Â¯ Â°Â±Â¯
Ãĳ Åĥ
ĠÂ¯Â¿Â¯Â¯Â¯ Ã·
Â¸Â¯Â¯ Â¸Â¯Â¯
ĠÃ¯ Ã¯Ã¯
ĠÂ¯Â·Â¯Â¯ Â°Â´Â¯Â¯
Â» Â¯Â¯Â±Â¯Â¯
ĠÂ¯Ã· Â·
ĠÂ¯Â¯Â±Â°Â¯ ÃĹ
ĠÃıÃı Ã¿
Ä¯Âµ Ãı
Â¯Ã· Â°Â¯Â¯Â¯Â¯
ĠÂ¯Â¯Â¿Â±Â¯ Â¿Â·Â¯
ĠÂ¯Â¯Â¿Â´ Â¯Â¿
Â¯Â·Â¯ Â·Â¯
Ã¯Ä° Ä¯
ÂµÃ¯ Ãķ
Ġ Ã·Â¯
Ã¯ ÅĽ
ĠÂ¯Â¯Â¯Â¯Â¯ Â°Â¯
Ä¯ Æı
Â¯Â¯Â¯Â¯ Â·Â±Â¯
Â¿ Â°Â¯Â·Â¯Â¯
Â¿ Â¯Â¯Â¯Â¯Â·Â¯
Â°Â¯Â¯Â¯ Â±Â¯Â¯
Ã· Â¯ÃĹÂ¯Â¯Â¯
Ä¿ ÃĻ
Â´Â¯Â¯ Â¿Â·Â¯
Â¸ Â·Â¯Â¯Â¯
ĠÂ¯Â¯Â·Â¯Â¯ Â¿Â¿Â¯
Ã± ÃĦ
Ã± Ã¸
ĠÂ¯Â¯ÃĹ Â¯Â·Â´Â¯Â¯
ÃĻ ÃĲ
ĠÂ¯Â·Â¯Â¯Â¯ ÃĹÂ°Â¯
ĠÂ¯Â±Â¯Â¯ Ã·Â´Â¯Â¯
ĠÂ¯Â±Â¯Â¯Â¯ Â·Â±Â¯
ĠÂ¯Â±Â°Â¯ Â±
ĠÂ¯Â¯Â° Â°Â¿Â·Â¯Â¯
Å¿ Ã¯
ÅĦ Ã¹
Â¯Ã· Â±Â¯
Â¯Â·Â¯ Â±Â¯Â¯Â¯
ĠÂ¯Ã·Â¯Â¯ Â°Â¯Â¯Â¯
ĠÂ¯Â·Â´Â¯ Â±Â°Â¯Â¯
ĠÂ¯Â¯Â·Â´ Â¿
ĠÂ¯Â¿Â¸Â¯Â¯ ÃĹÂ°Â¯
ĠÂ¯Â¯Â¯Â´Â¯Â¯ Â´Â¯
ĠÂ¯Â¯Â¯Ã· Â±Â¯Â¯Â¯
Ä Ĭ
Æ Ĥ
Â¯ Â»Â¯Â¯Â¯Â¯Â¯
Ã¯ Ä¯Ãģ
Ãı ÄĹ
Ãı Ä¯Ã³
Ãı Äī
Â¯Â¯Â¯Â¯ ÃĹ
Â¿ Â¯Â¯Â¯Â¯Â¯Â¯Â¯
Â°Â¯Â¯ Â·Â´Â¯
Â¿Â¯Â¯ Â¿Â°Â¯Â¯
Â¸ Â¿Â±Â¯Â¯
Ã³ Ã¿
ĠÄ¯ Å£
ĠÂ¯Â¯Ã· Â¯Â¯Â¯Â·Â¯
ĠÂ¯Â·Â¯Â¯ Â°
ĠÂ¯Â° Â´
Äģ Åĺ
Â´Â¯ Â·Â°Â¯Â¯
ĠÄ¯Ã¯ Ä°
Â·Â¯Â¯Â¯Â¯ Â°Â¯
ĠÂ¯Â°Â¯Â¯Â¯ Â¿
ĠÂ¯Â°Â¯Â¯Â¯ Â»Â¯Â¯
ĠÂ¯Â¿Â·Â¯Â¯ ÃĹÂ±Â¯
Ä¯Ã± Ã¯
ĠÂ¯Â¯Â¯Â· Â·Â´Â¯Â¯
Ã¸ Ã¯
ĠÂ¯Â¯Â·Â° Â±Â¯Â¯Â¯
ĠÂ¯Â¯ÃĹÂ° Ã·
ĠÂ¯Â±Â° Â¿Â±Â¯Â¯Â¯
ĠÂ¯Â±Â±Â¯Â¯ Ã·Â¯Â¯
ĠÂ¯Â¯Â°Â° ÃĹ
ĠÅı Ãķ
ĠÂ¯Â» Â°Â¯Â¯Â¯Â±Â¯
ĠÂ¯Â¯Â·Â´ Â¿Â¯Â¯Â¯
Â¯Â´ Â±Â¯Â¯
Â¯Â¯Â¯ Ã·Â¯
Â° Â°Â±Â¯Â¯
Â°Â¯ Â¸Â°Â¯
Åı Ãµ
Ã· Â¿Â¯Â¯
ĠÂ¯Â¯Â±Â¯ Â±Â·Â¯Â¯
ĠÂ¯Â¯Â·Â¯Â¯ Ã·Â±Â¯
ĠÂ¯Â¯Â¿Â¯Â¯ Ã·
ĠÂ¯Â¯ÃĹ Â¸Â¯Â·Â¯Â¯
Â¿Â¯ Â¸Â°Â¯Â¯
Äı ÃĤ
Ä¯Ãı Ä¯Ãĥ
ÅŁ Âµ
ĠÂ¯Â¯Â¸ Â¯Â·Â°Â¯Â¯
Ãĭ Ä¯
ĠÂ¯Â°Â¯ Â°Â¯
Â¯Â±Â¯ Â°Â¯
ĠÂ¯Â¯Â¿Â· Â·Â°Â¯Â¯
ĠÂ¯Â¯Â¯Â¸ Â¯Â·Â°Â¯
ĠÂ¯Â¯Â¯Â±Â¯Â¯ Â´Â¯
ĠÂ¯Â·Â¿Â¯ Â¿Â¯Â¯Â¯
ĠÂ¯Â·Â¿Â¯ Â·Â°Â¯Â¯
ĠÂ¯Â´ Â±Â¯Â¯Â¯Â¯Â¯
ĠÂ¿Â¯Â¯ Â¿Â·Â¯Â¯Â¯
ĠÂ·Â¯Â¯ Â±Â¯Â¯Â¯Â¯
ĠÂ¯Â¯ÃĹÂ´Â¯ Â·
Â¯Â¯Â¯ Â±Â·Â¯
Â¯Â¯Â¯ Â»Â±Â¯
Â±Â¯Â¯ Â°Â¯Â¯Â¯
ĠÂ¯Â¯Â¯ Â¸Â¯Â¯Â·Â¯
ĠÂ¯Â¯Â¿ Â´Â¯Â¯Â·Â¯
Åı Ã¯Ãı
Ãĥ Ä¯Ä·
ĠÂ¯Â¿ Â´Â¯Â¯Â¯
Â·Â¯ Â»Â¯Â¯Â¯
ĠÂ¯Â¯Â°Â¯Â¯ Â·Â´Â¯
ĠÂ¯Â¯Â¯Â±Â¯ ÃĹ
ĠÃı Ä±
Â´Â¯ ÃĹÂ´Â¯
Äı Ä·
Â¯Â°Â¯Â¯ Â¿Â¯Â¯
ĠÂ¯Â°Â¯Â¯Â¯ Ã·Â°Â¯
ÅıÃģ Ä¯
ĠÂ¯Â¯Â¿Â± Â¿
Â¯Â° Â¸Â¯Â¯
ĠÂ¯Â¯Ã·Â°Â¯ Â±Â±Â¯
ĠÂ¯Â¯Â·Â°Â¯ Â·Â±Â¯
Ã¯Ã³ Ãģ
ĠÂ¯Â¯ÃĹÂ±Â¯ Â¿Â·Â¯
Ã¯Âº Ã¯
ĠÂ°Â¯Â¯Â¯ Â¿Â¯Â¯Â¯
Â± Â´Â¯
Â³ Â¼
Â¯Â¯Â¯Â¯ Â±Â±Â¯
Â¯Â¯Â¯Â¯Â¯ Â¿Â¯Â¯
Ã¿ ÃŁ
Ã³ ÃĶ
Ä³ Ãĩ
ÃĲ Ã±
ÃĹÂ¯Â¯ Â´Â¯Â¯
ĠÃ¯ Åģ
ĠÃ¯ Ã£
Ã¹ Åĵ
Äģ Ä°
ĠÄ¯Ã¯ ÃŁ
Ã·Â¯Â¯Â¯ Â±Â¯
Â» Â¯Â¯Â·Â¯Â¯
ĠÂ¯Â±Â°Â¯ Â¿Â¸Â¯Â¯
Åĳ Ã¯
ĠÂ¯Â¿Â¯ Â°Â¿Â¯Â¯Â¯
Ä¯Ãĵ Ã¯
ĠÂ¯Â¿Â±Â¯ Â¸Â¯Â¯Â¯
ĠÂ¿Â¯ Â°Â¯
Â¯Â¯Â± Â¿Â¯
ĠÂ¯Â¯Â»Â¯Â¯ ÃĹÂ¯Â¯
ĠÂ¯Â¿Â·Â¯Â· Â·Â¯Â¯
Â¯ Â»Â¯
Ãı ÅĻ
Â±Â¯Â¯ Â¿Â·Â¯Â¯
Â±Â¯ Â¿Â¯
Åı Äı
Åı Åĳ
ĠÂ¯Â· Â¿Â¯Â¯Â±Â¯Â¯
Ä¯Ã¯ Ä¯Ã¯
Â¸ Â·Â¯
Ã± Ä³
ĠÂ¯Â¯Â±Â¯Â¯ Â°
Ä· Ä¯Ãĥ
Ä· Ã¯Ã¯
ĠÂ¯Â¯ÃĹ Â¿Â¯Â¯Â¯Â¯
ÃĲ Ãĩ
Åĵ Ãĥ
ĠÂ¯Â¯Â¯Â¯Â¿ Â·Â±Â¯
ĠÃı Ä¯Ã¯
Â¯Â¿ Â°Â¯Â¯Â¯Â¯
ĠÂ¯Â° Â·Â¯Â¯Â°Â¯Â¯
Â» Â¯Â¯Â¯Â°Â¯
ĠÂ¯Â¿Â·Â¯ Â¿Â¿Â¯Â¯
Â¸Â¯ Â´Â¯Â¯
ĠÂ¯Â±Â¯Â¯Â¯ Â±Â±Â¯
ĠÂ¿ Â°
ÅŁ Ã±
ĠÂ³ Â¹
ĠÂ¯ÃĹ Â¸Â¯Â¯Â¯Â¯Â¯
ĠÂ¯ÃĹ Â°Â¯Â·Â¯Â¯Â¯
ĠÂ¯Â¯Â±Â°Â¯ Â¿Â·Â¯
ĠÂ¯Â¯Â¯Â¯Â¯Â¿ Â»Â¯
ĠÂ¯Â¯Â¯Â¯ÃĹ ÃĹÂ¯Â¯
ĠÂ¿Â·Â¯Â¯ Ã·Â´Â¯Â¯
ĠÂ¯Â¯Â¿Â±Â¯ ÃĹÂ¯Â¯
Â¯Â¯Â¯Â¿ Â´Â¯Â¯
Â±Â¿ Â·Â¯Â¯Â¯
ĠÂ¯Â·Â±Â¯Â¯ Â´Â¯Â¯
ĠÂ¯Â¿Â¿Â¯ Â¸Â¯Â¯Â¯
ĠÃ¿ ÃĢ
ĠÂ¯Â¯Â·Â´Â¯ Â·Â´Â¯
ĠÂ¯Â¯Â¯Â¶ Â¯Â·Â¯Â¯
Ã¯ Å³
Ä¯ Å¹
Ãı Ä¯Ã±
Â¿Â¯Â¯ Â·Â´Â¯Â¯
Â¿Â¯Â¯ Ã·Â°Â¯
ĠÂ¯Â¯Â¿ Â»Â¯Â¯Â¯Â¯
Ä° ÃŁ
Ä¿ Åĳ
Â¸ Â¿Â¯Â¯
Ãĵ Ã¿
Ä³ ÃĻ
ĠÂ¯Â¯Â¯Â°Â¯ Â±
ĠÂ¯Â¿Â¯Â¯ ÃĹÂ±Â¯Â¯
ĠÂ¯Â¯Â¯Â¯Â· Â¿Â·Â¯
ĠÂ¯Â° Â°Â¯Â¯Â¯Â·Â¯
ÃĦ Ãı
Ä¯Ãģ Ä¯Ãĵ
ĠÂ¯Â°Â¯Â¯Â¯ Â·Â±Â¯
ĠÂ¯Â±Â°Â¯Â¯ Â´Â°Â¯
ĠÂ¯Â¯Â´Â¯Â¯ Â¿Â·Â¯
ĠÂ¯Â¯Â°Â¯Â¯Â¯ Â¸Â¯
ĠÂ¯Â¯Â¸Â¯ Ã·Â°Â¯Â¯
ĠÂ¯Â¿Â°Â¯Â¯ Â·Â±Â¯
ĠÂ¯Â±Â±Â¯ Â¿Â°Â¯Â¯
ĠÂ¯Â¯Â´ Â¯Â¿Â°Â¯Â¯
ĠÂ¯Â°Â°Â¯Â¯ ÃĹÂ¯Â¯
ĠÂ¯Â¯ÃĹÂ±Â¯ Â±Â±Â¯
ĠÂ¯Â¯Â¯Â¸Â¯ Â´Â¯Â¯
ĠÂ±Â¯Â¯Â¯ Â±Â¯Â¯Â¯
ĠÂ¯Â¯Â¯Â±Â¿ Â´Â¯Â¯
ĠÂ°Â¯Â¯ Â±Â¯Â¯Â¯Â¯
Ġ ÃĹÂ¯Â¯Â¯
Ġ Ã³Ãı
Â¯Â¯Â¯ ÃĹÂ±Â¯Â¯
Ãı Å·
Â±Â¯Â¯ Â±Â°Â¯Â¯
Â·Â¯Â¯ Â¿Â°Â¯Â¯
Â±Â¯ ÃĹÂ°Â¯
ĠÂ¯Â¯Â· Â±Â¯Â´Â¯Â¯
Ã¿ Ä¿
Â´ Â¿Â¯
ĠÂ¯Â¯Â·Â¯Â¯ Â±
Ã³ Åı
Â¸Â¯Â¯ Â·Â°Â¯
ĠÂ¯Â·Â¯Â¯ ÃĹÂ´Â¯Â¯
ĠÂ¯Â° Â±Â¯Â¯Â¿Â¯Â¯
ĠÂ¯Â¿Â·Â¯ ÃĹÂ´Â¯Â¯
ĠÂ¯Â¯Â´Â¯ Â´Â¯Â¯Â¯
Â¯Â¯Â¿ Â·Â¯Â¯Â¯
ĠÂ¯Â¿Â¯ Â±Â¯
ĠÂ¯Ã· Â±
ĠÂ¯Â¯Â¿Â± Â¿Â·Â¯Â¯
Â¯Â¯Â¯Â· Â¿Â¯Â¯
ĠÂ¯Â±Â° Â±
ĠÂ¿Â·Â¯Â¯ Â·Â°Â¯Â¯
Â¯Â± Â°
ĠÂ¯Â¯Â¯Â¸Â¯ Â¸Â¯Â¯
ĠÂ¯ÃĹÂ°Â¯Â¯ Â¸Â¯Â¯
ĠÂ¯Â¿Â±Â¯Â¯ Â¿Â±Â¯
ĠÂ¿Â¿Â¯Â¯ Â°Â¯Â¯Â¯
ĠÂ¯Â¿Â¸Â¯Â¯ Â·
Ã¯ Äħ
Ã¯ Ã©
Ãı Ã§
Â¿ Â»Â¯Â¯
ĠÂ¯Â¯Â· Â´Â¯Â·
ĠÂ¯Â¯Â¿ Â¿Â·Â¯Â¯Â¯
Åı Ä¯Ä¯
ĠÂ¯Â¿ Â´Â¯Â·Â¯Â¯Â¯
Â´Â¯Â¯ Â¸Â¯Â¯
Â´Â¯Â¯ ÃĹÂ°Â¯
ĠÂ¯Â¯Â±Â¯ Ã·Â´Â¯Â¯
Â·Â¯ Â±Â±Â¯Â¯
ĠÂ¯Â¯ÃĹ Â·Â¯Â·Â¯Â¯
ÃĲ Ã³
Åĵ Ä¯Ãĥ
Â´Â¯ Â°
Â¯Â±Â¯Â¯ Â¿Â¯Â¯
ĠÂ¯Â¯Â° Â°Â¯Â¯
ĠÂ¯Â°Â¯Â¯Â¯ Â±Â±Â¯
ĠÂ¯Â¯Ã·Â¯ Â»Â¯Â¯Â¯
Ãī Ä¯
ĠÂ¯Â¯ÃĹÂ° Â°Â¯Â¯Â¯
ĠÂ¯Â¿Â°Â¯Â¯ Â±Â°Â¯
Â¯Â° Â±Â¯Â¯Â¯
ĠÂ¯Â¯ÃĹÂ°Â¯ Â¸Â¯Â¯
Ã¯Ä³ Ä¯
ĠÂ¯Â°Â°Â¯Â¯ Â¿Â·Â¯
ĠÂ¯Â¯Â¿Â· Â¿Â¯Â¯Â¯
Â¯Â¯Â·Â¯ Â±Â°Â¯Â¯
ĠÂ¯Â±Â¯Â¯Â¯Â¯ Â´Â¯
ĠÂ°Â¯Â¯Â¯Â¯ Â¿Â¯Â¯
ĠÂ¯Â¿Â·Â¯Â¯Â¯ Â´Â¯
ĠÂ¯Â¿Â¿Â¯ Â·Â°Â¯Â¯
ĠÂ¯Â·Â´Â¯Â¯ Â¿Â¯Â¯
Ġ ÅıÃ¯
Ġ Ã¿Ãı
ĠÂ¯Â¯Â¯Â¯Â¯ Â°Â¯Â°
Ä¯ Ä¸
Â· Â°Â¯Â¿Â¯Â¯
Â°Â¯Â¯ Ã·
Â±Â¯Â¯ Â¸Â°Â¯
Â·Â¯Â¯ Â·Â±Â¯
Ã¿ Ä´
Ãĥ Ä¿
Ãĥ Ã¯Ã¯
ĠÂ¯Â¿ ÃĹÂ°
ĠÂ¯Â¯Â¿Â¯ Ã·Â´Â¯Â¯
Ã· Â°Â¯Â¯Â¯Â¯Â¯
Â±Â¯Â¯Â¯Â¯ Â±Â¯
Ãģ Ä¯Ãĵ
Ã± Ã³
Ä· Äģ
ĠÄ¯ ÃĽ
ĠÂ¯Â¯Â¯Â±Â¯ Â¿Â¿Â¯
ĠÂ¯Â¿Â¯Â¯ Â°
ĠÂ¯Â¯Â¯Â¯Â· Â¶Â¯Â¯
Â¯Â¿ Â°
ĠÂ¯Â° Â±Â¯Â¯Â°Â¯Â¯
Äģ ÃĲ
Â¯Â· Â°
ĠÂ¯Â¯Â± Â´Â¯Â¯Â¯Â¯
ĠÂ¯Â¯Â± Â¿Â·Â¯Â¯Â¯
ĠÂ¯Â±Â°Â¯ Ã·Â±Â¯Â¯
ĠÂ¯Â¯ÃĹÂ¯ Â±Â±Â¯Â¯
ĠÂ¯Â¯Â° Â¿Â¿Â¯Â¯Â¯
ĠÂ¯Â¯Â¿Â° ÃĹ
Åĳ Ãı
Ã¯Ã¯ Ãĥ
ĠÂ¯Â±Â°Â¯Â¯ Ã·Â¯Â¯
ĠÂ¯Â¯Â±Â°Â¯ Â·Â´Â¯
ĠÂ¯Â¯Â¯Â¯ÃĹ Â±Â°Â¯
Â¶ Â°Â¯
ĠÂ¯Â¿Â°Â¯ Â·
ĠÂ¯Â¿Â±Â¯ Â·
ĠÂ¯Â¯Â¯Â¯Ã· ÃĹÂ¯Â¯
ĠÂ¯Â¯Â¿Â°Â¯ Â¿Â±Â¯
ĠÂ¯Â¯ÃĹÂ±Â¯ Â°Â°Â¯
Â¯Â¿Â¯ Â±Â¯Â¯Â¯
ĠÂ¯Â¯Ã·Â±Â¯ Â·Â±Â¯
ĠÂ¯Â¿Â¯Â¯Â¯Â¯ Â¸Â¯
ĠÂ¯Â¿Â´Â¯Â¯ Â·
Â±Â¯Â¯Â· Â¸Â¯
Ġ ÃĹÂ¯Â¯
Ġ Ä¿Ã¯
Â° Â±Â±Â¯Â¯
Ãı ÄĦ
Â¯Â¯Â¯Â¯ Â·Â´Â¯
Â¿ Â±Â°Â¯
Â¿ Â°Â¿Â¯Â¯Â¯
Â°Â¯Â¯ Â¿Â°Â¯
ĠÂ¯Â¯Â¿ Â¸Â¯Â¯Â°Â¯
Ãĥ Ã¿
ĠÂ¯Â¿ Â¯Â¿Â·Â¯Â¯Â¯
ĠÂ¯Â· Â±Â¯Â¯Â¯
ĠÂ¯Â¯Â±Â¯ Â»Â±Â¯Â¯
Ãģ Ãĳ
Ãģ ÃĲ
Ä· ÃĻ
ĠÂ¯Â¯Â¯Â° Â±Â±Â¯Â¯
ĠÂ¯Â¯Â¯Â°Â¯ Ã·
Å¯ Ä¿
ĠÃı Ä·
ĠÃ¯ ÃŁ
Âµ Ã¯Ãı
ĠÂ¯Â¯Â± Â±Â¿
Ãĩ ÃĲ
ĠÂ¿ Â¿Â·Â¯
ĠÂ¯Â¯Â¿Â° Â´Â¯Â¯Â¯
ÅĢ Ä¯
ĠÂ¯Â¯Â¸ Â¯Â¿Â±Â¯Â¯
Â¼ Â³
Ä¯Âµ Ã¯Ãı
ĠÂ¯Â±Â±Â¯ ÃĹÂ¯Â¯Â¯
ĠÂ¯Â°Â°Â¯Â¯ Â´Â°Â¯
ĠÂ¯Â¯Â¿Â°Â¯ ÃĹÂ¯Â¯
ĠÂ¯Â¯Â¿Â· Â¿Â±Â¯Â¯
ĠÂ·Â¯Â¯Â¯ Â·
ĠÂ·Â¯Â¯Â¯ Â¿
ÃıÃĲ Ã¯
ĠÂ·Â¯ Â°Â¯
Â¯Â¿Â¯ Â¿Â¯Â¯Â¯
ĠÂ¿Â· Â·Â¯Â¿Â¯Â¯Â¯
Ä² Ã¯
ĠÂ±Â¯ Â±Â¯
ÃıÃ¸ Ãģ
ĠÂ¯Â¯Â¸Â¯Â¯Â¯ Â·Â¯
ĠÂ¯Â¿Â¯Â· Â¿Â¯Â¯Â¯
Ġ Â°Â¯Â¿Â¯Â¯
Ã¯ ÄĪ
Â· Â±Â°Â¯Â¯
Â· Â¿Â¸Â¯Â¯
Ãı ÃıÃģ
Â¿ Â´Â¯Â¯Â¯
Â¿ Â¸Â¯Â¯Â¯Â¯
Â°Â¯Â¯ ÃĹÂ±Â¯
Ã¿ ÅĲ
Ãĥ Ã¯Ãı
ĠÂ¯Â¿ Â¸Â¯Â¯Â¯
ĠÂ¯Â¯Â¿Â¯ Â¸
Ä¿ ÃĢ
Ä¿ Äĳ
Ä¯Ã¯ Ãĥ
Ã³ Ä¹
Ã³ Âº
ĠÂ¯Â¯Â¿Â¯Â¯ Â¶Â¯Â¯
ĠÂ¯Â± Â·Â¯Â¯Â±Â¯Â¯
Ãĳ Åı
ĠÂ¯Â¯Â¯Â° Â»Â¯Â¯Â¯
Å¯ ÃĴ
ĠÂ¯Â° Â°Â¯Â¯Â¯Â¿Â¯
ĠÄ¯Ã¯ Åĥ
ĠÂ¯Â¯Â± Â°Â¯Â¯Â¿Â¯
ĠÃ¯Ãı Ã¹
Åģ Ä¯
Â¯ÃĹ Â¶Â¯Â¯
ĠÂ¯Â¯Â» Â°Â¯
ĠÂ¯Â¯Â» Â¯Ã·Â¯Â¯Â¯
ÅıÂµ Ä¯
ÃıÃĳ Ã¯
Ã¯Âµ Ãı
Â¯Â¿Â¯ Â·Â¯
ĠÂ¯Â» Â¯Â¯Â¯Â°Â¯Â¯
ĠÂ¯Â¯Â±Â± Â¿Â°Â¯Â¯
Â±Â° Â·Â¯Â¯
ĠÂ±Â° Â°Â¯Â¯Â¯Â¯Â¯
Â¯Â¯ Â»Â°Â¯
Â· Ã·Â°Â¯Â¯
Ãı Å£
Â°Â¯Â¯ Â¿Â¯Â¯Â¯
ĠÂ¯Â¯Â¿ Â¶Â¯Â¯Â¯Â¯
Â·Â¯Â¯Â¯ Â´Â¯
ĠÂ¯Â¯Â¯Â¯Â¯Â¯ Â·Â°
Ä¿ Ä¹
Ä¯Ã¯ Ä¯Ãĥ
Ã¯Ãı Ã¯Ã¯
Â·Â¯ Â¿Â¯
Ãĵ Ãĳ
ĠÂ¯Â¯Â·Â¯Â¯ Â°Â±Â¯
ĠÂ¯Â¯Â¿Â¯Â¯ Â·Â´Â¯
Ä· Åı
ÃĲ Ä³
ĠÂ¯Â¯Â¯Â° Ã·Â±Â¯Â¯
ÃĹÂ¯Â¯Â¯ Â±Â¯
ĠÂ¯Â¯Â¯Â¯Â¿ Â°Â°Â¯
Â¯Â¿ Â´Â¯
Äı Ä³
Â» Â·Â¯Â¯
ĠÂ¯Â±Â¯Â¯ Â¿Â¸Â¯Â¯
Ã·Â¯Â¯ Ã·
ĠÂ¯Â¯Â° Â±Â¯Â±Â¯Â¯
ÃıÃĥ Ä¯
ĠÂ¯Â¯Â´Â¯ ÃĹÂ°Â¯Â¯
ÅĦ Ã¯
ĠÂ¯Ã· Â°Â¯Â·Â¯Â¯Â¯
ĠÂ¯Â¯Â¸Â¯ Â°Â°Â¯Â¯
Ä¯Ãĵ Ä¯
ĠÂ¯Â¯Â» Â¯Â¿Â·Â¯Â¯
ĠÂ¯Â¯Â¯Â´ Â±Â¯Â¯Â¯
ĠÂ¯Â¯Â·Â± Â±Â¯Â¯Â¯
ĠÂ¯Â¯Â¿Â°Â¯ Â¿Â°Â¯
ĠÂ¯Â¯Â¯Â¸Â¯ Ã·Â¯Â¯
ĠÂ¯Â·Â°Â¯ Â¿Â·Â¯Â¯
ÅıÂµ Ãı
ĠÂ·Â¯ Â¿Â¯
ÃıÂº Ãı
ĠÂ¯Â¿Â¸ Â¯Â¯Â¿Â¯Â¯
ĠÂ°Â¯ Â·Â¯Â¯Â¯Â¯Â¯
ĠÂ¯Â·Â·Â¯Â¯ Â±Â°Â¯
ĠÂ¯Ã·Â°Â¯ Â¿Â·Â¯Â¯
ĠÂ¯Â¯Â¯Â°Â¯Â¯Â¯ Â°
Ġ Â»Â¯
ĠÂ¯Â¯Â¯Â¯Â¯ Â¸Â±Â¯
Ä¯ ÃĪ
Â·Â¯Â¯ Â·Â°Â¯Â¯
Â¿Â¯Â¯ ÃĹÂ°Â¯
ÃĹ Â°Â¯Â°Â¯Â¯
ĠÂ¯Â· Â·Â¯Â¯Â¯Â°Â¯
Ä¿ ÃĦ
Â´Â¯Â¯ Â¿Â±Â¯
Ã¯Ãı Ã¯Ãı
Â¸ Â¯Â¯Â¯Â¯Â¯Â¯Â¯
ĠÂ¯Â¯Â¿Â¯Â¯ ÃĹ
Ä· Ã¹
ĠÄ¯ Ã¡
ĠÂ¯Â¯Â¯Â¯Â¿ Â±
ĠÃ¯ Ä±
Ãĩ Ãĵ
ÅŁ Ãĳ
ĠÂ¯Â¿Â·Â¯Â¯ Â¿
Âº Ã¯Ãı
Å¿ Ãĥ
ĠÂ¯Â¯Â±Â°Â¯ ÃĹÂ°Â¯
Â¯Â° Â·
ĠÂ¯Â±Â° Â±Â¯Â¯Â¯Â¯
ĠÂ¯Â°Â¯ Â·
ĠÂ¯Â¯Â·Â± Â·Â¯Â¯Â¯
ĠÂ¯Â¯Â¿Â·Â¯ Â·
ĠÂ¿Â¯ Â¿Â¯Â¯
ĠÂ¿Â¿Â¯Â¯ Â·
ÃıÃ° Ãı
ĠÂ¯Â·Â¿Â¯ Â±Â°Â¯Â¯
Â±Â° Â¿Â¯Â¯
ĠÂ¯Â¯Â¯Â°Â· Â¿Â¯Â¯
ĠÂ¯Â¯ÃĹÂ¯Â¯Â¯ Â¸Â¯
ĠÂ¯Â¸Â¯Â¯Â¯ Â´Â¯Â¯
Â° Â´Â¯
Â· Â±Â¯Â±Â¯Â¯
Ãı Ä²
Â¿Â¯Â¯ Â±
Â±Â¯ Â°Â±Â¯
Â¿Â¯Â¯Â¯ Â·Â±Â¯
ĠÂ¯Â¯Â· Â¿Â¿Â¯Â¯Â¯
ÃĹ Â¯Â·Â±Â¯Â¯
ÃĹ Â°Â¿Â·Â¯Â¯
ĠÂ¯Â¿ ÃĹÂ¯Â·Â¯Â¯Â¯
ĠÂ¯Â¯Â¿Â¯ Â±Â¿Â¯Â¯
Ä° Ä·
Ä° Ã¯Ã¯
Ä¿ Ã¯Ãģ
Ä¯Ã¯ Ä¯Ä¯
Ã¯Ãı Ãĥ
Ãĵ Ä¯Ãĥ
Ã± Ã±
ĠÂ¯Â¯Â¿Â¯Â¯ Ã·Â±Â¯
ĠÂ¯Â¯Ã· Â´Â¯Â°Â¯Â¯
Â¸Â¯Â¯ ÃĹÂ¸Â¯
Â±Â°Â¯ Â¿Â¯Â¯
Å¯ Ä·
ĠÂ¯Â¯Â± Â¿Â±Â¯Â¯Â¯
ÃŁ Ã¿
ÃŁ Ãĳ
ĠÂ¯Â¿Â·Â¯Â¯ Â¿Â±Â¯
ĠÂ¯Â¯Â´Â¯Â¯ Â°Â°Â¯
ĠÂ¯Â¯Â¯Â· Ã·Â¯Â¯Â¯
ĠÂ¯Â¯Â¸ Â¿Â°Â¯Â¯Â¯
Äĩ Ãı
ĠÂ¯Ã· Â¿
Ã¯Ãģ Ãı
Â¯ÃĹ Â°
Ä¯Ãĳ Ã¯
ĠÃıÃı Ã³
ĠÂ¯Â·Â¯ Â°Â¯Â±Â¯Â¯
Â¯Ã· Â°
ĠÂ¯Â¯Â´ Â·Â¯Â¯Â¯Â¯
ĠÂ¯Â¯Ã·Â°Â¯ Ã·Â°Â¯
ÃĹÂ°Â¯ Â·
ĠÂ¿Â¯Â¯Â¯ Â·Â°Â¯Â¯
ĠÂ¯Â¯Â¿Â´ Â·Â¯Â¯Â¯
ĠÂ¯Â» Â±Â¯Â¯
ĠÂ°Â¯ Â±Â¯Â¯Â¯Â¯Â¯
ĠÂ¯Â¯Â¯ÃĹ Â±Â¯Â¯Â¯
ĠÂ¿Â·Â¯Â¯Â¯Â¯ Â·Â¯
ĠÂ¯Â¯Â±Â¯Â¯Â¯Â¯ Â°
Ġ Â±Â¯Â¿Â¯Â¯
Ġ Ã§
Ġ Ã±Ãı
Â¯Â¯ Â°Â¯Â±Â¯Â¯
Â¯Â¯ Â¸Â¯Â¯Â¯Â¯Â¯
Â¯Â¯Â¯ Â±Â¿Â¯
Ã¯ ÄĦ
Ä¯ Ãĸ
Â°Â¯Â¯ Â´Â°Â¯
Â±Â¯Â¯ ÃĹÂ¯Â¯Â¯
ĠÂ¯Â¿ Â¿Â¯Â·
ĠÂ¯Â· Â±Â°Â¯Â¯Â¯Â¯
Ã· Â°Â¿Â¯Â¯Â¯
Ãģ Ä¯Ä¯
ĠÂ¯Â¯Â¿Â¯Â¯ Â°Â±Â¯
Ä· Ãħ
ĠÂ¯Â± Â·Â¯Â¯Â·Â¯Â¯
Ãĳ Ä¯Ã¯
ÃĲ Âµ
ÃĢ Ä¿
ĠÄ¯ Ä¯Ãĥ
ĠÂ¯Â¯Ã· Â´Â¯Â¯
ĠÂ¯Â¯Ã· Â·Â¯Â±Â¯Â¯
ĠÂ¯Â¿Â¯Â¯Â¯ Â¿Â¸Â¯
Â±Â°Â¯ Â°Â¯
Äı Ã³
Ã° Ã°
ĠÂ¯Â¯Â± Â¿Â¯
ÃŁ Ãĵ
Ãĩ Ä°
ĠÃ¯Ãı Äĩ
ĠÂ¿ Â¸
ÅĲ Ã¯
ĠÂ¯Â±Â°Â¯Â¯ Â·Â±Â¯
ĠÂ¯Â¯Â¯Â¯ÃĹ Â»Â¯Â¯
Â¯Ã· Â¸Â¯
Â¯Â·Â¯ Â·Â¯Â¯Â¯
ĠÂ¿Â¯Â¯Â¯Â¯ ÃĹÂ¯Â¯
ĠÂ¯Â·Â´Â¯ Â·Â´Â¯Â¯
Â±Â° Â±Â¯Â¯
ĠÂ¯Â¯Â»Â¯Â¯ Â»Â¯Â¯
ĠÂ·Â·Â¯Â¯Â¯ Â¿Â¯Â¯
ĠÂ¿Â¿ Â¯Â¯Â¯Â¯Â°Â¯
ĠÂ¯Â¿ÃĹ Â±Â¯Â¯Â¯Â¯
Ġ Â½
Ġ Åĩ
Ġ ÄıÃı
Â· ÃĹ
Â¿ Â±Â¯Â°Â¯Â¯
Â°Â¯Â¯ Â¿Â¿Â¯
Â¿Â¯Â¯ Â·Â±Â¯
Â°Â¯ Ã·Â°Â¯Â¯
Â¿Â¯Â¯Â¯ Â·Â´Â¯
ĠÂ¯Â¿ Â°Â¯Â¯Â¯Â·Â¯
ĠÂ¯Â¯Â¿Â¯ Â°Â·Â¯Â¯
Â¸ Â¿
Ã± Ä¯Ã¯
ĠÂ¯Â¯Â°Â¯Â¯ Ã·
ĠÂ¯Â¯Â±Â¯Â¯ Â¸Â°Â¯
ĠÂ¯Â± Â¿Â¯Â¯Â°Â¯Â¯
ĠÂ¯Â± Â·Â¯Â¯Â°Â¯Â¯
Ä³ Ä¿
Â¿Â¯ Â·Â¯Â¯Â¯Â¯
Â¯Â¯Â·Â¯Â¯ Â°Â¯Â¯
ĠÂ¯Â¯Ã· Â´Â¯Â¿Â¯Â¯
ĠÂ¯Â¯Â¯Â¯Â¿ Â¶Â¯Â¯
ĠÂ¯Â¯Â¯Â¯Â· Â¿Â°Â¯
Â¯Â· Â±Â°Â¯
ĠÂ¯Â¯Â° Â´Â¯Â¯Â¯Â¯
ĠÂ¯Â¯Â° Â±Â¯Â·Â¯Â¯
Ã¯ÃĲ Ãı
ĠÂ¯Ã· Â±Â¯Â¯Â¿Â¯Â¯
ĠÂ¯Â¯Â±Â°Â¯ Â·Â·Â¯
ĠÂ¯Â¯Â» Â¯Â¯Â¯Â°Â¯
Â¯Â° Â¯Â¯Â¯Â¯Â¯Â¯
Â¶ Â¯Â°Â¯Â¯
Æı ÃĢ
ĠÂ¯Â¯Â¿Â·Â¯ Â¿
ĠÂ¯Â±Â±Â¯Â¯ Â´Â¯Â¯
ĠÂ·Â¯Â¯Â¯Â¯ Â±Â°Â¯
ĠÂ¯Â¿Â¿Â¯ Â±Â¯Â¯Â¯
ĠÂ¯Â·Â¯Â¯Â· Â·Â¯Â¯
ĠÅ¯ Ã¯
Ä½ Ã¯
Ġ Â±Â¯Â·Â¯Â¯
Ġ Ä°Ã¯
Ġ Ä¿Ãĥ
Â¯Â¯Â¯ Â°Â·Â¯
Ãı Å±
Â¿ ÃĹÂ¯Â¯Â¯Â¯Â¯
Â¿Â¯Â¯Â¯ ÃĹÂ´Â¯
ĠÂ¯Â¯Â· Â°Â¯Â¯Â¿Â¯
Ã¿ Ã¸
Ä° Äģ
ĠÂ¯Â· Â±Â°
Ã· Â·Â¯Â¯Â¯
Ä³ Ä¯Ã¯
Â¿Â¯ Â°Â¯Â¯Â¯Â¯
Â¿Â¯ Â¿Â¸Â¯Â¯
ĠÂ¯Â¯Â¯Â±Â¯ ÃĹÂ°Â¯
Åĵ Ã¿
Ä± Ä¿
ÅĹ Ä³
Å¯ Ãī
ĠÃ¯ ÃĦ
Â¯Â¿ Â±
Âµ ÃĲ
Â» Â¯Â¯Â¯Â¯Â¯Â¯
ĠÂ¯Â±Â¯Â¯ Â»Â¯Â¯Â¯
Ã·Â¯Â¯ Â·Â¯Â¯Â¯
Ã¯Ä¯ Ãĵ
Â¯Â° Â·Â±Â¯Â¯
ĠÂ¿Â¯ Â±
ĠÂ¯Â¯Â¯Â¿Â¯ Â¸Â¯Â¯
Â¯Â·Â¯ Â·Â¯Â¯
ÃıÃĳ Ä¯
ÃıÂº Ã¯Ãı
ĠÂ¯Â¯Â·Â¯Â¿ Â·
ĠÂ¿Â¿Â¯ Â¿Â¯Â¯Â¯Â¯
ĠÂ¯Â¯Â¯Â±Â· Â¿Â¯Â¯
ĠÂ°Â¯Â¯Â¯ Â·Â¯Â¯Â¯
ĠÂ¯Â¿Â·Â¯Â¿ Â´Â¯Â¯
ĠÂ¯Â¯Â¯Â¯Â¯Â·Â¯ Â±
ĠÂ¯Â¯Â¯Â¯Â¯Â·Â¯ Â°
Ġ ÃĽ
Ä¯ Ã¼
Â¿ ÃĹÂ¯Â¿Â¯Â¯Â¯
Ã¿ Ã¹
Â°Â¯Â¯Â¯ Â·Â¯Â¯
Ä¿ Ã¯Ãı
Ä¯Ã¯ Ä°
ĠÂ¯Â¯Â±Â¯ Â¿Â¯
Â·Â¯ Â·Â´Â¯Â¯
Ãĵ Ä¿
ĠÂ¯Â¯Â·Â¯Â¯ Ã·Â´Â¯
ĠÂ¯Â¯Â±Â¯Â¯ Â¿Â´Â¯
ĠÄ¯ Ã´
Åĵ Ãĳ
ĠÂ¯Â¯Â¯Â¯Â· Â¿Â±Â¯
ĠÂ¯Â·Â¯Â¯ Ã·Â±Â¯Â¯
Â´Â¯ Â·Â·Â¯
ĠÂ¯Â·Â¯Â¯Â¯ Â·Â±Â¯
ĠÂ¯Â¯Â¯Â± Â°Â¿Â¯Â¯
Äı Ãĩ
Âµ Ä°
ĠÂ¯Â¯Â¯Â¿ ÃĹÂ¯Â¯Â¯
Â¯Â¯Â¿ Â¿Â¯Â¯Â¯
ÃıÃ¯ ÃĢ
ĠÂ¯Â¯Â¿Â± ÃĹÂ¯Â¯Â¯
ÅĶ Äģ
ĠÂ¯ÃĹÂ¯Â¯Â¯ Â¸Â¯Â¯
ĠÂ¯Â¿Â°Â¯Â¯ Â¿Â±Â¯
ĠÂ¯Â¿Â°Â¯ Â´Â¯Â¯Â¯
ĠÂ¯Â¯ÃĹÂ± Â±Â°Â¯Â¯
ĠÂ¯Â¯Â¯Â·Â¯Â¯ Â´Â¯
ĠÂ¯Â±Â±Â¯Â¯ Â·Â°Â¯
ĠÂ± Â°Â¯Â¯Â¯Â¯
Â±Â¯Â· Â·Â¯Â¯
Â°Â· Â¿Â¯Â¯
ĠÂ¯Â¿Â´Â¯Â¯ Â·Â°Â¯
ĠÂ·Â·Â¯Â¯ Â·
ĠÂ·Â¯Â¯ Â±
ĠÂ¯Â¿Â´Â¯ Â°Â¯Â¯Â¯
ĠÂ¯Â¯Â¯Â¿Â¯Â¯ Â¿Â¯
Â¸Â¯Â· Â¸Â¯
Å ©
Ġ Ä»
Ġ Ãĭ
Â¯Â¯Â¯ Ã·Â±Â¯Â¯
Â° Â·Â¯Â¯Â¯Â¯Â¯
Ãı Ã¤
Â¿ Â°Â¯Â°Â¯Â¯
Â¿Â¯Â¯ Â¿Â¸Â¯
ĠÂ¯Â¯Â·Â¯ Â¿Â¯
ĠÂ¯Â· Â±Â¯Â¯Â¯Â±Â¯
ĠÂ¯Â· Â¿Â°Â¯Â¯Â¯Â¯
Ãģ Ä°
ÃĢ Ã¹
ÃĢ Ä¯Ãı
ÃĢ Ä¯Ãĵ
Åĵ Ä±
Ä± Ä±
ÅĹ Ä¯Ãĥ
Å¯ ÃĤ
Ã° Ã±
Ã° ÃĻ
Ãĩ Ãģ
ĠÂ¯Â¿Â·Â¯ Â±Â±Â¯Â¯
Åĳ Ä¯
Åĳ Ãĥ
ÃıÃģ Ä¯Åĵ
ĠÂ¯ÃĹ Â°Â¯Â¯Â¯Â·Â¯
ĠÂ¯Â¿Â¯ Â±Â¿Â¯Â¯Â¯
Ãħ Ä¯
ĠÂ¯Â¯Â¸Â¯ Ã·
Â¯Â°Â¯ Â¿Â¯Â¯Â¯
ĠÂ¯Â¯Â¿Â±Â¯ Â·
Â¯Â·Â¯ Â¿Â¯Â¯
ĠÂ¯Â±Â±Â¯Â¯ Â¸Â¯Â¯
ĠÂ¯Â¿Â¸ Â¯Â¯Â±Â¯Â¯
ĠÂ¿Â· Â±Â¯Â¯Â¯Â¯Â¯
ĠÂ¯Ã·Â¯Â¯Â¯ Ã·Â¯Â¯
Â±Â¿ Â±Â¯Â¯Â¯
ĠÂ¯Â°Â° Â°Â¯Â¯Â¯Â¯
Â°Â¯Â· Â¸Â¯
ĠÂ¯Â·Â´Â¯ Ã·
ĠÂ°Â¯ Â·Â¯
ĠÂ¯Â¿Â´ Â¯Â¿Â¯Â¯Â¯
ĠÂ°Â¯Â¯ Â°Â¯Â¯Â¯Â¯
Ġ Ã·Â¯Â¯Â¯
Ġ Â·Â¯Â°Â¯Â¯
Â· Â¸Â¯Â¯Â¯Â¯
Ãı ÄŁ
ĠÂ¯Â¯Â¿ Â¯Â¯Â¯Â¯Â°
Åı ÅĹ
Â´ Â¯Â¿
ÃĹ Â°Â¿Â¯Â¯Â¯
Ã· Â¯Â·
Â¸ Â°Â¯Â¯Â¯Â¯
ĠÂ¯Â¯Â·Â¯Â¯ Â°
ĠÂ¯Â¯Â±Â¯Â¯ Â°Â±Â¯
ĠÂ¯Â¯ÃĹ Â´Â¯Â¯Â°Â¯
Åĵ Ä¯Ãĵ
ĠÂ¯Â¿Â¯Â¯Â¯ Ã·Â±Â¯
ÅĹ Ãĵ
ĠÃ¯ ÄĢ
Â´Â¯ Â·Â´Â¯Â¯
ĠÂ¯Â¯Â¯Â± Ã·
Äı Åı
ĠÂ¯Â±Â¯Â¯ Â¿Â´Â¯Â¯
ĠÂ¯Â±Â¯Â¯Â¯ Â·Â·Â¯
ĠÂ¿ Â°Â¯
Â¯Â°Â¯Â¯ Â°Â¯
ĠÂ¯Â¿Â·Â¯Â¯ Ã·Â´Â¯
Ä¹ ÃĢ
ÅĲ Ãı
Ã¯Ãĳ Ä¯Ã¯
ÃıÃ¯ Ãĥ
ĠÂ¯Â·Â¯ Â±Â·Â¯Â¯Â¯
Â¯Ã· Â¯Â¯Â¯Â¯
ĠÂ¯ÃĹÂ¯Â¯ Â·
ĠÂ¿Â·Â¯Â¯ ÃĹÂ´Â¯Â¯
ĠÂ¯Â¯ÃĹÂ± Â±Â¯Â¯Â¯
ĠÂ¿Â¯ Â·Â¯Â¯
ĠÂ¯Â¯Â¯Â¯Â¯Â° Â´Â¯
ĠÂ¯Ã·Â¯Â¯Â¯ Â±Â°Â¯
ĠÂ¯Â» Â¯Â¯Â¯Â¿Â¯Â¯
ĠÂ·Â·Â¯Â¯Â¯ Â±Â¯Â¯
ĠÂ¿Â¯Â¯Â¯Â¯Â¯ Â¿Â¯
ÃıÄ´ Ãĥ
Ã¶ Ãı
ĠÂ¯Â¯Â¯Â» Â°Â¯Â¯Â¯
Æ Ī
Â¯Â¯ Â±Â¯Â°Â¯Â¯
Â¯Â¯Â¯ Â´
Ã¯ Äĺ
Ã¯ ÃĿ
Ãı ÃıÃĥ
Â¿ Â±Â¯Â¿Â¯Â¯
Â¿ Â°Â·
Â¿Â¯Â¯ Â´Â°Â¯
ĠÂ¯Â¯Â· Â´Â¯Â¯Â°Â¯
ĠÂ¯Â¯Â· Â·Â¯Â¯Â±Â¯
Åı Ã´
Ã¿ ÃĦ
Ãĥ ÃĻ
ĠÂ¯Â¿ Â±Â°Â¯
Ä° Åĥ
ĠÂ¯Â· Â¿Â±Â¯Â¯Â¯Â¯
ĠÂ¯Â· Â·Â¯Â¯Â¯Â±Â¯
Ä¿ Åı
Â·Â¯ Â·Â±Â¯
Ã± Ã¹
Ä³ Ä·
ĠÂ¯Â¯ÃĹ Â´Â¯Â¯
ĠÂ¯Â¯ÃĹ Â¯Â¿Â´Â¯Â¯
ÃĲ ÃĶ
ĠÄ¯ ÃĴ
ÅĹ Ã¿
ÅĹ Ãĳ
Â¸Â¯Â¯ Â´Â¯Â¯
Ã¹ ÅĶ
Â¯Â°Â¯Â¯ Â¸Â¯Â¯
ĠÂ¯Â°Â¯Â¯Â¯ Â·Â·Â¯
Ä¹ Ä¯Ã¯
Åĳ Ã³
ĠÂ¯Â±Â°Â¯Â¯ Â·Â´Â¯
ĠÂ¯ÃĹ Â±Â¯Â¯Â¯Â°Â¯
ÄĹ Ã¯
ĠÂ¯Â¯Â´Â¯ Ã·Â°Â¯Â¯
Ã¯Ãĳ Ã¯
ÃıÃı Ä¯Ã¯
ĠÂ¯Ã· Â±Â¯Â¯Â°Â¯Â¯
ĠÂ¯Â¯Â±Â°Â¯ Â·Â±Â¯
Ã¯Ãģ Ã¯
ĠÂ¯Â¯Â¯Â¯Â° Â»Â¯Â¯
ĠÂ¯Â¯ÃĹÂ¯Â¯ Â¿Â·Â¯
ĠÂ¯Â¯ÃĹÂ°Â¯ Â·Â·Â¯
Â¯Â°Â¯ Â·
ĠÂ¯Â°Â¯ Â±Â¯
ĠÂ¿Â¯Â¯Â¯ ÃĹ
ĠÂ¯Â¯Â¯Â¸Â¯ Â±Â±Â¯
Â¯Â¯Â·Â¯ Â°Â¯
Ã¯Ã° Ãı
ĠÂ¯Â·Â±Â¯ ÃĹÂ¯Â¯Â¯
ĠÂ·Â¯Â¯Â¯Â¯ Â·
ĠÂ¯Â¯Â°Â° Ã·
ĠÅı Ä¯
ĠÂ¯Â¯Ã·Â´ Â¿Â¯Â¯Â¯
ĠÂ¯Â¿Â¸Â¯Â¯ ÃĹÂ´Â¯
ÅıÃĳ Ã¯
ĠÂ¯Â¯Â¶ Â¯Â¯Â°Â¯Â¯
ĠÂ¯ÃĹÂ´Â¯Â¯ Â°Â¯Â¯
ĠÂ·Â·Â¯ Â¿Â·Â¯Â¯Â¯
ĠÂ¯Â¯Ã·Â°Â¯Â¯ Â´Â¯
Â¯ Â¶
Ã¯ Ã¥
ĠÂ¯Â¯Â¯Â¯Â¯ Â°Â¯Â±
Â· Â´
Â· Â¿Â°Â¯Â¯Â¯
Â¿ ÃĹ
Â±Â¯Â¯ Â°
Â¿Â¯Â¯ Â·Â¯
ĠÂ¯Â¯Â· Â¯Â¯Â¯Â¯
ĠÂ¯Â¯Â· Â·Â¯Â¯
ĠÂ¯Â¯Â· Â¿Â·Â¯Â¯Â¯
Ã¿ Ã¯Ä¯
Â´ Â¿Â¯Â¯
ÃĹ Â±Â¯Â·Â¯Â¯
ĠÂ¯Â¿ Â¿Â±Â¯Â¯Â¯Â¯
Ä¿ Ã°
Â¸ Â°
Â¸ Â¯Â¿Â°Â¯Â¯
Ãĵ Ã³
Ã± ÃŁ
Ã³ Åĥ
Ãĳ ÃĶ
ÃĲ Ä¯Ã¯
ĠÄ¯ Åķ
Å¯ Ãµ
Å¯ Ã²
ĠÂ¯Â° Â±Â°Â¯Â¯Â¯Â¯
Äģ ÅĹ
ĠÂ¯Â¿Â·Â¯ Ã·Â·Â¯Â¯
ĠÂ¯Â±Â¯Â¯ Â±Â±Â¯Â¯
Â¸Â¯ Ã·
Ä¯Ãı Ãĥ
ÅĢ Ãı
Ä´ Ãı
ĠÂ¯Â¯Â¯Â· Â¿Â°Â¯Â¯
Å¿ Ä¯
ÃıÃģ Ãı
ĠÂ¯Â¯Â¯Â¿ Â¿Â·Â¯Â¯
ĠÂ¯Â¯Ã·Â° Â°Â¯Â¯Â¯
ĠÂ¯Ã· Â¸Â¯Â¯Â·Â¯Â¯
ĠÂ¯Â¯ÃĹÂ° Â±Â¯Â¯Â¯
ĠÂ¯Â¯Â¯Â¯Â± Â°Â°Â¯
ĠÂ¯Â±Â¯ Â°Â¯
ĠÂ¯Â±Â¯ Â±Â¯
ĠÂ¯ÃĹÂ¯Â¯ Â¿Â·Â¯Â¯
ĠÂ¯Â¯Â¿Â°Â¯ Â¿Â·Â¯
ĠÂ¯Â¯ÃĹÂ±Â¯ Â»Â¯Â¯
ĠÂ¯Â·Â°Â¯ Â¿
Ã§ Ãı
ĠÂ¯Â¯Â¿Â· Â¿Â·Â¯Â¯
Â¯Â¯ÃĹ Â¿Â¯Â¯
ĠÂ± Â·Â¯Â¯Â¯Â¯Â¯Â¯
ĠÂ¯Â¯Â¯Â¯Â¯ÃĹ Â¿Â¯
ĠÂ¯Â·Â¿Â¯ Â´Â¯Â¯Â¯
ĠÂ¯Â´ Â°Â¯Â¯
ÃĥÄ¯ ÅĹ
ĠÂ·Â·Â¯Â¯ Â±Â°Â¯Â¯
ĠÂ·Â¯Â¯ Â°
ĠÂ¯ÃĹÂ°Â¯ ÃĹÂ°Â¯Â¯
ĠÂ¯Â¿Â´Â¯ Â±Â¯Â¯Â¯
ĠÂ¯Â¯Â°Â¯Ã· Â·Â¯Â¯
ĠÂ¯Â¯Â¯Â» Â¯Â¿Â¯Â¯
Ã¯ Ä¯Ã±
Ã¯ Ã¼
Ä¯ Ã¶
Â¯Â¯Â¯Â¯Â¯ Â¸Â¯
Â±Â¯Â¯ ÃĹÂ°Â¯Â¯
Â¿Â¯Â¯ Â¿Â¸Â¯Â¯
Â°Â¯ Â¿Â¯
Â°Â¯ Ã·Â´Â¯
Ã¿ ÃĴ
Â´ Â°Â¯Â¯Â¯
ĠÂ¯Â¿ Â¸Â¯Â¯Â¯Â°Â¯
Ã· Â¯Â¯Â¯Â±Â¯Â¯
Ä¿ Ä¯Ã¯
Ä¿ Åĥ
Ä¯Ã¯ ÃıÃĥ
Â¸ Â·Â¯Â¯
Ãģ Ã°
ĠÂ¯Â¯Â¿Â¯Â¯ Â±
ĠÂ¯Â± Â´Â¯Â¯
ÃĲ ÃĲ
Â¿Â¯ Â±Â±Â¯Â¯
ĠÂ¯Â¯Â¯Â¯Â¿ Â·Â·Â¯
Åĥ Âµ
ĠÂ¯Â° Â¸Â¯Â¯Â¯Â¯Â¯
ĠÂ¯Â° Â±Â¯Â°Â¯Â¯Â¯
Â´Â¯ ÃĹÂ¯Â¯Â¯
Äı Ã±
Ãĩ ÃĢ
ĠÃ¯Ãı Ä¿
ĠÂ¯Â¿Â·Â¯ ÃĹ
ĠÂ¯Â±Â¯Â¯ Â±
ĠÂ¯Â¯Â¯Â·Â¯ Â·Â±Â¯
ĠÂ¯Â¯Â° Â°Â¿
ĠÂ¯ÃĹ Â·Â¯Â¯
ĠÂ¯ÃĹ Â¿Â¯
ĠÂ¯Ã· Â°Â¯Â·
ĠÂ¯Â¯Â·Â° Â¸Â¯Â¯Â¯
ÃĽ Ä¯
ĠÂ¯Â¯Â¯Â¯ÃĹ Â¯Â·Â¯
Â¯Â° Â°
ĠÂ¯Â¯Ã·Â°Â¯ Â¸Â¯Â¯
ÃĹÂ°Â¯ Â±Â°Â¯
ĠÂ¯Â·Â°Â¯ ÃĹÂ¯Â¯Â¯
ĠÂ¯Â·Â°Â¯ Â¿Â°Â¯Â¯
ĠÂ¯Â¿Â±Â¯Â¯ Â´Â¯Â¯
ĠÂ¯Â±Â±Â¯Â¯ Â·Â·Â¯
ĠÂ¯Â¯Â·Â¯Â° Â¿Â¯Â¯
ĠÂ¿Â·Â¯ Â·Â·Â¯Â¯Â¯
ĠÂ¯Ã·Â¯Â¯Â¯ Â·
ĠÂ°Â¯ Â¿Â¯Â¯Â¯Â¯Â¯
ĠÂ¯Â¯Ã·Â´Â¯ Ã·
ĠÂ¯Â¯Â¶ Â¯Â¯Â·Â¯Â¯
ÅıÄ³ Ãĵ
ĠÂ¯Â¯Â¯ÃĹ Â°Â¯Â¯Â¯
Â±Â¯Â¯Ã· Â¸Â¯
Ġ Å¯Ãĳ
Â¯Â¯Â¯Â¯ Â»Â¯
Â±Â¯ ÃĹÂ´Â¯Â¯
ĠÂ¯Â¯Â¿ Â»
Ã¿ Ã¯Ãı
Ã¿ Ä¯Ãı
Ã¿ Ã²
ĠÂ¯Â· Â·Â¯Â¯Â¯
Ãĵ Ä°Ãģ
Ã± Ã¯Ãı
ĠÂ¯Â¯Â±Â¯Â¯ ÃĹÂ´Â¯
ĠÂ¯Â¯Â¯Â° Â°Â°Â¯Â¯
ĠÄ¯ Ä¯Ä¯
ĠÄ¯ ÄĻ
ĠÂ¯Â¯Ã· Â¸Â¯Â±Â°Â¯
Ä± Åı
ÅĹ Ä±
Â¸Â¯Â¯ Â¿Â·Â¯
ĠÂ¯Â·Â¯Â¯Â¯ Â¿Â¿Â¯
ĠÂ¯Â¯Â± Â±Â¯Â¯Â±Â¯
Ãĩ Ã±
Â» Â¯Â·
ĠÂ¯Â±Â¯Â¯Â¯ Ã·
ĠÂ¯Â°Â¯Â¯Â¯ ÃĹÂ°Â¯
ĠÂ¯Â¿Â·Â¯Â¯ Â¿Â¿Â¯
ĠÃ¯Ã¯ Ä·
ĠÂ¯Â¿Â¯ Â°Â¯Â±Â¯Â¯
ĠÂ¯Ã· Â±Â¯Â¯Â¯Â°Â¯
ĠÂ¯Â¯Â·Â° Â·Â°Â¯Â¯
ÃıÃ¯ Ãģ
ĠÂ¯Â¯Â¯Â¯Â± Â´Â±Â¯
Â¯ÃĹ Â¯Â¯Â¯Â¯
ĠÃıÃı Ã±
ĠÂ¯Â¯Â» Â±Â¯
ÃıÃ± Ä¯
ĠÂ¯Â±Â° Â·
ĠÂ¯Â¯Ã·Â°Â¯ Â·Â·Â¯
ĠÂ¯Â¯Â¿Â±Â¯ Â¿
ĠÂ¯Â·Â°Â¯Â¯ Â»Â¯Â¯
ĠÂ¯Â¯Â¿Â· Â·Â´Â¯Â¯
Ã¯Ä± Ãĵ
ĠÂ¿Â¯ Â·
ĠÂ¯Â·Â±Â¯ Â±Â´Â¯Â¯
Â°Â¿ Â·Â¯Â¯Â¯
Â¯Â¯Â¯Â¿ Â¿Â¯Â¯
ĠÅı Ã¿
ĠÂ¯Â» Â°Â¯
Å¯Ãĳ Ä¯
ĠÂ¯Â¯Â±Â¯Â¯Â· Â¿Â¯
ĠÂ¯Â±Â¯Â¯Â· Â¿Â¯Â¯
ĠÂ¯Â¯Â¯Ã· Â°Â¯Â¯Â¯
ĠÂ·Â¯Â¯Â¯Â¯Â¯ Â¿Â¯
ĠÂ±Â°Â¯Â¯Â¯ Â°Â¯Â¯
ĠÂ¯Â¯Â¯Â¯Â¿Â¯Â¯ Â°
ĠÂ¯Â¯Â°Â¯Â¯Â¯Â¯ Â°
Ġ Åĳ
Ġ Â±Â¯Â·
Â¯Â¯ Â´Â¯Â¯Â¯Â¯
Â¯Â¯ Â±Â¯Â¿Â¯Â¯
Â¯Â¯ Â±Â¯Â±Â¯Â¯
Â¯Â¯ Â¸Â±Â¯
Â¯Â¯Â¯ Â»
Ã¯ Å±
Â° Â°Â°Â¯Â¯
Â° Â°Â·Â¯Â¯
Â¯Â¯Â¯Â¯ Â¿Â¿Â¯
Â±Â¯Â¯ ÃĹÂ´Â¯Â¯
Â¿Â¯Â¯ Â°
Åı Ä¯Ãĥ
Ã¿ Åĳ
ĠÂ¯Â¿ Â¯Â¿Â±Â¯Â¯Â¯
ĠÂ¯Â· Â°Â¯Â¯Â¯Â·Â¯
ĠÂ¯Â· Â¯Â¯Â¯Â¯Â¯Â°
ĠÂ¯Â· Â»Â¯Â±Â¯Â¯Â¯
Ã· Â´
Â¸ Â¯Â·Â±Â¯
Â¸ Â¯Â¿Â¸Â¯
Ãĵ Ä±
Ãĵ ÃĦ
ĠÂ¯Â± Ã·Â¯Â¯Â¯Â¯Â¯
Ä³ Åı
Ä³ ÃĢ
ĠÂ¯Â¯Ã· Â¿Â¯Â¯Â¯Â¯
ĠÂ¯Â¯Ã· Â¯Â¯Â¿Â·Â¯
ĠÂ¯Â¿Â¯Â¯Â¯ ÃĹÂ´Â¯
Â¸Â¯Â¯ Â´Â¯
Å¯ Ä¹
Äĥ Ã±
Äı Ä¿
ĠÂ¯Â±Â¯Â¯ Â°
ĠÂ¯Â¯ÃĹÂ¯ Â±
ĠÂ¯Â¿Â·Â¯Â¯ ÃĹÂ´Â¯
ÅĲ Ã¿
Â¯Â¯Â¿ Â±Â¯Â¯Â¯
Ã¯Ãĥ Ä¯Ã±
ĠÂ¯Â¯ÃĹÂ¯Â¯ Â±Â±Â¯
Ã¯ÃĢ Ä¯Ãĳ
Â¯Â° Ã·Â¯Â¯Â¯
ÄŁ Ä·
ĠÂ¯Â¯Ã·Â°Â¯ Â·Â±Â¯
Â¿Â¯Â¯Â¯Â¯ Â¿Â¯
ĠÂ¯Â¯Â¯Â¸Â¯ ÃĹÂ¯Â¯
ĠÂ¯Â·Â°Â¯ Â±Â´Â¯Â¯
ĠÂ¿Â¯ ÃĹÂ¯
ĠÂ¯Â·Â±Â¯ Â¿Â·Â¯Â¯
Â¯Â¿Â¯ Â±Â¯Â¯
ĠÂ¿Â¯Â¯Â¯Â¯ Â·
ĠÂ¯Â» Â±
ĠÂ¯Â» Â¯Â¯Â·Â¯Â¯Â¯
ĠÂ¯Â¿Â¿Â¯ Â¿Â·Â¯Â¯
ĠÂ¯Â¯Â°Â± Ã·Â¯Â¯Â¯
ĠÂ° Â±Â¯Â¯Â¯Â¯Â¯Â¯
ĠÂ·Â¯Â¯Â¯Â¯Â¯ Â·Â¯
ĠÂ¯Â¯Â±Â¿ Â´Â¯Â¯Â¯
ĠÂ¯Â¯Â¯Â¸Â¯Â¯ Â¿Â¯
ĠÂ¯Â¯Â¯Â¯Â·Â¯Â¯ Â±
ĠÂ¯Â¯Â¯Â¯Â·Â¯Â¯ Â°
ĠÂ¯Â¶ Â¯Â¯Â¯Â¯Â¯Â¯
Ġ Äĩ
Ġ Ä±Ã¯
ĠÂ¯Â¯Â¯Â¯Â¯ Â±Â¯Â±
Ä¯ Ä¯Ãģ
Â¿Â¯Â¯Â¯ Â¿
ĠÂ¯Â¯Â¿ Â¿Â±Â¯Â¯Â¯
Â±Â¯Â¯Â¯ ÃĹÂ¯Â¯
Åı Ä¯Ãı
ÃĹ Â´Â¯Â¯Â¯
Ãĥ ÃıÃı
Ãģ ÃĢ
Ãģ Ä¯Ã³
ĠÂ¯Â¯Â°Â¯ Â±Â¯
Ã± Ä·
ĠÂ¯Â¯Â±Â¯Â¯ Â¿Â¸Â¯
Ä· Ä·
Ä³ Ã¯Ã¯
ĠÂ¯Â¯ÃĹ Â¯Â¯Â·Â·Â¯
ÃĲ Ãĵ
Åĵ Åģ
ÃĹÂ¯Â¯ Â·
Å¯ Ä³
ĠÃ¯ Ãļ
Ã¹ Ä°
Åĥ Ä¯Ãģ
Â¯Â¿ Â¶Â¯Â¯
ĠÂ¯Â° Â·Â¯Â¯Â·Â¯Â¯
ĠÂ¯Â° Â·Â°Â¯Â¯Â¯Â¯
Â¯Â· Â°Â¯Â¯Â¯Â¯
Ã° Ã´
Â² Â¹
Ãĩ Ãĳ
ĠÂ¿ Â±Â°Â¯
ĠÂ¿ ÃĹÂ¯Â¯Â¯Â¯Â¯Â¯
ĠÂ¯Â¯Â° Â¿Â¯Â°Â¯Â¯
ĠÂ¯Â¿Â·Â¯Â¯ Â»Â¯Â¯
Ã¯Ãĵ Ä¯Ãģ
ÄĢ Ã¯
ÄĢ Ä¯
ĠÂ¯Â¯Â´Â¯ Â±
ĠÂ¯Â¯Â±Â° Ã·Â¯Â¯Â¯
Â»Â¯Â¯ Â°Â¯
ĠÂ¯Â¯Ã·Â° Â·Â·Â¯Â¯
Ä¯Ã³ Ãı
ÃĹÂ¯ Â±Â¯
ĠÂ¯Â¯Ã·Â°Â¯ Â·Â´Â¯
ĠÂ¯Â¯Â¿Â±Â¯ Â·Â°Â¯
ĠÂ¯Â¯Â¯Â¸ Â°Â¯Â¯Â¯
ĠÂ¯Â±Â±Â¯Â¯ Â°Â°Â¯
ĠÂ¯Â¸ Â¸Â¯
Â±Â· Â·Â¯Â¯
Â±Â¯Â· Â¸Â¯
Â±Â¯Â¿ Â¿Â¯Â¯
ĠÂ¯Â¿Â¸Â¯ Â°Â¯Â¯Â¯
ĠÂ¯Â¯Â·Â¯Â¿ Â±Â°Â¯
ĠÂ¿Â¿Â¯Â¯Â¯ Â´Â¯Â¯
ĠÂ·Â¯Â¯ Â¿Â¯Â¯Â¯Â¯
Â¯Â» Â±Â¯
ĠÂ¯Â¯Â¯Ã· Â·Â¯Â¯Â¯
ĠÂ±Â¯Â¯ Â±
ĠÂ¯Â¯Â¯Â¯Â¯Â´ Â·Â¯
ĠÂ¯Â¯Â¯Â¯Â¸Â¯ Â±Â¯
Ã¯ ÅĪ
Ä¯ Ãł
Ä¯ Å´
Ãı ÄĲ
Â¯Â¯Â¯Â¯ Ã·Â´Â¯
Â¿ Â°Â¿Â·Â¯Â¯
Â·Â¯Â¯ Â¿Â¸Â¯
Â±Â¯ ÃĹÂ±Â¯
ĠÂ¯Â¯Â· Â¿Â°Â¯Â¯Â¯
Â´ Â°Â¯Â¯Â¯Â¯
ÃĹ Â¯ÃĹÂ¯Â¯Â¯
ĠÂ¯Â¯Â·Â¯ Â»Â°Â¯Â¯
Ä° ÄĹ
Ã± Âµ
ĠÂ¯Â¯Â°Â¯Â¯ Ã·Â±Â¯
ĠÂ¯Â¯Â¯Â° Â°Â·Â¯Â¯
ĠÃ¯ Ãķ
Â¯Â¿ Â±Â¯Â¯Â¯Â¯
ĠÂ¯Â° Â°Â·
Äı Ãł
Â» Â¯Â¯Â¿Â¯Â¯
Ä¯Ãı Ä¯Ãģ
ĠÂ¿ Â·Â°Â¯
ÅŁ ÃĢ
ĠÂ¯Â°Â¯Â¯Â¯ ÃĹ
Ä¯Ä¯ Ãĩ
ĠÂ· Â±Â°Â¯
Âº Ä¯Ãı
Ã¸ ÃĶ
Ä¯Ã¹ Ãı
ĠÂ¯Â¯Â±Â°Â¯ Â¿
Åĺ Äĥ
ĠÂ¯Â¯Â¯Â¯Â± Â±Â°Â¯
Ä¯Ãĵ Ãı
Â¯Ã· Â·Â¯
ĠÂ¯Â¯Â» Â¯Â¯Â¯Â±Â¯
ĠÂ¯Â¿Â· Â¿
Â¯Â°Â¯ Â°Â¯Â¯Â¯
ĠÂ¯Â¯Â´ Â¿
ĠÂ¯Â¯Â´ Â¿Â¯Â¯Â¯Â¯
ĠÂ¯Â¯Â´ Â¯Â¿Â¸Â¯Â¯
ĠÂ¯Â¿Â±Â¯ Â±Â°Â¯Â¯
Â¯Â±Â¯ Â±Â¯Â¯Â¯
ĠÂ¯Â¯Â¸Â¯Â¯ Â±Â°Â¯
ĠÂ¯Â¯Â¿Â´Â¯ Ã·Â¯Â¯
ĠÂ± Â¿Â¯Â¯Â¯Â¯Â¯Â¯
Ä¯Ä± Ã¯
ĠÂ¯Â¿Â¸ Â¯Â·Â¯Â¯Â¯
ĠÂ¯Â¯Ã·Â±Â¯ Â·Â°Â¯
ĠÂ¯Â» Â¿Â¯Â¯Â¯Â¯Â¯
ĠÂ¯Â¯Â¯Â¯Â» Â´Â¯Â¯
ÅıÃ± Ã¯
ĠÂ¯Â¯Â·Â· Â¿Â¯Â¯Â¯
ĠÂ¯Â¯Â¿Â¸Â¯ Â±Â°Â¯
ĠÂ±Â¯Â¯Â¯Â¯Â¯ Â°Â¯
Ġ Â±Â¯Â°Â¯Â¯
Ġ ÃĤ
Â¯Â¯ Â´Â±Â¯
Â¯Â¯Â¯ Â»Â°Â¯
Ã¯ Ä¯Ãĳ
Ã¯ Æı
Â³ Â½
Ãı Ä»
Ãı ÄĻ
ĠÂ¯Â¯Â¿ Â·Â¯Â¯Â¿Â¯
Åı Ã¡
Ã¿ ÃıÃı
Ãĥ Ã³
ĠÂ¯Â¿ Â¿Â¯Â¯Â¯Â±Â¯
Ä° Ä³
ĠÂ¯Â· Â¿Â¯Â¯Â·Â¯Â¯
Ã· Â¿Â¯
Ã· Â°Â¯Â·Â¯Â¯
Â´Â¯Â¯ Â¸Â¯
Ã¯Ãı ÃĢ
Ã¯Ãı Ä¯Ä¯
Ã± Ä°
Ã³ Ä±Ãĵ
ĠÂ¯Â± Â¿Â¯Â¯Â±Â¯Â¯
ĠÂ¯Â± Â·Â¯Â±Â¯Â¯Â¯
ĠÂ¯Â¯ÃĹ Â¯Â·Â·Â¯Â¯
ĠÄ¯ ÅĦ
ĠÄ¯ Äī
Åĵ Ä¯Ãģ
ĠÂ¯Â¯Â¯Â¯Â¿ Â°
Â¸Â¯Â¯ Ã·Â¯Â¯
Å¯ Ãĩ
Å¯ Ãħ
ĠÃı Ã¹
ĠÃı Ã¿Ãı
ĠÂ¯Â¯Â¯Â¯Â· Â°
ĠÂ¯Â¯Â± Â´Â¯
Â¸Â¯ ÃĹ
Ã·Â¯Â¯ ÃĹÂ¯Â¯
ĠÂ¿ Â¸Â¯
ĠÂ¯Â°Â¯Â¯ Â»Â¯Â¯Â¯
ĠÂ¯Â¿Â·Â¯Â¯ Ã·
Ã¯Ã¯ ÃĲ
ĠÂ¯Â¯Ã·Â¯ ÃĹÂ°Â¯Â¯
ÄĹ Ãı
Â¯Â¯Â¿ Â±Â°Â¯
ĠÂ¯Ã· Â¸Â¯Â¯Â°Â¯Â¯
ĠÂ¯Â¯ÃĹÂ° Ã·Â¯Â¯Â¯
ÃĽ Âµ
Ã¯ÃĢ Ã¯
ĠÂ¯Â°Â°Â¯ Â¿Â±Â¯Â¯
ĠÂ¯Â¿Â· Â·Â¯Â¯Â¯Â¯
ÃıÄ¯ Ä±
Â¶ Â¯Â¿Â¯Â¯
ĠÂ¿Â·Â¯Â¯ Â´Â¯Â¯Â¯
Ã¯Ã³ Ä¯
Â¯Â¯Â·Â¯ Â±Â¯
ĠÂ¿Â¯ Â¿
ĠÂ¿Â¯ Â±Â¯Â¯
ĠÂ¯Â¯Â¿Â´Â¯ Â°Â°Â¯
ĠÂ·Â¯Â¯Â¯ Â±Â°Â¯Â¯
ĠÂ¯Â·Â±Â¯ Â·
Ã² Ä¯
Â°Â¿ Â¿Â¯Â¯Â¯
ĠÂ¯Â¸ Â±
ĠÂ¿Â·Â¯ Â¿Â¿Â¯Â¯Â¯
ĠÂ¯Â» Â·Â¯Â¯Â¯Â¯Â¯
ĠÂ¯Â·Â·Â¯Â¯ ÃĹÂ¯Â¯
ĠÂ¯Â·Â¸Â¯ Â±Â°Â¯Â¯
Ġ Â°Â·
ĠÂ¯Â¯Â¯Â¯Â¯ Â±Â¯
ĠÂ¯Â¯Â¯Â¯Â¯ Â¿Â¯Â°
Â¯Â¯Â¯Â¯ Ã·Â¯Â¯Â¯
Â±Â¯Â¯ Â¿Â±Â¯Â¯
Â±Â¯Â¯ ÃĹÂ·Â¯
Â±Â¯ ÃĹÂ±Â¯Â¯
Â±Â¯ Ã·Â´Â¯Â¯
Â±Â¯ Â¶Â¯Â¯Â¯
Â±Â¯Â¯Â¯ Â±Â°Â¯
ĠÂ¯Â¿ Â¿Â¯Â¯Â¯Â°Â¯
Ã· Â¯Â¯Â¯Â·Â¯Â¯
Ã· Â´Â¯Â¯Â¯Â¯
Ã¯Ãı Ä¯Ãģ
Â·Â¯ Â¿Â°Â¯
Â·Â¯ ÃĹÂ±Â¯Â¯
Ãģ Ã¯Ãı
ĠÂ¯Â¯Â°Â¯ Â°Â±Â¯Â¯
Ä· Åĵ
Ä· ÃŁ
ÃĲ Ãĳ
Â¿Â¯ ÃĹÂ¯Â¯
Â¯Â·Â¯Â¯Â¯ Â°Â¯
ĠÂ¯Â¯Ã· Â±Â¯Â´Â¯Â¯
ĠÂ¯Â¯Ã· Â¸Â¯Â°Â¯Â¯
Å¯ ÅĲ
Å¯ ÄĢ
ĠÂ¯Â° Â·Â¯Â·Â¯Â¯Â¯
Äģ Ä¸
Â¯Â· Â»Â¯Â¯
Âµ Ã¯ÃĢ
Ãĺ ÃĦ
ÃŁ Âµ
ĠÂ¿ Â±Â°Â¯Â¯
Ä¯Ãĥ Ãı
ĠÂ¯Â¯Â¯Â·Â¯ Â»Â¯Â¯
Â¯Â°Â¯Â¯ Â±Â¯
Ã¯Ãĵ Ä¯Ã±
ĠÂ· Â·Â¯Â¯Â¯Â¯
Â¯Â¿Â¯Â¯ Â·Â¯Â¯
ĠÂ¯Â¿Â¯ Â¿Â¯
Ã¯Ãĥ Ä¯Ã¯
Ã£ Ä¯
ĠÂ¯Â¯Â» Â¯Â·Â°Â¯Â¯
ÃıÃ± Ã¯Ãı
ĠÂ¯Â±Â° Â°
ĠÂ¯Â±Â±Â¯ Â±Â°Â¯Â¯
ĠÂ¯Â±Â±Â¯ Â¿Â¸Â¯Â¯
ĠÂ¯Â¿Â°Â¯ Â¿Â¸Â¯Â¯
ĠÂ¯Â°Â¯ Â´Â¯Â¯Â¯Â¯
ĠÂ¯Â°Â¯ Â¿Â·Â¯Â¯Â¯
Â¯Â± Â´Â¯Â¯Â¯
ĠÂ¯Â°Â°Â¯Â¯ Â¿
ĠÂ¯Â¿Â° Â°Â¯Â¯Â¯Â¯
ĠÂ¯Â¯Â¿Â· Â¿
ĠÂ·Â¯ Â±Â°Â¯Â¯Â¯Â¯
Â³Â¹ Â³
ĠÂ¿Â· Â°Â¯Â¯Â¯Â¯Â¯
ĠÂ¯Â´ Â¿Â¯Â¯Â¯Â¯Â¯
ĠÂ¯Â¯Â·Â¯Â¯Â· Â¸Â¯
ÅıÃ± Ãģ
ĠÂ¯Â¿Â¯Â¯Â· Â¿Â¯Â¯
Â¿Â¯Â¿ Â´Â¯Â¯
Â¸Â¯Â· Â´Â¯
Æ Ķ
Ġ Ä¿Ä¯
Â¯Â¯ Â°Â¯Â·Â¯Â¯
Â¯Â¯ Â¶
Â¯Â¯ ÃĹÂ¯Â¯Â¯Â¯Â¯
Â¯Â¯Â¯ Â±Â±Â¯Â¯
ĠÂ¯ Â°Â¯Â¯Â¯Â¯Â¯
Ãı Ä¯Âµ
Â°Â¯Â¯ Â±
Â·Â¯Â¯ Â±Â°Â¯Â¯
Â¿Â¯Â¯ Â¸Â¯Â¯Â¯
ĠÂ¯Â¯Â· Â±Â¯Â¯Â·Â¯
ĠÂ¯Â¯Â¿ Â±Â¯Â¯Â¿Â¯
Ãĥ Ãĵ
Ãĥ Âº
ĠÂ¯Â¯Â·Â¯ Â»
ĠÂ¯Â¯Â·Â¯ Â´Â°Â¯Â¯
ĠÂ¯Â¿ Â·Â°Â¯
Ä¯Ã¯ ÃĲ
Ãĵ Ã°Ãģ
ĠÂ¯Â¯Â°Â¯Â¯ Â¸Â°Â¯
Ã³ ÃĽ
Ä· Ä¯Ãģ
Ä· Ã¯Ãģ
ĠÂ¯Â± Â·Â°Â¯Â¯Â¯Â¯
ĠÂ¯Â± ÃĹÂ°Â¯Â¯Â¯Â¯
Ä³ Åĥ
ÃĲ ÅĦ
ÃĹÂ¯Â¯Â¯ Â´Â¯Â¯
ĠÄ¯ Äĳ
ĠÂ¯Â¿Â¯Â¯Â¯ Â¶Â¯Â¯
Å¯ Äĵ
ĠÃı ÃıÃı
ĠÃ¯ ÅĹ
ĠÃ¯ Ãī
ĠÂ¯Â° Â¿Â¯Â¯Â±Â¯Â¯
Â´Â¯ Â°Â¯Â¯Â¯Â¯
ĠÂ¯Â·Â¯Â¯Â¯ ÃĹ
Ãĩ Ã³
Â¯Â·Â¯Â¯ Â±Â¯Â¯Â¯
Ã¯Ãĵ Ãı
Ä´ Ãģ
Ä´ Ã±
ĠÂ¯Â¯Â´Â¯Â¯ Â¿
Â·Â°Â¯Â¯ Â°Â¯Â¯
ĠÃ¯Ã¯ ÃĶ
ĠÂ¯Â¯Â¯Â¿ Â¿
ĠÂ¯Â¯Â´Â¯ Â·Â±Â¯Â¯
ĠÂ¯Â¯Â±Â° Â·Â±Â¯Â¯
ĠÂ¯Â¯Â±Â° Â¿Â¿Â¯Â¯
ĠÂ¯Ã· Â´Â¯Â¯Â°Â¯Â¯
ÃıÃ¯ Ã¯Ãı
ĠÂ¯Â¯ÃĹÂ° ÃĹÂ¯Â¯Â¯
Â¯ÃĹ Â¯Â°Â¯
Ä¯Ãĳ Ãı
ĠÂ¯Â·Â¯ Â·Â¯
ĠÂ¯ÃĹÂ¯Â¯Â¯ Â±Â°Â¯
ĠÂ¯Â¯Â¯Â´ Â¿Â±Â¯Â¯
Â¯Â° Â¿Â°Â¯Â¯
ĠÂ¯Â±Â¯ Â¿Â·Â¯Â¯Â¯
ĠÂ¯Â¿Â°Â¯ Ã·Â°Â¯Â¯
ĠÂ¯ÃĹÂ¯Â¯ Â±Â°Â¯Â¯
ĠÂ¯ÃĹÂ¯Â¯ Â¸Â¯Â¯Â¯
ĠÂ¿Â·Â¯Â¯ Â¸Â¯Â¯Â¯
Ã¯Ã± Ã¯
ĠÂ¿Â¯ Â·Â¯Â¿Â¯Â¯Â¯
ĠÂ¯Â·Â±Â¯ Â¿Â±Â¯Â¯
Â°Â¿ Â±Â°Â¯
ĠÂ¿Â·Â¯ Â±Â·Â¯Â¯Â¯
ĠÂ¯Â¯Â´Â¯Â¯Â¯ Â´Â¯
ĠÂ°Â¯Â¯Â¯ Â±Â¯Â¯Â¯
ĠÂ¯Â¿Â¯Â¯Ã· Â¿Â¯Â¯
Â¯Â¯ Â¸Â¯Â¯Â¯Â¯
Â¯Â¯Â¯ Â±Â°
Â° Â´
Ä¯ ÃĿ
Â¯Â¯Â¯Â¯Â¯ Â¿
Â±Â¯Â¯ Â·Â´Â¯Â¯
Â·Â¯Â¯ Â°Â¯Â¯Â¯
Â¿Â¯Â¯ Ã·Â´Â¯
Â°Â¯ ÃĹÂ±Â¯Â¯
ĠÂ¯Â¯Â· Â·Â¯Â¿Â¯Â¯
Åı Å¯
ĠÂ¯Â¯Â·Â¯ Â¿Â¯Â°Â¯
ĠÂ¯Â¯Â¿Â¯ Â±Â·Â¯Â¯
ĠÂ¯Â· Â´Â¯Â·Â¯Â¯Â¯
ĠÂ¯Â¯Â±Â¯ Â±Â¿Â¯Â¯
Ãģ Ãĥ
Ãģ Ä¸
Ãĵ Åı
Ã± Ãĩ
ĠÂ¯Â¯Â±Â¯Â¯ Â¶Â¯Â¯
ĠÂ¯Â± Â·Â¯Â°Â¯Â¯Â¯
Ãĳ Äģ
ĠÂ¯Â¯ÃĹ Â¸Â¯Â°Â¯Â¯
ÃĲ Ã¿
Â¿Â¯ Â»Â°Â¯Â¯
ÃĢ ÃĲ
ĠÂ¯Â¯Â¯Â°Â¯ Ã·Â´Â¯
ĠÃı Âµ
ĠÃı Ãī
ĠÃ¯ Âµ
ĠÂ¯Â¯Â¯Â¯Â· Â°Â±Â¯
Åĥ Ä¯Ãĥ
Â´Â¯ ÃĹÂ°Â¯
Â¯Â· Â¸Â¯Â¯Â¯
Ã° Ä³
Ã° Ãĺ
Ãĩ Ã¿
ĠÃ¯Ãı Å³
ĠÂ¯Â±Â¯Â¯Â¯ Â¿Â¿Â¯
ĠÂ¯Â¯ÃĹÂ¯ Ã·Â±Â¯Â¯
ĠÂ¯Â¯Â° Â¿Â¯
ÅĢ Ãĵ
ĠÂ· Â¿Â¯Â¯Â¯
ĠÂ¯Â¯Â¯Â· ÃĹ
Ã´ Ãģ
ĠÂ¯ÃĹ Â±
ĠÂ¯ÃĹ Â¸Â¯
ĠÂ¯ÃĹ Â¯Â±Â¯Â¯Â¯Â¯
ĠÂ¯Â¯Â¸ Â±Â¯
ĠÂ¯Â¯Â±Â° Ã·
ĠÂ¯Â¯Â±Â°Â¯ Â°Â°Â¯
ĠÂ¯Â¯Â±Â°Â¯ Â¿Â±Â¯
ÃıÃĢ Ã¯
ĠÂ¯Â¯ÃĹÂ¯Â¯ ÃĹÂ°Â¯
Ã¯ÃĢ Ãı
Â¯Ã· Â¶Â¯Â¯
ĠÂ¯Â¯ÃĹÂ°Â¯ Â·Â±Â¯
ĠÂ¯Â¯Ã·Â°Â¯ Ã·
ĠÂ¯Â°Â¯ Â¿Â¯
ĠÂ¯Â¯Ã·Â± Â·
ĠÂ¯Â¯ÃĹÂ±Â¯ Ã·Â¯Â¯
ĠÂ¯Â¿Â±Â¯Â¯ Â¿Â·Â¯
ĠÂ¯Â¯Â¯Â¸ Â·Â¯Â¯Â¯
Â¯Â·Â¯ Â¿Â·Â¯Â¯
ĠÂ¯Â°Â¯Â¯Â¯Â¯ Â¸Â¯
ĠÂ¯Ã·Â¯Â¯ Â¿Â·Â¯Â¯
ÃıÄ± Ä¯
ĠÂ·Â¯ Â·Â¯Â¯
ÅıÃ¯ Ã¯Ãı
Â°Â¿ Â¸Â¯Â¯Â¯
Â¯Â¿Â¯ Â°Â¯Â¯
Â¯Â¿Â¯ Â·Â¯Â¯
ÃıÃ° Ä¯
ĠÂ·Â¯Â¯Â¯Â¯ Â´Â¯Â¯
ĠÂ¯Â·Â·Â¯ Â¿
ĠÅı ÃĻ
ĠÂ¿Â¯Â¯ Â±Â¯
ĠÂ¯Â¯Â·Â¯Â¿ Â»Â¯Â¯
ĠÂ¿Â¿Â¯Â¯Â¯ Â·Â·Â¯
ĠÂ¯Â¿Â¿Â¯ Ã·Â¯Â¯Â¯
ĠÂ¯Â¿Â¿Â¯ Â¿Â¿Â¯Â¯
ĠÂ¯Â±Â°Â¯Â· Â·Â¯Â¯
ĠÂ¯Â¸Â¯Â¯ Â¿Â·Â¯Â¯
ĠÂ¯Â¸Â¯Â¯ Â·Â°Â¯Â¯
ĠÅ¯ ÃĻ
ĠÂ¯Â±Â¯Â¯Â· Â·Â¯Â¯
ĠÂ¯Â¯Â°Â¯Ã· Â¿Â¯Â¯
ĠÃ· Â¯Â¯Â¯Â¯
ĠÃĹ Â°Â¯Â¯Â¯Â¯Â¯Â¯
Å «
Æ ¡
Æ Ļ
Ġ Ãħ
Ġ Â°Â¯Â°Â¯Â¯
Â¯Â¯Â¯ Â¸
ĠÂ¯ Â¸Â¯Â¯Â¯Â¯
Â± Â´
Ã¯ ÅıÃģ
Ã¯ Ä¯Ã³
Â° Â±Â¯Â¯Â¯Â¯Â¯
Â° ÃĹÂ¯Â¯
Ãı Å°
Â·Â¯Â¯ Ã·Â¯Â¯Â¯
Â¿Â¯Â¯ Â°Â°Â¯Â¯
Â·Â¯Â¯Â¯ Â·
Â±Â¯Â¯Â¯ Â·
Ã¿ Ä¯Ã¯
ÃĹ Â¯Ã·
ĠÂ¯Â¯Â·Â¯ Â°Â¯
ĠÂ¯Â¯Â¯Â¯Â¯Â¯ Â¿Â°
ĠÂ¯Â¯Â¯Â¯Â¯Â¯ Â±Â±
ĠÂ¯Â¯Â¿Â¯ Â·Â¯
Ä° ÃĢ
ĠÂ¯Â· Â±Â¯Â¯Â±Â°Â¯
Ä¯Ã¯ Ä¯Ãĵ
Â±Â¯Â¯Â¯Â¯ Â·Â¯
Â·Â¯ ÃĹÂ°Â¯
Ã³ Ã³
Ãĳ Ã¿
Ãĳ Âµ
Ãĳ Âº
ÃĢ Ãĵ
ĠÂ¯Â¯Â¯Â° Â±Â·Â¯Â¯
Ä± Äĥ
Ä± Ã´
ÅĹ Åĥ
Â¸Â¯Â¯ Â¸Â¯
Â¸Â¯Â¯ Â°Â°Â¯
ĠÂ¯Â¯Â¯Â¯Â· Ã·Â¯Â¯
Äĥ Ä±
ĠÂ¯Â° Â¿Â¯Â¯Â°Â¯Â¯
ĠÂ¯Â° Â±Â¯Â¯Â¯Â°Â¯
Â´Â¯ Â±
Â´Â¯ Â·Â±Â¯
Äı ÃĻ
Ãĺ Ãĥ
Â¸Â¯ Â°Â¯
Ã·Â¯Â¯ Â±Â¯Â¯Â¯
ĠÂ¿ Â±Â¯
ĠÂ¿ Â·Â±Â¯
ĠÂ¿ Â±Â°Â¯Â¯Â¯Â¯Â¯
ĠÂ¯Â°Â¯Â¯Â¯ Ã·
ĠÃ¯Ã¯ Åı
ÃıÃģ Ä¯Ä¯
ÅıÃģ Ã¯
ÅıÃģ Ä¯Åĵ
ĠÂ¯Ã· Â´Â¯Â¯Â·Â¯Â¯
ĠÂ¯Â·Â¯ Â°Â±Â¯Â¯Â¯
ĠÂ¯Â¿Â°Â¯Â¯ ÃĹ
ÄŁ Ä¯
ĠÂ¯Â¯Ã·Â°Â¯ Â°Â°Â¯
Ãĭ Ã¯
ĠÂ¯Â¯Â¯Â¯Ã· Â°Â±Â¯
ĠÂ¿Â¯Â¯Â¯ Â¿Â±Â¯Â¯
ĠÂ¿Â·Â¯Â¯Â¯ ÃĹÂ¯Â¯
ĠÂ¿Â·Â¯Â¯Â¯ Â°Â°Â¯
ĠÂ¯Â·Â°Â¯Â¯ Â±Â°Â¯
ĠÂ¯Â¯ÃĹÂ±Â¯ Â·Â·Â¯
Â¯Â¯Ã· Â±
Â±Â¿ Â´Â¯Â¯Â¯
Â·Â° Â°Â¯Â¯Â¯
ĠÂ¯Â¯Â·Â±Â¯ ÃĹÂ¯Â¯
ĠÂ¯Â¿Â´Â¯Â¯ Â·Â±Â¯
ĠÂ¯Â¯Â±Â¯Â¯Â· Â¸Â¯
ĠÂ¯Â¸Â¯Â¯ Â±Â¯Â¯Â¯
Ä¿Âµ Ã¯
Ä¿Âµ Åı
ĠÂ¯Â¯Â·Â·Â¯ Â±Â±Â¯
Å¯Ã± Ä¯
ĠÂ¯Â¿Â¯Â¯Ã· Â¸Â¯Â¯
Ġ Ã·Â¯Â¯
Ġ Ã»
Ä¯ Åĺ
Ä¯ Ãľ
Ä¯ ÃĬ
Â¯Â¯Â¯Â¯ Â´Â°Â¯
Â·Â¯Â¯ Â±Â±Â¯
Â¿Â¯Â¯ Â¿Â¯
Â°Â¯ ÃĹÂ¸Â¯
ĠÂ¯Â¯Â· Â¯Â¯Â¯Â¯Â±
ĠÂ¯Â¯Â¿ Â¶Â¯
Ã¿ ÅĹ
Ã¿ Äı
Ã· Â°Â¯Â°Â¯Â¯
Ä¿ Äģ
Ã¯Ãı Ãģ
Ã¯Ãı ÃıÃĥ
ĠÂ¯Â¯Â±Â¯ Â»
Ã³ ÃŁ
Ã³ ÅĽ
Ä· Ãĩ
ÃĲ Ã°
Â¿Â¯ Â±Â°Â¯
Â¯Â¿Â¯Â¯Â¯ Â°Â¯
ĠÄ¯ Ä¯Ã±
ĠÂ¯Â¿Â¯Â¯Â¯ Â¿Â¿Â¯
ĠÂ¯Â·Â¯Â¯ Â¿Â¿Â¯Â¯
ĠÂ¯Â° Â±Â¯Â¯Â¯
ĠÂ¯Â° Â¿Â¯Â¿Â¯Â¯Â¯
Ã° Åı
ĠÂ¯Â¯Â± Â±Â·Â¯Â¯Â¯
ĠÂ¯Â±Â¯Â¯ Ã·Â±Â¯Â¯
ĠÂ¯Â¯Â° Â·Â·Â¯Â¯Â¯
ĠÂ¯Â¯Â¿Â° Â°
ĠÂ¯Â±Â°Â¯Â¯ Â»Â¯Â¯
ĠÂ¯Â¯Ã·Â¯ Ã·
ĠÃ¯Ã¯ Ä³
ĠÂ¯ÃĹ Â¯Â¯Â¯Â¯Â¿Â¯
ĠÂ¯Â¿Â¯ Â°Â¯Â·Â¯Â¯
ĠÂ¯Â¿Â¯ Â·Â¯Â¿Â¯Â¯
ĠÂ¯Â¯Â¯Â¯Â° Â·
ĠÂ¯Â¯Â¯Â´Â¯ Â°Â°Â¯
ĠÂ¯Â¿Â°Â¯Â¯ ÃĹÂ°Â¯
Å· Ãģ
Å· Ã±
Ãĭ Ãı
ĠÂ¯Â¯Â·Â± Â¿Â´Â¯Â¯
Â¯Â±Â¯ Â¿Â¯
ĠÂ¯Â·Â°Â¯ Â·Â´Â¯Â¯
Ã§ Ä¯
ĠÂ± Â·
ĠÂ± Â±Â¯Â¯Â¯Â°Â¯Â¯
ĠÂ·Â¯Â¯Â¯ ÃĹÂ¯Â¯Â¯
ÃıÄ± Ã¯
ĠÂ¯Â·Â±Â¯ Â¿
ĠÂ¯Â¯Ã·Â±Â¯ Â°Â°Â¯
Ã¯Ä° Ãģ
ĠÂ¯Â·Â·Â¯ Ã·Â°Â¯Â¯
ĠÂ¯Â¿Â´Â¯Â¯ Â±Â°Â¯
ĠÃ¿ Ã¯
ĠÂ¯Â´Â¯Â¯ Â´Â¯Â¯Â¯
Ä¿Âµ Ãı
ĠÂ¿Â¿ Â°Â¯Â¯Â¯Â¯Â¯
Å·Âµ Ä¯
Æ ħ
Ġ Â°Â°Â¯
Â¯Â¯ Â»Â¯
Â¯Â¯Â¯ Â´Â±Â¯
Â¿ ÃĹÂ¯Â±Â¯Â¯Â¯
Â·Â¯Â¯ Â´Â¯
Â¿Â¯Â¯ ÃĹÂ°Â¯Â¯
Â¿Â¯Â¯Â¯ Â¸Â¯
Â¿Â¯Â¯Â¯ ÃĹÂ°Â¯
ĠÂ¯Â¯Â· Â¸Â¯Â·Â¯Â¯
ĠÂ¯Â¯Â¿ Â´Â¯Â¯Â¿Â¯
Â°Â¯Â¯Â¯ Â¸Â¯
ĠÂ¯Â· Â±Â°Â¯
ĠÂ¯Â· Â¸Â¯Â¯Â°Â¯Â¯
Ä¿ Å¹
Ä¯Ã¯ Ãĵ
Â´Â¯Â¯ Â·Â°Â¯
ĠÂ¯Â¯Â°Â¯ Â°Â·Â¯Â¯
ĠÂ¯Â¯Â°Â¯ Â±Â¿Â¯Â¯
ĠÂ¯Â¯Â°Â¯ Â°Â¿Â¯Â¯
ĠÂ¯Â¯Â¿Â¯Â¯ Â´Â°Â¯
ĠÂ¯Â± Â·Â¯Â·Â¯Â¯Â¯
Ä³ Ã¯Ãı
Ãĳ Ã´
ĠÂ¯Â¯ÃĹ Â´Â¯Â¿Â¯Â¯
ÃĢ Âµ
ĠÂ¯Â¿Â¯Â¯Â¯ Â±
ĠÃ¯ Ä¹
ĠÂ¯Â¯Â¯Â¯Â· Â¿
Â¯Â¿ Â±Â±Â¯
ĠÂ¯Â° Â·Â¯Â¯Â±Â¯Â¯
ĠÂ¯Â° Â±Â¯Â·Â¯Â¯Â¯
Â´Â¯ Ã·Â¯Â¯Â¯
Â´Â¯ Â¸Â¯Â¯Â¯
ĠÂ¯Â·Â¯Â¯Â¯ Ã·
Âµ ÃĢ
ÃŁ Åı
Ãĩ Âµ
Â» Â¯Â¿Â·Â¯Â¯
Â» Â¯Â±Â°Â¯Â¯
Â¸Â¯ ÃĹÂ°Â¯Â¯
ĠÂ¿ Â´Â¯Â¯Â¯Â¯Â¯Â¯
ĠÂ¯Â¯ÃĹÂ¯ ÃĹÂ°Â¯Â¯
ĠÂ¯Â¯Â° Â°Â¯Â±Â°Â¯
ÅŁ Ä±
ĠÂ¯Â¯Â¿Â° ÃĹÂ±Â¯Â¯
ĠÂ¯Â¿Â·Â¯Â¯ ÃĹÂ¸Â¯
ĠÂ¯Â±Â°Â¯Â¯ Â¿Â°Â¯
ÃıÃĥ Ä¯Ä·
ĠÂ· Â±Â°Â¯Â¯Â¯Â¯Â¯
ĠÂ¯Â¯Â´Â¯Â¯ Â·Â·Â¯
ĠÃ¯Ã¯ Ä¿
ĠÂ¯Â¿Â¯ Â±Â¯Â°Â¯Â¯
ÃĽ Ã¯
Åĺ Ã³
ĠÂ¯ÃĹÂ¯Â¯Â¯ Â¶Â¯Â¯
ÃıÃ± Ãı
ĠÂ¯Â±Â±Â¯ Â°Â°Â¯Â¯
ÃĴ Ä¯
Æı ÃĲ
ÃĤ Ãı
ĠÂ¯Â¯Â¯Â¸ Â·
ÃıÄ° Ã¯
Ä¯Ä³ Ã¯
Â¯Â·Â¯ Â¿Â¯
ĠÂ¯Â¯Ã·Â±Â¯ ÃĹÂ¯Â¯
ĠÂ¯Â¸ Â°Â¯Â·Â°Â¯Â¯
Â±Â· Â¿Â¯Â¯
Ã¯Ä° Ãı
ĠÂ±Â¯ Â¿Â¯
Ã¿Ä± Ä¯
ĠÂ·Â¯Â¯ Â¿
ĠÂ¯Â¿Â·Â¯Â¯Â· Â¸Â¯
ĠÂ¯Â¯ÃĹÂ´ Â¿Â¯Â¯Â¯
ĠÂ¯Â¯Â¯Â¯Â´ Â´Â¯Â¯
ĠÂ¯Â¯Â¶ Â¯Â¯Â¿Â¯Â¯
ĠÂ¯Â±Â´ Â±Â¯Â¯Â¯Â¯
Ġ Â´Â¯Â¯
Â¯Â¯ Â°Â¯Â°Â¯Â¯
Â¯Â¯Â¯ Â°Â¿Â¯
Â± Â°Â¿Â·Â¯Â¯
Â° Â±Â´Â¯Â¯
Ä¯ Ä¶
Ä¯ ÅĤ
Ãı Äĳ
Ãı Äµ
Â°Â¯Â¯ Â¶Â¯Â¯
ĠÂ¯Â¯Â¿ Â¿Â¯Â±Â¯Â¯
Ã¿ Ä¯Ä¯
ÃĹ Â±Â¯Â°Â¯Â¯
ĠÂ¯Â¯Â·Â¯ Â±Â¯
ĠÂ¯Â¿ Â°Â¯Â¯Â¯Â¿Â¯
ĠÂ¯Â· Ã·Â¯Â¯Â¯Â¯Â¯
Ã· Â¯Â¿Â·Â¯Â¯
Ä¿ Äı
Ä¯Ã¯ Ã¯Ãĥ
Â´Â¯Â¯ Ã·Â¯Â¯
Ã¯Ãı Åı
ĠÂ¯Â¯Â±Â¯ ÃĹÂ´Â¯Â¯
Ãģ Åı
Ãģ Ãģ
Ãģ Ä¯Ä³
Ã± Åĺ
ĠÂ¯Â¯Â°Â¯Â¯ Â¿Â´Â¯
ĠÂ¯Â¯Â±Â¯Â¯ Ã·Â´Â¯
Ä· Ã°
ĠÂ¯Â± Â¸Â¯Â¿Â¯Â¯Â¯
Ä³ Ä¯Ãı
ÃĢ Ãģ
ĠÄ¯ Ä¯Ãģ
ĠÂ¯Â¯Â¯Â°Â¯ Â¿Â¸Â¯
ĠÂ¯Â¯Ã· Â¶
ĠÂ¯Â¿Â¯Â¯ Ã·Â·Â¯Â¯
Åĵ Ãĵ
Â¸Â¯Â¯ Â·Â±Â¯
Â¸Â¯Â¯ ÃĹÂ±Â¯
ĠÃı Åĥ
ÃĻ Ã°
Â¯Â· Â°Â°Â¯
Äı Âº
ĠÂ¯Â¯Â± Â±Â¯Â¯
ÃŁ Ã³
Ãĩ Ä³
Â¸Â¯ Ã·Â¯Â¯Â¯
ĠÂ¯Â°Â¯Â¯ Â°
ĠÂ¯Â¯Â° Â°Â¯Â¯Â±Â¯
ÅŁ Ãĩ
ÃĹÂ°Â¯Â¯ Â°Â¯
Ã¯Ã¯ Ãĳ
ĠÂ¯Â±Â°Â¯Â¯ Â·Â·Â¯
Ä¯Ä¯ Ã±
ÄĢ Ãĺ
ĠÂ· Â·Â¯Â¯Â¯Â¯Â±Â¯
Ä¯Ã¿ Ã¯
Ä¯Ã¿ ÃĻ
Âº Ä¯Ã±
Âº Ä¯Ã¹
ĠÂ¯ÃĹ Â°Â¯Â·
ĠÂ¯Â¯Â¯Â¿ Â±Â°Â¯Â¯
ĠÂ¯Â¯Â´Â¯ Ã·Â´Â¯Â¯
ĠÂ¯Â¯Â±Â° Â·Â°Â¯Â¯
ÃıÃı Ã¯Ãı
ĠÂ¯Â¯ÃĹÂ° Â·Â°Â¯Â¯
ĠÂ¯Â·Â¯ Â°Â·Â¯Â¯Â¯
ÅĶ Ã¯
Ä¯Äĥ Ãĳ
Å³ Ãı
ĠÂ¯Â¿Â· Â±Â¿Â¯Â¯Â¯
ĠÂ¿Â·Â¯Â¯ Â»Â¯Â¯Â¯
Ã¯Ä³ Ã¯
Â¯Â± Â±
Ã¯Ã± Ãı
ĠÂ¯Â¯Â·Â± Â°Â¯Â¯Â¯
ĠÂ¯Â°Â°Â¯Â¯ Â±Â±Â¯
ĠÂ¯Â¯Â¿Â°Â¯ Â¿
ĠÂ¯Â¯ÃĹÂ±Â¯ Â·Â°Â¯
ĠÂ¯ÃĹÂ°Â¯Â¯ Â¿Â·Â¯
ĠÂ¯Â¯Â¯Â¿Â¯ ÃĹÂ¯Â¯
Ã¯ÃĦ Ä¯
ÃıÃĲ Ãı
ĠÂ¿Â¿Â¯Â¯ Â¿
ĠÂ¿Â¯Â¯Â¯Â¯ Â¸Â¯Â¯
ĠÂ¯Â¸ Â¯Â¯Â¯Â¯Â°Â¯
ĠÂ¯Â·Â¿Â¯ Â»Â¯Â¯Â¯
ĠÂ¯Â¯Â±Â± Â±Â¯Â¯Â¯
ĠÂ¯Â±Â± Â°
ĠÂ¯Â·Â´Â¯ Â°Â¯Â¯Â¯
ĠÂ¯Â¯Â°Â¯Â¿ Â»Â¯Â¯
ĠÂ¯Â·Â·Â¯Â¯ Â·
ĠÂ¯Â¯Â¯Â±Â· Â·Â¯Â¯
ĠÂ¯Â¯Â¯Â» Â±Â¯Â¯Â¯
ĠÂ¯Â¯Â¿Â°Â¯Â¯ Â¸Â¯
ĠÂ¯Â¯Â¯Â¯Â¿Â¯Â¯ Â±
Ä ľ
Å º
Ġ ÅĢ
Ġ Â¶
Â¯Â¯ Â´Â¯Â¯Â¯Â¯Â¯
Â¯Â¯ Â¸Â±Â¯Â¯
ĠÂ¯ Â±Â¯Â¯Â¯Â¯Â¯
Â± Â»
Ä¯ Ãļ
Â¯Â¯Â¯Â¯ Â±Â°Â¯Â¯
Â·Â¯Â¯ Â¿Â·Â¯Â¯
Â¿Â¯Â¯ Â»Â¯Â¯
Â±Â¯ Ã·Â±Â¯Â¯
ĠÂ¯Â¯Â¿ Â°Â¯Â¯Â¿Â¯
ĠÂ¯Â¯Â·Â¯ Â¿Â¯Â±Â¯
Ã· Â°Â¿Â·Â¯Â¯
Â´Â¯Â¯ Â¿
ĠÂ¯Â¯Â±Â¯ Ã·Â·Â¯Â¯
Ãĵ Ã¹
Ã± Ä¸
Ã³ Åĳ
ĠÂ¯Â± Ã·Â¯
ĠÂ¯Â± Â¿Â±Â¯Â¯Â¯Â¯
ĠÂ¯Â¯ÃĹ Â¸Â¯Â·
ÃĹÂ¯Â¯Â¯ Â¿Â¯Â¯
Åĵ Ä¯Ã¯
Åĵ Äĥ
Ä± Ä³
ÅĹ Ä¯Ãģ
Â¸Â¯Â¯ Â·Â´Â¯
Â±Â°Â¯ Â±Â¯
ÃĻ Åĥ
Ã¹ ÃĢ
Äĥ Âµ
Äģ ÃĢ
ĠÂ¯Â·Â¯Â¯Â¯ Â·Â´Â¯
ĠÄ¯Ã¯ Ã¹
Äı Ã´
Ä¯Ãı ÃĢ
ĠÂ¯Â±Â¯Â¯Â¯ Â·Â´Â¯
ĠÂ¯Â¯ÃĹÂ¯ ÃĹ
ĠÂ¯Â¯ÃĹÂ¯ Â»Â¯Â¯Â¯
ĠÂ¯Â¯Â° Â¿Â°Â¯Â¯Â¯
ĠÂ¯Â¯Â° Â·Â±Â¯Â¯Â¯
ĠÂ¯Â±Â°Â¯Â¯ Â±Â±Â¯
ĠÂ· Â°
Ä¯Ã¿ Ãı
ĠÂ¯Â¯Â¯Â· Â¿Â¿Â¯Â¯
ĠÂ¯ÃĹ Â¸Â¯Â¯
ĠÂ¯Â¯Â¯Â¿ Â·Â°Â¯Â¯
Ä¸ Ãĥ
ĠÂ¯Â¯Ã·Â° Ã·Â¯Â¯Â¯
ĠÂ¯Ã· ÃĹÂ¯Â¯Â¯Â¯Â¯
ÃĽ Ãı
Ã¯Ãĥ Ãı
Â¯ÃĹ Â¯Â·Â¯
ĠÂ¯Â¯Â¿Â± Ã·Â¯Â¯Â¯
Ã¯ÃĢ Ä¯Ã¯
ĠÂ¯Â¿Â°Â¯Â¯ Â¿Â·Â¯
ĠÂ¯Â¿Â°Â¯Â¯ Â»Â¯Â¯
Ä» Ä¯
ĠÂ¯Â¯Â¿Â±Â¯ Â°Â°Â¯
ÅĽ Ã¯
ĠÂ¿Â¯Â¯Â¯ Â´Â¯Â¯Â¯
ĠÂ¯Â·Â°Â¯Â¯ Ã·Â¯Â¯
ĠÂ¯Â¯Â¿Â·Â¯ Â¿Â±Â¯
ĠÂ¯Â¯Â¿Â´ Â¿
Ã¯Ã° Ã¯
ĠÂ¯Â¯Ã·Â±Â¯ Ã·Â¯Â¯
Â¿Â¯Â· Â·Â¯Â¯
ĠÂ¯Â·Â·Â¯ Â·
Â±Â¯Â¿ Â¸Â¯
ĠÂ¯Â¿Â¸Â¯ Ã·
ĠÂ¿Â¯Â¯ Â°
ĠÂ¯Â¯Â·Â´ Â¿Â·Â¯Â¯
ĠÂ¯Â¯Ã·Â´Â¯ Ã·Â¯Â¯
ĠÂ¯Â´Â¯Â¯ Â±Â¯Â¯Â¯
Â´Â¯Â· Â¸Â¯
ĠÂ·Â·Â¯Â¯Â¯ Â·Â¯Â¯
ĠÂ¯Â¯Â¶ Â¯Â¯Â±Â¯Â¯
ĠÂ¯Â¯Â¶ Â¯Â·Â¯Â¯Â¯
Ã¶ Åĵ
ĠÂ¯Â¯Â·Â¯Ã· Â¸Â¯Â¯
Ã ŀ
Ġ Â»Â¯Â¯Â¯
Â¯Â¯ Â±Â·Â¯Â¯Â¯
Â¯Â¯Â¯ Â¶Â¯
Â± Â±Â±Â¯Â¯
Ã¯ Ä¼
Â° Â±Â°Â¯
Â° Ã·Â·Â¯Â¯
Ä¯ Ã¤
Ãı Ã¯Ãĳ
Ãı Äĵ
Â¿ Â¿Â±Â¯Â¯Â¯
Â·Â¯Â¯ Â»Â¯Â¯
Â°Â¯ Ã·Â°Â¯
Â±Â¯ Â¸Â°Â¯
Åı Ã£
Ã¿ Ä¹
Â´ ÃĹ
Ä° ÃĦ
Ä¿ Åĵ
Ä¿ Åģ
Ä¯Ã¯ Ä·
Ä¯Ã¯ ÃĢ
Ä¯Ã¯ Ã¯Ãĵ
Â´Â¯Â¯ Â·Â±Â¯
Â¸ Â¯Â¿Â°Â¯
Ã± Ã¿
Ã± Ã¯ÃŁ
ĠÂ¯Â¯Â¿Â¯Â¯ Â°
ĠÂ¯Â± Â¸Â¯Â¯
ĠÂ¯Â± Â±Â¿Â¿Â¯Â¯Â¯
ĠÂ¯Â¯ÃĹ Â¶Â¯Â¯Â¯Â¯
Â¯Â·Â¯Â¯Â¯ Â±Â¯
ĠÂ¯Â¯Ã· Â¯Â¯Â¯Â¿Â¯
ĠÂ¯Â¯Ã· Â¸Â¯Â¿Â¯Â¯
ĠÂ¯Â¯Â¯Â¯Â¿ Â¿Â·Â¯
ĠÂ¯Â¿Â¯Â¯Â¯ Â°
Â±Â°Â¯ Â·Â¯Â¯
Â±Â°Â¯ Â·Â¯
ĠÃı Åģ
ĠÃ¯ Å¯
ĠÃ¯ Ä¯Ãı
ĠÃ¯ Äī
ĠÂ¯Â¯Â¯Â¯Â· Â±Â±Â¯
Â¯Â¿ Ã·Â¯Â¯
Äģ Ãĳ
ĠÂ¯Â·Â¯Â¯Â¯ Ã·Â°Â¯
ĠÂ¯Â¯Â¯Â± Â°Â·Â¯Â¯
Â¯Â· Â¿Â¯
ĠÄ¯Ã¯ ÃĻ
ĠÄ¯Ã¯ ÅĶ
Ã° Ã¿
ĠÂ¯Â±Â¯Â¯ Â±Â´Â¯Â¯
ĠÂ¯Â±Â¯Â¯ Â¿Â¿Â¯Â¯
ĠÂ¯Â±Â¯Â¯Â¯ ÃĹÂ±Â¯
ĠÂ¯Â°Â¯Â¯ Â¿Â¸Â¯Â¯
ĠÂ¯Â¯Â° Â±Â¯Â¯Â°Â¯
ÅĲ Ä¯
ĠÂ· Â°Â¯Â¯Â¯
ĠÂ¯Â¯Â¯Â· ÃĹÂ°Â¯Â¯
Å¿ Ä±
ĠÂ¯ÃĹ Â·
ĠÂ¯Â¯Â¸ Â¿Â¯Â¯Â¯Â¯
ĠÂ¯Â¯Â¯Â¿ Ã·Â¯Â¯Â¯
Ä¯Ã¹ Ã¯
ĠÂ¯Ã· Ã·Â¯
ĠÂ¯Ã· Â°Â¯Â±Â¯Â¯Â¯
Ã¯ÃĶ Ä¯
ĠÂ¯Â¯Â¸Â¯ Â±Â¿Â¯Â¯
Ä¯Äĥ Ãı
Â¯Â° Â·Â¯
ĠÂ¯Â¯ÃĹÂ°Â¯ ÃĹ
ĠÂ¯Â¿Â· Â°Â¿Â·Â¯Â¯
Å· Ãĳ
ĠÂ¯Â±Â±Â¯ Ã·Â¯Â¯Â¯
Ä» Ã±
ĠÂ¯Â¯Â¿Â±Â¯ Â¿Â°Â¯
ĠÂ¯Â°Â¯ Â¿Â±Â¯Â¯Â¯
Ä¯ÃĻ Ä¯
ĠÂ¯Â¯Ã·Â± Â¿Â°Â¯Â¯
ĠÂ¯ÃĹÂ°Â¯Â¯ Â·
Ã§ Ã¯
ĠÂ¯Ã·Â°Â¯Â¯ Ã·Â¯Â¯
ĠÂ¯Â¯Â¯Â¸ Â¿Â·Â¯Â¯
Ã¯Âº Ä¯Ãģ
ĠÂ¯Â¯Â¯Â¿Â¯ Â·
ĠÂ¯Â±Â±Â¯Â¯ Â¿Â·Â¯
ĠÂ·Â¯Â¯Â¯ Â¿Â±Â¯Â¯
Â°Â¿ Â°Â¯Â¯Â¯
ĠÂ¯Â¯Â¯Â±Â¯Â¯ Â¸Â¯
Â¯Â¿Â¯ Â¿Â¯Â¯
ĠÂ¯Â¸ Â±Â¯
Â±Â¯Â· Â¿Â¯Â¯
ĠÂ¯Â¯ÃĹÂ´Â¯ ÃĹÂ¯Â¯
ĠÂ¯Â·Â·Â¯Â¯ Â±Â±Â¯
ĠÂ¯Â±Â°Â¯Â¯Â¯ Â´Â¯
ĠÂ¿Â¿ Â¯Â¯Â¯Â¯Â·Â¯
ĠÂ±Â°Â¯Â¯ Â±Â¯Â¯Â¯
ĠÂ±Â¯Â¯ Â°
Â·Â¯Â¿ Â´Â¯Â¯
ĠÂ¯Â´Â¯Â¯Â¯ Â´Â¯Â¯
ĠÂ¯Â¿Â·Â¯Â¿ Â·
ĠÂ°Â¯Â¯ Â±
ĠÂ¯Â±Â°Â¯Â¿ Â»Â¯Â¯
ĠÂ¯Â¿Â°Â¯Â¯Â¯ Â´Â¯
ĠÂ¯Â¯Â¯Â¯Ã·Â¯ Â°Â¯
ĠÂ¯Â¯Â¯Â¯Ã·Â¯ Â±Â¯
ĠÂ¯Â¯Â¯Â»Â¯Â¯ Â°Â¯
Ġ Â°Â¯Â±Â¯Â¯
Ġ Ä´
Ġ Â±Â¯Â±Â¯Â¯
Ġ Ã£
Ã¯ Ä¯Ã¿
Â¿ Â±Â·Â¯Â¯Â¯
Â·Â¯Â¯ ÃĹÂ°Â¯
Â·Â¯Â¯ Â·Â·Â¯
ĠÂ¯Â¯Â¯ Â¿Â¯Â¯Â¯
Â°Â¯ Â¸Â°Â¯Â¯
Â°Â¯ Ã·Â±Â¯
Â±Â¯ Ã·Â±Â¯
Â¿Â¯Â¯Â¯ Â·Â·Â¯
ĠÂ¯Â¯Â· Â·Â¯Â¯Â°Â¯
Ã¿ ÃıÄ¯
Ã¿ Ä°Ä¯
Â´ Â±Â¯Â¯Â¯Â¯
ĠÂ¯Â¯Â·Â¯ ÃĹÂ´Â¯Â¯
ĠÂ¯Â¯Â·Â¯ Â°Â¯Â°Â¯
Ä° Ä¯Ã¿
ĠÂ¯Â· Â¿Â¯Â¯Â¯Â±Â¯
ĠÂ¯Â· Â¿Â¯Â¯Â´Â¯Â¯
ĠÂ¯Â· Â¯Â¿Â¿Â¯Â¯Â¯
Ãģ Ã³
Ãĵ Ä¯Ã¯
Ã³ Ä¯Ã¯
Ã³ Ãĩ
Ã³ Ä¯Ãĵ
Ä· ÃĲ
Ä· ÃıÃ¯
ĠÂ¯Â± Â¿Â¯Â¿Â¯Â¯Â¯
Ä³ ÃŁ
ĠÂ¯Â¯ÃĹ Â¿
ĠÂ¯Â¯ÃĹ Â·Â¯Â°Â¯Â¯
ĠÂ¯Â¯ÃĹ Â¸Â¯Â±Â¯Â¯
ÃĲ Åı
Â¿Â¯ Â±Â¿Â¯Â¯Â¯
Â¿Â¯ Â°Â±Â¯Â¯
Â¯Â¿Â¯Â¯Â¯ Â±Â¯
ĠÄ¯ Å¡
ĠÂ¯Â¯Â¯Â±Â¯ Â·Â´Â¯
Åĵ Ã³
ĠÂ¯Â¯Â¯Â¯Â¿ Â±Â¿Â¯
ÅĹ Ä±ÃĻ
Â¸Â¯Â¯ ÃĹÂ°Â¯Â¯
Â±Â°Â¯ Â°Â¯Â¯
Â±Â°Â¯ Â±Â°Â¯
ĠÃ¯ Ä¯Ãģ
Äĥ Ä°
Ã° Ä¯Ã¯
ĠÃ¯Ãı Ãĵ
ĠÃ¯Ãı Äĥ
Â¯Â¯Â· Â¿Â¯Â¯Â¯
ĠÂ¯Â°Â¯Â¯Â¯ Â·Â´Â¯
ĠÂ¯Â¯Â¿Â° Â·Â´Â¯Â¯
ÅĢ Ãĳ
ÃıÃĥ Ã¯
Ä¯Ä¯ Ãĳ
ĠÂ¯Â¯Â´Â¯Â¯ ÃĹ
Â·Â°Â¯Â¯ Â·
Ã¯ÃĲ Ä¯Ã¯
ÄĹ Ãĥ
ĠÂ¯Â¯Â¯Â¿ Â»Â¯Â¯Â¯
ĠÂ¯Â¯Ã·Â° ÃĹÂ¯Â¯Â¯
Â¯ÃĹ Â±
Å³ Ã¯
ĠÂ¯Â¯Â¯Â´ Â¯Â¿Â·Â¯
ĠÂ¯Â¿Â· Â·
Å± Ãĳ
Å± Âµ
ĠÂ¿Â·Â¯Â¯ Ã·
ĠÂ¯Â¿Â±Â¯ Ã·Â¯Â¯Â¯
Â¯Â¯Â±Â¯ Â±Â¯Â¯Â¯
ĠÂ¯Â°Â¯ Â±Â¯Â¿Â¯Â¯
Â¯Â± Â¸Â¯Â¯Â¯
ĠÂ¯Â°Â°Â¯Â¯ Ã·Â¯Â¯
ĠÂ¯Â¯Â¿Â°Â¯ Â·Â°Â¯
ÃĤ Ä¯
ĠÂ¯Â¯Â¯Â¸Â¯ Â°Â°Â¯
ĠÂ¯ÃĹÂ°Â¯Â¯ Â±Â°Â¯
ĠÂ¯Â·Â°Â¯ Ã·Â¯Â¯Â¯
ĠÂ¯Â¯Â¿Â· Â±Â¯Â¯Â¯
ĠÂ¯Â¯Â¿Â· Â°Â¯Â¯Â¯
ĠÂ¯Â¯Â¿Â· Â±Â°Â¯Â¯
ĠÂ¯Â¯Â¿Â´ Â¯Â¿Â·Â¯
ĠÂ¯Â¯Â¯Â·Â¯Â¯ Â¸Â¯
ĠÂ¯Â¯Ã·Â¯Â¯ Â±Â±Â¯
Â¯Â·Â¯ Â´Â¯Â¯Â¯
ĠÂ± Â°Â°Â¯
ĠÂ± Â¿Â¿Â¯Â¯Â¯Â¯Â¯
Ã¯Âµ Ä¯Ã³
Â¯Â¿Â¯ Â°Â¯Â¯Â¯
ĠÂ¯Â¸ Â´Â¯Â¯Â¯Â¯Â¯
ĠÂ¿Â¿Â¯Â¯Â¯ ÃĹÂ¯Â¯
ĠÃ¯Ãĵ Ãģ
ĠÂ¯Â¯Â·Â¯Â¯Â· Â¿Â¯
ĠÂ¯ÃĹÂ°Â¯ Â±Â¯Â¯Â¯
ĠÂ° Â¿Â¯Â¯Â¯Â¯Â¯Â¯
ĠÂ¯Â·Â·Â¯Â¯ Â·Â·Â¯
ĠÅ¯ Ãķ
ĠÂ¯Â¯Â¶ Â¯Â¿Â¯Â¯Â¯
ĠÂ¯Â¯Â¯Â» Â¿Â¯Â¯Â¯
ĠÂ¯Â¯Â¿Â¯ÃĹ Â·Â¯Â¯
ĠÂ¯Â¿Â´ Â¯Â¿Â·Â¯Â¯
ĠÂ°Â¯Â¯ Â°
ĠÂ±Â±Â¯Â¯ Â±Â¯Â¯Â¯
ĠÂ¯Â±Â´Â¯ Â±Â´Â¯Â¯
ĠÂ¯Â¿Ã· Â´Â¯Â¯Â¯Â¯
ĠÂ¯Â¯Â¯Â¯Â´Â¯ Â±Â¯
ĠÂ¯Â°Â´ Â±Â¯Â¯Â¯Â¯
Ä Ĩ
Æ ī
Ġ ÅĻ
ĠÂ¯Â¯Â¯Â¯ Â±Â¯Â¯Â·
Â± ÃĹÂ¯Â¯
Ã¯ Å£
Â° Â¸Â¯Â¯
Ä¯ Ä¯Ã¯Ãı
Ä¯ ÄĤ
Â· Â±Â¿Â¯Â¯Â¯
Â¿ ÃĹÂ¯Â¯Â¯
Â¿ Â°Â¿
Â°Â¯Â¯ Â°Â¯Â¯Â¯
ĠÂ¯Â¯Â¿ Â¸Â¯Â¯Â±Â¯
Åı ÅŁ
Åı Ä¹
Ã¿ Åģ
Â´ Â±Â¯Â¯Â¯
Â´ Â´Â¯
Ãĥ Ã¹
ĠÂ¯Â¿ Ã·Â°
Â°Â¯Â¯Â¯Â¯ Â°Â¯
Ä° Ä±
ĠÂ¯Â· ÃĹÂ°Â¯Â¯Â¯Â¯
Ä¿ ÃŁ
Ä¿ Ã¯Ä¯
Ä¯Ã¯ Ãĳ
Ä¯Ã¯ Ãĩ
Â´Â¯Â¯ ÃĹ
ĠÂ¯Â¯Â±Â¯ Â°Â¯
Ãģ Ä¯Åı
ĠÂ¯Â¯Â°Â¯ Â·Â¯
ĠÂ¯Â¯Â°Â¯ Â»Â°Â¯Â¯
Ä³ Ä³
Ä³ Ãī
Ä³ Ãħ
Ãĳ ÃıÃĥ
ĠÂ¯Â¯ÃĹ Â¯Â¯Â·Â±Â¯
ĠÄ¯ Æĥ
ĠÂ¯Â¯Ã· Â¿Â°Â¯Â¯Â¯
ĠÂ¯Â¯Â¯Â¯Â¿ Â±Â·Â¯
Å¯ ÃŁ
Å¯ Âº
ĠÃ¯ Ãħ
Ã¹ Ã¯Ãı
Â´Â¯ Ã·Â°Â¯
ĠÄ¯Ã¯ ÅŁ
Âµ Ãĥ
ĠÂ¯Â¯Â± Â·Â¯Â±Â¯Â¯
Ãĩ Ä¸
ÃĹÂ°Â¯Â¯ Â°Â¯Â¯
ĠÂ¯Â¯Â¯Â¯Â¯Â· Â¶Â¯
ĠÂ¯Â¿Â·Â¯Â¯ Â¿Â°Â¯
ĠÂ· Â¿
Âº Å¯
ÅıÃģ Ä¯Ãĵ
ĠÂ¯Â¯ÃĹÂ° Â±Â°Â¯Â¯
ĠÂ¯Â¯Â¯Â¯Â± Â°Â±Â¯
ĠÂ¯Â¯Â¸Â¯ ÃĹÂ°Â¯Â¯
Â·Â°Â¯ Â·
ĠÂ¯Â¯Â» Â¯Â¿
ĠÂ¯Â¯Â» Â¯Â°Â´Â¯Â¯
ĠÂ¯Â¯Â¯Â´ Ã·Â¯Â¯Â¯
ĠÂ¯Â¿Â· Â±Â¯
Â¯Â°Â¯ Â·Â¯
Â¯Â°Â¯ Â±Â°Â¯Â¯
ĠÂ¯Â¿Â°Â¯ Â°Â°Â¯Â¯
ĠÂ¯Â¿Â±Â¯ Â¿Â°Â¯Â¯
Â¯Â± Â¿Â·Â¯Â¯
Â¯Â± Â¿Â°Â¯Â¯
ÃıÂµ Ã¯Ãı
Æı Åı
Â¯Â±Â¯ Â°Â¯Â¯Â¯
ĠÂ¯ÃĹÂ°Â¯Â¯ Â°Â°Â¯
ĠÂ¯Â¯Â¿Â·Â¯ Â·Â°Â¯
ĠÂ¯Â·Â°Â¯ Ã·
ĠÂ¯Â¿Â±Â¯Â¯ Ã·
ĠÂ¯Â¿Â±Â¯Â¯ Â·Â±Â¯
Â¯Â¯Â·Â¯ Â±
Â¯Â¯Â·Â¯ Â°Â´Â¯Â¯
Â¯Â·Â¯ Â°Â¯Â¯Â¯
ĠÂ¯Â±Â±Â¯Â¯ ÃĹ
ĠÂ¯Â±Â±Â¯Â¯ ÃĹÂ°Â¯
ĠÂ¯Â±Â±Â¯Â¯ Â·Â±Â¯
ĠÂ¯Â¸ Â°Â¯Â¯Â¿Â¯Â¯
Â±Â¿ Â¸Â¯Â¯Â¯
ĠÅı Ã³
ĠÂ¯Â» Â¯Â¯Â¯Â±Â¯Â¯
ĠÂ·Â·Â¯Â¯ Â¿Â¯Â¯Â¯
ĠÂ¯Â¿Â¸Â¯Â¯ Â·Â±Â¯
Â¯Â» Â¿Â¯Â¯
Â¯Â» Â°Â¯
ĠÅ¯ Ä¯
ĠÅ¯ ÃĲ
ĠÄ¿ Ãĳ
ĠÂ¯Â¯Â¯Â°Â¯Â· Â¸Â¯
Ä¿Ã³ Ãĳ
Â·Â¯Â· Â·Â¯Â¯
ĠÂ¯Â¯ÃĹÂ°Â¯Â¯ Â´Â¯
ĠÂ¯Â¯Â¸Â¯Â¯Â¯ Â¿Â¯
ĠÂ±Â¯Â¯Â¯Â¯Â¯ Â±Â¯
ĠÂ¯Â´Â¯Â¯Â¯Â¯ Â°Â¯
ĠÂ¯Â°Â¯Â¯Â¯Â¯Â¯ Â°
Æ ł
Ġ Ã³Ã¯
ĠÂ¯Â¯Â¯Â¯Â¯ Â¿Â¯Â±
Ä¯ ÅıÃģ
Ä¯ ÄĲ
Ãı Ä¯Ãĳ
Ãı Ä¯Ãĵ
Â·Â¯Â¯ Â±
Â·Â¯Â¯ ÃĹÂ¯Â¯Â¯
Â·Â¯Â¯ Â·Â´Â¯Â¯
Â¯Â¯Â¯Â¯Â¯Â¯ Â°
Â¿Â¯Â¯ Â»Â¯Â¯Â¯
Â¿Â¯Â¯ Â¿Â´Â¯Â¯
Â¿Â¯Â¯Â¯ Â±Â±Â¯
Â¿Â¯Â¯Â¯ Ã·Â´Â¯
ĠÂ¯Â¯Â¿ Â¯Â¯Â¯Â¯Â±
Â·Â¯Â¯Â¯ Â±Â°Â¯
Åı ÄŁ
Â´ Â°
Â´ Â¯Â¿Â¿Â¯
ĠÂ¯Â¿ Â¯Â¯Â¯Â¯Â¯
ĠÂ¯Â¿ Â»Â¯Â¯
ĠÂ¯Â¯Â¿Â¯ Â¶Â¯Â¯Â¯
Ä° ÅĹ
ĠÂ¯Â· ÃĹÂ¯Â·Â¯Â¯Â¯
Ã· Â¯Â¯Â¯Â¿Â¯Â¯
Ä¿ ÃĲ
Ä¯Ã¯ Ã¿
Â·Â¯ Â±Â´Â¯Â¯
Â·Â¯ Â°Â±Â¯Â¯
Â·Â¯ Â¶Â¯Â¯Â¯
ĠÂ¯Â¯Â·Â¯Â¯ Â¸Â°Â¯
ĠÂ¯Â¯Â°Â¯Â¯ Â±
Ä· Ä¯Ã³
Ä· Ãµ
Ä· Ä±Ãĵ
Ä³ Äı
Ãĳ ÅĢ
ÃĢ Åı
ĠÂ¯Â¯Ã· Â¯Â¯Â·Â°Â¯
ĠÂ¯Â¯Â¯Â±Â¯ Ã·
Ä± Äģ
Ä± ÃĶ
ÃĹÂ¯Â¯ Ã·Â¯Â¯
Å¯ Ä²
ĠÃı ÅĢ
ĠÂ¯Â¯Â¯Â± Â»Â¯Â¯Â¯
Â¯Â· ÃĹÂ¯Â¯
ĠÂ¯Â¯Â± Â·Â¯Â°Â¯Â¯
ÃŁ Åĵ
ĠÃ¯Ãı Åĥ
ĠÂ¯Â¿Â·Â¯ ÃĹÂ±Â¯Â¯
Ä¯Ãı Âµ
ĠÂ¯Â±Â¯Â¯Â¯ Ã·Â±Â¯
ĠÂ¿ Â·Â·Â¯
ĠÂ¿ Â¿Â¯Â·Â¿Â¯Â¯Â¯
ĠÂ¯Â°Â¯Â¯ Â±
ĠÂ¯Â¯Â° Â·Â¯Â°Â¯Â¯
Â¿Â±Â¯Â¯ Â±Â¯Â¯
ÅĢ Ä·
ÄĢ Ãĳ
ĠÂ· Â°Â¯
ÃıÃģ Ä¯Åı
Ã¸ ÃĲ
ĠÂ¯Â¯Â´Â¯ ÃĹ
ĠÂ¯Â¯Â´Â¯ Â»Â¯Â¯Â¯
Â»Â¯Â¯ Â±Â¯
Ãī Ã¯
ĠÂ¯Ã· Â¸Â¯Â¿Â¯Â¯Â¯
ĠÂ¯Â¯Â¯Â´Â¯ Â·Â¸Â¯
Ä¯Âµ Ã¯Ãĥ
ÅıÃĥ Ä¯Ä·
ĠÂ¯Â°Â°Â¯ Â·Â±Â¯Â¯
ĠÂ¯Â°Â°Â¯ Ã·Â´Â¯Â¯
Å³ Âµ
ĠÂ¯ÃĹÂ¯Â¯Â¯ Â¿Â·Â¯
ĠÂ¯ÃĹÂ¯Â¯Â¯ Â¿Â±Â¯
Â¯Â¯Â°Â¯ Â°
ÃıÄ¯ Ä¿
ÄŁ Ãĥ
ĠÂ¯Â±Â¯ Â·Â¯
ĠÂ¯Â¯Â¯Â¯Ã· Â°
ĠÂ¯Â°Â¯ Â·Â¯
Â¯Â± Â¿
Â¯Â¯Â¯Â¿Â¯ Â°Â¯
Â¿Â°Â¯ Â±Â¯Â¯Â¯
ĠÂ¿Â¯Â¯Â¯ ÃĹÂ°Â¯Â¯
ĠÂ¿Â¯Â¯Â¯ Ã·Â°Â¯Â¯
Æı Ãĥ
ĠÂ¯Â¯Â·Â°Â¯ Â¿Â·Â¯
ĠÂ¯Â¿Â±Â¯Â¯ Â¿
ĠÂ¯Â¯Â¿Â´ Â¿Â·Â¯Â¯
ĠÂ¯Â¯Â¯Â¸ Â¯Â¿Â·Â¯
Ã» Ãı
ĠÂ¯Â¯Â¿Â´Â¯ Â¸Â¯Â¯
ĠÂ¯Â¯Â¿Â´Â¯ ÃĹÂ¯Â¯
ÃıÃĲ Ä¯
ĠÂ¯Â¿Â¸ Â¯Â¿Â·Â¯Â¯
Â¯Â¿Â¯ Â¿Â¯
ĠÂ¯Â·Â·Â¯ Â±Â°Â¯Â¯
ĠÂ¯Â» Â°Â¯Â¯Â°Â¯Â¯
Ä¯Åĵ Ãģ
ĠÂ¿Â¯Â¯ Â¿
ĠÂ¯Â¯Â°Â± Â±Â¯Â¯Â¯
ĠÂ¯Â¯Ã·Â´ Â¯Â¿Â·Â¯
ÃĬ Ã¯
ĠÂ¯Â¯Â¿Â¸Â¯ Ã·
ĠÂ¯Â¯Â¶ Â¯Â±Â¯Â¯Â¯
ĠÂ¿Â¿ Â·
ĠÂ¿Â¿ ÃĹÂ¯Â¯Â¯Â¯Â¯
ĠÃ· Â°Â¯Â¯Â¯Â¯Â¯Â¯
Â°Â° Â¿Â¯Â¯
ĠÂ¯Â¯Â±Â· Â°Â¯Â¯Â¯
ĠÂ¯Â¯Â¯Â¯Â¯Â´ Â´Â¯
ĠÂ¶ Â¯Â¯Â¯Â¯Â¯Â¯Â¯
Ä ©
Â¯ Â±Â¯Â´Â¯Â¯
Â· Â±Â°Â¯
Â· Â±Â¯Â·Â¯Â¯
Â· Â°Â·Â¯Â¯Â¯
Ãı Ä¯Ã¹
Â°Â¯Â¯ ÃĹÂ¯Â¯Â¯
Â¯Â¯Â¯Â¯Â¯Â¯ Â°Â¯
ĠÂ¯Â¯Â· Â»Â¯Â¯Â¯Â¯
Â·Â¯Â¯Â¯ Â¸Â¯Â¯
ĠÂ¯Â¯Â·Â¯ Â¶Â¯Â¯Â¯
ĠÂ¯Â¿ ÃĹÂ°Â¯
Ä° Ä°
ĠÂ¯Â· Â°Â¿Â±Â¯Â¯Â¯
Ã· Â°Â¯Â¿Â¯Â¯
Â´Â¯Â¯ Â»Â¯Â¯
Ã¯Ãı Ä¯Ã¿
Â·Â¯ Â¿Â·Â¯Â¯Â¯
Ãģ Ã±
Ãģ Ãĺ
Ãĵ Ä¯Ãģ
Ã± Ä¯Ãı
ĠÂ¯Â¯Â°Â¯Â¯ ÃĹÂ´Â¯
ĠÂ¯Â¯Â±Â¯Â¯ Â±Â·Â¯
ĠÂ¯Â¯Â±Â¯Â¯ ÃĹÂ·Â¯
Ã³ Åģ
ĠÂ¯Â± Â¿Â¯Â±Â¯Â¯Â¯
ĠÂ¯Â± Ã·Â°Â¯Â¯Â¯Â¯
ĠÂ¯Â± Â±Â¯Â¯Â¯Â¿Â¯
Ãĳ Ä¯Ãĥ
ÃĲ Ä¯Ã±
ÃĢ Ä¯Ã±
ĠÄ¯ ÃĦ
ĠÂ¯Â¯Â¯Â°Â¯ ÃĹÂ´Â¯
ĠÂ¯Â¯Â¯Â±Â¯ Â¶Â¯Â¯
Åĵ Ä¯Äĥ
ÅĹ Åĵ
ĠÂ¯Â·Â¯Â¯ Â°Â±Â¯Â¯
Åĥ Ä¿
Åĥ Ãĳ
Â¯Â¿ Â·Â°Â¯
ĠÂ¯Â° Ã·Â¯Â¯Â¯Â¯Â¯
Â´Â¯ Â°Â¯
Â´Â¯ ÃĹÂ°Â¯Â¯
Â´Â¯ Â»Â¯Â¯
Â¯Â· Â¿
Â¯Â· Â±Â¯Â¯Â¯Â¯
Ã° Ä°
ÃĦ Ä¯Ã¯
Ãĩ Åı
Ãĩ Ã°
Â» Â¯Â·Â¯Â¯Â¯
ĠÂ¿ ÃĹ
ĠÂ¯Â¯Â° Â±Â¿
Â¯Â·Â¯Â¯ Â¿Â¯Â¯
Â¯Â°Â¯Â¯Â¯ Â°Â¯
ĠÂ¯Â±Â°Â¯Â¯ Â¶Â¯Â¯
Ä¯Ä¯ Ãĵ
ĠÂ· Â±Â±Â¯Â¯Â¯Â¯Â¯
ĠÂ¯Â¯Â´Â¯Â¯ Â±Â±Â¯
ĠÂ¯Â¯Â¸ Â¯Â·Â±Â¯Â¯
ÄĹ ÃĢ
ĠÂ¯Â¿Â¯ Â°Â¯Â°Â¯Â¯
ÅıÃģ Ãı
Ä¯Ã¹ Ä¯
ĠÂ¯Ã· Â±Â¯Â¿Â¯Â¯Â¯
ĠÂ¯Â¯Â±Â°Â¯ Ã·Â°Â¯
ĠÂ¯Â¯Â¯Â¯Â± Â°
ĠÂ¯Â¯Â¯Â¯Â± Ã·Â¯Â¯
ÃıÃĢ Ãı
Â¯ÃĹ Â±Â¯Â¯Â¯Â¯
Â¯ÃĹ Â¯Â±Â¯
Â¯Â¯Â°Â¯ Â±Â¯
Ã·Â¯ Â»Â¯Â¯Â¯
ĠÂ¯Â±Â° Â¿Â¿Â¯Â¯Â¯
Â¯Â±Â¯ Â·Â¯
ĠÂ¯Â¯Â¿Â°Â¯ Â°Â°Â¯
ĠÂ¯Â¯Â·Â°Â¯ Â¿Â±Â¯
ĠÂ¯Â±Â±Â¯Â¯ Ã·
ĠÂ¯Â±Â±Â¯Â¯ Â¿Â¿Â¯
Ã² Ã¯
ĠÂ¿Â¯Â¯Â¯Â¯ Â·Â±Â¯
ĠÂ¿Â·Â¯ Â·Â¯Â¯Â¯Â¯
ĠÂ¯Â¯Â°Â° Â±Â¯Â¯Â¯
ĠÂ¯Â¯Â°Â° ÃĹÂ´Â¯Â¯
ĠÅı ÃĲ
ĠÂ¯Â´ Â±Â¯
Â¯Â¯Â¿Â¯ Â±Â¯
Â¿Â° ÃĹ
ĠÂ·Â¯Â¯ Â·Â¯Â¯Â¯Â¯
Â¯Â» Â´Â¯Â¯
ĠÂ¿Â¿ Â±Â¯Â¯Â¯Â¯Â¯
Ä§ Ãı
ĠÂ¯Â·Â¯Â¯Â¿ Â´Â¯Â¯
Ġ Ä¹
Ġ Â»Â¯Â¯
Ġ Ä·Ä¯
Â± Â¸Â¯
Â· Â¿Â¯Â¯Â¯Â¯Â¯
Ãı Åī
Â¯Â¯Â¯Â¯ Ã·Â¯
Â¯Â¯Â¯Â¯Â¯Â¯ Â±Â¯
Â±Â¯ Â°Â¯Â¯Â¯Â¯
Â±Â¯ Â±Â¯Â¯Â¯Â¯
Â±Â¯ Â´Â±Â¯Â¯
ĠÂ¯Â¯Â¿ Â¯Â¯Â¯Â¯
Åı Ä¯Ãģ
ÃĹ Â·
ÃĹ Â¸Â¯Â¯
ÃĹ Â´Â¯Â¯Â¯Â¯
ĠÂ¯Â¯Â¿Â¯ Â´Â°Â¯Â¯
Ä° Å¯
Ä° Ãī
ĠÂ¯Â· ÃĹ
Â´Â¯Â¯ Â·Â·Â¯
Â¸ Â°Â¯Â¯Â¯
Ãģ Ä±
ĠÂ¯Â¯Â·Â¯Â¯ ÃĹÂ´Â¯
Ã± ÅĲ
Ã³ Ä¯Ãı
Ã³ Ä¸
ĠÂ¯Â± Â¿Â¯Â¸Â¯Â¯Â¯
Ãĳ Ã±
Â¿Â¯ Â¸Â¯Â¯
ÃĹÂ¯Â¯Â¯ Â´Â¯
ĠÂ¯Â¿Â¯Â¯ Â¸Â°Â¯Â¯
ĠÃ¯ Åĳ
Äĥ Ãĺ
ĠÂ¯Â° Â¸Â¯
ĠÂ¯Â° Â±Â¯Â±Â¯Â¯Â¯
ĠÂ¯Â° Ã·Â°Â¯Â¯Â¯Â¯
Äģ Ã°
ĠÂ¯Â·Â¯Â¯Â¯ Â¿Â¸Â¯
ĠÄ¯Ã¯ Ä´
Ã° Âµ
Â¯Â±Â¯Â¯Â¯ Â°Â¯
ĠÂ¯Â¯Â± Â·Â¿Â¯Â¯Â¯
Ãĺ ÃĢ
Â¸Â¯Â¯Â¯ Â´Â¯
ĠÃ¯Ãı Ä³
Â¸Â¯ ÃĹÂ°Â¯
ĠÂ¯Â¯ÃĹÂ¯ ÃĹÂ±Â¯Â¯
ĠÂ¯Â¯Â° Â·Â¿Â¯Â¯Â¯
Ä¹ Ãĥ
ĠÂ· Â¸Â¯Â¯
Åģ Ã¹
ĠÂ¯Â¿Â¯ Â·Â¯
Ã¯Ãĳ ÃıÃĥ
Ãħ Ã¯
ĠÂ¯Ã· Â°Â¯Â¯Â¯Â¿Â¯
ĠÂ¯Ã· Â´Â¯Â·Â¯Â¯Â¯
ĠÂ¯Â¯Â±Â°Â¯ ÃĹÂ´Â¯
Ã¯Ãĥ Ä¯Ãĳ
Ã¯Ä¯ Ä¿
ĠÂ¯Â¿Â°Â¯Â¯ Â·Â·Â¯
Â¯Â° Â±Â°Â¯
ĠÂ¯Â¿Â· Â´Â¯Â¯Â¯Â¯
Â¶ Â¯Â¯Â°Â¯
ĠÂ¯Â±Â¯ Â°Â±Â¯Â¯Â¯
ĠÂ¯Â¯Â´ Â±Â¯
ĠÂ¯Â¯Â´ Â¯Â¿Â´Â¯Â¯
ĠÂ¯ÃĹÂ¯Â¯ Ã·Â¯Â¯Â¯
ĠÂ¯Â¯Â¿Â¯Â· Â¸Â¯Â¯
ĠÂ¯Â¯ÃĹÂ± Ã·
ĠÂ¯Â·Â°Â¯Â¯ Â·Â±Â¯
ĠÂ¯Â¯Â¿Â·Â¯ ÃĹÂ¯Â¯
Ãķ Ä¯
ÄĦ Ã¯
ÃĪ Ä¯
ĠÂ¿Â¯ Â°Â¯Â¯Â°Â¯Â¯
ĠÂ¿Â¯ Â·Â¯Â¯Â·Â¯Â¯
ĠÂ¯Â¯Â¯Â¸ Â¯Â¿Â°Â¯
ĠÂ¯Ã·Â¯Â¯ Â·
ĠÂ·Â¯ Â·
ĠÂ¯Â¯Ã·Â±Â¯ Â·Â·Â¯
ĠÂ¯Â¸ Â±Â¯Â¯Â¯Â¯Â¯
ĠÂ¯Â¸ Â¯Â¯Â¯Â¯Â±Â¯
Ä·Âµ Ã¯Ãı
ĠÂ¯Â¯Â¯Â¯Â¯Â± ÃĹÂ¯
ĠÂ¯Â¯Â·Â±Â¯ Â·Â±Â¯
ĠÂ¯Â¯Â±Â± Â°Â¯Â¯Â¯
ĠÂ¿Â¯Â¯ Â±
ĠÂ¿Â¯Â¯ Â¿Â¿Â¯Â¯Â¯
ĠÂ¯Â·Â±Â¯Â¯ ÃĹÂ¯Â¯
Å¯Âµ Ã¯
ĠÂ·Â¯Â¯ Â·Â¯
ĠÂ¯Â¯Â¯Â¯Â´ Â¸Â¯Â¯
ĠÂ¯Â¯Â¯Ã· Â·Â°Â¯Â¯
ĠÂ±Â°Â¯Â¯ Â°Â¯Â¯Â¯
ĠÂ¯Ã·Â´Â¯Â¯ Â±Â¯Â¯
ĠÂ¯Â¯Â¯Â¶ Â¯Â°Â¯Â¯
ĠÂ·Â· Â¿Â¯Â¯Â¯Â¯Â¯
ĠÂ¯Â»Â¯Â¯Â¯ Â´Â¯Â¯
ĠÂ¯Â·Â¯Â· Â±Â¯Â¯Â¯
ĠÂ¯Â¯Â¸Â¯Â± Â¸Â¯Â¯
ĠÂ´Â¯Â¯Â¯Â¯ Â·Â¯Â¯
Å ¢
Â¯Â¯ Â°Â¯Â¿Â¯Â¯
Â¯Â¯Â¯ Â°Â°
Â¯Â¯Â¯ Â¸Â±Â¯
Ã¯ ÅıÃ¯
Ã¯ Äº
Â° Â»Â¯Â¯Â¯
Ãı Ã»
Ãı Æģ
Ãı Å´
Â¿ Â¿Â·Â¯Â¯Â¯
Â¿Â¯Â¯Â¯ Â°Â°Â¯
Â¿Â¯Â¯Â¯ Ã·Â°Â¯
ĠÂ¯Â¯Â¿ Â¿Â¯Â¿Â¯Â¯
Â·Â¯Â¯Â¯ ÃĹÂ¯Â¯
Â±Â¯Â¯Â¯ Â°
Â±Â¯Â¯Â¯ ÃĹÂ¯
Ã¿ Ä²
Ã¿ ÂºÄ¯
ÃĹ Â°Â¯Â¿Â¯Â¯
Ãĥ Ä³
Â°Â¯Â¯Â¯Â¯ Â±Â¯
ĠÂ¯Â¯Â¿Â¯ Â»Â±Â¯Â¯
ĠÂ¯Â· Ã·Â¯
ĠÂ¯Â· Â·Â°Â¯Â¯Â¯Â¯
Ã· Â°Â¯Â¯Â¯
Ã· Â¯Ã·
Ã¯Ãı Ä¯Ã³
ĠÂ¯Â¯Â±Â¯ Â»Â°Â¯Â¯
Â·Â¯ Â·Â¯Â¯Â¯Â¯
Â¸ Â¯Â¿Â±Â¯Â¯
Ãĵ Ãĩ
Ãĵ ÅĲ
ĠÂ¯Â¯Â·Â¯Â¯ Â¿Â´Â¯
ĠÂ¯Â¯Â°Â¯ Â°Â´Â¯Â¯
Ã± ÃĤ
Ã³ Ã¹
ĠÂ¯Â¯Â¿Â¯Â¯ ÃĹÂ±Â¯
ĠÂ¯Â± Â¿Â¯Â°Â¯Â¯Â¯
ĠÂ¯Â± Â¿Â¯Â¯Â¯Â°Â¯
Ãĳ Ä¯Ãı
ĠÂ¯Â¯ÃĹ Â¸Â¯Â±Â°Â¯
ĠÂ¯Â¯Â¯Â° Â°Â¯Â°Â¯
ĠÄ¯ Äħ
ĠÂ¯Â¯Â¯Â°Â¯ ÃĹÂ±Â¯
ĠÂ¯Â¯Â¯Â±Â¯ ÃĹÂ±Â¯
Ä± Ä·
ÅĹ ÃĢ
ĠÃı ÃıÃģ
Äĥ Ãģ
Äĥ Ä¯Ãĥ
ĠÂ¯Â¯Â¯Â± Â°Â±Â¯Â¯
Äı ÃĴ
Ã° Ã¹
Âµ Ã±
ĠÂ¯Â¯Â± Â·Â¯Â¿Â¯Â¯
ĠÂ¯Â¯Â± Â±Â¯Â·
Â±Â°Â¯Â¯ Â°Â¯Â¯
ÃĦ Ã¿
ĠÃ¯Ãı Åı
ĠÂ¯Â±Â°Â¯ Â±Â±Â¯Â¯
ĠÂ¿ Â´Â¯Â¯
ĠÂ¿ Â¿Â±Â¯
ĠÂ¯Â¯Â¯Â·Â¯ ÃĹ
ĠÂ¯Â¯Â° Â±Â¯Â¯Â¿Â¯
ĠÂ¯Â°Â¯Â¯Â¯ Â¿Â¸Â¯
ÅĲ Ã³
ĠÂ¯Â±Â°Â¯Â¯ Ã·
ĠÂ¯Â±Â°Â¯Â¯ ÃĹÂ·Â¯
ĠÂ· Â¿Â¯
ĠÂ¯Â¯Â¯Â· Ã·Â°Â¯Â¯
Â¯Â¿Â¯Â¯ Â±Â¯
Å¿ ÃĲ
ĠÃ¯Ã¯ Ãĥ
ĠÂ¯Â¯Â´Â¯ ÃĹÂ´Â¯Â¯
Â¯Â¯Â¿ Â·Â°Â¯
Äĩ Ã¯
ÅĦ Ä¯
ĠÂ¯Â¯Ã·Â° Â·Â°Â¯Â¯
ĠÂ¯Ã· Â¿Â¯Â±Â¯Â¯Â¯
ĠÂ¯Ã· Â´Â¯Â¯Â¯Â°Â¯
ĠÂ¯Â¯Â¯Â¯Â± Â·
ĠÂ¯Â¯Â¯Â¯Â± Â±Â±Â¯
Ã¯Ãĥ Ä¯Ã¹
ĠÂ¯Â·Â¯ Â·Â¯Â¿Â¯Â¯
ĠÂ¯Â·Â¯ Â°Â±
ĠÂ¯Â¯Â¯Â¯ÃĹ Â¯Â¿Â¯
ĠÂ¯ÃĹÂ¯Â¯Â¯ Â»Â¯Â¯
ĠÂ¯ÃĹÂ¯Â¯Â¯ Â°Â°Â¯
ĠÂ¯Â¯Â» Â¯Â¿Â°Â¯Â¯
ÅĻ Ã¯
ĠÂ¯Â¯Â¯Â´ Â·
ĠÂ¯Â¯ÃĹÂ°Â¯ Ã·
ĠÂ¯Â±Â¯ Â¿Â¿Â¯Â¯Â¯
ĠÂ¿Â·Â¯Â¯ Ã·Â°Â¯Â¯
ĠÂ¯Â¯Â¿Â±Â¯ Â±Â±Â¯
Ãł Ä¯
Â¯Â¯Â±Â¯ Â°Â¯
ĠÂ¯Â°Â¯ Â¿Â¿Â¯Â¯Â¯
Â¯Â± Â·Â¯
Â¯Â± ÃĹÂ¯Â¯Â¯
ĠÂ¯Â¯Â·Â± Â·
ĠÂ¯Â¯Â·Â± Â·Â°Â¯Â¯
ĠÂ¯Â°Â°Â¯Â¯ Â·Â°Â¯
ĠÂ¯Â¯ÃĹÂ±Â¯ ÃĹ
ĠÂ¯Â¯Â¿Â·Â¯ Â¸Â¯Â¯
ĠÂ¯Â¯Â¿Â·Â¯ Ã·Â¯Â¯
ÄĻ Ä¯
ĠÂ¯Â¯Â¿Â´ Â·
Ã¯Ã° Ä¯Ãģ
Åĩ Ã¯
ĠÂ·Â¯ Â¿Â¯Â¯Â·Â¯Â¯
ĠÂ·Â¯Â¯Â¯Â¯ Â¸Â¯Â¯
ĠÂ·Â¯Â¯Â¯Â¯ ÃĹÂ¯Â¯
ĠÂ¯Â·Â·Â¯ Ã·Â¯Â¯Â¯
ĠÂ¯Â¿Â± Â±Â¯Â¯Â¯Â¯
Â°Â· Â¸Â¯Â¯
ĠÂ¯Â» Â¯Â¯Â¯Â·Â¯Â¯
ĠÂ¯Â» Â¯Â¯Â¿Â¯Â¯Â¯
Â¯Â¯Â¿Â¯ Â±Â¯Â¯Â¯
ĠÂ·Â·Â¯Â¯ Â±Â¯Â¯Â¯
ĠÂ¯Â¿Â¸Â¯Â¯ Ã·Â¯Â¯
ĠÂ¯Â¯ÃĹÂ´ Â¿Â·Â¯Â¯
Â¯Â» Â·Â¯Â¯
ĠÂ¯Â·Â·Â¯Â¯ Ã·Â¯Â¯
ĠÂ¯Â¯Â±Â±Â¯ ÃĹÂ¯Â¯
ĠÂ¯ÃĹÂ´Â¯Â¯ Â¿Â¯Â¯
ĠÃ· Â±Â¯Â¯Â¯Â¯Â¯Â¯
Ä¶ Ã¯
ĠÂ¯Â¯Â¯Â±Â¿ Â»Â¯Â¯
Ã¿Ã° Ãģ
ĠÂ·Â¯Â¯Â¯Â¯Â¯ Â´Â¯
ĠÂ·Â·Â¯ Â¿Â¯Â¯Â¯Â¯
ĠÂ¯Â¯Â·Â¯Ã· Â¿Â¯Â¯
Â¯Â¯Â´ Â±Â¯Â¯
ĠÂ¯Â¯Â¯Â¸Â¯Â¯ Â¸Â¯
Ä ¢
Ġ Â°Â¯Â·Â¯Â¯
Ġ ÃĥÃ¯
Â¯Â¯Â¯ Â¸Â°Â¯Â¯
Â¯Â¯Â¯ Â»Â±Â¯Â¯
Ä¯ Åĭ
Â· Â´Â¯Â¯Â¯Â¯Â¯
Ãı Ã¼
Â¯Â¯Â¯Â¯ ÃĹÂ´Â¯
Â¿ Â¿Â±Â¯Â¯
Â·Â¯Â¯ Â¸Â¯Â¯Â¯
Â·Â¯Â¯ Ã·Â±Â¯
ĠÂ¯Â¯Â¯ Â±Â°Â¯Â°Â¯
Â¿Â¯Â¯ Ã·Â·Â¯
Â±Â¯ Ã·Â°Â¯
ĠÂ¯Â¯Â¿ Â¿Â¿Â¯Â¯Â¯
Åı ÅĲ
Åı ÃĪ
Ã¿ Ãī
Ãĥ Ä¸
Ãĥ Ä¯Ãĳ
ĠÂ¯Â¿ Â±Â¿
ĠÂ¯Â¯Â¿Â¯ Â·Â¯Â°Â¯
Â´Â¯Â¯ Â°Â°Â¯
Ã¯Ãı Âµ
Ã¯Ãı Ä¯Ãĥ
Ã¯Ãı Ä¯Ã±
Â·Â¯ Ã·Â·Â¯Â¯
Â¸ Â¿Â¯
Â¯Â¯Â°Â¯Â¯ Â±Â¯
Ãĵ Ä³
ĠÂ¯Â¯Â·Â¯Â¯ Â±Â·Â¯
ĠÂ¯Â¯Â·Â¯Â¯ ÃĹÂ·Â¯
ĠÂ¯Â¯Â¿Â¯Â¯ Â¿Â¸Â¯
ĠÂ¯Â¯ÃĹ Â»
ÃĲ Ä¿
ĠÂ¯Â¯Â¯Â° Â·Â¯
ÃĹÂ¯Â¯Â¯ Â·Â¯
ĠÄ¯ Å³
ĠÄ¯ Å·
ĠÂ¯Â¯Â¯Â°Â¯ Ã·Â±Â¯
ĠÂ¯Â¯Ã· Â¸Â¯Â¯Â°Â¯
ĠÂ¯Â¯Ã· Â°Â¯Â¯Â¿Â¯
ĠÂ¯Â¯Â¯Â±Â¯ Â¸Â°Â¯
ĠÂ¯Â¿Â¯Â¯ ÃĹÂ´Â¯Â¯
ĠÂ¯Â¿Â¯Â¯Â¯ Â¸Â°Â¯
ĠÂ¯Â¿Â¯Â¯Â¯ Ã·Â´Â¯
ÅĹ Ä¯Ã¯
ÅĹ Ã°
ÅĹ Å£
ĠÃı ÃıÃĥ
ĠÃ¯ Ä¸
Äĥ ÃĲ
Åĥ Ä¹
ĠÂ¯Â·Â¯Â¯Â¯ Â°
ĠÂ¯Â¯Â¯Â± Â±Â¿Â¯Â¯
Ã° Ã¯Ãı
Ã° Ã³
Ã° Ã¸
ÃŁ ÃĲ
ĠÃ¯Ãı Ãĩ
Â» Â¿Â¯Â¯
ĠÂ¯Â¿Â·Â¯ Â±
ĠÂ¯Â±Â¯Â¯Â¯ Â´Â°Â¯
ĠÂ¯Â¯Â¯Â·Â¯ Ã·
ĠÂ¯Â¯ÃĹÂ¯ Ã·Â´Â¯Â¯
ĠÂ¯Â¯ÃĹÂ¯ Â±Â·Â¯Â¯
Â¯Â±Â¯Â¯ Â±Â¯
Â¯Â¯Â· Â¶Â¯Â¯
ÅĢ Ãģ
ĠÂ¯Â¿Â·Â¯Â¯ Ã·Â±Â¯
ĠÂ¯Â¿Â·Â¯Â¯ ÃĹÂ·Â¯
Ã·Â°Â¯Â¯ Â°Â¯
ĠÂ¯Â±Â°Â¯Â¯ Â¿Â¿Â¯
Ä¯Ä¯ Ã³
Ä¯Ä¯ Ã¹
Åģ Ä¿
Åģ Ãģ
ĠÂ¯ÃĹ Â±Â¯Â¯Â¯
ĠÂ¯ÃĹ Â¯Â°Â¯Â¯Â¯Â¯
ĠÂ¯ÃĹ Â´Â¯Â¯Â¯Â°Â¯
Ã¸ Ä°
ĠÂ¯Â¯Â¯Â¿ Â±
ĠÂ¯Â¯Â±Â° ÃĹÂ°Â¯Â¯
ĠÂ¯Â¯Â±Â¯Â¯Â¯ ÃĹÂ¯
Åĺ Ãı
Â¯ÃĹ Â±Â°Â¯
ĠÂ¯Â¯Â¯Â¯Â° Â°Â°Â¯
ÅĶ Ãı
Ä¯Âµ Ä¯Ã¯
Â¯Ã· Â±Â¯Â¯Â¯
ĠÂ¯Â°Â°Â¯ Â¿Â¸Â¯Â¯
ĠÂ¯Â°Â°Â¯ Â±Â±Â¯Â¯
ÃıÃ± Ãĵ
ÃıÃ± Ãĳ
ĠÂ¯Â±Â° Â·Â¯Â¯Â¯Â¯
Â¯Â°Â¯ ÃĹÂ¯Â¯
ĠÂ¯Â±Â¯ Â±Â¯Â°Â¯Â¯
ĠÂ¯Â±Â¯ Â±Â·Â¯Â¯Â¯
ĠÂ¯Â¿Â°Â¯ ÃĹÂ°Â¯Â¯
ĠÂ¯ÃĹÂ¯Â¯ Â·Â°Â¯Â¯
ĠÂ¿Â·Â¯Â¯ ÃĹÂ°Â¯Â¯
Ä¯ÃĻ ÅĢ
ĠÂ¯Â¯ÃĹÂ± Â·Â°Â¯Â¯
ĠÂ¯Â¯Â¿Â·Â¯ Ã·
Ãķ Ãı
ĠÂ¯Â¯Â°Â¯Â· Â¸Â¯Â¯
ĠÂ¯Â·Â°Â¯ Â¸Â¯Â¯Â¯
ĠÂ¯Â¯Â¸Â¯Â¯ Â·Â´Â¯
ĠÂ¯Â¯Â¿Â´Â¯ Â·Â°Â¯
ÃıÂº Ä¯Ã¯
ĠÂ¯Â·Â±Â¯ Â·Â±Â¯Â¯
ĠÂ¯Â¿Â¸ Â¯Â¿
ĠÂ¯Â¯Â¯Â¯Â¯Â± Â¸Â¯
Ä¿Ä± Ä¯
ĠÂ°Â¯ Â¿Â¯
ĠÂ¯Â´Â¯Â¯ ÃĹÂ¯Â¯Â¯
ĠÂ±Â¯Â¯Â¯ Â¿
ĠÄ· Ã³
ÃıÄ´ Ãĵ
ĠÂ±Â¯Â¯ Â·Â¯Â¯Â¯Â¯
ĠÃĹ Â¯Â¯Â¯Â¯
ĠÂ¯Â¯Â¿Â¯ÃĹ Â¿Â¯Â¯
Â°Â¿Â¯ Â°Â¯
Ã¯Ã² Ä¯
ĠÂ·Â±Â¯Â¯ Â·Â¯Â¯Â¯
Â¿Â¯Â¯Ã· Â¸Â¯Â¯
Â¿Â¿ Â¸Â¯Â¯Â¯
ĠÂ¯Â±Â°Â¿ Â¸Â¯Â¯Â¯
ĠÂ¯Â¯Â¯Â°Â¯Â¯Â¯ Â±
ĠÂ°Â¯Â¯Â¯Â¯Â¯ Â±Â¯
Å ½
Ġ Â°Â¯Â¯Â·Â¯
Ġ Ã·Â±Â¯
ĠÂ¯Â¯Â¯Â¯ Â·Â¯Â¯Â·
Â± Â¿Â¯Â¯Â¯Â¯Â¯
Â± Â»Â¯Â¯Â¯
Â° Â»
ĠÂ¯Â¯Â¯Â¯Â¯ Â¿Â¯
Â· Â±Â¯Â°Â¯Â¯
Â¿ Ã·
Â¿ Â»Â¯
Â±Â¯ ÃĹÂ´Â¯
Â±Â¯ Â°Â±Â¯Â¯
ĠÂ¯Â¯Â· Â´Â¯Â¯
ĠÂ¯Â¯Â· Â»
ĠÂ¯Â¯Â· Â¶Â¯Â¯Â¯Â¯
ĠÂ¯Â¯Â¿ Â¿Â¯Â°Â¯Â¯
ĠÂ¯Â¯Â¿ Â¸Â¯Â¯Â·Â¯
Â±Â¯Â¯Â¯ Â¿Â·Â¯
Åı ÅĻ
Ã¿ Ã°Ãı
Â´ Â±Â°Â¯Â¯
ÃĹ Â´
ÃĹ Â¯Â¿Â´Â¯Â¯
ĠÂ¯Â¯Â·Â¯ Â»Â±Â¯Â¯
ĠÂ¯Â¿ Â¯Â¿Â°Â¯Â¯Â¯
ĠÂ¯Â¿ Â¶Â¯Â¯Â¯Â¯Â¯
Ä° Åģ
Â·Â¯ ÃĹÂ°Â¯Â¯
Ã± Åı
Ã³ ÃıÄ¯
Ä· ÃĦ
ĠÂ¯Â± Â¿Â¯Â¯Â¿Â¯Â¯
ĠÂ¯Â± Â·Â°
ĠÂ¯Â± Â¿Â°Â¯Â¯Â¯Â¯
ĠÂ¯Â± Â´Â¯Â°Â¯Â¯Â¯
Ä³ ÄĹ
ÃĹÂ¯Â¯Â¯ Â±Â¯Â¯
ĠÄ¯ ÃıÃ¯
ĠÄ¯ Åĭ
ĠÂ¯Â¯Â¯Â°Â¯ Â¸Â°Â¯
ĠÂ¯Â¯Ã· Â·Â¯Â·Â¯Â¯
Ä± ÃĲ
Ä± ÃĢ
ÃĹÂ¯Â¯ Â·Â´Â¯
Å¯ Ã¸
ĠÃı Ã°
ĠÃ¯ Ãĩ
ĠÃ¯ Äħ
ĠÂ¯Â¯Â¯Â¯Â· Â·Â°Â¯
ĠÂ¯Â·Â¯Â¯ Â±Â¿Â¯Â¯
Åĥ Ä¯Ãĵ
ĠÂ¯Â° Â·Â¯Â´Â¯Â¯Â¯
ĠÂ¯Â° Â´Â¯Â·Â¯Â¯Â¯
Ã° Äı
Ã° Ãĩ
ĠÂ¯Â¯Â± Â·Â¯Â·Â¯Â¯
ÃŁ Ä¿
ÃŁ Ä·
Ãĩ Ä¿
ĠÂ¯Â±Â¯Â¯ Â°Â¿Â¯Â¯
Â¸Â¯ Ã·Â´Â¯Â¯
Â¸Â¯ Ã·Â¸Â¯Â¯
ĠÂ¯Â¯Â° Â±Â¯Â¯Â±Â¯
Â¯Â·Â¯Â¯ Â°Â¯
ÃĹÂ°Â¯Â¯ Â·Â¯Â¯
ÅĲ Âµ
Âº Ãĵ
Å¿ Âµ
ĠÃ¯Ã¯ Ã¿
ÃıÃģ Ä¯Ãģ
ĠÂ¯Â¯Â¸ Â¯Â¿Â¸Â¯Â¯
Ã¸ Ãĵ
Äĩ Ä¯
ĠÂ¯Â¿Â¯ Â°Â·Â¯Â¯Â¯
ĠÂ¯Ã· Â±Â¯Â¯Ã·Â¯Â¯
ĠÂ¯Ã· Â´Â¯Â±Â¯Â¯Â¯
ÃĽ Ãĥ
ĠÂ¯Â·Â¯ Â°Â¿Â¯Â¯Â¯
Ä¯Âµ Åı
ĠÂ¯Â¯Â¯Â¯ÃĹ Â°Â°Â¯
ĠÂ¯Â¿Â°Â¯Â¯ Â¸Â°Â¯
Â¯Â° ÃĹ
Â¯Â¯Â°Â¯ Â·Â¯
Ä¯Äģ Ãı
Â¯Â¯Â¯Â· Â·Â¯Â¯
ÃĹÂ¯ Â¿Â¯
ĠÂ¯Â¯Ã·Â°Â¯ Ã·Â´Â¯
Ä» Ãı
Å± Ãĥ
ĠÂ¯Â¿Â°Â¯ Ã·
ĠÂ¿Â·Â¯Â¯ Ã·Â¯Â¯Â¯
Â¯Â± Â°Â¿Â¯Â¯Â¯
Ã¯Ã± Ä¯Ã¯
ĠÂ¿Â¯Â¯Â¯ Ã·Â´Â¯Â¯
ĠÂ¯Â¯Â·Â± Â¿Â¸Â¯Â¯
ĠÂ¯Â¯ÃĹÂ± Â¿Â´Â¯Â¯
Æı Ã°
ĠÂ¯Â¯Â¿Â°Â¯ Â±Â±Â¯
Ã¯Ã³ Ä¯Ã¯
ĠÂ¯Â¿Â° Â¿Â¯Â¯Â¯Â¯
ĠÂ¯Â¯Â¯Â¸ Â¿
ÅıÂµ Ã¯Ãı
Å° Ãĵ
ĠÂ¯Ã·Â¯Â¯ Ã·Â´Â¯Â¯
ĠÂ± Â·Â¯Â¯
ĠÂ·Â¯ ÃĹÂ¯
ĠÂ·Â¯ Â·Â¯Â±Â¯Â¯Â¯
ĠÂ¿Â¿Â¯Â¯ Ã·Â¯Â¯Â¯
ĠÂ¿Â¯Â¯Â¯Â¯ Â¿Â·Â¯
Ã¯Ä° Ã¯
ĠÂ¯Â¯Â¿Â¸ Â¿Â¯Â¯Â¯
ĠÂ¯Â¯Â¿Â¸ Â¿Â·Â¯Â¯
ĠÂ¯Â¯Â·Â±Â¯ Â·Â°Â¯
ĠÂ¿Â¯Â¯ Â·Â·Â¯Â¯Â¯
ĠÂ¯Â±Â± Â¿Â¯Â¯Â¯Â¯
ĠÂ¯Â·Â¯Â¯Â¯Â¯ Â¸Â¯
ĠÂ°Â¯ Â·Â¯Â±Â¯Â¯Â¯
ĠÂ¯Â´Â¯Â¯ Â·
Ä¿Ã± Ä¯
ĠÂ¯ÃĹÂ°Â¯ Â¿Â·Â¯Â¯
ĠÂ¯Â·Â´Â¯Â¯ Â·
ĠÂ¯Â¯Â·Â·Â¯ Â±Â°Â¯
ĠÂ¯Â¯Â°Â¯ÃĹ Â·Â¯Â¯
ĠÂ¿Â¿ Â¯Â¯Â¯Â¯Â±Â¯
ĠÂ¿Â¿ ÃĹÂ¯
ĠÂ¯Ã·Â´Â¯Â¯ ÃĹÂ¯Â¯
ĠÃ· Â¯Â¯Â¯Â¯Â°Â¯Â¯
ĠÂ¯Â¿ÃĹÂ¯ Â´Â¯Â¯Â¯
ĠÂ¯Â°Â¯Â¯Â· Â¿Â¯Â¯
Â±Â¯Â¯Ã· Â·Â¯
Ä¯Ä¯Ã¯ Ä¯
Â°Â¯Ã· Â¸Â¯
Ä·Ã³ Ãģ
ÃıÃ² Ã¯
ĠÂ¯Â¯Â¯Â¯Â¸Â¯ Â°Â¯
ĠÂ¯Â°Â¯Â¿ Â´Â¯Â¯Â¯
Ä Ŀ
Ġ ÃĹÂ°Â¯Â¯
Ġ Äĵ
Ã¯ Åħ
Ã¯ Ã¶
Â° Â¿Â¯Â¯Â¯Â¯Â¯
ĠÂ¯Â¯Â¯Â¯Â¯ Â°Â¯Â·
Ãı Å¡
Ãı Ä·Ä¯
Â¯Â¯Â¯Â¯ ÃĹÂ±Â¯
Â¯Â¯Â¯Â¯ Â±Â°
Â¿ Â¿Â·Â¯Â¯
Â¿ Ã·Â¯
Â°Â¯Â¯ ÃĹÂ·Â¯
Â±Â¯Â¯ Â¿Â°Â¯Â¯
Â±Â¯Â¯ Â¶Â¯Â¯
Â·Â¯Â¯ ÃĹÂ´Â¯
Â°Â¯ Â°Â±Â¯
ĠÂ¯Â¯Â· Â¶
Ã¿ Äģ
Ã¿ ÅĶ
Â´ Â¯Â¿Â°Â¯Â¯
Â´ Â·Â±Â¯Â¯
Â´ Â¿Â´Â¯Â¯
ÃĹ Â¯Â°Â¯
ÃĹ Â¯Â·Â¸Â¯Â¯
Ãĥ Ä·
ĠÂ¯Â¯Â¯Â¯Â¯Â¯ Â°
ĠÂ¯Â¿ Â¿Â¯Â¯Â¯
ĠÂ¯Â¿ Ã·Â¯Â¿Â¯Â¯Â¯
ĠÂ¯Â¿ Â¯Â¯Â¯Â¯Â¯Â°
ĠÂ¯Â· Â´Â¯Â¯Â¯
ĠÂ¯Â· Â±Â¯Â¯Â¯Â·Â¯
ĠÂ¯Â· Â¿Â¯Â¯Â±Â°Â¯
Ã· Â±Â¯Â¯Â¯Â¯Â¯
Ã· Â¯Ã·Â¯Â¯Â¯
Â¸ Â¯Â¿Â±Â¯
Â¸ Â¯Â¿Â¿Â¯
Ãģ Âµ
ĠÂ¯Â¯Â·Â¯Â¯ Â¿Â¸Â¯
ĠÂ¯Â¯Â°Â¯Â¯ Â°Â·Â¯
Ä· Åģ
ĠÂ¯Â± Â°Â°Â¯
ĠÂ¯Â¯ÃĹ Â±Â¯Â¯Â¿Â¯
ÃĲ Ã¯Ãı
ÃĢ Ä±
ĠÄ¯ Ä·Ã¯
ĠÂ¯Â¯Â¯Â°Â¯ Â¿Â´Â¯
ĠÂ¯Â¿Â¯Â¯Â¯ Â´Â°Â¯
ÅĹ Ã¯Ã¯
Å¯ ÃıÄ¯
ĠÃı ÃŁ
ĠÃ¯ ÅĦ
ĠÃ¯ ÅıÃ³
ĠÂ¯Â¯Â¯Â¯Â· ÃĹÂ°Â¯
Ã¹ Ãĥ
Äĥ Ã¹
ĠÂ¯Â° Â±Â¯Â¿Â·Â¯Â¯
ĠÂ¯Â° Â±Â¯Â¯Â¯Â±Â¯
ĠÂ¯Â° Â¿Â°Â¯Â¯Â¯Â¯
ĠÂ¯Â·Â¯Â¯Â¯ ÃĹÂ±Â¯
ĠÂ¯Â¯Â¯Â± Â±Â±Â¯Â¯
Â¯Â· Â±
ĠÄ¯Ã¯ Ãĩ
Â·Â¯Â¯Â¯Â¯ Â·Â¯
Âµ Ã¯Ãģ
Ãĩ ÃĻ
Ã·Â¯Â¯ Â·Â´Â¯Â¯
ĠÂ¯Â±Â¯Â¯Â¯ Â°Â±Â¯
ĠÂ¯Â±Â°Â¯ Â»Â¯Â¯Â¯
ĠÂ¯Â°Â¯Â¯Â¯ Ã·Â´Â¯
ĠÂ¯Â¿Â·Â¯Â¯ Â¸Â°Â¯
ĠÂ¯Â¿Â·Â¯Â¯ Ã·Â¸Â¯
Ã¯Ã¯ Ä³
ĠÂ· Â±Â±Â¯
Â¯Â¿Â¯Â¯ Â°
Åģ Ä¯Ãĵ
Ã¯ÃĲ Ä¯Ãģ
ÄĹ Ä°
ÄĹ ÃĲ
Â¯Â¯Â¿ Â´Â¯Â¯Â¯
Â¯Â¯Â¿ Â°Â¸Â¯Â¯Â¯
Ä¯Ã³ Ä¯
ĠÂ¯Â¯Â¿Â¯Â¯Â¯ Ã·Â¯
ĠÂ¯Â¯Â·Â° Ã·
ÃıÃ¯ Ãĺ
ĠÂ¯Â¯ÃĹÂ° Â¿Â¸Â¯Â¯
Â¯ÃĹ Â¯Â¯Â·Â¯Â¯
ĠÂ¯Â¯ÃĹÂ¯Â¯ ÃĹ
Â¿Â°Â¯Â¯ Â±Â¯
Ä¯Ãĵ Ãģ
ĠÂ¯Â¯Â¯Â´Â¯ Â±Â±Â¯
Ã¯ÃĻ Ä¯
Ã¯ÃĻ ÃĦ
ĠÂ¯Â·Â¯ Â±Â¯Â°Â¯Â¯
ÅıÃĥ Ä¯
Å³ Ãĳ
ĠÂ¯Â¯Â» Â¯Â·
ĠÂ¯Â¿Â°Â¯Â¯ Â·Â´Â¯
Â¯Â°Â¯ Â¿Â¯
ÃıÄ¯ Ä³
Â¶ Â¯Â¯Â·Â¯Â¯
ĠÂ¯Â±Â¯ Â´
Â¯Â±Â¯ Â·Â¯Â¯Â¯
ĠÂ¯Â¯Â·Â¯Â¯Â¯ Â»Â¯
ĠÂ¯Â¯Â¸Â¯Â¯ ÃĹ
ĠÂ¯Â¯Â¸Â¯Â¯ Â¿Â·Â¯
ĠÂ¯Ã·Â°Â¯Â¯ Â´Â¯Â¯
Â¯Â¯Ã· Â¯Â¯Â¯Â¯
ĠÂ¯Â¯Â¯Â¸ Â±Â¯Â¯Â¯
ĠÂ¯Â±Â±Â¯Â¯ Â¸Â°Â¯
ĠÂ·Â¯ Â¿Â¯Â¯
Ã¯Âµ Ä¯Ã¯
Â¯Â¿Â¯ ÃĹÂ¯Â¯Â¯
ĠÂ·Â¯Â¯Â¯Â¯ ÃĹÂ´Â¯
ĠÂ¯Â¸ Â°Â¯Â¿Â¯Â¯Â¯
ĠÂ¿Â·Â¯ Â±Â¯Â¯Â¯Â¯
Ä·Âµ Ã¯Ãĵ
Ä·Âµ Ã¯ÃĶ
Â±Â· Â¿Â¯Â¯Â¯
Ã¯Ä° Ãĥ
Äµ Ãı
Â±Â¯Â¿ Â·Â¯Â¯Â¯
ĠÂ¯Â¯Â¿Â¸ Â¯Â·
ĠÂ¿Â¯Â¯ Â°Â¯Â¿Â¯Â¯
ĠÂ±Â¯ Ã·Â¯
Å¯Âµ Ãı
ĠÂ¯ÃĹÂ±Â¯Â¯ Â´Â¯Â¯
ĠÂ° Â°
Â°ÃĹ Â·Â¯Â¯
ĠÂ¯Â¿Â¯Â¯Â¯Â· Â¸Â¯
ĠÄı Ã¯
ĠÂ¯Â¯Ã·Â¸ Â¯Â·
Â°Â¯Â¿ Â´Â¯Â¯
Â°Â¯Â¿ Â´Â¯
ĠÃŁ Ãı
Ã¯ÅĶ Ãģ
ĠÂ¯Â±Â´Â¯ Â¸Â¯Â¯Â¯
ĠÂ¯Â¯Â¯Â¯Â¶ Â°Â¯Â¯
ĠÂ¯Â¯Â¯Â¯Â°Â¯Â¯ Â°
ĠÂ¯Â¯Â¯Â±Â¯Â¯Â¯ Â°
ĠÂ¿Â·Â°Â¯ Â±Â¯Â¯Â¯
Å ¶
Ġ Â±Â¿Â¯Â¯Â¯
Ġ Ãļ
Ġ Â¿Â¯Â¯Â·Â¯Â¯
Â¯ Â»Â¯Â¯Â¯Â¯
Â¯Â¯ Â±Â¯Â·Â¯Â¯
Ã¯ Äµ
Ã¯ Å´
Ã¯ Åĭ
Ä¯ Åµ
Â· Â±Â±Â¯Â¯
Ãı Ä¯Äĥ
Ãı Ãĸ
Â¯Â¯Â¯Â¯ Ã·Â¸Â¯
Â¿ Â´Â¯Â¯Â¯Â¯Â¯
Â·Â¯Â¯ Â°
Â·Â¯Â¯ Â°Â°Â¯
Â¿Â¯Â¯ Â·Â±Â¯Â¯
Â°Â¯ Â¸Â¯
Â¿Â¯Â¯Â¯ ÃĹÂ±Â¯
Â¿Â¯Â¯Â¯ Ã·Â¸Â¯
ĠÂ¯Â¯Â· Â¿Â±Â¯Â¯Â¯
Â·Â¯Â¯Â¯ Â¸Â¯
Åı Äĳ
Ã¿ ÃĳÄ¯
Â´ ÃĹÂ¯Â¯Â¯
ÃĹ Â¸Â¯Â¯Â¯
ÃĹ Â°Â¯Â¯Â¯Â±Â¯
Ãĥ Ãĺ
Ãĥ Ãĩ
ĠÂ¯Â¯Â·Â¯ ÃĹÂ·Â¯Â¯
ĠÂ¯Â¿ Â¿Â¯Â¯Â±Â°Â¯
ĠÂ¯Â¿ Â¿Â°Â¯Â¯Â¯Â¯
ĠÂ¯Â¿ Ã·Â±Â¯Â¯Â¯Â¯
ĠÂ¯Â¯Â¿Â¯ Â¸Â±Â¯Â¯
ĠÂ¯Â· Â¯Â°Â¯Â¯Â±Â¯
Ä¿ Ä¯Ãı
Ä¯Ã¯ Ã±
Â¸ Â±Â¯Â¯Â¯
Ãģ Ä¯Âµ
Ã³ Äı
Ä· Ä°
ĠÂ¯Â± ÃĹ
Ãĳ Ã¹
Ãĳ Ä¯Ãģ
ÃĢ Ã°
ÃĹÂ¯Â¯Â¯ Â·Â¯Â¯
ĠÄ¯ Åĩ
ĠÂ¯Â¯Ã· Â¸Â¯Â¯
ĠÂ¯Â¯Ã· Â¶Â¯
ĠÂ¯Â¯Â¯Â±Â¯ Â±
ĠÂ¯Â¿Â¯Â¯ Â°Â±Â¯Â¯
Â±Â°Â¯ Â·
ÃĹÂ¯Â¯ Â¸Â¯Â¯
Å¯ Å¯
Å¯ ÃĦ
Å¯ ÃĽ
Å¯ ÄĻ
ĠÃı Ãħ
ĠÃ¯ ÄĹ
Åĥ Ã¿
ĠÂ¯Â° Â·Â¯Â±Â¯Â¯Â¯
Â´Â¯ Ã·Â¸Â¯
ĠÂ¯Â·Â¯Â¯Â¯ Â¸Â°Â¯
ĠÂ¯Â¯Â¯Â± ÃĹÂ±Â¯Â¯
Äı Ä±
Ã° Ã¯Ãĳ
ÃĶ Ã¿
Âµ Ã¿
Ãĺ Ä¿
ĠÃ¯Ãı Ä·
ĠÃ¯Ãı Åĵ
Â» Â¯Â±Â°Â¯
Â¿Â·Â¯Â¯ Â±Â¯Â¯
Â³Â³ Â²
Â¸Â¯ Â±Â¯
Â¯Â¯Â¯Â°Â¯ Â·Â¯
ĠÂ¯Â¯Â° Â±Â¯Â´Â¯Â¯
Â¯Â¯Â· Â±Â°Â¯
ĠÂ¯Â¯Â¿Â° Â±
Ä¹ Ãģ
Åĳ Âµ
Ã¯Ãĵ Ã¯Ãĳ
ĠÂ¯Â¯Ã·Â¯ ÃĹÂ±Â¯Â¯
ĠÂ¯Â¯Ã·Â¯ Â±Â±Â¯Â¯
ĠÂ¯Â¯Â¯Â· Â°
ĠÂ¯Â¯Â¯Â· Ã·
ĠÂ¯ÃĹ Â±Â¯Â¯Â¯Â±Â¯
ĠÂ¯Â¯Â¸ Â°Â¯Â±Â¯Â¯
Â¯Â¯Â¿ Â·
Â¯Â¯Â¿ ÃĹÂ¯Â¯
Äĩ Ãĵ
Ä¸ Ä¯Ã¯
Ä¸ Âµ
ĠÂ¯Â¿Â¯ Â´Â¯Â¯Â¯Â¯
ĠÂ¯Â¯Ã·Â° Â±Â¯Â¯Â¯
Ã¯Ãĳ Ä¯Ã¿
Ä¯Ã¹ ÃĶ
ÃıÃı ÃĢ
ĠÂ¯Ã· Â±Â¯Â¯Â¯
ĠÂ¯Ã· Â¸Â¯Â¯Â¯
ÃıÃ¯ Ä±
ÃıÃ¯ Ã°
ĠÂ¯Â¯ÃĹÂ° Ã·Â°Â¯Â¯
ĠÂ¯Â¯Â±Â°Â¯ Â»Â¯Â¯
ĠÂ¯Â¯Â¯Â´Â¯ Â·Â·Â¯
ĠÂ¯Â¯Â¿Â± Â·Â´Â¯Â¯
ĠÂ¯Â¯Â¯Â¯ÃĹ Â°
ĠÂ¯Â¯Â» Â¯Â±
ĠÂ¯Â±Â±Â¯ Â·Â°Â¯Â¯
ĠÂ¯ÃĹÂ¯Â¯ Â¿
ĠÂ¯Â¿Â±Â¯ Â·Â±Â¯Â¯
ÃıÂµ Ãı
ĠÂ¯Â¯Â¯Â°Â¯Â¯ Â±Â°
Æı Ä¿
ĠÂ¯Â¯ÃĹÂ±Â¯ Â·Â±Â¯
Ã§ Ä¿
ĠÂ¯Â¯Â¿Â· Â¸Â¯Â¯Â¯
Â¯Â¯ÃĹ Â°
ĠÂ¿Â¯ Â±Â¯Â¯Â°Â¯Â¯
ĠÂ·Â¯ Â¸Â¯
ĠÂ·Â¯ Â±Â¯Â¯Â±Â¯Â¯
ĠÂ¿Â¿Â¯Â¯ Ã·
ĠÂ¿Â¿Â¯Â¯ Ã·Â°Â¯Â¯
Â»Â¯ Â»Â¯Â¯
ĠÂ¿Â¯Â¯Â¯Â¯ Ã·Â¯Â¯
ĠÂ¿Â·Â¯ Â°Â¯Â¯Â¯Â¯
Â±Â· Â°Â¯Â¯Â¯
Â±Â¯Â· Â±Â¯Â¯Â¯
ĠÅı Åı
ĠÂ¯Â¯Â¿Â¸ Â¿
ĠÂ¿Â¿Â¯Â¯Â¯ ÃĹ
Â¯Â¯Â¿Â¯ Â¿Â¯Â¯
Äº Ã¯
ĠÂ°Â¯ Â±Â¯
ĠÂ·Â·Â¯Â¯ Â¿Â·Â¯Â¯
ÃıÃ´ Ã¯
Å¯Ãģ Ãı
ĠÂ±Â¯Â¯Â¯ ÃĹÂ¯Â¯Â¯
ĠÂ¯ÃĹÂ°Â¯ Ã·Â°Â¯Â¯
ĠÂ° Â·Â¯Â¯Â¯Â¯Â¯Â¯
ÅıÄ± Ãĵ
ĠÂ±Â°Â¯Â¯ Â¿Â¯Â¯Â¯
ĠÂ±Â°Â¯Â¯ Â·Â¯Â¯Â¯
ĠÂ¯Ã·Â´Â¯Â¯ Â¿Â¯Â¯
ÆŁ Ãı
Â°Â¯Â¯Â· Â¸Â¯
ĠÂ¯Â´Â¯Â¯Â¯ Ã·Â¯Â¯
ĠÂ¯Â±Â°Â¯Ã· Â·Â¯Â¯
ĠÂ°Â¯Â¯ Â·Â¯Â¯Â¯Â¯
ĠÂ» Â±Â¯Â¯Â¯Â¯Â¯Â¯
ĠÂ¿Â·Â¯Â¯Â¯Â¯ Â¿Â¯
Â·Â¯Â¯Â· Â¸Â¯
Â¿Â¯Â¯Ã· Â¿Â¯Â¯
ĠÂ¯Â¯Â¯Â±Â¯Â¯Â¯ Â·
ĠÂ±Â¯Â¿Â¯Â¯ Â¿Â¯Â¯
Ä ¨
Ġ Â°Â¿
Ġ Â±Â¯Â¿
Ġ Ä°Ä¯
Â¯Â¯Â¯ Â±Â´Â¯Â¯
Â± Â°Â¿Â¯Â¯Â¯
Â± Ã·Â¯Â¯Â¯Â¯
Ã¯ ÃĨ
Ã¯ ÅĤ
Ä¯ Ãį
Ãı ÅıÃģ
Â¯Â¯Â¯Â¯ ÃĹÂ¯Â¯Â¯
Â±Â¯Â¯ Ã·Â¯Â¯Â¯
Â±Â¯Â¯ Â´Â¯Â¯Â¯
Â·Â¯Â¯ Ã·Â·Â¯
ĠÂ¯Â¯Â¯ ÃĹÂ¯Â¯
Â¿Â¯Â¯ Â°Â±Â¯
Â¿Â¯Â¯ Ã·Â·Â¯Â¯
Â°Â¯ Â±Â±Â¯Â¯
Â±Â¯ Â»
ĠÂ¯Â¯Â· Â¸Â¯Â±Â¯Â¯
ĠÂ¯Â¯Â· Â¿Â¯Â¯Â±Â¯
ĠÂ¯Â¯Â¿ Â¿Â¯Â·Â¯Â¯
Â´ Â´Â¯Â¯Â¯
ĠÂ¯Â¯Â·Â¯ Â·Â¯Â°Â¯
ĠÂ¯Â¯Â¯Â¯Â¯Â¯ Â¿Â±
ĠÂ¯Â¯Â¯Â¯Â¯Â¯ Â¿Â·
ĠÂ¯Â¯Â¯Â¯Â¯Â¯ Â°Â±
ĠÂ¯Â¯Â¿Â¯ Ã·Â·Â¯Â¯
Ä° Ä¯Ãı
Ä° Äĳ
ĠÂ¯Â· Ã·
ĠÂ¯Â· Â»Â¯Â¯
ĠÂ¯Â· Â¸Â¯Â¯Â·Â¯Â¯
ĠÂ¯Â· Â´Â¯Â¯Â¯Â±Â¯
ĠÂ¯Â· Â¯Â¿Â±Â¯Â¯Â¯
Ä¿ Ä¯Ä¯
Ä¯Ã¯ ÃĶ
Ä¯Ã¯ ÃıÃĵ
Ã¯Ãı Ã¿
Ã¯Ãı Ä¯Ã¹
ĠÂ¯Â¯Â±Â¯ Â´
Ãģ Ä¯ÃŁ
Ãĵ ÅĢ
Ã± Âº
ĠÂ¯Â¯Â°Â¯Â¯ Â¿Â¸Â¯
ĠÂ¯Â¯Â°Â¯Â¯ Â»Â°Â¯
Ã³ Ä¯Ä¯
Ã³ ÃıÃı
ĠÂ¯Â¯Â¿Â¯Â¯ Â¿Â´Â¯
ĠÂ¯Â± Â¿Â¯Â¯Â·Â¯Â¯
Ä³ Ä¹
Ãĳ Ã¯Ãı
Ãĳ ÄĢ
ÃĲ Ä¯Ãı
ÃĢ Ãĥ
ÃĢ ÃĶ
ĠÂ¯Â¯Â¯Â° Ã·Â·Â¯Â¯
Â¯Â¿Â¯Â¯Â¯ Â¿Â¯
ĠÄ¯ ÃıÃı
ĠÄ¯ Ã±Ãı
ĠÂ¯Â¯Ã· Â¯Â¯Â·Â±Â¯
ĠÂ¯Â¯Â¯Â±Â¯ Â°Â±Â¯
Åĵ Ä¿
Åĵ Ä³
ĠÂ¯Â¯Â¯Â¯Â¿ ÃĹ
ĠÂ¯Â¯Â¯Â¯Â¿ Â¿Â±Â¯
ĠÂ¯Â¯Â¯Â¯Â¿ Â°Â±Â¯
ÅĹ Ä¿
ÅĹ Äģ
Ã¹ Ä¯Ä¯
Åĥ Ä±
Â¯Â¿ Â»Â¯Â¯Â¯
ĠÂ¯Â° Â¿Â¯Â¯Â¿Â¯Â¯
ĠÂ¯Â° Â±Â°
ĠÂ¯Â° Â´Â¯Â±Â¯Â¯Â¯
ĠÂ¯Â° Ã·Â±
Â´Â¯ Â°Â°Â¯Â¯
ĠÄ¯Ã¯ Ä¹
Äı ÄĢ
Ã° Âº
Âµ Âµ
Ã·Â¯Â¯Â¯ Â´Â¯Â¯
ĠÂ¯Â¯Â± Â¸
ĠÂ¯Â¯Â± Â´Â¯Â·Â¯Â¯
Ãĺ Âµ
ĠÂ¯Â±Â¯Â¯ Â¿Â¯
Â³Â³ Â¹
Â¸Â¯ Ã·Â°Â¯Â¯
ĠÂ¯Â±Â¯Â¯Â¯ Ã·Â°Â¯
ĠÂ¯Â°Â¯Â¯ Â¿Â´Â¯Â¯
ĠÂ¯Â¯Â° Â¿Â±Â¯
ĠÂ¯Â¯Â° Ã·Â¯Â¯Â¯Â¯
Â¯Â·Â¯Â¯ Â±
ÅŁ Ãī
Ä¹ Ã±
Ã¯Ãĵ Ä¯Ã¯
ĠÂ¯Â±Â°Â¯Â¯ Â¸Â°Â¯
ÄĢ Ä¯Ä¯
ĠÂ· Â¸Â¯Â¯Â¯Â¯Â¯Â¯
ĠÂ¯Â¯Â´Â¯Â¯ Â¿Â°Â¯
ĠÂ¯Â¯Â´Â¯Â¯ Ã·Â°Â¯
ĠÂ¯Â¯Â´Â¯Â¯ Â¿Â¿Â¯
Ä¯Ã± ÅĲ
ĠÂ¯Â¯Â¯Â· Â±
ĠÄ¯Ä¯ Äı
ÃıÃģ Ä¯Ãĳ
ĠÂ¯ÃĹ Â¿Â¯Â¯
ĠÂ¯ÃĹ Â´Â¯Â¯Â·Â¯Â¯
ĠÂ¯Â¯Â¸ Â·Â¯Â¯Â¯Â¯
ĠÂ¯Â¯Â´Â¯ Â±Â´Â¯Â¯
ĠÂ¯Â¿Â¯ Â¿Â¯Â°Â¯Â¯
ĠÂ¯Ã· Â´Â¯Â¯Â¯
ĠÂ¯Ã· Â¯Â¯Â¯Â¯Â·Â¯
ĠÂ¯Ã· Â·Â¯Â¯Â±Â¯Â¯
ĠÂ¯Ã· Â±Â¯Â¯Â±Â°Â¯
ĠÂ¯Ã· Â´Â¯Â¯Â¯Â±Â¯
ĠÂ¯Ã· Â°Â¯Â¯Â¯Â·Â¯
ĠÂ¯Â¯Â·Â° Â·Â±Â¯Â¯
Â¯ÃĹ Â°Â¯Â¯Â¯
ĠÃıÃı Ä¿
ĠÂ¯Â·Â¯ Â¿Â¯
ĠÂ¯Â·Â¯ Â±Â¸Â¯Â¯Â¯
Â¯Ã· Â±
ĠÂ¯Â°Â°Â¯ ÃĹÂ±Â¯Â¯
ĠÂ¯Â¯Â» Â¯ÃĹÂ¯Â¯Â¯
ĠÂ¯Â¯Â» Â±Â¯Â·Â¯Â¯
Â¯Â° Â±
Â¯Â° Â´Â¯Â¯Â¯
ĠÂ¯Â¿Â· Â¿Â¯Â¯Â¯Â¯
ĠÂ¯Â°Â¯ Â±Â¯Â°Â¯Â¯
Â¯Â± Â·
Â¯Â± Â»Â¯Â¯
ĠÂ¯Â°Â°Â¯Â¯ Â·Â·Â¯
Ã§ Ã³
Â¯Â¯Â·Â¯ Â°
Â¯Â¯Â·Â¯ Â·Â¯
Â¯Â¯ÃĹ Â¿Â¯
ĠÂ¿Â¯ Â°
Ã¯Âº Åĵ
ÃıÃĲ Ã¯Ãı
ĠÂ·Â¯ Â·Â°Â¯Â±Â¯Â¯
ÅıÃı Ã¯Ãı
ĠÂ¯Â·Â±Â¯ Â´Â¯Â¯Â¯
ĠÂ¯Â·Â±Â¯ Â·Â°Â¯Â¯
ĠÂ¯Â¯Ã·Â±Â¯ Â¿Â·Â¯
ĠÂ¿Â¯Â¯Â¯Â¯ Â·Â°Â¯
ĠÂ¯Â¸ Â°Â¯Â·Â´Â¯Â¯
Â¿Â¯Â· Â¿Â¯Â¯
ĠÂ¯Â¯Â±Â¯Â¿ Â»Â¯Â¯
ĠÂ¯Â·Â·Â¯ Â·Â·Â¯Â¯
Â°Â· Â±Â°Â¯
ĠÂ¯Â´ Â±Â¯Â¯
ĠÂ¯Â¯Â¿Â¸ Â·Â¯Â¯Â¯
ĠÂ¯Â¯Â¿Â¸ Â¯Â¿
ĠÂ¯Â¯Â¯Â¯Â¿Â¯ Â´Â¯
Ã¿Ãı Ä¯Ã¯
ĠÂ¯Â¿Â¿Â¯ Â´Â¯Â¯Â¯
Ä¯ÅĹ Ãĥ
ĠÂ¯Â¯Ã·Â´Â¯ Ã·Â¸Â¯
ĠÂ¯Â´Â¯Â¯ Â°Â¯Â¯Â¯
ĠÂ¯Â¸Â¯Â¯ Â¿
ĠÂ·Â¯Â¯ Â·
ĠÂ° Â±Â¯Â¯
ĠÂ¯Â¯ÃĹÂ´Â¯ Ã·Â¯Â¯
ĠÂ¯Â¯ÃĹÂ´Â¯ ÃĹÂ¸Â¯
ĠÂ¯Â·Â± Â±
ĠÂ¯Â¯Â±Â±Â¯ Ã·Â¯Â¯
ĠÂ¯Â¿Â¯Â¯Â¿ Â»Â¯Â¯
ĠÂ¯Â¯Â¯Ã· Â¿Â¯Â¯Â¯
ĠÄı ÃĶ
ĠÅıÃģ Åĺ
ĠÂ¯Â¯Â¯ÃĹ Â·Â¯Â¯Â¯
Â¯Â´ Â´Â¯Â¯
ĠÂ±Â°Â¯Â¯Â¯ Â±Â¯Â¯
ĠÂ±Â±Â¯Â¯ Â¿Â¯Â¯Â¯
Â±ÃĹ Â·Â¯Â¯
ĠÃıÃĳ Ãģ
ĠÂ¯Â¯Â±Â¯ÃĹ Â·Â¯Â¯
ĠÂ¯Â±Â´Â¯ Â±Â°Â¯Â¯
ĠÂ¯Â·Â» Â¯Â¯Â±Â¯Â¯
ĠÂ¯Â¯Â¯Â±Â¯Â¯Â¯ Â¿
ĠÂ¯Â¯Â¯Â¯Â´Â¯ Â°Â¯
ĠÂ¸Â¯Â¯Â¯Â¯ Â°Â¯Â¯
Ġ ÅıÂµ
Ġ Äĭ
Ġ ÃĦÃ¯
Â¯Â¯ Â°Â¿Â¯Â¯Â¯
ĠÂ¯Â¯Â¯Â¯ Â°Â°Â¯
Â± Â±Â·Â¯Â¯Â¯
Â± Ã·Â±Â¯Â¯
Ã¯ ÄĽ
Ã¯ ÃĬ
Ã¯ Äĭ
Ã¯ ÄĤ
Â° Â±Â·Â¯Â¯
Â· Â±Â¯Â¿Â¯Â¯
Â· Â·Â¯Â¿Â¯Â¯Â¯
Ãı Ã¯ÃĲ
Ãı Æı
Ãı Äħ
Ãı ÄĽ
Ãı Ãº
Â¿ ÃĹÂ¯Â¯
Â¿ Â±Â°Â¯Â¯Â¯Â¯
Â¿ ÃĹÂ°Â¯Â¯Â¯Â¯
Â¯Â¯Â¯Â¯Â¯ Â¸Â¯Â¯
Â±Â¯Â¯ Ã·Â°Â¯Â¯
Â·Â¯Â¯ Ã·Â°Â¯Â¯
Â¿Â¯Â¯ ÃĹÂ±Â¯Â¯
Â±Â¯ Â±Â´Â¯Â¯
ĠÂ¯Â¯Â· Â¿Â¯Â¿Â¯Â¯
ĠÂ¯Â¯Â¿ Â»Â¯
ĠÂ¯Â¯Â¿ Â¿Â°Â¯Â¯Â¯
Åı ÄĢ
Åı Å¿
Ã¿ Ãħ
Â´ Â·Â´Â¯Â¯
ÃĹ Â±Â¯Â¯Â¯Â¯Â¯
Ãĥ Ä¯Ãģ
Ãĥ ÃĴ
Ãĥ Ä¯Åı
ĠÂ¯Â¿ Ã·Â¯Â¯
ĠÂ¯Â¿ Â´Â¯Â·
ĠÂ¯Â¯Â¿Â¯ Â´
ĠÂ¯Â¯Â¿Â¯ Â·Â¯Â±Â¯
ĠÂ¯Â· Â¶Â¯Â¯Â¯Â¯Â¯
Ä¿ Å¯
Ä¿ Äĥ
Ä¿ ÅĻ
Ä¯Ã¯ Ãģ
Ã¯Ãı Ã¯Ãĳ
ĠÂ¯Â¯Â±Â¯ Â¶Â¯Â¯Â¯
Â·Â¯ Â¸Â°Â¯
Â·Â¯ Â°Â±Â¯
Â¸ Â´Â¯Â¯
Ãģ Ä°Ãı
Ãĵ Ä°Ã³
Ã± Ä±
ĠÂ¯Â¯Â°Â¯Â¯ Â»Â±Â¯
Ã³ Äĥ
Ã³ Äģ
Ã³ Ã°Ãı
Ä· Ä¯Ãĩ
Ä· Ä³Ãĵ
Ãĳ Ä¯Ä¿
Â¯Â¯Â±Â¯Â¯ Â±
ÃĲ Ä´
ÃĲ Ã´
ÃĲ ÃıÃģ
Â¿Â¯ Â±Â¯Â¯Â¯Â¯
Â¿Â¯ Â·Â¯Â·Â¯
ĠÂ¯Â¯Â¯Â° Â»Â±Â¯Â¯
ĠÄ¯ ÅĶ
ĠÂ¯Â¯Ã· Â±Â¯Â¯Â¿Â¯
ĠÂ¯Â¿Â¯Â¯Â¯ Â°Â±Â¯
ÅĹ Ä±Ãĥ
Å¯ Åĳ
ĠÃı Ã´
ĠÃ¯ Ãľ
ĠÂ¯Â¯Â¯Â¯Â· Â´Â°Â¯
ĠÂ¯Â·Â¯Â¯ Â±Â·Â¯Â¯
Äĥ Ä¯Âµ
Åĥ Ãģ
ĠÂ¯Â° Â»Â¯Â¯Â¯Â¯Â¯
ĠÂ¯Â° ÃĹÂ°Â¯Â¯Â¯Â¯
Â´Â¯ ÃĹÂ¸Â¯
ĠÂ¯Â·Â¯Â¯Â¯ Â¶Â¯Â¯
ĠÄ¯Ã¯ ÅĹ
ĠÄ¯Ã¯ Ä¸
ĠÄ¯Ã¯ Ä¯Ä¯Ã¯Ä¯
Ã° Ä¯Ã±
Âµ Ãģ
Âµ Ã³
ĠÂ¯Â¯Â± Â¸Â¯Â¯Â¯Â¯
ĠÂ¯Â¯Â± Â±Â·
ĠÃ¯Ãı Ä°
Â» Â¯Â¿
Â¿Â·Â¯Â¯ Â°Â¯Â¯
Â¸Â¯ Â±
Ä¯Ãı Ä¯Ãĵ
Ã·Â¯Â¯ Â·
ĠÂ¯Â±Â°Â¯ Â¿Â´Â¯Â¯
ĠÂ¯Â°Â¯Â¯ Â¸Â°Â¯Â¯
Â¯Â¯Â¯Â±Â¯ Â·Â¯
ĠÂ¯Â°Â¯Â¯Â¯ Ã·Â±Â¯
ĠÂ¯Â±Â°Â¯Â¯ Â¿Â¸Â¯
Ä´ Ãĥ
ĠÂ· Â´Â¯
ĠÂ· Â¿Â·Â¯
Âº Ã¯ÃĻ
Â·Â°Â¯Â¯ Â·Â¯
ĠÃ¯Ã¯ ÃĲ
ĠÂ¯ÃĹ Â±Â¯Â¿Â¯Â¯Â¯
ĠÂ¯ÃĹ Â´Â¯Â±Â¯Â¯Â¯
ĠÂ¯Â¯Â¸ Â°Â¿Â¯Â¯Â¯
ĠÂ¯Â¯Â¯Â¿ Â·Â±Â¯Â¯
ĠÂ¯Â¯Â±Â° Â¸Â¯Â¯Â¯
Ä¸ Ã³
ĠÂ¯Ã· Â¯Â°Â¯Â¯Â¯Â¯
ÃıÃ¯ ÃĻ
ĠÂ¯Â¯ÃĹÂ° ÃĹÂ±Â¯Â¯
ĠÂ¯Â¯Â¸Â¯ Ã·Â±Â¯Â¯
ĠÃıÃı Ã¹
Â¿Â°Â¯Â¯ Â°Â¯Â¯
Â¿Â°Â¯Â¯ Â·Â¯
Â¿Â°Â¯Â¯ ÃĹÂ¯Â¯
ĠÂ¯Â¯Â¯Â´Â¯ ÃĹÂ°Â¯
Â·Â°Â¯ Ã·
ĠÂ¯Â¯Â¯Â¯ÃĹ Â¿Â±Â¯
ĠÂ¯Â°Â°Â¯ Â¿Â°Â¯Â¯
Â¯Â° Â¿Â¯
Ã¯Ä³ Ãģ
ĠÂ¯Â¯Â¯Â¯Ã· Â°Â°Â¯
ĠÂ¯Â°Â¯ Â±Â¿Â¯Â¯Â¯
Â¿Â¯Â¯Â¯Â¯ Â´Â¯
ÃĴ Ã¯
ĠÂ¿Â¯Â¯Â¯ Ã·Â¯Â¯Â¯
ĠÂ±Â¯Â¯Â¯Â¯ Â¸Â¯Â¯
Â¯Â±Â¯ Â¿Â·Â¯Â¯
Â¯Â±Â¯ Â·Â°Â¯Â¯
ĠÂ¯Â°Â°Â¯Â¯ Â¿Â±Â¯
ĠÂ¯Â¯ÃĹÂ±Â¯ Â¿
ĠÂ¯Â¯Â¿Â·Â¯ Â»Â¯Â¯
ĠÂ¯Â¿Â° Â±
ĠÂ¯Â·Â°Â¯ Â¿Â¸Â¯Â¯
ÄĻ Ã£
Â¯Â¯Â·Â¯ Â°Â¯Â¯
ĠÂ¯Â¯Â¸Â¯Â¯ Â»Â¯Â¯
ĠÂ¿Â¯ ÃĹÂ¯Â¯Â¯Â¯Â¯
ĠÂ¯Â¯Â¯Â¸ Â¯Â·Â´Â¯
ĠÂ¯Â¯Â¿Â´Â¯ Â±Â±Â¯
ĠÂ± Â±Â°Â¯
Â·Â±Â¯ Â±Â¯
ĠÂ·Â¯Â¯Â¯ ÃĹÂ°Â¯Â¯
ĠÂ·Â¯ Â±Â¯Â¯
ĠÂ·Â¯ ÃĹÂ¯Â¯Â¯Â¯Â¯
ĠÂ·Â¯ Â·Â¯Â¿Â¯Â¯Â¯
ĠÂ¯Â¯Â¯Â¯Â¯Â¯Â¯ Â¸
Ã² Äı
ĠÂ¯Â¯Ã·Â±Â¯ Â¸Â¯Â¯
ĠÂ¿Â¿Â¯Â¯ ÃĹÂ¯Â¯Â¯
ĠÂ¿Â· Â·
ĠÂ¯Â¯Â°Â° Â¿Â°Â¯Â¯
ĠÂ¯Â·Â·Â¯ Â¿Â±Â¯Â¯
ÃıÃ¿ Ãı
Â±Â¯Â· Â°
Â·Â° Â¿Â°Â¯Â¯
ĠÂ¯Â» Â°Â¯Â·Â¯Â¯Â¯
ĠÂ¯Â°Â° Â·Â¯Â¯Â¯Â¯
ĠÂ¯Â¯Â·Â¯Â¿ ÃĹÂ¯Â¯
ĠÂ¯Â¯Â±Â¯Â· Â¸Â¯Â¯
ĠÂ¯Â·Â±Â¯Â¯ Â·
ĠÂ¯Â·Â±Â¯Â¯ Â¿Â±Â¯
Â¿Â¿Â¯ Â±Â¯Â¯Â¯
Â¯Â¯Â¯Ã· Â·Â¯Â¯
ĠÂ¯Â¸Â¯Â¯ Â°Â¯Â¯Â¯
ĠÂ¯Â¸Â¯Â¯ ÃĹÂ¯Â¯Â¯
ĠÂ·Â¯Â¯ Â±Â¯
ÅıÄ± Ã¯
ĠÂ·Â·Â¯Â¯Â¯ Â±Â°Â¯
Ã¯Ä¹ Åĵ
ĠÃ¯ÃĲ Ã³
ĠÃ¯ÃĲ Å°
ĠÄ° Ã¯Ãı
ĠÂ¯Â¯Â¯Â¶ Â¯Â¿Â¯Â¯
ĠÂ±Â¯Â¯ Â¿Â¯Â¯Â¯Â¯
ĠÂ¯Â´Â¯Â¯Â¯ Â±Â°Â¯
Ã¯Ä¸ Ãģ
ĠÂ¯Â¯Â¯ÃĹ Â¯Â·Â¯Â¯
Ã¿Ã° Ä¯
Ã¯Ä´ Åĵ
Ã¿Âµ Ä¯
ĠÂ¯Â¯Ã·Â¸Â¯ Ã·
ĠÂ¯Â¯Â¿Â¯Â± Â¸Â¯Â¯
ĠÂ·Â±Â¯Â¯ Â¿Â¯Â¯Â¯
Â°Â¯Ã· Â·Â¯
Ã¯Å¯ Ä°
Â°Â¯Â¯ÃĹ Â¿Â¯
Â·Â¿Â¯ Â·Â¯
ĠÂ¯Â·Â» Â¯Â±Â°Â¯Â¯
ĠÂ¯Â¯Â°Â¯Â¯Â¯Â¯ Â±
ĠÂ¯Â°Â°Â¿ Â¿Â¯Â¯Â¯
Ġ Â°Â¯Â¯Â¯Â°Â¯
Ġ Ã°Ãı
Ġ Ä³Ä¯
Ġ ÃĦÄ¯
ĠÂ¯Â¯Â¯Â¯ Â±Â¯Â¯Â°
Â± ÃĹÂ¯
Ã¯ ÅıÃĥ
Ã¯ Ä¡
Â· ÃĹÂ°Â¯Â¯
Â· Â±Â¯Â¯Â±Â¯Â¯
Â¯Â¯Â¯Â¯ Â±Â±Â¯Â¯
Â¿ Â±Â¯Â·Â¯Â¯
Â¿ Ã·Â°Â¯Â¯Â¯Â¯
Â¯Â¯Â¯Â¯Â¯ Â·
Â±Â¯Â¯ Â¿Â¸Â¯Â¯
ĠÂ¯Â¯Â¯ Ã·Â¯Â¯
ĠÂ¯Â¯Â¯ Â¿Â·Â¯
Â¯Â¯Â¯Â¯Â¯Â¯ Â¿Â¯
Â¿Â¯Â¯ Ã·Â±Â¯
Â°Â¯ Â°Â¯Â±Â¯Â¯
Â°Â¯ Â¶Â¯Â¯
Â°Â¯ Ã·Â±Â¯Â¯
Â°Â¯ ÃĹÂ±Â¯
ĠÂ¯Â¯Â· Â¿Â¯Â±Â¯Â¯
Â·Â¯Â¯Â¯ Â·Â¿
Åı Ä´
Åı Ãł
Åı ÃĴ
Åı Å¡
ÃĹ Â¸Â¯Â¯Â¯Â¯
Â¹ Â³Â³
Ãĥ ÃĦ
ĠÂ¯Â¿ ÃĹÂ¯Â¯Â±Â¯Â¯
ĠÂ¯Â· Â·Â¯Â¯Â¯Â·Â¯
Ä¿ ÃıÄ¯
Ä¯Ã¯ Ä¯Ãı
Ä¯Ã¯ Ã¯Ã¯
Â´Â¯Â¯ Ã·Â°Â¯
Ã¯Ãı ÃĲ
ĠÂ¯Â¯Â±Â¯ Â¿Â¯Â°Â¯
ĠÂ¯Â¯Â±Â¯ Â¿Â¯Â¿Â¯
Â·Â¯ Â¿Â¿Â¯Â¯
ĠÂ¯Â¯Â·Â¯Â¯ Ã·Â·Â¯
ĠÂ¯Â¯Â°Â¯ Â»Â±Â¯Â¯
Ã± Ä¯Ãĥ
ĠÂ¯Â¯Â°Â¯Â¯ Â°Â¿Â¯
ĠÂ¯Â¯Â°Â¯Â¯ ÃĹÂ·Â¯
Ã³ ÂµÄ¯
ĠÂ¯Â¯Â¿Â¯Â¯ Ã·Â´Â¯
Ãĳ Ãĩ
ĠÂ¯Â¯ÃĹ Â¶
ÃĲ Åĥ
Â¿Â¯ Â¿Â·Â¯Â¯Â¯
Â¿Â¯ Â»Â±Â¯Â¯
Â¿Â¯ Â±Â¯Â·Â°
ÃĢ Ä¯Ä·
ĠÂ¯Â¯Â¯Â° Ã·Â´Â¯Â¯
ĠÄ¯ ÅŁ
ĠÄ¯ Ã»
ĠÄ¯ Ãº
ĠÂ¯Â¯Â¯Â°Â¯ Â°
Ä± Ä¯Ã¯
Ä± Åĥ
Ä± Ã°
Â±Â°Â¯ ÃĹ
ÃĹÂ¯Â¯ ÃĹÂ´Â¯Â¯
Å¯ ÅĢ
Å¯ Ã´
ĠÃı Ä¯Ãģ
ĠÃı Ã¸
ĠÃ¯ ÅıÃ¯
ĠÃ¯ ÃĥÃ¯
ÃĻ ÅĢ
ĠÂ¯Â° Â¿Â¯Â±Â¯Â¯Â¯
ĠÂ¯Â° Â¿Â±Â¯Â¯Â¯Â¯
ĠÂ¯Â° Ã·Â±Â¯Â¯Â¯Â¯
ĠÂ¯Â° Â·Â°Â°Â¯Â¯Â¯
Â´Â¯ ÃĹÂ´Â¯Â¯
ĠÂ¯Â·Â¯Â¯Â¯ Â°Â±Â¯
ĠÄ¯Ã¯ Ä±
Äı Ã¸
Ã° ÃĦ
Ã° ÃŁ
ÃĶ Ä¿
Â¯Â±Â¯Â¯Â¯ Â±Â¯
Â·Â¯Â¯Â¯Â¯ Â¿Â¯
Âµ Ã¯Ãĵ
Âµ Ã¯ÃĲ
ÃŁ Ãī
ĠÃ¯Ãı Ãĳ
ĠÃ¯Ãı ÃĦ
Â» Â´Â¯Â¯
Â¸Â¯ Ã·Â´Â¯
Ã·Â¯Â¯ Ã·Â´Â¯Â¯
ĠÂ¿ Â±Â¯Â¯Â¯Â¯
ĠÂ¯Â¯Â° Â´
ĠÂ¯Â¯Â° Â±Â·
ĠÂ¯Â¯Â° Â¿Â¯Â¯Â·Â¯
Â¯Â·Â¯Â¯ Â±Â¯
ĠÂ¯Â¿Â·Â¯Â¯ Â´Â°Â¯
Ã¯Ã¯ ÃĢ
Ã¯Ã¯ ÃĶ
Ä¯Ä¯ Âµ
ĠÂ· Â·Â¯Â¯Â¯Â¯Â°Â¯
Âº Ä¯Ã³
ĠÄ¯Ä¯ Ä¿
ÃıÃģ Ä¯Ãĥ
ĠÂ¯ÃĹ Â¿Â°Â¯Â¯Â¯Â¯
ĠÂ¯ÃĹ Â¿Â°Â¯Â·Â¯Â¯
Ã¯ÃĲ ÃıÃģ
ĠÂ¯Â¯Â¸ Â°Â¯Â¯Â°Â¯
ĠÂ¯Â¯Â¸ Â¯Â·Â´Â¯Â¯
ÄĹ Ä¯
Â¯Â¯Â¿ Â°Â¯Â¯Â¯
Ã¯Ãĳ Ä¯Ãĥ
ÃıÃı ÃĦ
ĠÂ¯Ã· Ã·Â¯Â¯Â¯Â¯Â¯
ĠÂ¯Ã· Â±Â¯Â¯Â¯Â±Â¯
ĠÂ¯Â¯ÃĹÂ° Ã·Â±Â¯Â¯
ĠÂ¯Â¯Â¯Â¯Â± Â±Â¯Â°
Ã¯Ãĥ Åı
Ã¯Ãģ Ä¯Ã¯
Â¯ÃĹ Â¯Â¯Â±Â¯Â¯
Ã¯Ä¯ Ä³
ĠÂ¯Â¯Â¿Â± ÃĹ
ĠÂ¯Â¯Â¿Â± Â·Â±Â¯Â¯
ĠÂ¯Â¯Â¯Â¯ÃĹ Â±Â±Â¯
Â¯Ã· ÃĹÂ¯Â¯
ĠÂ¯ÃĹÂ¯Â¯Â¯ Â¿Â°Â¯
ÅĻ Ä¯
Â¯Â° ÃĹÂ¯Â¯
Â¯Â° Â¸Â¯Â¯Â¯
Â¯Â¯Â°Â¯ Â°Â¯
Ã·Â¯ Â±Â±Â¯Â¯
Äĳ Ãĵ
ĠÂ¯Â¿Â· Â°Â¿Â¯Â¯Â¯
Å· Ã¯
Å· Ä¯
Å· Ãı
ĠÂ¯Â±Â±Â¯ Â´Â¯Â¯Â¯
ĠÂ¯Â±Â±Â¯ ÃĹÂ°Â¯Â¯
ÃıÄ¯ Åı
ĠÂ¯Â±Â¯ Â±Â±Â¯Â¯Â¯
ĠÂ¯Â¯Â´ Â¿Â¯Â·Â¯Â¯
ĠÂ¯Â¯Ã·Â°Â¯ Ã·Â±Â¯
ĠÂ¯Â¯Â¯Â¯Ã· Â¶Â¯Â¯
Ã¯Ã± Ä¯Ä¯
Ã¯Ã± ÃıÃı
ĠÂ¿Â·Â¯Â¯Â¯ Ã·
ÃĤ Ä¯Ãµ
ĠÂ¯Â¿Â° Â±Â¿Â¯Â¯Â¯
ĠÂ¯Â¿Â° Â¿Â°Â¯Â¯Â¯
ĠÂ¯Â¯Â¿Â· Â´Â¯Â¯Â¯
Â¯Â¯ÃĹ Â¸Â¯Â¯
ĠÂ¯Â±Â¯Â¯Â¯Â¯ Â¸Â¯
ĠÂ¯Â¯Â¸Â¯Â¯ Ã·
ĠÂ¯Â¯Â¸Â¯Â¯ Â·Â·Â¯
Ã¯Ä± Ã¯
ÃıÄ° Ä¯
Ã¯Âº Ä¯Ã±
Ã¯Âº Ä¯Ã¹
ĠÂ¯Â¯Â¯Â¿Â¯ Ã·Â¯Â¯
ĠÂ± ÃĹ
ĠÂ·Â¯Â¯Â¯ Â°Â¯Â¸Â¯
Â¯Â¯Â°Â°Â¯ Â±
ĠÂ·Â¯ Â·Â·Â¯Â¯Â¯Â¯
ĠÂ¯Â·Â±Â¯ Â·Â¯
ĠÂ¯Â¿Â¸ Â¯Â¿Â±Â¯Â¯
ĠÂ¯Â¯Â¯Â¯Â¯Â° ÃĹÂ¯
ĠÂ¯Â¯Ã·Â±Â¯ ÃĹÂ°Â¯
ĠÂ¿Â¿Â¯Â¯ Â¿Â°Â¯Â¯
ĠÂ·Â¯Â¯Â¯Â¯ Â·Â°Â¯
ĠÂ¯Â¯Â°Â° Â¸
Ä·Âµ Ä¯
Â±Â· Â·Â¯Â¯Â¯
ĠÂ¯Â·Â·Â¯ Â¿Â¯Â±Â¯
ĠÂ¯Â¿Â·Â¯Â¯Â¯ Â¸Â¯
Â±Â¯Â¿ Â±Â°Â¯
ĠÅı Ãī
ĠÂ¯Â´ Â¿Â·Â¯
ĠÂ¯Â» Â±Â¯Â¯Â±Â¯Â¯
Ã¯Åĵ Ãģ
ĠÂ¯Â¯Â·Â¯Â· Â¸Â¯Â¯
ĠÂ¯Â¿Â´Â¯Â¯ Ã·Â¯Â¯
Â¯Â¯Â¿Â¯ Â¿Â¯
Ã¯Ã´ Ãģ
ĠÂ¯Â¯Â°Â± Â¿Â°Â¯Â¯
ĠÂ¯Â±Â± Â±Â¯Â¯Â¯Â¯
ĠÂ¯Â¯Â°Â°Â¯ Â´Â°Â¯
ĠÂ¯Â·Â´Â¯ Â·
ĠÂ·Â·Â¯Â¯ Â°Â¯Â¯Â¯
Ã³Ãı Ãĭ
ĠÂ±Â¯Â¯Â¯ Â°
ĠÄ¯Ã¹ Ãĵ
ĠÂ¯ÃĹÂ°Â¯ Â°Â¯Â¯Â¯
ĠÂ¯ÃĹÂ°Â¯ Â±Â°Â¯Â¯
Â¯Ã·Â¯Â¯ Â¸Â¯Â¯
ĠÂ¯Â·Â·Â¯Â¯ Â´Â¯Â¯
ĠÄ¿ Ä¯Ãĥ
Ã¯ÃĴ Ä¯
Ã¿Ã± Ä¯
ĠÂ·Â·Â¯Â¯Â¯ Â¿
ĠÂ¯Ã·Â°Â¯ Â°Â¯Â¯Â¯
ĠÂ¿Â¿ Â¿Â¯Â¯Â¯Â¯Â¯
ĠÂ°Â¯Â¯Â¯ Â°Â¯Â¯Â¯
ĠÃ· Â±Â¯Â¯Â¯Â¿Â¯Â¯
ĠÃ· Â¯Â·Â¯Â¯Â·Â¯Â¯
ĠÂ¯Â¯Â±Â°Â¿ Â´Â¯Â¯
ĠÂ¯Â¯Ã·Â¸ Â¿Â·Â¯Â¯
Â¯Â¿Â±Â¯ Â±Â¯
Ã¯Ä´ Ãģ
Ä¯Âº Ã¯
ĠÂ¯Â·Â· Â±Â¯Â¯Â¯Â¯
Ã±Ä¯ Ãº
ĠÂ±Â°Â¯Â¯Â¯ Â·Â¯Â¯
Ä¿Ãĵ Ãģ
ĠÂ¯Â¯Â¯Â°ÃĹ Â·Â¯Â¯
ĠÂ¯Â¸Â¯ Â·Â¯
ÃıÄ¸ Ãģ
ĠÂ¯Â¯ÃĹÂ±Â¿ Â»Â¯Â¯
ĠÂ¯Â¯Â±Â¯Â¯Â¯Â¯ Â±
ĠÂ¯Â±Â±Â¯Â· Â±Â±Â¯
ÅıÃĤ Ãı
ĠÂ¯Â¯Â¯Â»Â¯Â¯ Â±Â¯
ĠÂ°Â¯Â¯Â¯Â¯Â¯ Â°Â¯
ĠÂ¯Â°ÃĹ Â¿Â¯Â¯Â¯Â¯
ĠÃ·Â¯ Â·Â¯
ĠÃ·Â¯ Â¸Â¯Â¯Â¯Â¯Â¯
ĠÃ·Â±Â¯ Â·Â¯Â¯Â¯Â¯
ĠÂ¿Â¯Â¯Â·Â¯Â¯ Â´Â¯
ĠÂ¯Â¯Â°Â¿Â±Â¯ Â±Â¯
ĠÂ¯Â¯Â¯Â¯Â°Â°Â¯ Â°
ĠÂ°Â¯Â¯Â¯Â°Â¯ Â·Â¯
Ä ¤
Æ Ľ
Ġ Å·
Ġ ÃĴ
Ġ Â°Â¯Â·
Ġ Ã±Ã¯
Â± Â´Â¯Â¯Â¯Â¯
Â± Â±Â¿Â¯Â¯Â¯
Â± Â¸Â°Â¯Â¯
Â± Â±Â°Â¯Â¯Â¯Â¯
Â± Â±Â¿Â¯Â¯
Ã¯ Åĩ
Ã¯ Å¡
Ã¯ ÅĴ
Â° Â°Â¯Â±Â¯Â¯
Â· Â¿Â±Â¯Â¯Â¯
Â¯Â¯Â¯Â¯ Â¶Â¯
Â¯Â¯Â¯Â¯ Â°Â°
Â¯Â¯Â¯Â¯ ÃĹÂ¸Â¯
Â°Â¯Â¯ Â°Â±Â¯
Â±Â¯Â¯ Â´Â°Â¯
Â·Â¯Â¯ Â¿Â¸Â¯Â¯
Â·Â¯Â¯ Ã·Â´Â¯
Â±Â¯ Â´
Â±Â¯ Ã·Â·Â¯Â¯
Â¿Â¯Â¯Â¯ Ã·
ĠÂ¯Â¯Â· Â¸Â¯Â±Â°Â¯
ĠÂ¯Â¯Â¿ Ã·Â¯Â¯Â¯Â¯
ĠÂ¯Â¯Â¿ Â¸Â¯Â¯Â¿Â¯
Â±Â¯Â¯Â¯ Â±
Åı Ã¸
Åı Äµ
Ã¿ Ä¯Ãĥ
Ã¿ Ã±Ãı
Â´ Â¿Â¯Â¯Â¯Â¯
Â´ Â¿Â¸Â¯Â¯
ÃĹ Â±Â°Â¯
ĠÂ¯Â¯Â·Â¯ Â±Â¯Â°Â¯
ĠÂ¯Â¿ Â¿Â¯Â¯Â·
ĠÂ¯Â¿ Â´Â¯Â¯Â¯Â·Â¯
ĠÂ¯Â¿ Â¸Â¯Â¯Â¯Â·Â¯
ĠÂ¯Â¯Â¿Â¯ Â´Â±Â¯Â¯
Ä° Ã°
ĠÂ¯Â· ÃĹÂ¯Â¯
ĠÂ¯Â· ÃĹÂ¯Â¿Â¯Â¯Â¯
Ã· Â·
Ã· Â±Â¯Â°Â¯Â¯
Ã· Â°Â¿
Ä¿ ÃĽ
Ä¯Ã¯ Ä¿
Ä¯Ã¯ Âº
Ä¯Ã¯ Ä¯Äĥ
Â±Â¯Â¯Â¯Â¯ Â°
Ã¯Ãı Ã±
Ã¯Ãı Ä¯Ãı
ĠÂ¯Â¯Â±Â¯ Â¿Â¯Â±Â¯
Â·Â¯ Â»Â¯Â¯
Â·Â¯ Â»Â°Â¯Â¯
ĠÂ¯Â¯Â±Â¯Â¯ ÃĹÂ¸Â¯
Ã³ ÅĲ
Ã³ Ãł
ĠÂ¯Â¯Â¿Â¯Â¯ ÃĹÂ´Â¯
Ä· Âº
Ä³ Ã°
ĠÂ¯Â¯ÃĹ Â¿Â¯
ĠÂ¯Â¯ÃĹ Â»Â¯Â¯Â¯Â¯
ÃĲ Ä°
ÃĢ Ä°
ÃĢ Ã¯Ã¯
ĠÂ¯Â¿Â¯Â¯ Â¿Â¯
Åĵ Ã¯Ãģ
Ä± Ãĩ
Ä± Ãħ
ÅĹ Ä°
ÅĹ Ä¯Ãĵ
Å¯ Ä±Ä¯
ĠÃı Å¯
ĠÃı ÅĲ
ĠÃ¯ ÃĴ
ÃĻ Ä¿
Ã¹ Ã¯Ãĵ
ĠÂ¯Â° Â´Â¯Â¯
ĠÂ¯Â·Â¯Â¯Â¯ Â±
ĠÂ¯Â·Â¯Â¯Â¯ Â°Â·Â¯
ĠÂ¯Â¯Â¯Â± Ã·Â´Â¯Â¯
ĠÂ¯Â¯Â¯Â± Â»Â°Â¯Â¯
ĠÂ¯Â¯Â¯Â± Â»Â±Â¯Â¯
ĠÄ¯Ã¯ Ãģ
Äı Ã£
Ã° Ä·
ÃĶ ÃĲ
ÃĶ Ä¯Ãģ
Â·Â¯Â¯Â¯Â¯ Â°
Â·Â¯Â¯Â¯Â¯ Â·
Âµ Ä¯Ãı
ĠÂ¯Â¯Â± Â¸Â¯
Ãĩ ÅĲ
Â» Â¯Â¯Â·
Â¸Â¯ Ã·Â±Â¯Â¯
Ä¯Ãı Ä¯Ã¯
Ä¯Ãı ÃĲ
Ã·Â¯Â¯ Â·Â°Â¯Â¯
ĠÂ¿ ÃĹÂ¯Â¯
ĠÂ¿ Â±Â±Â¯
ĠÂ¯Â°Â¯Â¯ Ã·Â´Â¯Â¯
Â¯Â°Â¯Â¯ Â´Â¯Â¯
Â¯Â°Â¯Â¯Â¯ Â±Â¯
ĠÂ¯Â°Â¯Â¯Â¯ Â¿Â¿Â¯
Ä¹ Ã³
ÅĲ Ãĵ
ÄĢ Ã±
ÄĢ ÃĲ
Â¿Â·Â¯ Â±Â¯Â¯
ĠÂ· Â°Â°Â¯
Ä¯Ã± ÃıÃĥ
Â·Â°Â¯Â¯ Â±Â¯
Â·Â°Â¯Â¯ Â¿Â¯
ĠÄ¯Ä¯ Ãĵ
Åģ Ä¯Ãĥ
ĠÂ¯ÃĹ Ã·Â¯Â¯Â¯Â¯Â¯
ĠÂ¯ÃĹ Â´Â¯Â¯Â¯Â±Â¯
ĠÂ¯Â¯Â´Â¯ Â°
Â»Â¯Â¯ Â·Â¯
Â»Â¯Â¯ Â¿Â¯
Äĩ Ä°
ĠÂ¯Â¯Ã·Â° Â·Â´Â¯Â¯
ĠÂ¯Â¯Ã·Â° Â·Â±Â¯Â¯
ĠÂ¯Â¯Ã·Â° Â¿Â´Â¯Â¯
Ã¯Ãĳ Ä¯Ã³
Ãħ Äº
ĠÂ¯Ã· Â¸Â¯Â¯Â¯Â°Â¯
ĠÂ¯Â¯Â·Â° Â¿Â¸Â¯Â¯
ĠÂ¯Â¯Â·Â° Ã·Â±Â¯Â¯
Â°Â°Â¯ Â°Â¯
Â¯ÃĹ ÃĹÂ¯Â¯
Â¯ÃĹ Â¯Â¿Â¯
Ã¯Ä¯ Åı
Ã¯Ä¯ ÃĲ
Ä¯Ãĵ Ä¿
ĠÂ¯Â¯Â¯Â¯ÃĹ Ã·Â¯Â¯
ĠÂ¯Â¯Â¯Â¯ÃĹ Â°Â±Â¯
ĠÂ¯Â°Â°Â¯ Â´Â¯Â¯Â¯
Â¯Â° Â±Â°Â¯Â¯
Â¯Â¯Â°Â¯ Â±
Äĳ ÃĢ
Ä¯Äģ Ãĺ
Â¯Â¯Â¯Â· Â¶Â¯
Å· Ä±
ĠÂ¯Â±Â° Ã·Â±Â¯Â¯Â¯
ĠÂ¯Â±Â±Â¯ Â¸Â¯Â¯Â¯
ĠÂ¯Â±Â±Â¯ Â·Â±Â¯Â¯
Â¯Â°Â¯ Â¿
ÃıÄ¯ Ä·
ÃĹÂ¯ Â»Â¯Â¯Â¯
ÄŁ Ãģ
ÄŁ Ãĵ
Â¶ Â¯Â¯Â°Â¯Â¯
ĠÂ¯Â¯Â´ Â·
ĠÂ¯ÃĹÂ¯Â¯ Â¿Â°Â¯Â¯
ĠÂ¿Â·Â¯Â¯ Â¿Â±Â¯Â¯
ĠÂ¯Â¿Â±Â¯ ÃĹÂ¯Â¯Â¯
Â¯Â¯Â±Â¯ Â°
ĠÂ¯Â°Â¯ Â°Â¯Â±Â¯Â¯
ĠÂ¿Â¯Â¯Â¯ Â¸Â¯Â¯Â¯
ĠÂ¯Â¯Â·Â°Â¯ Â±Â±Â¯
ĠÂ¿Â·Â¯Â¯Â¯ Â·Â´Â¯
ĠÂ¯Â·Â°Â¯Â¯ Â¿
ĠÂ¯Â¿Â° Â±Â¯Â¯Â¯Â¯
ĠÂ¿Â¯ ÃĹ
ĠÂ¿Â¯ Â±Â¯Â¯Â·Â¯Â¯
ĠÂ¿Â¯ Â¸Â¯Â¯Â¯Â¯Â¯
ĠÂ¿Â¯ Â¿Â¯Â·Â¯Â¯Â¯
Â¯Â¯Ã· Â¿Â¯Â¯
ĠÂ¯Ã·Â¯Â¯ Â¿
ĠÂ·Â¯Â¯Â¯ Ã·Â¯Â¯Â¯
ĠÂ·Â¯Â¯Â¯ Â´Â¯Â¯Â¯
Ä¯Åı Ä¯
ÃıÂº Ã¯ÃĻ
Â¯Â¿Â¯ Â·
ĠÂ¿Â¯Â¯Â¯Â¯ ÃĹ
ĠÂ·Â¯Â¯Â¯Â¯ Â·Â´Â¯
ĠÂ¯Â·Â·Â¯ Â·Â°Â¯Â¯
ĠÂ¯Â¿Â± Â±
Â·Â° Â¿Â¸Â¯Â¯
ĠÂ¯Â¯Â·Â±Â¯ Â°Â°Â¯
ĠÂ¯Â¯Â±Â± Â´Â¯Â¯Â¯
ĠÂ¯Â¿Â´Â¯Â¯ ÃĹÂ°Â¯
Ã¯Åı Ä¯
ĠÂ¯Â¿Â¿Â¯ ÃĹÂ¯Â¯Â¯
Â°Â¯Â· Â·Â¯Â¯
Ä¯Ã° Ãı
ĠÂ¯Â¯Â°Â± Â¿Â±Â¯Â¯
ĠÂ¯Â¯Â¯Â¯Â» Â¸Â¯Â¯
ĠÃ¿ Ãĥ
Ã¯Ã¸ Ãģ
ĠÂ¯Â·Â° Â±Â¯Â¯Â¯Â¯
ĠÂ°Â¯ Â°Â¯
ĠÂ¯Â¯Â°Â¯Â¿ ÃĹÂ¯Â¯
ĠÂ¯Â¯Â¿Â¯Â¿ Â»Â¯Â¯
ÅıÃĳ Ã¯Ãĥ
ĠÂ¯Â¯Â·Â· Â·Â¯Â¯Â¯
ĠÅ¯ ÃĢ
ĠÂ¯Â¯Â·Â·Â¯ Â´Â¯Â¯
ĠÂ¯Â¯Â¯Â» Â¯ÃĹÂ¯Â¯
ĠÂ¯Â¿Â·Â¯Â¿ Â»Â¯Â¯
ĠÂ¯Â·Â´ Â¯Â¿Â¯Â¯Â¯
ĠÂ¯Â°Â¯Â¯Â· Â·Â¯Â¯
ĠÂ¯Â¯Ã·Â°Â¯Â¯ Â¸Â¯
Â¿Â¯Â¯Â¿ Â´Â¯
ĠÂ¯Â¿Â¿ Â·Â¯Â¯Â¯Â¯
ĠÂ¯Â¯Â±Â°Â¯Â¯ Â´Â¯
ĠÃ¯Åı Äģ
ĠÂ¯Â¿Â·Â¯Ã· Â¸Â¯Â¯
ÃıÃĴ Ã¯
ĠÂ´Â¯Â¯Â¯Â¯ Â°Â¯Â¯
ĠÂ¯Â¯Â¯Â¯Â°Â¯Â¯ Â±
ĠÂ¸Â¯Â¯ Â±Â¯Â¯Â¯Â¯
ĠÂ¯Â°Â°Â¿ Â·Â¯Â¯Â¯
Ã ¦
Å ¼
Ġ Ã´
Ġ Ä¸
Ġ Â±Â¯Â¯Â°Â¯
Ġ Ãµ
Ġ Å£
Ġ ÄıÃĢ
Â¯Â¯ Â±Â¿Â¯Â¯Â¯
Â± Â°Â¿
Ã¯ Ã«
Ã¯ Ãį
Ã¯ Ã¨
ĠÂ¯Â¯Â¯Â¯Â¯ Â¶Â°Â¯
Ä¯ Ã¥
Ä¯ Å²
Â· Â´Â¯Â¯Â¯
Ãı Åĩ
Ãı Ä¯Ã¯Ãı
Â¯Â¯Â¯Â¯ Ã·Â±Â¯
Â¿ Â¸Â¯Â¯Â¯Â¯Â¯
Â¿ Â°Â¿Â±Â¯Â¯
Â°Â¯Â¯ Â°
Â°Â¯Â¯ Â¿Â¸Â¯
Â·Â¯Â¯ Â¸Â¯
Â·Â¯Â¯ Â¿Â±Â¯Â¯
Â¿Â¯Â¯Â¯ Â»Â¯Â¯
ĠÂ¯Â¯Â¿ Â¯Â¯Â¯Â¯Â·
Â·Â¯Â¯Â¯ Â°
Ã¿ Å¯
Ã¿ Ã¯Ã¯
Â´ Â±
Ãĥ Å¯
Ãĥ Ä¯Ãĵ
Ãĥ Ã¯Ã±
ĠÂ¯Â¯Â·Â¯ Â¸Â°Â¯Â¯
ĠÂ¯Â¯Â¯Â¯Â¯Â¯ Â·Â±
ĠÂ¯Â· Â¸Â¯Â¿Â¯Â¯Â¯
ĠÂ¯Â· Â´Â¯Â¯Â¯Â°Â¯
Ã· Â¯Â¯Â¯Â¯Â±Â¯
Ä¿ Å±
Ä¿ Ãķ
Â´Â¯Â¯ Â¿Â°Â¯
Ã¯Ãı Ãĵ
Ã¯Ãı ÃĦ
Ã¯Ãı ÃıÃģ
ĠÂ¯Â¯Â±Â¯ Â°Â¿Â¯Â¯
Â¸ Â±
Ãĵ Âº
ĠÂ¯Â¯Â±Â¯Â¯ Â´Â°Â¯
ĠÂ¯Â¯Â±Â¯Â¯ Â±Â¿Â¯
Ã³ ÃĦ
Ä· ÅĹ
Ä· Ä¯Ã¿
Ä· Ãķ
Ä· Ä³Ã¯
ĠÂ¯Â± Â·Â¯Â¯Â¯
ĠÂ¯Â± Â·Â¯Â¯Â¿Â¯Â¯
ĠÂ¯Â± Â¿Â¯ÃĹÂ¯Â¯Â¯
ĠÂ¯Â± Â´Â¯Â¯Â±Â¯Â¯
ĠÂ¯Â± Ã·Â°
ĠÂ¯Â± Â¿Â¯Â·Â´Â¯Â¯
ĠÂ¯Â± Â¿Â·Â¯Â¯Â¯Â¯
Ä³ Åĵ
ÃĲ Ä¯Ã¿
ÃĢ Ãĺ
ĠÄ¯ ÅĲ
ĠÄ¯ ÅıÃģ
ĠÂ¯Â¯Ã· Â¯Â¯Â·Â·Â¯
ĠÂ¯Â¿Â¯Â¯Â¯ Â±Â·Â¯
Ä± Ãī
Â¸Â¯Â¯ Â·Â¸Â¯
Å¯ Ä¡
ĠÃı Åĵ
ĠÃ¯ ÅĵÃģ
ÃĻ Ã¿
Ã¹ ÃĻ
Ã¹ Ã°
Äĥ Åı
Åĥ Ãĥ
Â¯Â¿ Â°Â°Â¯
ĠÂ¯Â° Â±Â¯Â¯Â±Â°Â¯
ĠÂ¯Â° Â¿Â¯Â·
ĠÂ¯Â° Â¿Â¯ÃĹÂ¯Â¯Â¯
Â¯Â· Â·
Â¯Â· ÃĹÂ¯Â¯Â¯
Äı ÃıÃ¯
Ã° Ä¿
ÃĶ Ä¯Ã¯
Â² Â²
ĠÂ¯Â¯Â± Â±Â¯Â´Â¯Â¯
ĠÂ¯Â¯Â± Â·Â·Â¯Â¯Â¯
Ãĺ Ãģ
Ãĺ ÅĦ
ÃĦ Ä¯Ä¯
Ãĩ Ä±
Ãĩ Ãĩ
ĠÃ¯Ãı Å¯
ĠÃ¯Ãı Ã¸
Â» Â¿Â¯Â¯Â¯
Â» Â¯Â¯Â´Â¯Â¯
ĠÂ¯Â±Â¯Â¯Â¯ Â°
ĠÂ¯Â±Â¯Â¯Â¯ ÃĹÂ´Â¯
ĠÂ¿ Â¿Â·Â¯Â¯
ĠÂ¯Â°Â¯Â¯ Ã·Â±Â¯Â¯
ĠÂ¯Â°Â¯Â¯ Â±Â±Â¯Â¯
Ä¯Ãĥ Ä¯Ä¯
ĠÂ¯Â¯Â¯Â·Â¯ Â¿Â¸Â¯
ĠÂ¯Â¯Â° Â´Â¯
ĠÂ¯Â¯Â° Â·Â¯Â¿Â¯Â¯
Â¯Â°Â¯Â¯ Â±Â°Â¯
ĠÂ¯Â°Â¯Â¯Â¯ Â°Â±Â¯
ĠÂ¯Â¯Â¿Â° Â¿Â¸Â¯Â¯
Ä¹ Ã¿
Åĳ Ä³
Ã¯Ã¯ Ãģ
Ä¯Ä¯ Ä±
ÄĢ ÃĻ
ĠÂ· Â¸Â¯Â¯Â¯
Âº Ã¯Ãĳ
ĠÂ¯Â¯Â¯Â· Ã·Â±Â¯Â¯
ĠÄ¯Ä¯ Ãĳ
Å¿ Ã¹
ÃıÃģ Ã¯ÃĲ
ĠÂ¯ÃĹ ÃĹÂ¯Â¯Â¯Â¯Â¯
ĠÂ¯ÃĹ Â±Â¯Â°Â¯Â¯Â¯
ĠÂ¯ÃĹ Â±Â¯Â¯Â±Â°Â¯
ĠÂ¯ÃĹ Â¯Â¿Â¯Â¯Â¯Â¯
ĠÂ¯Â¯Â¸ Â±Â¯Â°Â¯Â¯
ĠÂ¯Â¯Â¸ Â¯Â¿Â´Â¯Â¯
ÄĹ Ã°
ÄĹ Âµ
ĠÂ¯Â¯Â¯Â¿ Â¿Â°Â¯Â¯
ĠÂ¯Â¯ÃĹÂ° Â·Â±Â¯Â¯
ĠÂ¯Â¯Â¯Â¯Â¯Â¿ ÃĹÂ¯
ĠÂ¯Â¯Â°Â¯Â¯Â¯ ÃĹÂ¯
Â¯ÃĹ Â¯Â¿Â¯Â¯Â¯
Â¯ÃĹ Â¯Â±Â¯Â¯Â¯
Ã¯Ä¯ Âµ
Â¿Â°Â¯Â¯ Â°Â¯
ĠÂ¯Â¯Â¯Â´Â¯ Ã·
ĠÂ¯Â¯Â¯Â´Â¯ Â»Â¯Â¯
Â·Â°Â¯ Â·Â¯Â¯Â¯
Â·Â°Â¯ Â·Â°Â¯
Ä¯Äĥ Ä¯
Ä¯Âµ Å¯
Â¯Ã· Â¯Â±Â¯
Ã¯Ãĺ Ä¯
ĠÂ¯Â¯Â» Â¯Â¸Â¯Â¯Â¯
ĠÂ¯Â¿Â°Â¯Â¯ Â°Â°Â¯
Â¯Â° Â·Â°Â¯Â¯
ĠÂ¯Â±Â° Â·Â±Â¯Â¯Â¯
ÃĹÂ¯ Â·Â¯
ĠÂ¯Â¯Â´ Â°Â¯Â±Â¯Â¯
ĠÂ¿Â·Â¯Â¯ Â°Â°Â¯Â¯
Ãµ Ãĳ
Â¯Â¯Â±Â¯ Â±Â¯
ĠÂ¿Â¯Â¯Â¯ Â°Â°Â¯Â¯
ĠÂ¿Â¯Â¯Â¯ Â·Â´Â¯Â¯
ĠÂ¯Â°Â°Â¯Â¯ ÃĹÂ°Â¯
ĠÂ¯Â¯Â¿Â°Â¯ Â·Â´Â¯
ĠÂ¯Â¯Â¿Â°Â¯ Â¿Â¸Â¯
ĠÂ¯Â¯Â·Â°Â¯ Â°Â°Â¯
ĠÂ¿Â·Â¯Â¯Â¯ Â¿Â°Â¯
ĠÂ¯Â·Â°Â¯Â¯ Â¿Â·Â¯
ĠÂ¯Â·Â°Â¯ Â·Â·Â¯Â¯
ÄĻ Ãĵ
ĠÂ¯Â¯Â¸Â¯Â¯ Â¿Â°Â¯
Ã¯Ä± Ãı
ĠÂ¯Â¯Â¿Â´ Â°Â¯Â¯Â¯
ĠÂ¯Ã·Â°Â¯Â¯ ÃĹ
Â¯Â¯Ã· Â°
ĠÂ¯Â¯Â¯Â¸ Â¿Â±Â¯Â¯
Ä¯Ä³ Ãı
Ã¯Ã° Ä¯Ã¯
Ã¯ÃĦ Ã¯
Å° Ã³
Â¯Â·Â¯ Â´Â¯Â¯
ĠÂ± Â·Â¯Â¯Â¯
ĠÂ·Â¯Â¯Â¯ Â¿Â°Â¯Â¯
ĠÂ·Â¯Â¯Â¯ Â·Â´Â¯Â¯
Ä¯Ä± Ãģ
Æĥ Ãı
ÃıÃ³ Ãı
Ä¯Ä· Ä¯
ÃıÄ± Ãĳ
ĠÂ·Â¯ Â±
ÃıÂº Ã¯Ãĳ
ĠÂ¯Â·Â±Â¯ Â¸Â¯Â¯Â¯
Ä¯Åĥ Ã¯
ĠÂ¯Â¯Ã·Â±Â¯ Ã·Â±Â¯
ĠÂ¿Â¿Â¯Â¯ Â·Â°Â¯Â¯
ĠÂ¯Â¸ Â°
ĠÂ¯Â´ Â°
ĠÂ¯Â´ Â·Â¯Â¯Â¯Â¯Â¯
ĠÂ¯Â¯Â·Â±Â¯ Â±Â±Â¯
ĠÂ¯Â¯Â¯Â¯Â¯Ã· Â¿Â¯
ĠÂ¯Â» Â±Â¯Â¯Â°Â¯Â¯
ĠÂ¿Â¯Â¯ Â·
ĠÂ¿Â¿Â¯Â¯Â¯ Â¸Â¯Â¯
ĠÂ¿Â¿Â¯Â¯Â¯ Â±Â±Â¯
ĠÂ±Â¯ Â°Â¯
ĠÂ±Â¯ Â·Â¯Â±Â¯Â¯Â¯
ĠÃ¿ Ä¯
ĠÂ¯Â·Â° Â°Â¯Â¯Â¯Â¯
ĠÂ°Â¯ Ã·Â°Â¯Â¯Â¯Â¯
ĠÂ·Â·Â¯Â¯ ÃĹÂ¯Â¯Â¯
ÅıÃ± Ä¯
ĠÂ¯Â¿Â¸Â¯Â¯ ÃĹÂ·Â¯
ĠÂ¯Â¯ÃĹÂ´Â¯ ÃĹ
ĠÂ¯Â¯Â¿Â¸Â¯ Â´Â¯Â¯
ĠÂ·Â·Â¯Â¯Â¯ Â´Â¯Â¯
ĠÂ·Â·Â¯Â¯Â¯ Â¿Â·Â¯
ĠÂ¯ÃĹÂ´Â¯Â¯ Â¿Â·Â¯
Ã¿Ãĳ Ä¯Ã¯
Â¿Â¯Â¯Â· Â¸Â¯
ĠÂ¯Â¯Â·Â´Â¯ ÃĹÂ¯Â¯
ĠÃ· Â¸Â¯Â¯Â¯
ĠÃĹ Â±Â¯Â¯Â¯Â¯Â¯Â¯
ĠÂ¯Â·Â¸Â¯ Â°Â¯Â¯Â¯
Ä¯Ã² Ãı
Ã¿Âµ Åı
ĠÂ¯Ã·Â´Â¯ Ã·Â°Â¯Â¯
ĠÂ°Â¯Â¯ Â¿Â¯Â¯Â¯Â¯
ĠÂ¯Â°Â°Â¯Â· Â¿Â¯Â¯
ĠÂ¯Â±Â¯Â¯Â¯Â· Â¸Â¯
ĠÂ¯Â¯Ã·Â¸Â¯ Ã·Â´Â¯
ĠÂ¯Â¯Â¯Â¯Â¯Â´ Â¿Â¯
Â¯Â¸Â¯ Â±Â¯
ÃıÅĦ Ã¹
ĠÂ¯Â·Â» Â¯Â±
ĠÂ¯Â°Â°Â· ÃĹÂ¯Â¯Â¯
Æ ĭ
Ġ ÅĦ
Ġ Â°Â¿Â¯Â¯Â¯
Ġ ÄĦ
Ġ Ã¡
Ġ ÃĳÃı
ĠÂ¯Â¯ Â´Â¯Â¯Â¯Â¯
ĠÂ¯ Â¶Â¯Â¯
Â° Â¸Â¯
ĠÂ¯Â¯Â¯Â¯Â¯ Â±Â¯Â·
Ä¯ Ã«
Ãı Ã¯Ãĵ
Ãı Æĥ
Ãı ÅıÄ¯
Â¯Â¯Â¯Â¯ Â´Â¯Â¯Â¯
Â¯Â¯Â¯Â¯ Â°Â°Â¯Â¯
Â¿ Â±Â·
Â¿ Â°Â¿Â¿Â¯Â¯
Â°Â¯Â¯ ÃĹÂ¯
Â°Â¯Â¯ Â»Â±Â¯
Â·Â¯Â¯ Ã·Â°Â¯
Â¯Â¯Â¯Â¯Â¯Â¯ Â·Â¯
Â±Â¯ ÃĹÂ·Â¯
Â¿Â¯Â¯Â¯ ÃĹÂ¸Â¯
ĠÂ¯Â¯Â· Â¸Â¯Â¯
ĠÂ¯Â¯Â· Â¸Â¯Â°Â¯Â¯
ĠÂ¯Â¯Â· Â¯Â¯Â¯Â¯Â·
ĠÂ¯Â¯Â¿ ÃĹ
ĠÂ¯Â¯Â¿ Ã·
Â±Â¯Â¯Â¯ Â¿
Â±Â¯Â¯Â¯ Ã·Â¯Â¯
Â´ ÃĹÂ¯Â¯
Â´ Â¯Â¯Â¯Â¿Â¯Â¯
Ãĥ Äģ
Ãĥ ÃĶ
Ãĥ Ä¯Ãĥ
Ãĥ ÅĢ
Ãĥ Ä°Ä¯
Â°Â¯Â¯Â¯ Â¿
Â°Â¯Â¯Â¯ Â±Â°Â¯
ĠÂ¯Â¯Â¿Â¯ Â¿Â¯Â°Â¯
ĠÂ¯Â¯Â¿Â¯ Â°Â¯Â±Â¯
Ä° Ä¯Ä¯
Ä° Ãħ
Ä° Å·
Ä° Ã¯Ã¿
Ã· Â¯Â¯Â¿Â¯Â¯Â¯
Ã· Â±Â¯Â±Â¯Â¯
Ã· Â¯Â¿Â°Â¯Â¯
Ã· Â±Â¿Â¯Â¯Â¯
Ä¯Ã¯ Åı
Ã¯Ãı Ä°
Ã¯Ãı ÃŁ
Â·Â¯ Â¿Â¯Â¯Â¯Â¯
Â·Â¯ Â¿Â¿Â¯Â¯Â¯
Â·Â¯ ÃĹÂ·Â¯
Â¸ Â´Â¯
Â¸ Â¯Â¯Â¯Â¿Â¯Â¯
Ãĵ ÃĶ
Ãĵ Åģ
Ãĵ Ä¯Ãĵ
ĠÂ¯Â¯Â·Â¯Â¯ Â±Â¿Â¯
Ã³ ÃĴ
Ã³ Ä°Ãĵ
ĠÂ¯Â¯Â¿Â¯Â¯ Â±Â·Â¯
ĠÂ¯Â± ÃĹÂ¯Â·Â¯Â¯Â¯
ĠÂ¯Â± ÃĹÂ±Â¯Â¯Â¯Â¯
Ãĳ Ãĳ
ĠÂ¯Â¯ÃĹ Â¯Â¯Â¿
ĠÂ¯Â¯ÃĹ Â¯Â·Â¿Â¯Â¯
Â¯Â¯Â±Â¯Â¯ Â±Â¯
ÃĲ Ä¯Ãĥ
Â¿Â¯ Â°Â·Â¯Â¯Â¯
ÃĢ Ã¿
ÃĢ Ä·
ÃĢ Åĳ
ÃĢ Ä¯ÃĻ
ĠÂ¯Â¯Â¯Â° Â°Â¿Â¯Â¯
ĠÄ¯ ÃıÃģ
ĠÄ¯ Ã¸
ĠÄ¯ ÃĤ
ĠÂ¯Â¯Â¯Â°Â¯ Â¶Â¯Â¯
ĠÂ¯Â¯Â¯Â°Â¯ Â°Â±Â¯
ĠÂ¯Â¯Ã· Â´Â¯Â¯Â±Â¯
ĠÂ¯Â¯Â¯Â±Â¯ Ã·Â°Â¯
ĠÂ¯Â¯Â¯Â±Â¯ Â´Â°Â¯
ĠÂ¯Â¿Â¯Â¯ Â±Â·Â¯Â¯
Åĵ ÄŁ
Åĵ Å¡
Åĵ Æģ
ĠÂ¯Â¯Â¯Â¯Â¿ Â¿Â°Â¯
Ä± Å¯
ÅĹ ÂµÃ¯
Â¸Â¯Â¯ Ã·
ÃĹÂ¯Â¯ Â·Â¯Â¯Â¯
Å¯ ÄĹ
ĠÃ¯ Âº
ĠÃ¯ ÅĶ
ĠÃ¯ ÄĻ
ÃĻ ÃĶ
ÃĻ Ä´
Ã¹ Ä¿
Ã¹ Ä³
Â¯Â¿ Â¸
ĠÂ¯Â° Â±Â¯Â¿Â±Â¯Â¯
Äģ Ãĥ
Â´Â¯ Â·Â¯
ĠÂ¯Â¯Â¯Â± Ã·Â±Â¯Â¯
Â¯Â· Â°Â¯Â¯Â¯Â¯Â¯
ĠÄ¯Ã¯ ÃĢ
Äı Ã²
Ã° ÄĢ
Âµ Ãĵ
Ã·Â¯Â¯Â¯ Â¸Â¯Â¯
ĠÂ¯Â¯Â± Â±Â¯Â¸Â¯Â¯
Ãĺ Ä¯Ãĥ
Ãĩ ÅĹ
Ãĩ Ã¹
Ãĩ Ä´
Â» Â°Â¯Â¯Â¯Â¯
Â» ÃĹÂ¯Â¯
ĠÂ¯Â±Â¯Â¯ Â°Â±Â¯Â¯
Â¸Â¯ Â°Â°Â¯Â¯
Ä¯Ãģ Ã¯Ãı
Ã·Â¯Â¯ ÃĹÂ°Â¯
ĠÂ¯Â±Â°Â¯ Â»
ĠÂ¯Â±Â°Â¯ Â±Â¿Â¯Â¯
ĠÂ¯Â¯Â¯Â·Â¯ ÃĹÂ°Â¯
ĠÂ¯Â¯Â¯Â·Â¯ Â·Â´Â¯
Â¯Â±Â¯Â¯ Â°Â¯
ĠÂ¯Â¯Â° Â±Â¯Â¯
Â¿Â±Â¯Â¯ Â·Â¯Â¯
Â¯Â°Â¯Â¯ Â·Â¯
ÅŁ Ä³
Â¯Â¯Â¯Â±Â¯ Â°
Â¯Â¯Â· Â¶Â¯
ĠÂ¯Â°Â¯Â¯Â¯ Â´Â°Â¯
ĠÂ¯Â°Â¯Â¯Â¯ ÃĹÂ±Â¯
Ä¹ Âµ
Ã¯Ã¯ ÃĻ
ĠÂ¯Â±Â°Â¯Â¯ ÃĹÂ±Â¯
Ä¯Ä¯ Ä¯Ã¯
Â¿Â·Â¯ Â¿Â·Â¯Â¯
ĠÂ¯Â¯Ã·Â¯ Ã·Â±Â¯Â¯
ĠÂ· Â±Â¯Â¯Â¯Â°Â¯Â¯
Ä¯Ã¿ Ä¯
Ä¯Ã¿ Ãĳ
Âº Ä³
ĠÄ¯Ä¯ Ãĩ
Ã´ Ä¯Ã¯
ĠÃ¯Ã¯ ÃŁ
ĠÂ¯ÃĹ Â·Â¯Â¿Â¯Â¯Â¯
ĠÂ¯ÃĹ Â´Â¯Â¿Â·Â¯Â¯
ĠÂ¯Â¯Â¸ Â°Â¯Â°Â¯Â¯
ĠÂ¯Â¯Â¸ Â°Â¯Â¿Â¯Â¯
Ã¸ Ãģ
ĠÂ¯Â¯Â±Â° Â·Â´Â¯Â¯
Â¯Â¯Â¿ Ã·Â¯Â¯
ĠÂ¯Â¯Â±Â¯Â¯Â¯ Â»Â¯
ĠÂ¯Â¿Â¯ Â±Â·Â¯Â¯Â¯
Ä¯Ã³ Ãģ
ĠÂ¯Ã· Â·Â¯Â¯Â·Â¯Â¯
ĠÂ¯Ã· Â´Â¯Â·
ĠÂ¯Â¯Â¿Â¯Â¯Â¯ Â»Â¯
ĠÂ¯Â¯Â·Â° Â±Â°Â¯Â¯
ĠÂ¯Â¯Â·Â° Â¿Â¿Â¯Â¯
Ã¯ÃĶ Ãı
ÃıÃ¯ Ã¿
Ä¯Ãĳ ÃĢ
ĠÃıÃı Ä¯
ĠÂ¯Â¯Â¿Â± Â¸Â¯Â¯Â¯
ĠÂ¯Â·Â¯ Â±Â¯Â¿Â¯Â¯
ĠÂ¯Â·Â¯ Â°Â°Â¯Â¯Â¯
Ã£ Ãı
ÃıÃĦ Ä¯
Ä¯Âµ Ã¯Ãĵ
Â¯Ã· Â±Â¯Â¯Â¯Â¯
ĠÂ¯Â¯Â» Â·Â¯Â¯Â¯Â¯
ĠÂ¯Â¯Â» Â¯Â¯Â·Â°Â¯
ĠÂ¯Â¯Â» Â¿Â¿Â¯Â¯Â¯
ĠÂ¯Â¯Â¯Â´ Â¯Â¿Â¿Â¯
ĠÂ¯Â¿Â· Â¿Â¿Â¯Â¯Â¯
ĠÂ¯Â±Â° Â·Â·Â¯Â¯Â¯
ÃıÄ¯ Åĥ
ÄŁ ÃĢ
Â¶ Â°Â¯Â¯
Â¶ Â¯Â±Â°Â¯
ĠÂ¯Â±Â¯ Â¿Â°Â¯Â¯Â¯
ĠÂ¯Â¯Â´ Â°Â¯Â°Â¯Â¯
ĠÂ¯Â¯Â´ Â°Â¯Â¿Â¯Â¯
ÃĹÂ°Â¯ ÃĹÂ¯Â¯
Ãĭ Ä°
ĠÂ¯Â¯Â¿Â±Â¯ Ã·Â¯Â¯
ĠÂ¯Â¯Â¿Â±Â¯ Â¿Â¿Â¯
Ãµ Ã¯
ÅĽ Ã³
ĠÂ¯Â¯Â¿Â¯Â· Â±Â°Â¯
Â¿Â°Â¯ Â¿Â¯Â¯Â¯
ĠÂ¿Â¯Â¯Â¯ Â»Â¯Â¯Â¯
ĠÂ¿Â¯Â¯Â¯ Â¿Â°Â¯Â¯
ĠÂ¯Â¯Ã·Â± Â±Â¯Â¯Â¯
ĠÂ¯Â¯ÃĹÂ±Â¯ ÃĹÂ±Â¯
Ä¯Ä¿ Ä¯
ÄĦ Ãı
Â¯Â¯Â·Â¯ Â¿Â¯
Â¯Â¯ÃĹ Â»Â¯
ĠÂ¯Â¯Â¸Â¯Â¯ Â·Â±Â¯
ĠÂ¿Â¯ Â´Â¯Â¯Â¯Â¯Â¯
ĠÂ¿Â¯ Ã·Â¯Â¯Â¯Â¯Â¯
ĠÂ¯Â¯Â¯Â¸ Â¸Â¯Â¯Â¯
ĠÂ¯Â¯Â¯Â¸ Â¯Â·Â¸Â¯
Â½ Â¹
Ä¯Ä³ Ãģ
Å° Ãģ
ĠÂ¯Ã·Â¯Â¯ Â±Â°Â¯Â¯
ĠÂ¯Â±Â±Â¯Â¯ Â¿
ÃıÃĳ Ãı
ĠÂ·Â¯Â¯Â¯ ÃĹ
ĠÂ·Â¯Â¯Â¯ Â·Â°Â¯Â¯
Ä¯Åı Ãı
ĠÂ·Â¯ Â¸Â¯Â¯Â¯Â¯Â¯
ĠÂ¯Â¯Â¯Â¯Â¯Â¯Â¯ ÃĹ
Ä¯Åĥ Ã¹
ĠÂ¿Â¿Â¯Â¯ Â°Â°Â¯Â¯
Ä² Ä¯
ĠÂ·Â¯Â¯Â¯Â¯ Ã·Â¯Â¯
ĠÂ¯Â¸ Â°Â¯Â¯Â°Â¯Â¯
ĠÂ¿Â·Â¯ Â°
ĠÂ¯Ã·Â¯Â¯Â¯ Â°Â°Â¯
ĠÂ¯Â¯Â±Â¯Â¿ Â±Â°Â¯
Â±Â· Â±Â¯Â¯Â¯
ĠÂ³Â³ Â¹
Â±Â¯Â¿ Â´Â¯
Â¯Â¯Â± Â°
ĠÂ¯Â¯Â·Â±Â¯ Ã·Â¯Â¯
ĠÂ¯Â°Â° Â±
ĠÂ¯Â°Â° Â¿Â¯Â¯Â¯Â¯
ĠÂ¯Â¯Â·Â¯Â¿ Â¿Â·Â¯
ĠÂ¯Â·Â±Â¯Â¯ Â¸Â¯Â¯
ĠÂ¯Â¿Â¿Â¯ Â·Â±Â¯Â¯
ĠÂ¯Â¯Â¯Â°Â¿ Â±Â°Â¯
Ã¯Ã´ Ä¯
ĠÂ¯Â¯Â°Â± ÃĹÂ¯Â¯Â¯
Â±Â¯Â¯Â· Â¿Â¯
ĠÂ¯Â¯Ã·Â´Â¯ Â·Â°Â¯
ĠÂ¯Â¯Ã·Â´Â¯ Â·Â´Â¯
ĠÂ¯Â¸Â¯Â¯ Â·
Â±Â° Â°Â¯Â¯Â¯
Â±Â° Â´Â¯Â¯
Â¿Â° Â±Â¯Â¯Â¯
ĠÂ¿Â¿Â¯ Â¿
ĠÂ¯Â¯Â·Â· Â±Â¯Â¯Â¯
Â°Â±Â¯ Â°Â¯
ĠÂ¯Â·Â·Â¯Â¯ Â¿Â¿Â¯
ĠÅ¯ ÃĶ
ÅıÄ± Ä¯
ĠÂ¯ÃĹÂ´Â¯Â¯ Â±Â¯Â¯
Ä¿Ãĳ Ä¯
ĠÄ¯Ä¿ Ã¹
ĠÂ±Â°Â¯Â¯ Â·
ĠÂ¯Â¯Â·Â´Â¯ Ã·Â¯Â¯
ĠÂ¯Â¯Â¯Â» Â·Â¯Â¯Â¯
ĠÂ±Â¯Â¯ Â±Â¿Â¯Â¯Â¯
ĠÃĹ Â¸Â¯Â¯Â¯
ĠÃĹ Â¿Â¯Â¯Â¯Â¯Â¯Â¯
ĠÂ±Â°Â¯Â¯Â¯ Ã·
ĠÂ±Â±Â¯Â¯ Â·Â¯Â¯Â¯
ĠÂ¯Â»Â¯Â¯ Ã·Â¯Â¯Â¯
Ä¿Ãĵ ÃĢ
ĠÂ¯Ã·Â¸Â¯Â¯ Â·
ĠÂ¯Â¯Â¯Â°ÃĹ Â¿Â¯Â¯
ĠÂ·Â±Â¯Â¯Â¯ Â±Â°Â¯
ĠÂ¯Â¯Â±Â¯Â± Â¸Â¯Â¯
ÃıÄ¸ Ãĵ
ĠÂ±Â¯Â¯Â¯Â¯Â¯ Â¿Â¯
ĠÃıÃĦ Ã¹
ĠÂ¯Â¯Â¯Â¯Â¯Â» Â´Â¯
ĠÂ¿Â¿Â¯Â¯Â¯Â¯ Â¿Â¯
ĠÂ¸Â¯Â¯Â¯ Â¿Â¸Â¯Â¯
Ġ ÅĽ
Â¯ Â´Â±Â¯
Â¯Â¯Â¯ Â´Â¯Â¯Â¯Â¯
ĠÂ¯Â¯Â¯Â¯ Â¿Â¯Â¯Â·
ĠÂ¯Â¯Â¯Â¯Â¯ Â¶
Â· Â¸
Â· Â°Â¯Â¯Â¯Â±Â¯
Ãı Äº
Ãı Ã¶
Â¯Â¯Â¯Â¯ Â°Â±Â¯
Â¿ Â¿Â°Â¯Â¯Â¯
Â°Â¯Â¯ Â±Â¯Â¯Â¯
Â±Â¯Â¯ Ã·Â´Â¯Â¯
Â·Â¯Â¯ ÃĹÂ°Â¯Â¯
Â±Â¯Â¯Â¯ Â¸Â¯Â¯
Ã¿ Åĵ
Ã¿ Ä¯Ãĵ
Ã¿ Ä³Ä¯
Â´ Â¯Â¯Â¯Â·Â¯Â¯
ÃĹ Â±Â¯Â¿Â¯Â¯
ÃĹ Â¯Â¸Â¯Â¯Â¯
ÃĹ Â¯Â·Â´Â¯Â¯
Ãĥ Ä¯Ã±
ĠÂ¯Â¯Â·Â¯ Â¸
ĠÂ¯Â¯Â·Â¯ Â´Â±Â¯Â¯
ĠÂ¯Â¯Â·Â¯ Â±Â¯Â±Â¯
ĠÂ¯Â¯Â·Â¯ Â¿Â¯Â¿Â¯
ĠÂ¯Â¯Â·Â¯ Â´Â·Â¯Â¯
ĠÂ¯Â¿ Â¿Â°
Â°Â¯Â¯Â¯ Â°
Ä° Ä¹
Ã· Â¸Â¯Â¯Â¯
Ã· Â´Â¯Â¯Â¯Â¯Â¯
Ã· Â¸Â¯Â¯Â¯Â¯
Ã· Â¯Â¿Â¸Â¯Â¯
Ä¿ Ä°
Ä¿ ÃĶ
Ä¿ ÃıÃ¯
Ä¿ Ã¡
Ä¯Ã¯ Ã°
Ã¯Ãı Ä³
Â·Â¯ Â¸Â°Â¯Â¯
Â·Â¯ Ã·Â´Â¯Â¯
Â·Â¯ ÃĹÂ¸Â¯
Â·Â¯ Â´Â°Â¯Â¯
Â¸ Â¯Â¯Â¯Â°Â¯Â¯
Ãģ ÃĶ
Â¯Â¯Â°Â¯Â¯ Â°Â¯
Ãĵ ÄĢ
Ã± Ã¯ÃĢ
ĠÂ¯Â¯Â±Â¯Â¯ Ã·Â·Â¯
Ã³ Ã¯Ãĳ
ĠÂ¯Â¯Â¿Â¯Â¯ Â¸Â°Â¯
Ä· Äı
Ä· Ãī
ĠÂ¯Â± Â±Â°Â¯
Ãĳ Ä°Ã¿
ĠÂ¯Â¯ÃĹ Â¸Â¯Â¯Â°Â¯
ĠÂ¯Â¯ÃĹ Â´Â¯Â¯Â±Â¯
ÃĲ Ä¯Ã³
Â¿Â¯ Â»
ÃĢ Ã¯Ãı
ĠÂ¯Â¯Â¯Â° ÃĹÂ´Â¯Â¯
ĠÂ¯Â¯Â¯Â° Â·Â¯Â±Â¯
ĠÄ¯ Ã²
ĠÂ¯Â¯Â¯Â°Â¯ Â±Â·Â¯
ĠÂ¯Â¯Â¯Â°Â¯ Ã·Â·Â¯
ĠÂ¯Â¯Ã· Â´Â¯Â¯Â·Â¯
Åĵ Åı
ÅĹ ÃĲ
ÃĹÂ¯Â¯ Â±Â±Â¯
ĠÃı ÅĹ
ĠÃı ÅıÃģ
ĠÂ¯Â¯Â¯Â¯Â· Â°Â¿Â¯
Â¯Â¿ Â¿
Â¯Â¿ Â·Â¯Â¯Â¯Â¯
Â¯Â¿ Â·Â¿Â¯
ĠÂ¯Â° ÃĹÂ¯Â¯
ĠÂ¯Â° Â¿Â¯Â¸Â¯Â¯Â¯
ĠÂ¯Â° Â±Â¯Â¯Â¿Â·Â¯
ĠÂ¯Â° Ã·Â°
ĠÂ¯Â° ÃĹÂ¯Â±Â¯Â¯Â¯
ĠÂ¯Â° Â°Â¿Â±Â¯Â¯Â¯
Â´Â¯ Â¸Â°Â¯
ĠÂ¯Â·Â¯Â¯Â¯ Â°Â¿Â¯
ĠÂ¯Â·Â¯Â¯Â¯ Â¿Â´Â¯
ĠÄ¯Ã¯ Ã±
Äı Ã¯Ä¯
Äı Ãķ
Ã° Ä±
Ã° ÃıÃģ
Âµ Ä¯Ä¯
Âµ Ä¯Ã³
Ãĺ ÃĲ
ÃĦ Ä°
Ãĩ Ä¯Ã¯
Ãĩ Åĵ
ĠÃ¯Ãı ÃĶ
ĠÃ¯Ãı Ä¹
Â» Â¯Â¯Â¯Â¯Â¯Â¯Â¯
Â» Â´Â¯
ĠÂ¯Â±Â¯Â¯ Â»Â±Â¯Â¯
Â¸Â¯ Â°
ĠÂ¯Â±Â¯Â¯Â¯ Â¸Â°Â¯
ĠÂ¿ Â·Â°Â¯Â¯
Ä¯Ãĥ Ä¯ÅĹ
ĠÂ¯Â¯ÃĹÂ¯ Â°Â±Â¯Â¯
ĠÂ¯Â¯Â° Â¸Â¯Â¯Â¯Â¯
ĠÂ¯Â¯Â° Â·Â¯Â´Â¯Â¯
Â¿Â±Â¯Â¯ Â¿Â¯Â¯
ÅŁ Ã°
Â¯Â¯Â· Â»Â¯
ĠÂ¯Â¯Â¿Â° Â±Â±Â¯Â¯
Åĳ Ãĵ
Ã·Â°Â¯Â¯ Â·Â¯Â¯
ĠÂ¯Â±Â°Â¯Â¯ Ã·Â°Â¯
ÃıÃĥ Ãı
ĠÂ· ÃĹ
ĠÂ· Â¸
ĠÂ· Â¿Â±Â¯Â¯Â¯
ĠÂ· Â±Â¯Â¯Â¯Â±Â¯Â¯
Âº Ä¿
ĠÂ¯Â¯Â¯Â· Â¿Â¸Â¯Â¯
Â·Â°Â¯Â¯ ÃĹ
ĠÄ¯Ä¯ Ä·
Å¿ Ãĵ
Åģ Åģ
ÃıÃģ Ä¯Ãķ
Ã¸ Ä¿
Ã¸ Åĵ
ĠÂ¯Â¯Â¯Â¿ Â°
ĠÂ¯Â¿Â¯ Â°Â±Â¯Â¯Â¯
ĠÂ¯Â¯Ã·Â° Â±Â±Â¯Â¯
Ã¯Ãĳ Ã¯Ãı
Ãī Ãı
ĠÂ¯Ã· Â¸Â¯Â¯Â±Â¯Â¯
ĠÂ¯Ã· Â¸Â¯Â¯Â¿Â¯Â¯
Ã¯ÃĶ Ã¯
ÃıÃ¯ Ã±
ĠÂ¯Â¯Â±Â°Â¯ Â¿Â°Â¯
ĠÂ¯Â¯Â±Â°Â¯ Ã·Â´Â¯
ĠÂ¯Â¯Â¯Â¯Â± Â·Â°Â¯
ĠÂ¯Â¯Â¯Â¯Â± Â¿Â±Â¯
ĠÂ¯Â¯Â¯Â¯Â¯Â¿ Â¶Â¯
Ã¯Ãģ Ä¿
Ã¯Ãģ Ä¯Ãĥ
Â¯ÃĹ Â´
ĠÂ¯Â¯Â¯Â¯Â° Ã·Â¯Â¯
ĠÂ¯Â¯Â¯Â¯Â° Â¿Â·Â¯
ĠÂ¯Â¯Â¯Â¯Â° Â·Â°Â¯
Â¿Â°Â¯Â¯ Â±Â¯Â¯
Â¿Â°Â¯Â¯ Â·Â¯Â¯
ĠÂ¯Â·Â¯ Â´Â¯Â¯Â¯Â¯
ĠÂ¯Â·Â¯ Â°Â¯Â·Â¯Â¯
ĠÂ¯Â·Â¯ Â·Â¯Â±Â¯Â¯
Ã£ Ã¯Ã±
Â±Â±Â¯ Â°Â¯
Ä¯Âµ Ã¯ÃĶ
Ä¯Âµ Ã¯ÃĽ
ĠÂ¯Â¯Â¯Â¯ÃĹ Â¶Â¯Â¯
ĠÂ¯Â¯Â» Â¯Â¿Â±Â¯Â¯
ĠÂ¯Â¯Â» Â¯Â·Â±Â¯Â¯
ĠÂ¯Â¯Â» Â¯Â°Â°Â¯Â¯
ÅĻ Ãĥ
ĠÂ¯Â¿Â°Â¯Â¯ Â¿Â°Â¯
ĠÂ¯Â¯Â¯Â´ Â°
ĠÂ¯Â¯Â¯Â´ ÃĹÂ¯Â¯Â¯
Â¯Â¯Â°Â¯ Â±Â¯Â¯Â¯
Ã·Â¯ Â´Â¯Â¯Â¯
Äĳ Ãģ
ĠÂ¯Â¯ÃĹÂ°Â¯ Â»Â¯Â¯
ĠÂ¯Â¯ÃĹÂ°Â¯ Â¿Â±Â¯
ĠÂ¯Â¯ÃĹÂ°Â¯ ÃĹÂ±Â¯
ĠÂ¯Â¿Â· Â¿Â¯
ĠÂ¯Â±Â±Â¯ ÃĹ
Â¯Â°Â¯ ÃĹÂ¯Â¯Â¯
ÃıÄ¯ ÃĻ
ĠÂ¯Â±Â¯ Â°Â¯Â±Â¯Â¯
ÃĹÂ°Â¯ Ã·Â¯Â¯
ĠÂ¯Â¿Â°Â¯ ÃĹ
ĠÂ¯ÃĹÂ¯Â¯ Â´Â¯Â¯Â¯
ĠÂ¯ÃĹÂ¯Â¯ Â¿Â±Â¯Â¯
Ãµ Åĳ
ĠÂ¯Â°Â¯ Â°Â¯Â·Â¯Â¯
Â¯Â± Â°Â¯Â¯Â¯Â¯Â¯
ĠÂ¿Â¯Â¯Â¯ Ã·
Ä¯ÃĻ Ã¯
Æı Ä°
Æı Ãĳ
Â¯Â±Â¯ Â·
Â¯Â±Â¯ Â¸Â¯Â¯
ĠÂ¯Â°Â°Â¯Â¯ ÃĹ
ĠÂ¯Â¯Â¿Â°Â¯ Ã·
ĠÂ¯Â¯Â·Â°Â¯ Â¿Â°Â¯
ĠÂ¯Â¯Â·Â°Â¯ Ã·Â±Â¯
ĠÂ¿Â·Â¯Â¯Â¯ Ã·Â¯Â¯
ĠÂ¿Â·Â¯Â¯Â¯ ÃĹÂ°Â¯
ĠÂ¿Â·Â¯Â¯Â¯ Â¿Â±Â¯
ĠÂ¿Â·Â¯Â¯Â¯ Â¿Â¸Â¯
ĠÂ¯ÃĹÂ°Â¯Â¯ ÃĹÂ¯Â¯
ĠÂ¯Â¿Â° Â°Â¿Â¯Â¯Â¯
Ä¯Ä¿ Ã±
Ã§ Ã±
Ã§ Ä³
ÃĪ Ã¯
ĠÂ¯Â¯Â¸Â¯Â¯ ÃĹÂ°Â¯
ĠÂ¿Â¯ Â±Â¯Â¯Â±Â¯Â¯
ĠÂ¿Â¯ Â¿Â¯Â¯Â°Â¯Â¯
ĠÂ¿Â¯ Â·Â¯Â±Â¯Â¯Â¯
ĠÂ¯Ã·Â°Â¯Â¯ Â°Â°Â¯
Ã¯ÃĦ Ä¯ÃĻ
Å° Ãı
ĠÂ¯Â¯Â¿Â´Â¯ Â·Â´Â¯
ĠÂ± Â±Â¯Â¯Â¯Â±Â¯Â¯
Â·Â±Â¯ Â¸
ĠÂ¯Â·Â±Â¯ Â¿Â°Â¯Â¯
ĠÂ¯Â¿Â¸ Â¯Â·
ĠÂ¯Â¯Â¯Â±Â¯Â¯ ÃĹÂ¯
ĠÂ¯Â¸ Â°Â¯Â¯Â¯
ĠÂ¯Â¸ Â°Â¯Â¯Â·Â¯Â¯
ĠÂ¯Â·Â¿Â¯ ÃĹ
ĠÂ¯Â·Â¿Â¯ Â¿Â±Â¯Â¯
ĠÅı Ãħ
Â¯Â¯Â± Â¸Â¯Â¯
ĠÂ¯Â» Â¯Â¯Â¯Â¯
ĠÂ¯Â» Â±Â¯Â·
ĠÂ¯Â¯Â¯Â¯Â·Â¯ Â´Â¯
ĠÂ¿Â¿Â¯Â¯Â¯ Ã·Â¯Â¯
ĠÂ¿Â¿Â¯Â¯Â¯ Â·Â´Â¯
Â°Â¯Â· Â¿Â¯
Â¯Â¯Â¯Ã· Â¸Â¯Â¯
ĠÂ¯Â·Â° Â±
ĠÂ¯Â¯Â°Â°Â¯ ÃĹÂ¯Â¯
ĠÂ¯Â¯Ã·Â´Â¯ Â´Â¯Â¯
Â±Â° Â±Â¯
ĠÂ¯Â¿Â¸Â¯Â¯ ÃĹÂ¸Â¯
ĠÂ±Â¯Â¯Â¯ Â¸Â¯Â¯Â¯
ĠÂ° Â±Â¯Â¯ÃĹÂ¯Â¯Â¯
ĠÂ¯Â¯Â°Â¯Â¯Â· Â¸Â¯
ĠÂ¯Â·Â·Â¯Â¯ Â¸Â¯Â¯
ĠÄ¿ Ãħ
ĠÂ±Â°Â¯Â¯ Â±Â°Â¯Â¯
ĠÄı ÃĲ
ÆŁ Ã¯
ĠÂ·Â· Â·Â¯Â¯Â¯Â¯Â¯
Ã¿ÃĲ Ä¯
ĠÂ¯ÃĹÂ´Â¯ Ã·
ĠÂ¯ÃĹÂ´Â¯ Ã·Â´Â¯Â¯
Â¿Â· Â±Â¯Â¯Â¯Â¯
ĠÂ¯Â¿Â´ Â¯Â¿
ĠÂ¯Â¯ÃĹÂ°Â¯Â¯ Â¸Â¯
ĠÂ¯Â°Â¯Â¯Â¿ Â»Â¯Â¯
ĠÂ¯Â¯ÃĹÂ¸ Â¯Â·Â·Â¯
ĠÂ¯Â¯Â±Â· Â´Â¯Â¯Â¯
ĠÂ¯Â·Â¿Â¯Â¯ Â¸Â¯Â¯
ĠÂ¯Â¯Â±Â°Â¯Â¯ Â¸Â¯
Â¯Â¸ Â´Â¯Â¯
ĠÂ¯Â¯Â¯Â·Â· Â¿Â¯Â¯
ĠÂ¯Â·Â¿ Â´
ĠÂ¯Â¿ÃĹ Â¯Ã·Â¯Â¯Â¯
ĠÂ¯Â¯Â¿Â¿ Â¸Â¯Â¯Â¯
ĠÂ¯Â¯Â¿Â°Â¯Â¯ Â´Â¯
ĠÂ¯Â·Â¯Â¯Â± Â¸Â¯Â¯
ĠÂ´Â¯Â¯Â¯Â¯ Â±Â¯Â¯
ĠÂ´Â¯Â¯Â¯Â¯ Â¸Â¯Â¯
ĠÂ¯Â¯Â¯Â¯Â¶ Â·Â¯Â¯
ĠÂ¯Â·Â» Â¯Â±Â´Â¯Â¯
ĠÂ¯Â¯Â¸Â¯Â° Â¸Â¯Â¯
ĠÂ¯Â¯Â°Â¯Â¯Â¯Â¯ Â·
ĠÂ¯Â¯Â¯Â±Â¯Â¯Â¯ Â±
ĠÂ¸Â¯Â¯Â¯ Â±Â¸Â¯Â¯
ĠÂ¸Â¯Â¯Â¯Â¯ Â¸Â¯Â¯
Â¯Â¯ÃĹÂ¯ Â±Â¯
ĠÂ¯Â±Â¯Â¯Â¯Â¯Â¯ Â°
ĠÂ±Â°Â°Â¯ Â°Â¯Â¯Â¯
ĠÂ·Â¯Â¸Â¯ Â»Â¯Â¯Â¯
Ä Į
Ġ Â°Â·Â¯Â¯Â¯
Ġ ÃĹÂ¯Â¯Â¯Â¯Â¯
Ġ ÃĹÂ´Â¯Â¯
Ġ Ä¿Ãı
ĠÂ¯Â¯Â¯Â¯ Â±Â¯Â¯
ĠÂ¯Â¯Â¯Â¯ ÃĹÂ¯Â¯
ĠÂ¯Â¯Â¯Â¯ Â±Â¯Â¯Â±
Â± Â¸
Â± Â±Â°Â¯
Â± Â±Â°
Â± Â»Â°Â¯Â¯
Ä¯ Äº
Ä¯ Ä¼
Ä¯ Å§
Ä¯ ÄĶ
Ãı Ä¯Äģ
Â¯Â¯Â¯Â¯ Â´
Â¿ Ã·Â¯Â¯Â¯
Â¿ Â±Â±Â¯Â¯Â¯
Â°Â¯Â¯ Ã·Â°Â¯
Â¿Â¯Â¯ ÃĹÂ´Â¯
Â°Â¯ Â»
ĠÂ¯Â¯Â· Â¿Â¯Â°Â¯Â¯
ĠÂ¯Â¯Â· Â¸Â¯Â·Â¸Â¯
Åı Å±
Ã¿ Åĥ
Â´ Â¯Â¿Â±Â¯
ÃĹ Â¯Â°Â¯Â¯
ÃĹ Â¯Â¯Â¯Â¯Â±Â¯
ÃĹ Â¯Â¿Â»Â¯Â¯
ĠÂ¯Â¿ Â¿Â±Â¯
ĠÂ¯Â¿ ÃĹÂ±Â¯
ĠÂ¯Â¿ ÃĹÂ¯Â¯Â·Â¯Â¯
Â°Â¯Â¯Â¯Â¯ Â°
ĠÂ¯Â¯Â¿Â¯ Â±Â¯
ĠÂ¯Â· ÃĹÂ¯Â°Â¯Â¯Â¯
Ã· Â·Â¯Â¯Â¯Â¯
Ä¯Ã¯ Ä¯Ã³
Â±Â¯Â¯Â¯Â¯ Â¿Â¯
Â·Â¯ Â°Â¯Â¯Â¯Â¯
Â·Â¯ Â±Â¯Â¯Â¯Â¯
Â¸ Â±Â°Â¯Â¯
Â¸ Â¿Â¯Â¯Â¯Â¯
Ãģ Ä¯Ãĥ
Ãĵ Ä±Ãĵ
ĠÂ¯Â¯Â·Â¯Â¯ Â´Â°Â¯
ĠÂ¯Â¯Â·Â¯Â¯ Â°Â·Â¯
ĠÂ¯Â¯Â°Â¯ Â±Â¯Â·Â¯
Ã± Åĵ
Ã± Äı
ĠÂ¯Â¯Â°Â¯Â¯ Ã·Â´Â¯
ĠÂ¯Â¯Â°Â¯Â¯ Ã·Â·Â¯
ĠÂ¯Â¯Â±Â¯Â¯ Â»Â±Â¯
Ã³ ÅĹ
Ä· Å¯
Ä· ÃĶ
Ä· Ã¯Ãĵ
Ä· ÃĽ
Ä· ÅĻ
ĠÂ¯Â± Â¿Â±Â¯
Ä³ ÃĲ
Ä³ ÃĦ
Ä³ Äĳ
Ãĳ Ã¸
ĠÂ¯Â¯ÃĹ Â·Â¯Â¯
ĠÂ¯Â¯ÃĹ Â·Â¯Â¿Â¯Â¯
ĠÂ¯Â¯ÃĹ Â¶Â¯
ĠÂ¯Â¯ÃĹ Â¯Â¿Â¿Â¯Â¯
ÃĲ ÅĲ
Â¿Â¯ Â¸
ÃĢ ÃĢ
ÃĢ Äı
ÃĢ Ä¯Ãģ
ÃĢ ÃıÃģ
ĠÂ¯Â¯Â¯Â° Â¿Â¯Â°Â¯
ĠÄ¯ Å°
ĠÄ¯ Ä¿Ã±
ĠÂ¯Â¯Â¯Â°Â¯ Â´Â°Â¯
ĠÂ¯Â¯Â¯Â±Â¯ Â°
ĠÂ¯Â¯Â¯Â¯Â¿ Â¿
ĠÂ¯Â¯Â¯Â¯Â¿ ÃĹÂ°Â¯
ĠÂ¯Â¯Â¯Â¯Â¿ Â·Â´Â¯
ĠÂ¯Â¿Â¯Â¯Â¯ Â¿Â´Â¯
Å¯ ÅĹ
Å¯ Äµ
ĠÃ¯ ÃĽ
ĠÃ¯ Ä»
ĠÃ¯ Ãĸ
ĠÂ¯Â¯Â¯Â¯Â· Â°Â·Â¯
ĠÂ¯Â·Â¯Â¯ Â»
ĠÂ¯Â·Â¯Â¯ Ã·Â·Â¯Â¯
ĠÂ¯Â·Â¯Â¯ Â»Â°Â¯Â¯
ÃĻ Ä¯Ãĥ
ÃĻ ÅĶ
Ã¹ Ãĳ
Ã¹ Ãĺ
Åĥ Åı
Â¯Â¿ ÃĹ
Â¯Â¿ Â·Â±Â¯
ĠÂ¯Â° Â¿Â¯Â¯Â·Â¯Â¯
ĠÂ¯Â° Â·Â¯Â¯Â¿Â¯Â¯
ĠÂ¯Â° Â·Â¯Â°Â¯Â¯Â¯
ĠÂ¯Â° Â¿Â°
ĠÂ¯Â° Â´Â¯Â°Â¯Â¯Â¯
Â´Â¯ Â±Â¯
ĠÂ¯Â¯Â¯Â± Â±Â·Â¯Â¯
Â¯Â· Â´
Â¯Â· Â¿Â°Â¯
ĠÄ¯Ã¯ Äĥ
ĠÄ¯Ã¯ Ã£
Äı ÅĲ
Äı Ãī
Âµ Ãĳ
Ã·Â¯Â¯Â¯ Â±Â°Â¯
ĠÂ¯Â¯Â± Â¿Â¯Â·Â¯Â¯
Ãĺ Ã¿
Ãĺ Ä°
Ãĺ Ä¯Ã¯
ÃŁ Ä±
ÃŁ ÃĻ
Ãĩ Ä·
ĠÃ¯Ãı ÄĹ
ĠÂ¯Â¿Â·Â¯ Â´
Ä¯Ãı Ã±
Ä¯Ãı Âº
Ä¯Ãģ Ä¿
ĠÂ¯Â±Â¯Â¯Â¯ Â¶Â¯Â¯
ĠÂ¿ Â°Â¯Â¯Â¯Â¯
ĠÂ¯Â¯Â¯Â·Â¯ Ã·Â°Â¯
ĠÂ¯Â¯Â¯Â·Â¯ Â°Â±Â¯
ĠÂ¯Â¯Â° Â´Â¯Â±Â¯Â¯
Â¿Â±Â¯Â¯ Â°Â¯Â¯
Â¯Â¯Â· ÃĹÂ¯Â¯
ĠÂ¯Â°Â¯Â¯Â¯ Â°
ÅĢ Äĳ
ĠÂ¯Â¿Â·Â¯Â¯ Ã·Â·Â¯
Ä¹ Ã´
Åĳ Ã¿
Åĳ ÃĢ
Åĳ ÄĢ
ÅĲ Ä¯Ã¯
ĠÂ¯Â±Â°Â¯Â¯ ÃĹÂ´Â¯
ÃıÃĥ Ä¯Ãĳ
ĠÂ¯Â¯Ã·Â¯ Â°
ĠÂ· Â¿Â¯Â¯Â¯Â±Â¯Â¯
ĠÂ¯Â¯Â´Â¯Â¯ ÃĹÂ°Â¯
Âº Ä¯Ãģ
Âº Ä¯Ä¯
Â·Â°Â¯Â¯ Â¿Â¯Â¯
Å¿ Ä¯Âµ
ÃıÃģ Ä¯Âµ
ĠÂ¯Â¯Â¸ Â¿
ĠÂ¯Â¯Â¸ Â±Â¿Â»Â¯Â¯
ĠÂ¯Â¯Â±Â° Â»ÃĹÂ¯Â¯
Â¯Â¯Â¿ Â»Â¯
Äĩ ÃĲ
ÅĦ Ã±
ĠÂ¯Â¿Â¯ Â±Â¯Â±Â¯Â¯
ĠÂ¯Â¿Â¯ Â¿Â¯Â±Â¯Â¯
ĠÂ¯Ã· Â±Â¯Â·Â¯Â¯Â¯
ĠÂ¯Ã· Â±Â¯Â¯ÃĹÂ¯Â¯
ĠÂ¯Ã· Â´Â¯Â¯Â¯Â·Â¯
ĠÂ¯Â¯Â¿Â¯Â¯Â¯ ÃĹÂ¯
ĠÂ¯Â¯Â¿Â¯Â¯Â¯ Â±Â°
ÃıÃ¯ Ä¯Ã¯
ĠÂ¯Â¯ÃĹÂ° ÃĹ
ĠÂ¯Â¯ÃĹÂ° Â¿Â´Â¯Â¯
ÃĽ Ãģ
ĠÂ¯Â¯Â¯Â¯Â± Â¿
ĠÂ¯Â¯Â¯Â¯Â± Â¿Â·Â¯
ĠÂ¯Â¯Â¯Â¯Â± Â°Â·Â¯
ÃıÃĢ Ä¯Ãĳ
Ã¯Ãĥ Ä¯Ä¯
Â¯ÃĹ Â»Â¯Â¯
Ã¯Ä¯ Ä±
ĠÂ¯Â¯Â¯Â´Â¯ Â·Â±Â¯
ĠÂ¯Â·Â¯ Â±Â¯Â·Â¯Â¯
Ä¯Âµ Ã¿
ĠÂ¯Â¯Â¯Â¯ÃĹ Â·
ĠÂ¯Â¯Â¯Â¯ÃĹ Â·Â°Â¯
Â¯Ã· Â°Â¯Â¯Â¯
ĠÂ¯ÃĹÂ¯Â¯Â¯ Ã·Â¯Â¯
ĠÂ¯Â¿Â· Â±Â¯Â°Â¯Â¯
ĠÂ¯Â¿Â· Â°Â¯Â°Â¯Â¯
ĠÂ¯Â±Â° Â±Â±Â¯Â¯Â¯
Â¯Â°Â¯ Ã·Â¯Â¯Â¯
Â¶ Â¯Â¯Â±Â¯Â¯
ĠÂ¯Â±Â¯ Â°Â¯Â·Â¯Â¯
ĠÂ¯Â±Â¯ Â°Â¯Â¿Â¯Â¯
ĠÂ¯Â±Â¯ Â·Â¿Â¯Â¯Â¯
ĠÂ¯Â¯Ã·Â°Â¯ Â¿
Ä» Ãģ
Ä» Âµ
ĠÂ¯ÃĹÂ¯Â¯ Â·Â´Â¯Â¯
Ãĭ Ãĥ
Â¿Â±Â¯ Â¿Â·Â¯
ĠÂ¯Â¯Â¯Â¯Ã· Â»Â¯Â¯
ĠÂ¯Â°Â¯ Â°Â¯Â°Â¯Â¯
ÅĽ Âµ
ĠÂ¯Â¯Â¿Â¯Â· ÃĹÂ¯Â¯
Ä¯ÃĻ Ä¯Ãĥ
Æı Ãĵ
ĠÂ¯Â°Â°Â¯Â¯ Â·Â±Â¯
ĠÂ¯Â°Â°Â¯Â¯ Â¿Â¿Â¯
Å£ Ãı
ĠÂ¯Â¯Â·Â°Â¯ Â¿
ĠÂ¿Â·Â¯Â¯Â¯ ÃĹ
ĠÂ¿Â·Â¯Â¯Â¯ Â·Â·Â¯
ĠÂ¿Â·Â¯Â¯Â¯ Ã·Â±Â¯
Ä¯Ãĩ Ã¯
ĠÂ¯Â¯Â¿Â·Â¯ Â·Â´Â¯
ĠÂ¯Â¯Â¿Â· Â¿Â¿Â¯Â¯
ĠÂ¯Â¯Â·Â¯Â¯Â¯ ÃĹÂ¯
Ã¯Ä± Ã¯ÃĦ
ĠÂ¿Â¯ Â±Â¯Â¿Â¯Â¯Â¯
Â¯Â¯Ã· Â¯Ã·Â¯Â¯Â¯
ĠÂ¯Â¯Â¯Â¸ ÃĹÂ¯Â¯Â¯
ĠÂ¯Â¯Â¯Â¸ Â¯Â·Â·Â¯
ĠÂ¯Â¯Ã·Â¯Â¯ Â°Â°Â¯
ĠÂ¯Â¯Â¯Â¿Â¯ Â¿Â·Â¯
Â¯Â·Â¯ Â±Â´Â¯Â¯
ĠÂ¯Ã·Â¯Â¯ Â¸Â¯Â¯Â¯
ĠÂ¯Ã·Â¯Â¯ Â¿Â¸Â¯Â¯
Ãļ Ä¯
Åĩ Âµ
ĠÂ·Â¯Â¯Â¯ Â·Â±Â¯Â¯
Ä¯Ä· Ä¯Ãĩ
ĠÂ·Â¯ Â¿Â¯Â·Â¯Â¯Â¯
ÃıÂº Ã¿
Ã¯Ã¿ Ä¯
ĠÂ¿Â¿Â¯Â¯ Â´Â¯Â¯Â¯
ĠÂ¿Â¯Â¯Â¯Â¯ Â¿Â±Â¯
ĠÂ¿Â· Â°
Â¯Â¯Â¯Â¿ Â»Â¯Â¯
ĠÂ¯Â¸ Â°Â¯Â¿Â¸Â¯Â¯
ĠÂ¯Â¯Â°Â° Â±Â°Â¯Â¯
Â±Â· Â±Â°Â¯
ĠÂ³Â³ Â³
Â±Â¯Â¿ Â°Â¯Â¯Â¯
ĠÂ¯Â¯Â¿Â¸ Â·
ĠÂ¯Â¯Â·Â±Â¯ Â¿Â·Â¯
ĠÂ¯Â¯Â·Â±Â¯ Â»Â¯Â¯
ĠÂ¯Â» Â´Â¯Â¯Â¯Â¯Â¯
ĠÂ¯Â» Â°Â¯Â¯Â·Â¯Â¯
ÃıÃĩ Ä¯
ĠÂ¯Â¿Â´Â¯Â¯ Â¿Â·Â¯
ĠÂ¿Â¿Â¯Â¯Â¯ Â°Â°Â¯
ĠÂ¯Â·Â±Â¯Â¯ Ã·Â¯Â¯
ĠÂ¯Â·Â±Â¯Â¯ Â¿Â·Â¯
ĠÂ¯Â¿Â¿Â¯ Â±Â°Â¯Â¯
ĠÂ±Â¯ Â±Â°
ĠÂ¯Â¯Â°Â± Â°Â¯Â¯Â¯
ĠÂ¯Â·Â° Â°
ĠÂ¯Â¯Â°Â°Â¯ Ã·Â¯Â¯
Ã¿Ä± Ã¯
ĠÂ¯Â·Â´Â¯ Â±Â´Â¯Â¯
Å¯Âµ Ä¯Ã¯
ĠÂ·Â·Â¯Â¯ ÃĹ
ĠÂ·Â·Â¯Â¯ ÃĹÂ°Â¯Â¯
ÃıÃ¹ Ã¯Ã¯
ĠÂ¯ÃĹÂ±Â¯Â¯ Â¿Â·Â¯
ĠÂ¯Â¿Â¸Â¯Â¯ ÃĹÂ±Â¯
ÅıÃĳ Ä¯
ĠÂ±Â¯Â¯Â¯ Â¿Â±Â¯Â¯
ĠÄ¯Ã¹ Ãı
ÄĪ Ä³
ĠÂ° Â¿Â¯Â¯
ĠÂ° Â±Â¯
Â¯Â» ÃĹÂ¯Â¯
ĠÂ¯Â¯ÃĹÂ´Â¯ ÃĹÂ°Â¯
ĠÂ¯Â·Â·Â¯Â¯ Â°Â°Â¯
ĠÂ¯Â¯Â»Â¯Â¯ Â±Â°Â¯
ĠÂ¯Â¯Â¿Â¸Â¯ Ã·Â¯Â¯
ĠÂ¯Â¯Â¶ Â°Â¯Â¯Â¯Â¯
ĠÂ¯Â¯Â·Â·Â¯ ÃĹÂ¯Â¯
ĠÂ¯Â¯Â¯Â´Â¯Â¯ Â¸Â¯
ĠÂ¯Â¯Â¯Ã· Â¯Â°Â¯Â¯
ĠÂ±Â°Â¯Â¯ Â¿Â·Â¯Â¯
ĠÂ¯Â¯Â·Â´Â¯ Â·Â°Â¯
ĠÂ°Â¯Â¯Â¯ ÃĹÂ¯Â¯Â¯
ĠÃ· Â·Â¯Â¯Â¯Â¯Â¯Â¯
ĠÃ· Â¸Â¯Â¯Â¯Â¯Â¯Â¯
Â·Â¯Â· Â¸Â¯
ĠÂ¯Â¯Â¯ÃĹ Â¿Â¯Â¯Â¯
ĠÂ¯Â¯Â¯ÃĹ Â¯Â°Â¯Â¯
ĠÂ¯Â¯Â´Â¯Â· Â·Â¯Â¯
Â¯Â´ Â·Â¯Â¯
Â¯Â´ Â¿Â¯Â¯
ĠÂ±Â±Â¯Â¯ Â°Â¯Â¯Â¯
ĠÂ±Â±Â¯Â¯ ÃĹÂ¯Â¯Â¯
ĠÂ¯Â¯Ã·Â¸Â¯ Ã·Â¸Â¯
ĠÃĩ Ä¯
Â¯Â¯Â¯Â¯Â· Â¸Â¯
ĠÂ¯Â»Â¯Â¯ ÃĹÂ¯Â¯Â¯
ĠÂ¯Â¯Â¸Â¯Â¯Â¯ Â´Â¯
ĠÂ¯Â±Â¿Â¯ Â¿Â°Â¯Â¯
Ã¯Å¯ Åı
ĠÄ¯Ä¯Ãı Ä¯Ä¯
Ã¿Åĺ Ãĥ
Â±Â¯Â·Â¯ Â´Â¯
ĠÂ¯Â´Â¯Â¯Â¯Â¯ Â·Â¯
ĠÂ¯Â¯Â·Â´Â¯Â· Â¸Â¯
ÅĵÄ± Âº
ĠÂ·Â·Â¯Â¯Â¯Â¯ Â·Â¯
ĠÂ¯Â¸Â¯Â¯Â¯Â¯ Â·Â¯
ĠÂ¯Â·Ã· Â±Â¯Â·Â¯Â¯
Æ ķ
Ġ Ã·Â°Â¯Â¯
Ġ Å³
Ġ Â¿Â¯Â·Â¯Â¯Â¯
Ġ Â»Â¯Â¯Â¯Â¯
Ġ ÃĹÂ°
Ġ Ä³Ãı
Ġ Ã´Ãı
Â± Â±Â·Â¯Â¯
Ã¯ ÆĢ
Ã¯ ÃĮ
Â° Ã·Â¯
Ä¯ Åł
Ä¯ Ã©
Â· Â±Â¯Â¯Â¿Â¯Â¯
Â· Â±Â¿
Ãı Ä¿Ã¯
Ãı Äĭ
Ãı Ä¡
Â¯Â¯Â¯Â¯ Â¸Â°Â¯
Â¯Â¯Â¯Â¯ Â¿Â¸Â¯
Â¿ Â»Â¯Â¯Â¯
Â¿ Â±Â¯Â¯Â¯Â°Â¯
Â¿ Â¿Â¿Â¯Â¯Â¯
ĠÂ¯Â¯Â¯ Â±Â°Â¯
Â¿Â¯Â¯ Â¸Â°Â¯
Â¿Â¯Â¯ ÃĹÂ±Â¯
Â°Â¯ Â°Â¯Â¯Â¯Â¯
Â¿Â¯Â¯Â¯ Â°
Â¿Â¯Â¯Â¯ Ã·Â±Â¯
ĠÂ¯Â¯Â· Â·Â¯Â¯Â·Â¯
ĠÂ¯Â¯Â· Â¿Â¯Â·Â¯Â¯
Â±Â¯Â¯Â¯ Â·Â¸Â¯
Åı Äħ
Ã¿ ÃĽ
Ã¿ Ã£
Ã¿ Å±
Ã¿ ÄĲ
Ã¿ Ã¯Åı
Â´ Â¯Â¯Â¯Â°Â¯Â¯
Â´ Â·Â¯Â¯Â¯Â¯
Â´ Â¯Â¿Â°Â¯
ÃĹ Â¸
ÃĹ Â¿Â¯
ÃĹ Â±Â¯Â±Â¯Â¯
ÃĹ Â°Â¿Â±Â¯Â¯
ÃĹ Â¯Â°Â°Â¯Â¯
Ãĥ Ä¹
Ãĥ ÅĲ
ĠÂ¯Â¯Â·Â¯ Â±Â¯Â¯
ĠÂ¯Â¯Â·Â¯ Â´
ĠÂ¯Â¯Â¯Â¯Â¯Â¯ Â·
ĠÂ¯Â¿ Â¿Â±
ĠÂ¯Â¿ Â¿Â¯Â¯Â´Â¯Â¯
ĠÂ¯Â¿ ÃĹÂ¯Â¯Â°Â¯Â¯
ĠÂ¯Â¿ Â¸Â¯Â¯Â¯Â±Â¯
ĠÂ¯Â¿ Â¯Â¯Â¯Â¯Â¯Â±
ĠÂ¯Â¿ Â¸Â¯Â¯Â¯Â¿Â¯
Ä° Ä¯Ãģ
Ä° ÅŁ
ĠÂ¯Â· Â¿Â¯Â¯Â¯
ĠÂ¯Â· Ã·Â°Â¯Â¯Â¯Â¯
ĠÂ¯Â· Â¯Â¿Â°Â¯Â¯Â¯
Ã· Â¿Â¯Â¯Â¯
Ã· Â·Â¯Â¯Â¯Â¯Â¯
Ã· Â¯Â°Â¯Â¯
Ã· Â¯Â·Â°Â¯Â¯
Ä¯Ã¯ Äı
Ä¯Ã¯ Ã¯Ä¯
Ä¯Ã¯ ÃıÄ¯
Â´Â¯Â¯ Â±Â±Â¯
Â´Â¯Â¯ ÃĹÂ±Â¯
Ã¯Ãı Ä¯Åĥ
ĠÂ¯Â¯Â±Â¯ Â¸Â°Â¯Â¯
Â·Â¯ Ã·Â±Â¯
Â·Â¯ Â¿Â¸Â¯
Â¸ Â¸Â¯Â¯Â¯
Ãģ Ã¯Ã¯
Ãģ ÅĲ
ĠÂ¯Â¯Â·Â¯Â¯ Â°Â¿Â¯
ĠÂ¯Â¯Â°Â¯ Â»
Ã± Ä¿
Ã± Ä¯Ã¿
ĠÂ¯Â¯Â°Â¯Â¯ ÃĹÂ¸Â¯
Ã³ Ã¯Ãĵ
Ã³ ÃĤ
Ã³ Ã±Ãı
Ã³ Ã±Ãĥ
Ä· Ä¯Ä¯
Ä· Ã¯Ä¯
ĠÂ¯Â± Â»Â¯Â¯Â¯Â¯Â¯
ĠÂ¯Â± Â¿Â±
ĠÂ¯Â± ÃĹÂ¯Â±Â¯Â¯Â¯
Ä³ Åģ
Ä³ Ã»
Ãĳ Ä¯Ä¯
ĠÂ¯Â¯ÃĹ Â¸Â¯Â¿Â¯Â¯
ĠÂ¯Â¯ÃĹ Â¯Â¯Â¿Â¿Â¯
Â¯Â¯Â±Â¯Â¯ Â±Â¯Â¯
ÃĲ Âº
ÃĲ Ä¸
ÃĲ Ãī
Â¿Â¯ Â¿Â·Â¯
ÃĢ Ä¹
ÃĢ Ä¯Âµ
ĠÂ¯Â¯Â¯Â° Â¿Â¯
ĠÂ¯Â¯Â¯Â° Â±Â¿Â¯Â¯
ĠÂ¯Â¯Â¯Â° Â±Â¯Â°Â¯
ĠÄ¯ Ã°Ãı
ĠÂ¯Â¯Ã· Â¯Â¿Â¸Â¯Â¯
ĠÂ¯Â¯Ã· Â¶Â¯Â¯Â¯Â¯
ĠÂ¯Â¿Â¯Â¯ ÃĹÂ·Â¯Â¯
ĠÂ¯Â¿Â¯Â¯ Â´Â°Â¯Â¯
Åĵ Ã¹
ĠÂ¯Â¯Â¯Â¯Â¿ Ã·Â°Â¯
ĠÂ¯Â¯Â¯Â¯Â¿ Â´Â°Â¯
Ä± Åĵ
Â¸Â¯Â¯ Â±Â±Â¯
Â¸Â¯Â¯ ÃĹÂ´Â¯Â¯
Â±Â°Â¯ Â·Â¯Â¯Â¯
Â±Â°Â¯ Â°Â¯Â¯Â¯
Å¯ Ã¯Ä¯
Å¯ ÅĻ
Å¯ Ãĭ
ĠÃı Äı
ĠÃı Ã¯Ãĥ
ĠÃ¯ ÄĲ
ĠÃ¯ Ã°Ãı
ĠÂ¯Â·Â¯Â¯ Â»Â±Â¯Â¯
ÃĻ ÄĦ
Ã¹ Ã´
Åĥ ÃĻ
ĠÂ¯Â° Â·Â¯Â¯Â¯
ĠÂ¯Â° Â¿Â¯Â°Â¯Â¯Â¯
ĠÂ¯Â° Â´Â¯Â¯Â°Â¯Â¯
Äģ Åı
Äģ Ãģ
Äģ Ãĵ
Äģ Ä¯Ãģ
Äģ Ä¯Ãĥ
Â´Â¯ ÃĹÂ±Â¯
ĠÂ¯Â·Â¯Â¯Â¯ Ã·Â±Â¯
ĠÂ¯Â¯Â¯Â± Â»
ĠÂ¯Â¯Â¯Â± ÃĹÂ·Â¯Â¯
Â¯Â· Â±Â±Â¯
Â¯Â· Â´Â°Â¯
Äı Äı
Ã° Ä¯Ãģ
Ã° Åĺ
Ã° Ä¯Ãĩ
Âµ Ã¯ÃĶ
Âµ Ã¯Ãĥ
ĠÂ¯Â¯Â± Ã·
Ãĺ Ä¯Ãģ
ÃŁ Ä°
ÃŁ Äĥ
ÃŁ Åĥ
ÃŁ ÃĦ
ÃŁ Âº
Ãĩ Åĥ
Ãĩ ÃŁ
Ãĩ Ä¯Ãı
ĠÂ¯Â¿Â·Â¯ Â¿Â¯
Â´Â¯Â¯Â¯ Â´Â¯
ĠÂ¯Â±Â¯Â¯ Â±Â¿Â¯Â¯
ĠÂ¯Â±Â¯Â¯ Â¿Â¯Â°Â¯
Ä¯Ãı Ã¯Ãı
Ä¯Ãı Ä¯Ä¯
Ä¯Ãı Ã¯Ä¯
Ã·Â¯Â¯ Â¿
Ã·Â¯Â¯ Â´Â¯Â¯
Ã·Â¯Â¯ Ã·Â¯Â¯
Ã·Â¯Â¯ Â·Â°Â¯
Ã·Â¯Â¯ Â¿Â¸Â¯
ĠÂ¯Â±Â°Â¯ Â¿Â¿Â¯Â¯
ĠÂ¿ Â±Â¯Â¯Â¯Â±Â¯Â¯
ĠÂ¿ Â±Â±Â¯Â¯Â¯Â¯Â¯
ĠÂ¿ Â±Â¯Â¯Â±Â¯Â¯Â¯
ĠÂ¿ Â°Â°Â¯Â¯Â¯Â¯Â¯
Ä¯Ãĥ Ä¯Ä·
ĠÂ¯Â¯ÃĹÂ¯ Â°
Â¯Â±Â¯Â¯ Â±Â°Â¯
ĠÂ¯Â¯Â° Â°Â¯Â¯Â·Â¯
ĠÂ¯Â¯Â° Â·Â·
ĠÂ¯Â¯Â° Â¿Â¯Â±Â¯Â¯
Â¯Â¯Â· Â¿
Â¯Â¯Â· Â·Â¯Â¯Â¯
ĠÂ¯Â°Â¯Â¯Â¯ ÃĹÂ´Â¯
ĠÂ¯Â¯Â¿Â° Â±Â°Â¯Â¯
ĠÂ¯Â¯Â¿Â° ÃĹÂ´Â¯Â¯
Â´Â¯Â¯Â¯Â¯ Â°Â¯
Ã¯Ã¯ ÃŁ
ÅĲ Ä¯Ã±
Ã¯Ãĵ Ãģ
ĠÂ¯Â±Â°Â¯Â¯ Â°
ÃıÃĥ Ä¯Ã±
Â¿Â·Â¯ Â°Â¯Â¯
Â¿Â·Â¯ Â¿Â¯Â¯
ĠÂ· Â±Â°Â¯Â¯
ĠÂ· Â¿Â¯Â¯Â¿Â¯Â¯Â¯
ĠÂ¯Â¯Â¯Â· Â±Â±Â¯Â¯
ĠÂ¯Â¯Â¯Â· Â´Â·Â¯Â¯
ĠÄ¯Ä¯ Ã³
Ã´ ÃĲ
Åģ Ã¯Ãģ
ĠÂ¯Â¯Â¸ Â°Â¿
ĠÂ¯Â¯Â´Â¯ Â¸Â°Â¯Â¯
ĠÂ¯Â¯Â´Â¯ Ã·Â±Â¯Â¯
ĠÂ¯Â¯Â±Â° ÃĹÂ±Â¯Â¯
ĠÂ¯Â¯Â±Â° Â·Â·Â¯Â¯
Â¯Â¯Â¿ Â¸Â¯Â¯Â¯
ĠÂ¯Â¿Â¯ Â¿Â¯Â·Â¯Â¯
ĠÂ¯Â¯Ã·Â° Â¿Â¿Â¯Â¯
Ã¯Ãĳ Ä¯Äĥ
ÅıÃģ Ã¯Ãı
ĠÂ¯Ã· Â¶
ĠÂ¯Ã· Â·Â¯Â¯Â°Â¯Â¯
ĠÂ¯Ã· Â·Â¯Â¯Â¯Â°Â¯
ĠÂ¯Â¯ÃĹÂ° Â·Â´Â¯Â¯
Åĺ Ä¯
Â¯ÃĹ Â°Â¿Â¯Â¯Â¯
ĠÂ¯Â¯Â¯Â¯Â° Â¿Â±Â¯
ĠÂ¯Â¯ÃĹÂ¯Â¯ Â±
ĠÂ¯Â¯Â¯Â´Â¯ ÃĹ
ĠÂ¯Â¯Â¿Â± Â´Â¯Â¯Â¯
ĠÂ¯Â·Â¯ Â°Â¯Â°Â¯Â¯
ĠÂ¯Â·Â¯ Â±Â¿Â¯Â¯Â¯
ĠÂ¯Â¯Â¯Â¯ÃĹ Â¿
Â¯Ã· Â°Â¯Â·Â¯Â¯
Å³ Ä¯
ĠÂ¯Â¿Â°Â¯Â¯ ÃĹÂ±Â¯
Ä¯Äģ Ã¯
ĠÂ¯Â¯ÃĹÂ°Â¯ Â·Â´Â¯
ÃıÃ± Ã¯Ãĵ
Â¯Â¯Â¯Â· Â°
ĠÂ¯Â±Â° Â¿Â°Â¯Â¯Â¯
Â¯Â°Â¯ Ã·
Â¯Â°Â¯ Â¿Â°Â¯
ÃıÄ¯ Ã°
ÃĹÂ¯ Â±Â´Â¯Â¯
ÄŁ Ä³
ÄŁ Âµ
Â¶ Â´Â¯Â¯
ĠÂ¯Â±Â¯ Â´Â¯Â¯Â¯Â¯
ĠÂ¯Â±Â¯ Â·Â±Â¯Â¯Â¯
ĠÂ¯Â±Â¯ Ã·Â±Â¯Â¯Â¯
ĠÂ¯Â¯Â´ Â°Â¯Â·Â¯Â¯
ĠÂ¯Â¯Â´ Â¯Â¿Â¿Â¯Â¯
Å± Ä¯
Å± ÃĻ
Â¿Â±Â¯ Â¿Â¯Â¯Â¯
Â¿Â±Â¯ Â°Â¯Â¯Â¯
Ã¯Ä³ Ãĵ
ĠÂ¯Â°Â¯ Â°Â¿Â¯Â¯Â¯
Â¯Â± Â¿Â±Â¯Â¯
ÃĴ Ãı
ĠÂ±Â¯Â¯Â¯Â¯ Â´Â¯Â¯
Ä¯ÃĻ Åı
ĠÂ¯Â¯Â·Â°Â¯ ÃĹ
ĠÂ¿Â·Â¯Â¯Â¯ Â·Â°Â¯
ĠÂ¿Â·Â¯Â¯Â¯ Â¿Â¿Â¯
Ã¯Ã³ Ãı
ĠÂ¯Â·Â°Â¯Â¯ Â¸Â°Â¯
ĠÂ¯Â¯ÃĹÂ±Â¯ Â¿Â±Â¯
ĠÂ¯Â¯ÃĹÂ±Â¯ Â¸Â°Â¯
Ä¯Ä¿ Ã¯
ĠÂ¯Â·Â°Â¯ Â±
ĠÂ¯Â¿Â±Â¯Â¯ Â±Â±Â¯
Ã§ Ãĳ
Â¯Â¯Â·Â¯ Â°Â°Â¯Â¯
ĠÂ¯Â¯Â¸Â¯Â¯ Â±Â±Â¯
Ã¯Ä± Ä¯Ã¯
ĠÂ¿Â¯ Â·Â¯Â¯Â±Â¯Â¯
ĠÂ¯Ã·Â°Â¯Â¯ ÃĹÂ°Â¯
ÅıÂµ Ä¯Ã¯
Ã¯Ã° Ä¯Ã±
ĠÂ¯Ã·Â¯Â¯ Â¿Â±Â¯Â¯
ĠÂ¯Ã·Â¯Â¯ Â¿Â°Â¯Â¯
ĠÂ¯Â±Â±Â¯Â¯ Â»Â¯Â¯
ĠÂ± Â¿Â¯Â¯
ĠÂ± Â±Â°Â¯Â±Â¯Â¯Â¯
Ä¯Ä± Ä¯
ÃıÃ³ Ã¯
ĠÂ·Â¯ Â¿
ĠÂ·Â¯ Â·Â¯Â°Â¯Â¯Â¯
Â°Â¿ Â´Â¯Â¯Â¯
ĠÂ¯Â¯Â¯Â¯Â¯Â° Â»Â¯
ĠÂ¿Â¿Â¯Â¯ Ã·Â´Â¯Â¯
ĠÂ¿Â¯Â¯Â¯Â¯ Â¿
ĠÂ·Â¯Â¯Â¯Â¯ Â¿
ĠÂ·Â¯Â¯Â¯Â¯ Ã·Â°Â¯
ĠÂ¯Â¸ Â·Â¯Â¯Â¯Â¯Â¯
ĠÂ¯Â¸ Â°Â¯Â¯Â±Â¯Â¯
ĠÂ¿Â·Â¯ Â±
ĠÂ¯Â¯Â°Â° Â·Â±Â¯Â¯
ĠÂ¯Â¯Â±Â¯Â¿ ÃĹÂ¯Â¯
ĠÂ¯Â·Â·Â¯ ÃĹÂ¯Â¯Â¯
ĠÂ¯Â·Â·Â¯ Â°Â°Â¯Â¯
ĠÂ¯Â´ Â¿Â¯
ĠÂ¯Â´ Â°Â¯Â¯Â°Â¯Â¯
Â¯Â¯Â° ÃĹÂ¯Â¯
ĠÂ¯Â¿Â¸Â¯ Ã·Â°Â¯Â¯
ĠÂ¯Â» Â¿Â¯
ĠÂ¯Â°Â° Â±Â¯Â¯Â¯Â¯
ĠÂ¯Â¯Â´Â¯Â¯Â¯ Â¸Â¯
ĠÂ¿Â¯Â¯ Â´
Ã¯Åĵ Ã¯
ĠÂ¯Â·Â±Â¯Â¯ Â·Â°Â¯
ĠÂ¯Â¿Â¿Â¯ Ã·Â°Â¯Â¯
ÃıÄ³ Ã¯
ĠÂ±Â¯ Â¸Â¯Â¯Â¯Â¯Â¯
ĠÂ±Â¯ Ã·Â¯Â¯Â¯Â¯Â¯
Â°Â¯Â· Â¸Â¯Â¯
ĠÂ¯Â¯Â°Â± Â·Â°Â¯Â¯
Å¯Ãĳ Ä¯Ã±
ĠÂ¯Â¯Ã·Â´ Â¿
Ä¯ÅĹ Ã¯
ĠÂ¯Â¯Â°Â°Â¯ Â¿
ĠÂ¯Â¯Â°Â°Â¯ Â¿Â°Â¯
Ã¿Ä± ÃĻ
ĠÂ¯Â·Â´Â¯ ÃĹÂ´Â¯Â¯
ĠÂ¯ÃĹÂ±Â¯Â¯ Â¿
ĠÂ¯ÃĹÂ±Â¯Â¯ Â°Â°Â¯
ĠÂ¯Â´Â¯Â¯ Â¿Â·Â¯Â¯
ĠÂ¯Â¸Â¯Â¯ Â¸Â¯Â¯Â¯
Å¯Ãģ Ä¯
ĠÂ¯ÃĹÂ°Â¯ Â¿
ĠÂ¯Â¯ÃĹÂ´ Â¿
ĠÂ° Â±
ĠÂ° Â±Â¯Â¯Â¯
ĠÂ¯Â¯Â»Â¯Â¯ Â¸Â¯Â¯
ĠÂ¯Â¯Â»Â¯Â¯ ÃĹÂ°Â¯
ĠÂ¯Â¯Â±Â±Â¯ Â·Â°Â¯
ĠÂ¯Â·Â´Â¯Â¯ ÃĹÂ¯Â¯
ĠÂ¯Â¯Â¯Ã· Â¯Â±Â¯Â¯
Â°ÃĹ Â¿Â¯Â¯
Ä¿Ä³ Ãĳ
ĠÂ¯Â¯Â·Â´Â¯ Ã·
ĠÂ¯Â¸Â¯Â¯Â¯ Â·
ĠÂ¯Â¯Â¯Â¶ Â¯Â¯Â°Â¯
ĠÃ· Â·Â¯Â¯Â¯Â¯Â±Â¯
ĠÂ¯Â¯Ã·Â¸ Â¯Â·Â·Â¯
Â·Â¯Â¿ Â»Â¯Â¯
ĠÂ¯Ã·Â±Â¯Â¯ Â±Â±Â¯
Ã¯Ä´ Ä¯
ĠÂ¯Â·Â¯Â¯ÃĹ Â·Â¯Â¯
ĠÂ¯Â¯Â±Â· Â±Â¯Â¯Â¯
ĠÂ·Â±Â¯Â¯ Â±Â¯Â¯Â¯
Â¯Â¸ Â·Â¯Â¯
ĠÂ¯Â¯ÃĹÂ±Â¯Â¯ Â»Â¯
ĠÂ¯Â°Â°Â¯Â¯Â¯ Â´Â¯
Â¿Â¿ Â´Â¯Â¯Â¯
ĠÂ¯Â·Â¯Â· Â¿Â¯Â¯Â¯
ĠÂ¯Â·Â¯Â· Â¸Â¯Â¯Â¯
ĠÂ¯Â¯Â°Â· Â°Â¯Â¯Â¯
ĠÂ¯Â±Â´ Â°Â¯Â¯Â¯Â¯
ĠÂ¯Â¯Â¿Â¶ Â¯Â°Â¯Â¯
ĠÂ¯Â¯Â·Â±Â¿ Â»Â¯Â¯
ĠÂ¯Â¯Â¯Â¯Â¶ Â±Â¯Â¯
ĠÂ¯Â´Â¯Â¯Â¯Â¯ Â±Â¯
ĠÂ¯Â°Â°Â¿ Â´Â¯Â¯Â¯
ĠÂ¯Â¯Â»Â¯Â¯Â¯ Â¿Â¯
Ġ ÄĽ
Â¯Â¯ Â¶Â¯
Â¯Â¯Â¯ Â¶Â°Â¯
ĠÂ¯ Â°Â¯Â°Â¯Â¯
ĠÂ¯ Â¶Â¯Â¯Â¯
Â± Â°Â¿Â±Â¯Â¯
Â± Â±Â±Â¯Â¯Â¯
Ã¯ Ä£
Ã¯ Å¤
Â° Â±Â¿Â¯Â¯
Â° Â»Â°Â¯Â¯
Ä¯ ÃĨ
Ä¯ Ä§
Ä¯ Ä½
Â· Â°Â°Â¯Â¯
Ãı Åħ
Â°Â¯Â¯ ÃĹÂ¸Â¯
Â±Â¯Â¯ Â±Â·Â¯
ĠÂ¯Â¯Â¯ Â¶Â¯Â¯
Â¿Â¯Â¯ ÃĹÂ´Â¯Â¯
Â¿Â¯Â¯ Ã·Â¸Â¯
Â°Â¯ Â±Â´Â¯Â¯
Â°Â¯ Â¿Â¿Â¯Â¯
Â±Â¯ Â¸
Â±Â¯ Â¿Â¯Â¯Â¯Â¯
Â±Â¯ Â»Â±Â¯
Â±Â¯ Â°Â´Â¯Â¯
Â±Â¯ Â°Â¿Â¯
ĠÂ¯Â¯Â· Â±Â¯Â¯Â¿Â¯
ĠÂ¯Â¯Â· Â¯Â¯Â¯Â¯Â¿
ĠÂ¯Â¯Â· Â¶Â¯Â·Â¯Â¯
Â·Â¯Â¯Â¯ Â¿Â±Â¯
Åı ÄĹ
Åı Äī
Ã¿ ÄĢ
Â´ Â·Â°Â¯Â¯
ÃĹ Â±Â¯Â¯Â¿Â¯Â¯
ÃĹ Â¯Ã·Â±Â¯Â¯
ĠÂ¯Â¯Â·Â¯ Â·Â¯
ĠÂ¯Â¯Â·Â¯ Â¿Â¯Â·Â¯
ĠÂ¯Â¿ Â¶Â¯
ĠÂ¯Â¯Â¿Â¯ Â±Â¯Â±Â¯
Ä° Åĵ
Ä° Ä¯Ãĳ
Ä° ÃıÄ¯
ĠÂ¯Â· Ã·Â±Â¯
ĠÂ¯Â· Ã·Â°
ĠÂ¯Â· Â¿Â¯Â¯Â¯Â·Â¯
ĠÂ¯Â· ÃĹÂ¯Â±Â¯Â¯Â¯
ĠÂ¯Â· Â¿Â¯Â¯Â¿
ĠÂ¯Â· Â¸Â¯Â·Â¯Â¯Â¯
Ã· Â¯Â±Â°Â¯Â¯
Ã· Â¯Â¿Â´Â¯Â¯
Ä¿ ÄĹ
Ä¿ ÃıÃı
Ä¿ Ãµ
Ä¯Ã¯ ÃıÃı
Ã¯Ãı ÃıÃĦ
Ã¯Ãı Ä¯Äĥ
ĠÂ¯Â¯Â±Â¯ Â·Â¯
Â·Â¯ Â´
Â·Â¯ Â´Â°Â¯
Â·Â¯ ÃĹÂ±Â¯
Â·Â¯ Ã·Â·Â¯
Â¸ Â¯Â¯Â¯Â¯Â°Â¯
Ãģ Ä·
Ãģ Åĵ
Ãģ Ä¯Ãģ
Ãģ Ä¯Ä¿
Ãĵ ÅĦ
Ãĵ ÃģÄ¯
ĠÂ¯Â¯Â°Â¯ Â°Â¯
ĠÂ¯Â¯Â°Â¯ Â¿Â¯
ĠÂ¯Â¯Â°Â¯ Â·Â¯Â±Â¯
ĠÂ¯Â¯Â°Â¯ Â·Â¯Â·Â¯
Ã± ÃıÃĥ
ĠÂ¯Â¯Â±Â¯Â¯ Â°Â¿Â¯
Ã³ Ã¯Ãĥ
Ã³ ÅĶ
Ã³ ÅĻ
Ã³ ÂµÃı
Ä· Ä¹
Ä· Å¿
Ä· ÃĥÄ¯
Ä· Ä¯Ã¯Ãı
Ä· Ä±Ãĥ
ĠÂ¯Â± ÃĹÂ¯Â¯
ĠÂ¯Â± Ã·Â°Â¯
Ä³ Åĳ
Ä³ ÄŁ
Ãĳ Å¯
Ãĳ Ãĺ
ÃĲ Ä±
ÃĲ Å¯
ÃĲ Ã¯Ã¯
Â¿Â¯ Â°Â°Â¯
Â¿Â¯ Â¶Â¯Â¯Â¯
Â¿Â¯ Â±Â¿Â¯Â¯
ÃĢ Ã¢
ĠÄ¯ ÄĢ
ĠÄ¯ ÃıÃ±
ĠÄ¯ Ä»
ĠÄ¯ Äĵ
ĠÄ¯ ÄĦ
ĠÄ¯ ÄĽ
ĠÂ¯Â¯Ã· Â´Â¯Â¯Â´Â¯
ĠÂ¯Â¯Â¯Â±Â¯ Ã·Â±Â¯
ĠÂ¯Â¿Â¯Â¯ Â±Â´Â¯Â¯
Åĵ Ãĩ
ĠÂ¯Â¿Â¯Â¯Â¯ ÃĹÂ·Â¯
ĠÂ¯Â¿Â¯Â¯Â¯ Â»Â°Â¯
Ä± Ä°
Ä± Ä¹
ÅĹ Ä¯Ä¯
Â¸Â¯Â¯ Â¿
Â¸Â¯Â¯ Â·Â·Â¯
ÃĹÂ¯Â¯ Ã·Â°Â¯
Å¯ Äī
Å¯ Ã¡
ĠÃı Åĳ
ĠÃ¯ ÅĢ
ĠÃ¯ Ä´
ĠÃ¯ Äĩ
ĠÃ¯ ÄĦ
ĠÂ¯Â¯Â¯Â¯Â· Â±
ĠÂ¯Â¯Â¯Â¯Â· Â·Â±Â¯
ĠÂ¯Â¯Â¯Â¯Â· Â´Â±Â¯
ÃĻ Ãĵ
ÃĻ Âµ
Ã¹ Åı
Äĥ Ã°
Åĥ Äı
Åĥ Ã¯Ãģ
Â¯Â¿ Â°Â±Â¯
ĠÂ¯Â° Â±Â¯Â·
ĠÂ¯Â° Â¸Â¯Â¯Â·Â¯Â¯
Äģ Ã¹
Â´Â¯ Ã·Â±Â¯Â¯
ĠÂ¯Â·Â¯Â¯Â¯ Â´Â°Â¯
ĠÂ¯Â¯Â¯Â± ÃĹÂ´Â¯Â¯
ĠÄ¯Ã¯ Ãĺ
Ãĺ Ã³
Ãĺ Ã°
Ãĺ Ä¯Ã±
ÃŁ Ã¹
Ãĩ Âº
ĠÃ¯Ãı ÃĢ
ĠÃ¯Ãı Äı
ĠÃ¯Ãı Åģ
ĠÃ¯Ãı Æģ
ĠÂ¯Â±Â¯Â¯ Â°Â¯
ĠÂ¯Â±Â¯Â¯ Â»
ĠÂ¯Â±Â¯Â¯ Â±Â·Â¯Â¯
ĠÂ¯Â±Â¯Â¯ Â¸Â±Â¯Â¯
Ä¯Ãı Ãĳ
Ä¯Ãı ÃĦ
Ä¯Ãģ Åı
Ã·Â¯Â¯ Ã·Â°Â¯Â¯
ĠÂ¯Â¯ÃĹÂ¯ Â¿Â¯Â¿Â¯
Â¯Â±Â¯Â¯ Â¿
ĠÂ¯Â¯Â° Â°Â¸Â¯Â¯Â¯
ĠÂ¯Â¯Â° Â¿Â¯Â¯Â±Â¯
Â¯Â·Â¯Â¯ Â°
Â¿Â±Â¯Â¯ Â·
ÅŁ Ãĵ
ĠÂ¯Â¯Â¯Â¯Â¯Â· ÃĹÂ¯
ĠÂ¯Â°Â¯Â¯Â¯ Ã·Â¸Â¯
ĠÂ¯Â¿Â·Â¯Â¯ Â¿Â¸Â¯
Ã¯Ãĵ Ã¯Ãģ
Ä´ ÃĲ
Ä¯Ä¯ Åı
Ä¯Ä¯ Ä¿
Ä¯Ä¯ Ä¯Ãĵ
ÄĢ ÅĹ
ĠÂ¯Â¯Ã·Â¯ Ã·Â°Â¯Â¯
ĠÂ· Â¸Â¯
ĠÂ· Â´Â¯Â¯Â¯Â¯Â¯Â¯
ĠÂ· Â°Â°Â¯Â¯Â¯Â¯Â¯
ĠÂ¯Â¯Â´Â¯Â¯ Â°
Ä¯Ã± Ã¯Ãı
Ä¯Ã± Ä¯Ãģ
Ä¯Ã± Ä¯Âµ
ĠÃ¯Ã¯ Ã³
ĠÂ¯ÃĹ Â±Â¯Â¯Â·
ĠÂ¯ÃĹ Â±Â¯Â¯Â¯Â·Â¯
ĠÂ¯Â¯Â¯Â¿ Ã·Â°Â¯Â¯
ĠÂ¯Â¯Â¯Â¿ Ã·Â·Â¯Â¯
ĠÂ¯Â¯Â±Â° Â´Â¯Â¯Â¯
ĠÂ¯Â¯Â±Â° Â±Â±Â¯Â¯
ĠÂ¯Â¿Â¯ Â°Ã·Â¯Â¯Â¯
ĠÂ¯Â¯Ã·Â° Â´Â¯Â¯Â¯
ĠÂ¯Ã· Â¿Â¯Â¯Â°Â¯Â¯
ĠÂ¯Ã· Â¸Â¯Â±Â¯Â¯Â¯
ĠÂ¯Â¯ÃĹÂ° ÃĹÂ°Â¯Â¯
ĠÂ¯Â¯ÃĹÂ° Â¿Â¿Â¯Â¯
Â°Â°Â¯ Â±Â¯Â¯Â¯
ĠÂ¯Â¯Â±Â°Â¯ ÃĹÂ±Â¯
Ä¯Ãĳ Ã¯Ãı
ĠÃıÃı Ãĵ
ĠÂ¯Â¯ÃĹÂ¯Â¯ ÃĹÂ±Â¯
Ã¯Ä¯ Äģ
ĠÂ¯Â¯Â¯Â´Â¯ Â´Â°Â¯
ĠÂ¯Â¯Â¯Â´Â¯ ÃĹÂ´Â¯
Ã¯ÃĻ Ã¯
Ã¯ÃĻ ÅĦ
ĠÂ¯Â·Â¯ Â°Â¸Â¯Â¯Â¯
Â·Â°Â¯ ÃĹÂ¯Â¯
Ã£ Ãĥ
ÃıÃĦ Ãı
ÅĶ Ä¯Ã¯Ãĵ
ĠÂ¯Â¯Â¯Â¯ÃĹ Â¿Â·Â¯
Â¯Ã· Â¯Â¯Â¯Â¯Â¯Â¯
Â¯Ã· Â»Â¯Â¯
Â¯Ã· Â¯Â·Â¯
Å³ Ãģ
Å³ Ã±
ĠÂ¯Â¯Â¯Â´ Â¸Â¯Â¯Â¯
Â¯Â° Â°Â¯Â¯Â¯Â¯
Äĳ Ãı
Ä¯Äģ Åĺ
ĠÂ¯Â¯ÃĹÂ°Â¯ Â¿
ĠÂ¯Â¯ÃĹÂ°Â¯ Â¿Â¿Â¯
Å· Ã°
ĠÂ¯Â±Â° Â±Â¯
ĠÂ¯Â±Â° Ã·
ĠÂ¯Â±Â±Â¯ Ã·
ÄŁ Ã¿
ĠÂ¯Â±Â¯ Â°Â¯Â°Â¯Â¯
ĠÂ¯Â±Â¯ Â·Â·Â¯Â¯Â¯
ĠÂ¯ÃĹÂ¯Â¯ ÃĹÂ°Â¯Â¯
ĠÂ¿Â·Â¯Â¯ ÃĹÂ±Â¯Â¯
ĠÂ¯Â¯Â¿Â±Â¯ Â»Â¯Â¯
ĠÂ¯Â¯Â¯Â¯Ã· Â´
ĠÂ¯Â¯Â¯Â¯Ã· Â±Â°Â¯
Â¯Â± Â¿Â¯
Â¯Â± Â·Â°Â¯Â¯
Â¯Â± Â°Â°Â¯
Â¿Â°Â¯ Â±Â°Â¯
Â¿Â°Â¯ Â¿Â·Â¯
ĠÂ¯Â¯Â·Â± Â¿Â¿Â¯Â¯
Æı ÃŁ
Æı ÄŁ
ĠÂ¯Â¯Â¿Â°Â¯ Â·Â±Â¯
ĠÂ¯Â¯Ã·Â± Ã·Â¯Â¯Â¯
ĠÂ¯Â¯Â·Â°Â¯ Â·Â´Â¯
ĠÂ¯Â¯Â·Â°Â¯ Ã·Â´Â¯
ĠÂ¿Â·Â¯Â¯Â¯ Â¸Â¯Â¯
Ä¯Ãĩ Ä¯
ĠÂ¯Â·Â°Â¯Â¯ Â¿Â°Â¯
ĠÂ¯ÃĹÂ°Â¯Â¯ Â»Â¯Â¯
ĠÂ¯Â¯Â¿Â·Â¯ Â°Â°Â¯
ĠÂ¯Â¿Â° Â°
ĠÂ¯Â¿Â±Â¯Â¯ Â·Â·Â¯
ĠÂ¯Â¿Â±Â¯Â¯ Â·Â´Â¯
Ã§ Ã¿
Ã§ Ãĵ
Ã§ Åĵ
Ã§ Ãĭ
Â¯Â¯Â·Â¯ Â±Â¯Â¯
Â¯Â¯Â·Â¯ Â¿Â¯Â¯Â¯
ĠÂ¯Â¯Â¸Â¯Â¯ Â¿Â±Â¯
ĠÂ¿Â¯ Â¿Â¯Â¯Â±Â¯Â¯
ĠÂ¿Â¯ ÃĹÂ°Â¯Â¯Â¯Â¯
ĠÂ¿Â¯ Ã·Â°Â¯Â¯Â¯Â¯
ĠÂ¯Â¯Â¯Â¸ Â¯Â¿Â±Â¯
Äī Ãı
ĠÂ¯Â¯Ã·Â¯Â¯ Â»Â¯Â¯
Ã¯Âº Ä¯Ãµ
ĠÂ¯Â±Â±Â¯Â¯ ÃĹÂ´Â¯
ĠÂ¯Â±Â±Â¯Â¯ ÃĹÂ±Â¯
ĠÂ¯Â±Â±Â¯Â¯ Â·Â¸Â¯
ĠÂ¯Â¯Â¿Â´Â¯ Ã·
ĠÂ± Â¿
Ä¯Åı Ã¯
Æĥ Ã¯
ĠÂ¯Â¯Â·Â¯Â± Â°
ĠÂ·Â¯ Ã·Â¯
ĠÂ·Â¯ Â°Â¯Â¯Â°Â¯Â¯
ĠÂ·Â¯ ÃĹÂ°Â¯Â¯Â¯Â¯
ÅıÃı Ä¯Ã¯
ÃıÃĵ Ä¯
Ã¯Ã¿ Ã¯
Ã¯Ã¿ ÃĲ
Ã¯Ã¿ ÃĻ
ĠÂ¯Â¿Â¸ Â¯Â¿Â°Â¯Â¯
ĠÂ¯Â¿Â¸ Â¯Â·Â´Â¯Â¯
ĠÂ¿Â¿Â¯Â¯ Â¿Â±Â¯Â¯
ĠÂ¿Â¿Â¯Â¯ Â·Â´Â¯Â¯
ĠÂ¿Â¿Â¯Â¯ Ã·Â±Â¯Â¯
ĠÂ¿Â¯Â¯Â¯Â¯ Ã·Â¸Â¯
ĠÂ¿Â· Â±
Ä² Ãģ
ĠÂ·Â¯Â¯Â¯Â¯ Â¿Â·Â¯
ĠÂ¿Â·Â¯ Â¿
ĠÂ¯Â¯Â°Â° Â·Â´Â¯Â¯
ÃıÃ¿ Ã¯
ÃıÃĶ Ã¯
Â±Â¯Â¿ Â±Â¯Â¯Â¯
ĠÂ¯Â¿Â± Â¿Â¯Â¯Â¯Â¯
ĠÅı ÃĢ
Â¯Â¯Â° Â°
ĠÂ¯Â¯Â¿Â¸ Â¯Â¿Â·Â¯
ĠÂ¯Â¿Â¸Â¯ ÃĹÂ¯Â¯Â¯
ĠÂ¯Â» Â¯Â¯Â¯Â¯Â±Â¯
ĠÂ¿Â¯Â¯ Â°Â¯
ĠÂ¿Â¿Â¯Â¯Â¯ ÃĹÂ¸Â¯
ÃıÄ³ Ä¯
Â¯Â¯Â¿Â¯ Â°
Ä¯Ã° Ã¯
Ã¯Ã´ Ãı
ĠÃ¯Ãĵ Ã¯
ĠÃ¯Ãĵ Äģ
ĠÂ¯Â·Â¯Â¯Â¯Â¯ ÃĹÂ¯
ĠÃ¿ Ã¿
ĠÂ¯Â¯Â°Â°Â¯ Â¸Â¯Â¯
Ä¿Ä± Ã¯
ĠÂ°Â¯ Ã·Â¯Â¯Â¯Â¯Â¯
ĠÂ·Â·Â¯Â¯ Â·Â°Â¯Â¯
ĠÂ¯Â¿Â¸Â¯Â¯ Ã·
ĠÂ¯Â¯Â¯Â°Â· Â±Â°Â¯
ĠÂ¯ÃĹÂ°Â¯ Ã·
Ä¿Âµ Å¯
ĠÂ¯Â¯ÃĹÂ´ Â¯Â¿Â·Â¯
ĠÂ¯Â¯Â¯Â¯Â´ Ã·Â¯Â¯
ĠÂ¯Â¯ÃĹÂ´Â¯ Â·Â°Â¯
ĠÂ¯Â¯Â¿Â¸Â¯ Â¸Â¯Â¯
Ã¿Ã± Ãĳ
Â¿Â± Â°Â¯Â¯Â¯
ĠÂ¯Â±Â¯Â¯Â· Â¸Â¯Â¯
ĠÂ¯Ã·Â°Â¯ Â±Â°Â¯Â¯
ĠÂ¯Â¯Â·Â·Â¯ Â¸Â¯Â¯
ĠÃ¯ÃĲ Ã±
ĠÂ¯Â¯Â¿Â¯Â¯Â· Â¸Â¯
ĠÂ¯Ã·Â´Â¯Â¯ Â·
ĠÂ¯Â¿Â´Â¯ Â±Â°Â¯Â¯
ĠÂ¯Â¸Â¯Â¯Â¯ Â¸Â¯Â¯
ÆŁ Ä¯
ĠÃ· Â¸Â¯
ĠÃ· ÃĹÂ¯Â¯Â¯Â¯Â¯Â¯
Â¿Â¯Â¿ Â»Â¯Â¯
ĠÂ¯Â¯Â±Â°Â¿ Â»Â¯Â¯
Â±Â·Â¯ Â°Â¯
ĠÂ¯Â´Â¯Â¯Â¯ ÃĹÂ¯Â¯
ĠÃĹ Â·Â¯Â¯Â¯
Ä¯Ã² Ä¯
Â±Â¿Â¯ Â±Â°Â¯
ĠÂ¯Â¯Â¯Â±Â¯Â· Â¸Â¯
ĠÂ¯Ã·Â´Â¯ Â±Â°Â¯Â¯
ĠÂ±Â°Â¯Â¯Â¯ Â·
ĠÂ±Â°Â¯Â¯Â¯ Â¿Â¯Â¯
ĠÂ±Â±Â¯Â¯ Â±Â°Â¯Â¯
ĠÂ¯Â¯Â·Â°Â¯Â¯ Â´Â¯
ĠÃĩ Ä°
ĠÂ¯Â·Â¯Â¯Â¯Â· Â¸Â¯
ĠÂ·Â±Â¯Â¯ Â°Â¯Â¯Â¯
Â¯Â¸ Â±Â¯
ĠÂ¯Â¯ÃĹÂ¯Â¿ ÃĹÂ¯Â¯
ĠÂ¯Â¿ÃĹ Â±
ĠÂ¯Â¿ÃĹ Â¯Â¿
ĠÂ¯Â¯Â¿Â¿ Â´Â¯Â¯Â¯
ĠÂ¯Â¯Â¯Â¸Â¯Â¯ Â´Â¯
Â±Ã· Â¸Â¯Â¯
ĠÅıÃĥ ÃĻ
ĠÂ±Â¯Â¯Â¯Â¯Â¯ Â·Â¯
ĠÂ¿Â°Â¯Â¯Â¯ Â±Â¯Â¯
ĠÂ¸Â¯Â¯ Â¿Â¯Â¯Â¯Â¯
ĠÂ¯Â¯Â»Â¯Â¯Â¯ Â·Â¯
Ã¿Ã´ ÃĦ
Ä į
Æ £
Æ Ĵ
Ġ Â°Â¯Â¯Â±Â¯
Ġ ÃĥÄ¯
Ġ Å¯Ãģ
Ġ ÃĥÃı
Ġ Ä§
Ġ ÃĲÃ¯
Ġ Ä±Ä¯
Â¯ Â´Â¯Â°Â¯Â¯
Â¯Â¯Â¯ Â±Â·Â¯Â¯
Â± Â¸Â¯Â¯Â¯Â¯
Â± ÃĹÂ¯Â¯Â¯Â¯Â¯
Ã¯ Æĥ
Ã¯ Å§
Ã¯ Åķ
Ã¯ Åľ
Ã¯ ÆĲ
Â° Ã·Â¯Â¯
Â° Â´Â¯Â¯Â¯Â¯
Â° Â°Â¿Â¯Â¯Â¯
Â° Ã·Â°
ĠÂ¯Â¯Â¯Â¯Â¯ Â±Â¯Â¿
Ä¯ Å¯Ã¯
Ä¯ ÆŁ
Ä¯ Ä¢
Â· Ã·Â¯Â¯
Â· Â°Â°Â¯
Â· ÃĹÂ¯
Â· Ã·Â´Â¯Â¯
Â· Â¿Â¿Â¯Â¯
Ãı Ä·Ã¯
Ãı Åĭ
Ãı Ã©
Â¿ ÃĹÂ°Â¯Â¯
Â°Â¯Â¯ Â¿Â·Â¯Â¯
Â°Â¯Â¯ Ã·Â´Â¯
Â±Â¯Â¯ Â»Â±Â¯
Â±Â¯Â¯ Â¸Â±Â¯
Â¿Â¯Â¯ Â¶Â¯Â¯
Â°Â¯ Â»Â¯Â¯Â¯
Â±Â¯ Â°Â·Â¯Â¯
Â±Â¯ ÃĹÂ¸Â¯
Â¿Â¯Â¯Â¯ ÃĹÂ·Â¯
ĠÂ¯Â¯Â· Ã·
Â±Â¯Â¯Â¯ ÃĹ
Â±Â¯Â¯Â¯ ÃĹÂ´Â¯
Åı Äĩ
Åı ÄĻ
Åı Ã»
Åı Ä³Ã¯
Ã¿ Äĥ
Ã¿ Ä»
Ã¿ Ã§
Ã¿ Ä³Ã¯
Â´ Â¿Â°Â¯Â¯
Â´ Â¯Â¿Â¸Â¯Â¯
ÃĹ Â¯Â·Â¯Â¯
ÃĹ Â°Â¿
Ãĥ Åĵ
ĠÂ¯Â¯Â·Â¯ Â·Â¯Â·Â¯
ĠÂ¯Â¯Â·Â¯ Â±Â¯Â·Â¯
ĠÂ¯Â¯Â¯Â¯Â¯Â¯ Â¿
ĠÂ¯Â¿ Ã·Â¯Â¯Â°Â¯Â¯
ĠÂ¯Â¿ Ã·Â±
ĠÂ¯Â¯Â¿Â¯ Â·Â¯Â¿Â¯
Ä° Ã¯Ãĵ
Ä° Ä¯Ã±
Ä° Ã´
ĠÂ¯Â· Â·Â±
ĠÂ¯Â· Â±Â¯Â¯Â¯Â¿Â¯
ĠÂ¯Â· Â¸Â¯Â¯Â¿Â¯Â¯
Ã· Â¿
Ä¯Ã¯ Âµ
Ä¯Ã¯ Ã¯Ã±
Ä¯Ã¯ Ä¯Ä¿
Â´Â¯Â¯ Â·Â´Â¯
Â´Â¯Â¯ ÃĹÂ´Â¯
Ã¯Ãı Âº
Ã¯Ãı ÃıÃı
Ã¯Ãı Ã¯Ãģ
Ã¯Ãı Ä¯Äĳ
ĠÂ¯Â¯Â±Â¯ Â·Â¯Â°Â¯
Â·Â¯ ÃĹÂ·Â¯Â¯
Â¸ Â±Â¯Â¯Â¯Â¯
Â¸ Â¯Â¯Â¯Â±Â¯Â¯
Â¸ Â¯Â¯Â¯Â·Â¯Â¯
Â¸ Â·Â±Â¯Â¯
Ãģ ÅĹ
Ãĵ Ä¯Ãı
ĠÂ¯Â¯Â·Â¯Â¯ Ã·Â¸Â¯
Ã± Ã¯Ãĵ
Ã± Ä¯Ã³
Ã± ÅĶ
Ã³ Ä´
Ã³ Ã´
Ã³ Ã±Ãĵ
Ä· ÄĹ
Ä· Ã¯Ãĳ
Ä· Äĳ
Ä· Ãĭ
Ä· ÄĽ
Ä· Ã¿Ãģ
ĠÂ¯Â± Â±Â·
ĠÂ¯Â± Â·Â¯Â´Â¯Â¯Â¯
ĠÂ¯Â± Â¿Â¯Â·Â°Â¯Â¯
ĠÂ¯Â± Â·Â¯Â¯Â¯Â°Â¯
Ä³ Ä°
Ä³ Âº
Ä³ Æı
Ãĳ Ã¯Ã¯
Ãĳ Ã¯Ãĵ
ĠÂ¯Â¯ÃĹ Â¸Â¯Â¯
ĠÂ¯Â¯ÃĹ Â·Â¯Â¯Â°Â¯
ĠÂ¯Â¯ÃĹ Â´Â¯Â¯Â¿Â¯
ÃĲ ÃŁ
ÃĲ Ä¯Ãģ
ÃĲ Ä¯Ä¯
Â¿Â¯ Â¿Â±Â¯Â¯Â¯
Â¿Â¯ Â±Â·Â¯Â¯
Â¿Â¯ Â¸Â±Â¯Â¯
ÃĢ Ä¯Ä¯
ÃĢ Ä¯Ã¹
ÃĢ Ä¯Ãĳ
ĠÄ¯ Å±
ĠÂ¯Â¯Â¯Â°Â¯ Â±Â¿Â¯
ĠÂ¯Â¯Ã· Â¿
ĠÂ¯Â¯Ã· Â¯Â¯Â¯Â´Â¯
ĠÂ¯Â¯Ã· Â¯Â¿Â¿Â¯Â¯
ĠÂ¯Â¯Ã· Â¸Â¯Â¯Â·Â¯
ĠÂ¯Â¯Â¯Â±Â¯ Â´
ĠÂ¯Â¿Â¯Â¯ Â¶Â¯Â¯Â¯
ĠÂ¯Â¿Â¯Â¯ Â±Â¿Â¯Â¯
Åĵ Åĥ
ĠÂ¯Â¯Â¯Â¯Â¿ Â¸Â°Â¯
ĠÂ¯Â¯Â¯Â¯Â¿ Â´Â±Â¯
Ä± Ä¯Ãĥ
Ä± Ä¯Ã¿
Ä± Ãķ
ÅĹ Ä·
Â¸Â¯Â¯ ÃĹÂ·Â¯
ÃĹÂ¯Â¯ ÃĹ
Å¯ Ãł
Å¯ ÄĲ
Å¯ Å¡
ĠÃ¯ ÅŁ
ĠÃ¯ Ä¯Äĥ
ĠÃ¯ Äĳ
ĠÃ¯ Ãĭ
ĠÃ¯ ÃĤ
ĠÂ¯Â·Â¯Â¯ Â·Â¯
ĠÂ¯Â·Â¯Â¯ Â¸Â°Â¯Â¯
ĠÂ¯Â·Â¯Â¯ Ã·Â¸Â¯Â¯
ÃĻ Ãģ
ÃĻ Ä¯Ã¿
Ã¹ Ä·
Ã¹ Ã¹
Ã¹ Ä¯Ãĥ
Äĥ ÃĢ
Äĥ Ä°ÃĻ
Åĥ Ä¯Ã¯
Åĥ Ã¯Ãı
ĠÂ¯Â° Â¸
ĠÂ¯Â° Â°Â°Â¯
Äģ Ã±
Â¯Â· Ã·Â¯Â¯
Â¯Â· Â¿Â·Â¯
ĠÄ¯Ã¯ ÃĦ
ĠÄ¯Ã¯ ÅĲ
Äı ÃıÄ¯
Äı Ä²
Äı Ã¤
Ã° Å¯
ÃĶ Ãĥ
Â·Â¯Â¯Â¯Â¯ Â±
Âµ Ä¿
Â² Â¹Â³
ĠÂ¯Â¯Â± Â´Â¯Â±Â¯Â¯
ĠÂ¯Â¯Â± Â¿Â¯Â°Â¯Â¯
ĠÂ¯Â¯Â± Ã·Â¯Â¯Â¯Â¯
Â±Â°Â¯Â¯ Â°Â¯
ÃŁ ÃŁ
Ãĩ Ä¯Ãĵ
Â» Â¯Â¸Â¯Â¯Â¯
Â» Â¯Â°
Â» Â¯Â¿Â·Â¯
ĠÂ¯Â¿Â·Â¯ Â¸Â°Â¯Â¯
Â¸Â¯ Â·Â¯
Â¸Â¯ Â´Â¯Â¯Â¯
Â¸Â¯ Ã·Â°Â¯
Ä¯Ãı Ã°
Ä¯Ãı Ä¯Ãħ
Ã·Â¯Â¯ Ã·Â´Â¯
ĠÂ¯Â±Â¯Â¯Â¯ ÃĹÂ·Â¯
ĠÂ¯Â±Â¯Â¯Â¯ Ã·Â·Â¯
ĠÂ¯Â±Â°Â¯ Â°Â¿Â¯Â¯
ĠÂ¿ Â¿Â°Â¯
ĠÂ¿ Â·Â±Â¯Â¯
ĠÂ¿ Ã·Â¯Â¯Â¯Â¯Â¯Â¯
ĠÂ¯Â°Â¯Â¯ Â¿Â¿Â¯Â¯
ĠÂ¯Â¯Â° Â·Â¯Â·Â¯Â¯
ÃĹÂ°Â¯Â¯ Â·
Åĳ Ã±
Ã¯Ã¯ Ä¯Ã¯
ÅĲ ÃĢ
ÅĲ Äĥ
ÅĲ Ä¯Ã³
Ã·Â°Â¯Â¯ ÃĹ
Ä´ Ãĳ
ÄĢ Ä°
ÄĢ Åĺ
Â¿Â·Â¯ Â¸Â¯Â¯Â¯
ĠÂ¯Â¯Ã·Â¯ ÃĹ
ĠÂ· Â¿Â·Â¯Â¯Â¯Â¯Â¯
ĠÂ· Â°Â¯Â¯Â¯Â°Â¯Â¯
Â·Â°Â¯Â¯ Â±Â¯Â¯
Â¯Â¿Â¯Â¯ Â°Â¯
Ã´ Ãĳ
ĠÃ¯Ã¯ Åĥ
Åģ Ãĥ
ÃıÃģ Ä¯Åĳ
ĠÂ¯ÃĹ Â´Â¯Â¯Â¯
ĠÂ¯ÃĹ Â¿Â¯Â¯Â°Â¯Â¯
ĠÂ¯ÃĹ Â¯Â¯Â¯Â¯Â´Â¯
ĠÂ¯ÃĹ Â´Â¯Â·Â¯Â¯Â¯
Ã¯ÃĲ Ã¯Ãĳ
ĠÂ¯Â¯Â¸ Â°Â¯Â·Â¯Â¯
ĠÂ¯Â¯Â¸ Â±Â¿Â¯Â¯Â¯
Ã¸ Ä¯Ãĳ
ÄĹ Ãģ
ÄĹ ÅĢ
Äĩ ÃĢ
Äĩ Âµ
ÅĦ Ãı
Ä¸ Ãĵ
ĠÂ¯Â¿Â¯ Â°Â¯Â¿Â¯Â¯
ĠÂ¯Â¿Â¯ Â°Â¿Â±Â¯Â¯
ĠÂ¯Â¯Ã·Â° Â±Â°Â¯Â¯
ÃıÃı Ã¿
ÃıÃı ÃıÄ·
Ãħ Ä°
ĠÂ¯Ã· Â¯Â¯Â¯Â¯Â¿Â¯
ĠÂ¯Ã· Â±Â¯Â¿
ĠÂ¯Â¯Â·Â° Ã·Â·Â¯Â¯
ĠÂ¯Â¯ÃĹÂ° Â´ÃĹÂ¯Â¯
ĠÂ¯Â¯Â±Â°Â¯ Â±
ĠÂ¯Â¯Â±Â°Â¯ Â¿Â¸Â¯
ÃıÃĢ Ä¯Ä·
Ã¯Ãĥ Ã¯Ã¯
Ã¯Ãĥ Ã¯Ã±
Ã¯Ãģ Ã¯Ãı
ĠÂ¯Â¯Â¸Â¯ ÃĹ
Â¯ÃĹ Â¯Â·Â¯Â¯Â¯
ĠÂ¯Â¯Â¯Â¯Â° Â·Â·Â¯
Ä¯Ãĳ Ä¯Ã¯
Ã¯ÃĻ Ãı
ĠÂ¯Â¯Â¿Â± Â°
ĠÂ¯Â·Â¯ Â·Â¯Â°Â¯Â¯
Â·Â°Â¯ Â±Â±Â¯
Â·Â°Â¯ Â¿Â¸Â¯Â¯
ÃıÃĦ Ã¯
Ã¯ÃĢ Ä¯Ã±
Ã¯ÃĢ Ã¯Ãĳ
Ã¯Ãĺ Ã¯
ĠÂ¯ÃĹÂ¯Â¯Â¯ Â·
ĠÂ¯Â¯Â» Â±Â¯Â°Â¯Â¯
ĠÂ¯Â¯Â» Â°Â¯Â±Â¯Â¯
ĠÂ¯Â¯Â» Â±Â¿Â¯Â¯Â¯
ĠÂ¯Â¿Â°Â¯Â¯ Â±Â±Â¯
ĠÂ¯Â¯Â¯Â´ Â¿Â°Â¯Â¯
Â¯Â° Â¿Â¿Â¯Â¯
Äĳ ÃĦ
Ä¯Äģ Ä¯
Ä¯Äģ ÃĻ
ÃıÃ± Ä¯Ã¯
Å· ÃĢ
ĠÂ¯Â±Â±Â¯ Â¿Â´Â¯Â¯
ÃıÄ¯ Äı
ÄŁ Ãĳ
Â¶ Â·Â¯Â¯
Â¶ Â¯Â·Â¯Â¯Â¯
Â¶ Â¯Â·
ĠÂ¯Â±Â¯ Â¿Â¯
ĠÂ¯Â±Â¯ Â°Â·Â¯Â¯Â¯
ĠÂ¯Â±Â¯ Â·Â°Â¯Â¯Â¯
ĠÂ¯Â¯Â´ Â°ÃĹ
ĠÂ¯Â¯Ã·Â°Â¯ Â¿Â¿Â¯
Ä» Ãĥ
ĠÂ¿Â·Â¯Â¯ Â¿Â¸Â¯Â¯
Ã¯Ä³ Ä¯Ã¯
Ãµ ÃıÄı
ĠÂ¯Â¯Â¯Â¯Ã· Â´Â±Â¯
Â¯Â¯Â±Â¯ Â·Â¯
Â¯Â± Â±Â¯Â¯Â¯Â¯
Â¯Â± Â±Â°Â¯
Â¯Â± Ã·Â¯Â¯Â¯
ÅĽ Ãı
Ã¯Ã± Ä¯Ãĥ
Â¿Â°Â¯ Â·
ĠÂ¯Â¯Â·Â± Â±Â°Â¯Â¯
ĠÂ±Â¯Â¯Â¯Â¯ Â±Â°Â¯
ĠÂ¯Â¯ÃĹÂ± Â°Â°Â¯Â¯
Æı Âµ
Æı ÅıÄ¯
Â¯Â±Â¯ Â´Â¯Â¯Â¯
ĠÂ¯Â°Â°Â¯Â¯ Â»Â¯Â¯
ĠÂ¯Â¯Ã·Â± Â±Â°Â¯Â¯
ĠÂ¯Â¯Â·Â°Â¯ Ã·
ĠÂ¯Â¯Â·Â°Â¯ Â·Â·Â¯
ÃĤ Ä¯Ã¯
ĠÂ¯Â·Â°Â¯Â¯ ÃĹ
ĠÂ¯ÃĹÂ°Â¯Â¯ Â¿
ĠÂ¯Â¯Â¿Â·Â¯ Â±Â±Â¯
Â¯Â±Â°Â¯ Â±Â°Â¯
ĠÂ¯Â¯Â°Â¯Â· Â»Â¯Â¯
ĠÂ¯Â¿Â° Â·
ĠÂ¯Â¿Â° Â¿
ĠÂ¯Â·Â°Â¯ ÃĹÂ°Â¯Â¯
Äĵ Ãı
Äĵ ÃĢ
ĠÂ¯Â¿Â±Â¯Â¯ ÃĹ
ĠÂ¯Â¯Â¿Â· Ã·Â°Â¯Â¯
ĠÂ¯Â¯Â¿Â· Â·Â±Â¯Â¯
Â¯Â¯Â·Â¯ Â¿Â¯Â¯
Â¯Â¯Â·Â¯ Â±Â±Â¯Â¯
Â¯Â¯ÃĹ Â¯Â°Â¯
ĠÂ¯Â¯Â¸Â¯Â¯ Â¿
ĠÂ¿Â¯ Â°Â¯Â¯Â¿Â¯Â¯
ĠÂ¿Â¯ Â·Â¯Â¯Â¿Â¯Â¯
ĠÂ¿Â¯ Ã·Â±Â¯
ĠÂ¿Â¯ Â¿Â°Â¯Â¯Â¯Â¯
ĠÂ¯Â¯Â¿Â´ Â°
Â¯Â¯Ã· Â°Â¯Â¯Â¯Â¯
ĠÂ¯Â¯Â¯Â¸ Â´Â¯Â¯Â¯
ĠÂ¯Â¯Â¯Â¸ Â¯Â·Â±Â¯
Äī Ãĵ
ĠÂ°Â¯Â¯Â¯Â¯ Â´Â¯Â¯
Ã¯Âº Åı
Ã¯Âº Ã¯Ãı
ĠÂ¯Â±Â±Â¯Â¯ Ã·Â±Â¯
ĠÂ± Â·Â¯Â¯Â¯Â±Â¯Â¯
Ä¯Ä· Ãı
ĠÂ·Â¯ Â´Â¯Â¯Â¯Â¯Â¯
ĠÂ·Â¯ Â¿Â¯Â¯Â±Â¯Â¯
ĠÂ·Â¯ Â°Â¯Â°Â¯Â¯Â¯
ÃıÂº Ã¯Ã¯
ĠÂ¯Â¯Â¯Â¯Â¯Â¯Â¯ Â»
Äħ Ãĳ
Ã² Ãĥ
Â°Â¿ Â°
Â°Â¿ Ã·Â¯Â¯
Ã¯Ä· Ã¯
Ã¯Ä· Ä¯
ĠÂ¯Â¯Ã·Â±Â¯ Â¿
ĠÂ¿Â· Â¿Â¯Â¯
ĠÂ¿Â· ÃĹÂ¯
ĠÂ·Â¯Â¯Â¯Â¯ ÃĹ
ĠÂ¯Â¸ Â°Â¯Â¿Â±Â¯Â¯
ĠÂ¯Ã·Â¯Â¯Â¯ Â»Â¯Â¯
ĠÂ¯Ã·Â¯Â¯Â¯ Â±Â±Â¯
ĠÂ¯Â¯Â¯Â¯Â¯ÃĹ Â»Â¯
ĠÂ¯Â¯Â°Â° Ã·Â°Â¯Â¯
ĠÂ¯Â¯Â±Â¯Â¿ Â±
ĠÂ¯Â·Â·Â¯ Â´Â¯Â¯Â¯
ÃıÃ¿ Ä¯
Äµ Ãĥ
ĠÂ¯Â·Â¿Â¯ Â¸Â°Â¯Â¯
Â°Â· Â±Â¯Â¯Â¯
ĠÂ¯Â´ Â´Â¯Â¯Â¯Â¯Â¯
Â¯Â¯Â° Â¸Â¯Â¯
ĠÂ¯Â» Â°
ĠÂ¯Â» Â¯Â¯Â·
Ä¯Åĵ Ã¯
Ä¯Åĵ Äģ
ĠÂ¿Â¯Â¯ Â±Â¯Â°Â¯Â¯
ĠÂ¯Â¿Â´Â¯Â¯ ÃĹÂ±Â¯
ĠÂ¿Â¿Â¯Â¯Â¯ ÃĹÂ´Â¯
ĠÂ¿Â¿Â¯Â¯Â¯ ÃĹÂ·Â¯
ĠÂ¯Â·Â±Â¯Â¯ Â¿Â°Â¯
Ã¯Ãĩ Ä¯
ĠÂ¯Â¯Â¯Â¯Â» Â¯Â±Â¯
ĠÂ¯Â¯Â°Â°Â¯ Â·Â°Â¯
ÅıÃĵ Ã¯
ĠÂ°Â¯ ÃĹÂ¯Â¯Â¯Â¯Â¯
ĠÂ¯Â¯Â·Â´ Â·Â¯Â¯Â¯
ĠÂ¯ÃĹÂ±Â¯Â¯ Â¸Â¯Â¯
Ãº Ãı
ĠÂ¯Â´Â¯Â¯ Ã·Â¯Â¯Â¯
ĠÂ¯Â´Â¯Â¯ Â·Â°Â¯Â¯
Â±Â° Â±Â¯Â¯Â¯
ĠÂ¯Â¿Â¸Â¯Â¯ Â¿Â¸Â¯
ÅıÃĳ Ãı
ĠÂ¿Â¿Â¯ Â±Â·Â¯Â¯Â¯
ĠÂ¯Â¯Â·Â· Â·Â°Â¯Â¯
ĠÂ±Â¯Â¯Â¯ Â¿Â·Â¯Â¯
ĠÂ·Â¯Â¯ Â°Â¯
Ä¿Ã± Ãĳ
ĠÂ¯Â¯Â°Â¯Â¯Â· Â¿Â¯
ÃıÃĻ Ä¯
ĠÄ¿ Ãĵ
ĠÄ¿ Ãī
ĠÂ¯Â¯Â±Â±Â¯ Â·Â·Â¯
ĠÂ·Â·Â¯Â¯Â¯ Â°Â°Â¯
ĠÃıÃģ Ãĵ
ĠÂ¯Â¯Â¶ Â¯Â°Â¯Â¯Â¯
ĠÂ¿Â¿ Ã·Â¯
ĠÂ¯Ã·Â´Â¯Â¯ Â±Â°Â¯
ĠÄı Ä¯Ã¯
ĠÂ¯Â¿Â´Â¯ Ã·Â¯Â¯Â¯
ĠÂ¯Â¯ÃĹÂ¯Â¯Â¯ Â»Â¯
ĠÂ¯Â¯Â·Â´Â¯ Â´Â¯Â¯
Ä¿Ã³ Ãĵ
ĠÂ·Â· Â±Â¯Â¯Â¯Â¯Â¯
ĠÃĵ Ä¯
ĠÃĵ Ãı
ĠÃĹ Â´Â¯Â¯Â¯Â¯Â¯Â¯
Â¿Â¯Â¯Â¯Â· Â¸Â¯
ĠÂ¯Â·Â´ Â±Â¯Â¯Â¯Â¯
ĠÂ¯ÃĹÂ´Â¯ Â±Â°Â¯Â¯
Â¾ Â³
Â°Â¿Â¯ Â±Â¯
ĠÃŁ Ã¯
ĠÂ¯Â°Â°Â¯Â· Â·Â¯Â¯
ĠÂ¯Â¯ÃĹÂ¸ Â¿Â·Â¯Â¯
Â±ÃĹ Â¿Â¯Â¯
ĠÂ¯Â¯Â·Â¸ Â¿
ĠÂ¯Â¯Ã·Â°Â¯Â· Â¸Â¯
ĠÂ¯Â¯ÃĹÂ¸Â¯ ÃĹ
ĠÂ¯Â¯ÃĹÂ¸Â¯ ÃĹÂ¸Â¯
ĠÂ¯Â·Â¿ Â·Â¯Â¯Â¯Â¯
ĠÂ¯Â¿ÃĹ Â¯Â°Â¯Â¯Â¯
ĠÂ¯Â¿Â¯Â· Â±Â¯Â¯Â¯
ĠÂ·Â±Â¯Â¯Â¯ Â·Â¯Â¯
Â¯Â¯Â» Â·Â¯Â¯
ÃıÃ² Ãı
ĠÂ¯Â·Â¸Â¯Â¯ ÃĹ
ĠÂ¯Â¿Â» Â¯Â¿Â¯Â¯Â¯
ĠÂ¯Â¯Â·Â¯ÃĹ Â¿Â¯Â¯
ĠÂ¯Â±Â¯Â¿ Â´Â¯Â¯Â¯
ĠÂ¯ÃĹÂ° Â±Â¯Â¯Â¯Â¯
ĠÂ¿Â°Â¯Â¯Â¯ Â°Â¯Â¯
ĠÂ¯Â¯Â¯Â¯Â¯Â» Â·Â¯
ĠÂ¯Â±Â¸Â¯ ÃĹÂ¯Â¯Â¯
ĠÆı Ä·Ã¿
ĠÂ¯Â¯Â±Â´ Â±Â¯Â¯Â¯
ĠÂ¯Â¯Â±Â´ Â°Â¯Â¯Â¯
ÃĳÃ° Ã¿
ĠÂ¯Â°Â´Â¯ Â¸Â¯Â¯Â¯
ĠÂ¿Â¿Â·Â¯ Â·Â¯Â¯Â¯
ĠÂ¯Â¯Â¿Â¯Â¸ Â·Â¯Â¯
ĠÂ±Â¯Â·Â¯Â¯ Â°Â¯Â¯
ĠÂ±Â°Â¯Â¯Â¯Â¯ Â°Â¯
Â¯Â¶ Â°Â¯Â¯
Â¸Â¯Ã· Â¸Â¯Â¯Â¯
Ã¿ÃıÃı Åı
ĠÂ°Â¯Â°Â¯Â¯ Â°Â¯Â¯
ĠÂ¿ÃĹ Â¿Â¯Â¯Â¯Â¯Â¯
ÆıÅıÄ¯ Ã²
Ä ĸ
Ġ ÃĬ
Ġ ÃģÄ¯
Ġ ÃĳÃ¯
Ġ Å¿Ãģ
Â¯Â¯ Â°Â¿Â·Â¯Â¯
Â¯Â¯ Â°Â·
ĠÂ¯ Â±Â¯Â±Â¯Â¯
Â± Â±Â¯Â°Â¯Â¯
Â± Â±Â¯Â±Â¯Â¯
Â± Ã·Â·Â¯Â¯
Ã¯ Ä¯Ã¹
Ã¯ Åł
Â° Â¸Â°Â¯Â¯
Â° Â»Â±Â¯Â¯
ĠÂ¯Â¯Â¯Â¯Â¯ Â·Â¯Â·
Ä¯ ÅıÃĥ
Ä¯ ÆĹ
Ä¯ Äł
Â· Â»Â¯Â¯
Â· Â¿Â¯Â·Â¯Â¯Â¯
Â· Â°Â¯Â¯Â¯Â·Â¯
Ãı ÅıÃ¯
Ãı Å¹
Ãı Ãį
Â¯Â¯Â¯Â¯ Â¸
Â¯Â¯Â¯Â¯ Â¿Â°Â¯Â¯
Â¯Â¯Â¯Â¯ Â¶Â¯Â¯
Â¿ Â·Â°Â¯Â¯
Â¿ Â·Â±Â¯
Â¿ Â´Â¯Â°Â¯Â¯
Â¯Â¯Â¯Â¯Â¯ ÃĹÂ¯
Â°Â¯Â¯ ÃĹÂ°Â¯Â¯
Â°Â¯Â¯ Â¿Â´Â¯
Â°Â¯Â¯ Ã·Â·Â¯
Â±Â¯Â¯ Â°Â°Â¯Â¯
Â·Â¯Â¯ Â¿Â¿Â¯
Â·Â¯Â¯ ÃĹÂ±Â¯
Â°Â¯ Â±Â¯Â¯Â¯Â¯
Â°Â¯ Â·Â¯Â¯Â¯Â¯
Â±Â¯ Â´Â¯
Â±Â¯ Ã·Â´Â¯
Â±Â¯ Â°Â·Â¯
Â¿Â¯Â¯Â¯ Â¿Â¿Â¯
ĠÂ¯Â¯Â· Â¶Â¯
Â·Â¯Â¯Â¯ Â·Â°Â¯
Â±Â¯Â¯Â¯ Â»Â¯
Åı Ä¯Ãĵ
Åı Ã§
Åı Æģ
Åı Ä¡
Ã¿ ÅĢ
Ã¿ ÃıÃĥ
Â´ Ã·
Â´ Â¯Â¿Â´Â¯Â¯
ÃĹ Â¯Â¯Â¯Â¯Â°Â¯
ÃĹ Â¯ÃĹ
Ãĥ ÅĹ
Ãĥ ÃŁ
Ãĥ Åĳ
Ãĥ Ä´
Ãĥ Ä¯Âµ
Ãĥ Äº
ĠÂ¯Â¯Â¯Â¯Â¯Â¯ Ã·Â°
ĠÂ¯Â¿ Ã·Â¯Â¯Â±Â¯Â¯
Â°Â¯Â¯Â¯ Â·
ĠÂ¯Â¯Â¿Â¯ Â°Â¯Â°Â¯
Ä° ÃĲ
Ä° Ä¯Ãĵ
Ä° Ãµ
ĠÂ¯Â· ÃĹÂ±Â¯
ĠÂ¯Â· Â¿Â°
ĠÂ¯Â· ÃĹÂ°
Ã· Â¯Â±Â¯Â¯
Ã· Â¯Â¯Â¯Â¯Â°Â¯
Ã· Â±Â¯Â¯Â°Â¯
Ã· Â¯Ã·Â±Â¯Â¯
Ä¯Ã¯ ÃĻ
Ä¯Ã¯ Ã¯Ãĳ
Ä¯Ã¯ Ã¯Ä·
Â±Â¯Â¯Â¯Â¯ Â±
Ã¯Ãı Ä¿
Ã¯Ãı Ã³
ĠÂ¯Â¯Â±Â¯ Â´Â±Â¯Â¯
ĠÂ¯Â¯Â±Â¯ Â´Â·Â¯Â¯
Â·Â¯ Ã·Â°Â¯
Â¸ Â¯Â·Â°Â¯Â¯
Ãģ Ã¿
Ãģ Ä³
Ãģ ÃĻ
Ãģ Ã¹
Ãģ Ä¯Ã¿
Ãģ Âº
Â¯Â¯Â°Â¯Â¯ Â°Â¯Â¯
Ãĵ Ã¯Ãı
Ãĵ ÃĻ
Ãĵ ÃŁ
ĠÂ¯Â¯Â°Â¯ Â¸
ĠÂ¯Â¯Â°Â¯ Â±Â¯Â±Â¯
ĠÂ¯Â¯Â±Â¯Â¯ Â°Â·Â¯
Ã³ ÄĢ
Ã³ Ã£
Ã³ Ã¡
Ä· Ã¯Ãı
Ä· Ãĺ
Ä· Ã³Ã¯
Ä· Ã±Ãģ
ĠÂ¯Â± Ã·
ĠÂ¯Â± Â¿Â¯Â·
ĠÂ¯Â± Â¸Â¯Â±Â¯Â¯Â¯
ĠÂ¯Â± Â·Â±Â¯Â¯Â¯Â¯
ĠÂ¯Â± Â±Â¯Â¯Â¯Â´Â¯
ĠÂ¯Â± Â´Â¯Â¯Â´Â¯Â¯
Ä³ Å¯
Ä³ Ä¸
Ä³ Å±
Ä³ Ãķ
Ãĳ ÃıÃĢ
Ãĳ Ä¯Ãĵ
Ãĳ ÄĦ
Ãĳ Ä¯Ãµ
ĠÂ¯Â¯ÃĹ Â»Â¯
ĠÂ¯Â¯ÃĹ Â¯Â¯Â·Â´Â¯
ĠÂ¯Â¯ÃĹ Â¸Â¯Â¯Â·Â¯
ĠÂ¯Â¯ÃĹ Â´Â¯Â¯Â´Â¯
ÃĲ Ä·
ÃĲ Ãĺ
ÃĲ Ä¯Äģ
Â¿Â¯ Â¿Â°Â¯Â¯Â¯
Â¯Â¿Â¯Â¯Â¯ Â·Â¯
ĠÄ¯ Ãĸ
ĠÂ¯Â¯Ã· Â¿Â¯
ĠÂ¯Â¯Ã· Â¯Â·Â´Â¯Â¯
ĠÂ¯Â¯Ã· Â¯Â¯Â¯Â¸Â¯
ĠÂ¯Â¯Ã· Â¸Â¯Â¯Â±Â¯
ĠÂ¯Â¯Ã· Ã·Â¯Â¯Â¯Â¯
ĠÂ¯Â¿Â¯Â¯ Â»Â±Â¯Â¯
ĠÂ¯Â¿Â¯Â¯ Â¿Â¯Â·Â¯
ĠÂ¯Â¯Â¯Â¯Â¿ Â°Â¿Â¯
ĠÂ¯Â¿Â¯Â¯Â¯ ÃĹÂ¸Â¯
Ä± Åģ
Ä± Ã¯Âµ
ÅĹ Ãī
ÃĹÂ¯Â¯ Â¿
ÃĹÂ¯Â¯ Â°Â°Â¯
Å¯ Åĵ
Å¯ Åģ
Å¯ Ä¸
ĠÃı ÃĤ
ĠÃ¯ ÅıÃĥ
ĠÃ¯ Ãµ
ĠÃ¯ Äĵ
ĠÃ¯ Ã¡
ĠÃ¯ Åħ
ĠÂ¯Â·Â¯Â¯ Â±Â¯
ÃĻ Åı
ÃĻ Ä³
ÃĻ Ä¯Ãģ
Ã¹ Ãģ
Äĥ Ä¸
Â¯Â¿ ÃĹÂ¯Â¯Â¯
Â¯Â¿ Â¿Â°Â¯Â¯
ĠÂ¯Â° Â±Â¯Â´Â¯Â¯Â¯
ĠÂ¯Â° Â·Â°
ĠÂ¯Â° Ã·Â±Â¯
ĠÂ¯Â° ÃĹÂ±Â¯Â¯Â¯Â¯
Äģ Ä¿
Äģ Ã³
Äģ Ä·
Äģ ÃĽ
Â´Â¯ ÃĹÂ·Â¯
ĠÂ¯Â·Â¯Â¯Â¯ Ã·Â´Â¯
ĠÂ¯Â¯Â¯Â± Â¿Â¯Â°Â¯
ĠÄ¯Ã¯ Ãĳ
ĠÄ¯Ã¯ ÅĢ
ĠÄ¯Ã¯ Ä»
Äı ÅĹ
Äı Äĥ
Äı Ä´
ÃĶ Ã±
ÃĶ ÃĦ
Âµ Å¯
Âµ Ãĺ
Ã·Â¯Â¯Â¯ Â·Â¯
ĠÂ¯Â¯Â± Â±Â¯Â¯Â·Â¯
ĠÂ¯Â¯Â± Â±Â¯Â¯Â¿Â¯
Ãĺ ÃĶ
Ãĺ Ãĺ
ÃŁ Ã°Äı
Ãĩ Ä¯Ä¯
ĠÃ¯Ãı ÅĹ
ĠÃ¯Ãı Äī
Â» Â°
Â» Â·
Â» Â¯ÃĹ
Â» Â¯ÃĹÂ¯Â¯
ĠÂ¯Â¿Â·Â¯ Â»Â¯Â¯Â¯
ĠÂ¯Â±Â¯Â¯ Ã·Â·Â¯Â¯
Â¸Â¯ ÃĹÂ¯Â¯Â¯
Â¸Â¯ Â¸Â°Â¯
Â¸Â¯ ÃĹÂ´Â¯
Ä¯Ãģ Ä¯Ã¯
Ä¯Ãģ Ä¯Ãķ
Ã·Â¯Â¯ Â±Â°Â¯Â¯
Ã·Â¯Â¯ Â¿Â·Â¯Â¯
Ã·Â¯Â¯ Â¿Â¸Â¯Â¯
ĠÂ¯Â±Â¯Â¯Â¯ Â±
ĠÂ¿ Ã·
ĠÂ¿ Â°Â°Â¯
ĠÂ¿ Â°Â°Â¯Â¯
ĠÂ¿ Â¿Â¿Â¯
ĠÂ¯Â°Â¯Â¯ Â°Â±Â¯Â¯
ĠÂ¯Â¯Â° Â°Â¯Â·
ĠÂ¯Â¯Â° Â°Â¯Â¯Â¿Â¯
ÅŁ ÃĲ
ÅŁ ÃĻ
ÅŁ Äģ
Â¯Â¯Â· Â±Â¯Â¯Â¯
ĠÂ¯Â°Â¯Â¯Â¯ Â±
ĠÂ¯Â¯Â¿Â° Â°Â±Â¯Â¯
ĠÂ¯Â¯Â¿Â° Â¿Â¿Â¯Â¯
ÅĢ Ä¹
ÅĢ Ä¯Ã±
ĠÂ¯Â¿Â·Â¯Â¯ Â±
ĠÂ¯Â¿Â·Â¯Â¯ Â°
Åĳ Äģ
Ã¯Ã¯ Ä°
Ã¯Ã¯ Âµ
Ã¯Ã¯ Ãĩ
Ã¯Ã¯ ÃĻÃ¯
ÅĲ Ãĳ
ÅĲ Ä¯Ã¿
Ä´ Ã¿
ÃıÃĥ Ä°
Ä¯Ä¯ Äĥ
Ä¯Ä¯ Ä¯Ãĥ
ĠÂ¯Â¯Ã·Â¯ Â±
ĠÂ¯Â¯Ã·Â¯ Â°Â°Â¯Â¯
ĠÂ· Â¿Â·Â¯Â¯
ĠÂ· Â·Â¯Â·
ĠÂ¯Â¯Â´Â¯Â¯ Ã·Â±Â¯
Ä¯Ã± ÃĢ
Âº Ã¿
ĠÂ¯Â¯Â¯Â· Â»Â¯Â¯Â¯
ĠÂ¯Â¯Â¯Â· ÃĹÂ´Â¯Â¯
ĠÄ¯Ä¯ Åı
ĠÄ¯Ä¯ ÃĻ
ĠÄ¯Ä¯ Äĥ
ĠÄ¯Ä¯ Ä¹
ĠÄ¯Ä¯ ÄĹ
Â¯Â¿Â¯Â¯ Â´Â¯Â¯
Ã´ Ãĵ
ĠÃ¯Ã¯ Ä°
ĠÃ¯Ã¯ ÃĻ
Åģ Ãĵ
ĠÂ¯ÃĹ Â·Â¯Â¯Â°Â¯Â¯
ĠÂ¯ÃĹ Â¿Â¯Â¸Â¯Â¯Â¯
ĠÂ¯ÃĹ Â·Â¯Â¿
ÄĹ Ã±
ĠÂ¯Â¯Â¯Â¿ Â¿Â±Â¯Â¯
ĠÂ¯Â¯Â¯Â¿ Â°Â±Â¯Â¯
ĠÂ¯Â¯Â´Â¯ Â°Â´Â¯Â¯
ĠÂ¯Â¯Â±Â° Â°
Â»Â¯Â¯ Â±Â°Â¯
Äĩ Ãģ
Ä¸ Ã¯Ã¿
Ä¸ ÃıÃ¿
ĠÂ¯Â¿Â¯ Â´
ĠÂ¯Ã· Â´Â¯Â¿Â¯Â¯Â¯
ĠÂ¯Ã· Â¸Â¯Â¯Â¯Â·Â¯
ĠÂ¯Â¯Â·Â° Â°
Ã¯ÃĶ Ä¯Ã¯
ÃıÃ¯ Ã³
ĠÂ¯Â¯ÃĹÂ° Â±Â±Â¯Â¯
ĠÂ¯Â¯Â±Â°Â¯ Ã·Â±Â¯
ĠÂ¯Â¯Â±Â°Â¯ Ã·Â·Â¯
ĠÂ¯Â¯Â¯Â¯Â± ÃĹÂ°Â¯
ĠÂ¯Â¯Â¯Â¯Â¯Â¿ Â·Â°
Â¯ÃĹ Â¿Â±Â¯
ĠÂ¯Â¯Â¯Â¯Â° Â¿
ĠÂ¯Â¯Â¯Â¯Â° Â¿Â°Â¯
ĠÃıÃı Ãĳ
ĠÂ¯Â¯ÃĹÂ¯Â¯ Â¶Â¯Â¯
Ã¯Ä¯ Äĥ
Ä¯Ãĵ Ã¿
Ã¯ÃĻ ÃĢ
ĠÂ¯Â¯Â¿Â± ÃĹÂ°Â¯Â¯
ĠÂ¯Â·Â¯ Â°Â¯Â¿Â¯Â¯
ĠÂ¯Â·Â¯ Â±Â°Â¯Â¯Â¯
Â·Â°Â¯ Â¿Â¸Â¯
Â±Â±Â¯ Â±Â¯
ĠÂ¯Â¯Â¯Â¯ÃĹ Â¿Â°Â¯
Â¯Ã· Â·Â¯Â¯Â¯
Â¯Ã· Â°Â¯Ã·Â¯Â¯
ĠÂ¯Â°Â°Â¯ Â¿Â´Â¯Â¯
Â¯Â¯Â¯Â·Â¯ Â°
Ã¯Ãĺ Ä¯Ã¯
ĠÂ¯ÃĹÂ¯Â¯Â¯ Â¿
ĠÂ¯Â¯Â» Â°Â¯Â°Â¯Â¯
ĠÂ¯Â¯Â» Â¯Ã·Â°Â¯Â¯
ĠÂ¯Â¯Â» Â°Â·Â¯Â¯Â¯
ĠÂ¯Â¯Â» Â±Â¯Â±Â°Â¯
ĠÂ¯Â¯Â» Â±Â¯Â¿Â·Â¯
ÅĻ Ãı
ÅĻ Ãģ
ÅĻ Äĥ
ÅĻ Âµ
ĠÂ¯Â¿Â°Â¯Â¯ Â¿
ĠÂ¯Â¯Â¯Â´ Â±
ĠÂ¯Â¯Â¯Â´ Â¯Â¿
ĠÂ¯Â¯Â¯Â´ Â¯Â¿Â±Â¯
Â¯Â° Ã·Â¯Â¯
Â¯Â¯Â°Â¯ Â·
Ã·Â¯ Â¿Â¯
ĠÂ¯Â¯ÃĹÂ°Â¯ ÃĹÂ´Â¯
Â¯Â°Â¯ Â¿Â±Â¯Â¯
ÃıÄ¯ ÃĢ
ĠÂ¯Â±Â¯ Â¸Â¯
ĠÂ¯Â±Â¯ Â±Â¯Â±Â¯Â¯
ĠÂ¯Â¯Â´ Â´Â¯Â¯Â¯Â¯
ĠÂ¯Â¯Â´ Â¯Â¿Â»Â¯Â¯
ĠÂ¯Â¯Ã·Â°Â¯ Â¿Â±Â¯
ĠÂ¯Â¿Â°Â¯ Â±Â´Â¯Â¯
ĠÂ¿Â·Â¯Â¯ Â¿Â°Â¯Â¯
Ãĭ ÃĢ
ĠÂ¯Â¯Â¿Â±Â¯ Â·Â·Â¯
Ã¯Ä³ Ãı
Â¯Â¯Â±Â¯ Â±
Â¯Â¯Â±Â¯ Â¿Â¯
ĠÂ¯Â°Â¯ Â±Â¯Â·Â¯Â¯
Â¯Â± Â±Â°Â¯Â¯
Â¯Â± Â·Â°Â¯
Â¯Â± Â¿Â¿Â¯Â¯Â¯
ĠÂ¿Â¯Â¯Â¯ Â±
ÃıÂµ Ä¯Ã¯
ÃıÂµ ÄĦ
Æı ÅĹ
ĠÂ¯Â¯Â¿Â°Â¯ Â»Â¯Â¯
ĠÂ¯Â¯Â¿Â°Â¯ Â¿Â¿Â¯
ĠÂ¿Â·Â¯Â¯Â¯ Â±Â±Â¯
ĠÂ¿Â·Â¯Â¯Â¯ Ã·Â´Â¯
Â¯Â±Â°Â¯ Â·Â¯Â¯
ĠÂ¯Â¯Â¿Â· Â°
ĠÂ¯Â¯Â¿Â· Ã·Â´Â¯Â¯
Â¯Â¯ÃĹ Â¶Â¯Â¯
ĠÂ¯Â¯Â¸Â¯Â¯ Â°Â°Â¯
ĠÂ¯Â¯Â¸Â¯Â¯ Â´Â¯Â·
ĠÂ¿Â¯ Â±Â¯Â¯Â¯Â°Â¯
ĠÂ¿Â¯ Â·Â¯Â°Â¯Â¯Â¯
ĠÂ¿Â¯ Â°Â¯Â±Â¯Â¯Â¯
ĠÂ¯Ã·Â°Â¯Â¯ Â»Â¯Â¯
ĠÂ¯Ã·Â°Â¯Â¯ ÃĹÂ´Â¯
ĠÂ¯Â¯Â¯Â¸ Ã·Â¯Â¯Â¯
ÃıÄ° Ãĳ
ÃıÄ° Ã²
Ä¯Ä³ Ãĥ
ĠÂ¯Â¯Â¯Â¿Â¯ Â·Â°Â¯
Ã¯ÃĦ Ä¯Ã¯
Å° Ãĳ
ĠÂ¯Ã·Â¯Â¯ Â·Â°Â¯Â¯
ĠÂ¯Â±Â±Â¯Â¯ Â¿Â±Â¯
ĠÂ·Â¯Â¯Â¯ Ã·Â´Â¯Â¯
Ä¯Ä± Ãı
Ä¯Åı Ã¿
Æĥ ÃĻ
ÃıÃĲ Ã¯Ãĳ
ĠÂ·Â¯ Â±Â¯Â¯Â·Â¯Â¯
ĠÂ·Â¯ Â±Â¯Â¿Â¯Â¯Â¯
ĠÂ·Â¯ Â¿Â¯Â¯Â°Â¯Â¯
ĠÂ·Â¯ Â·Â¯Â¯Â·Â¯Â¯
ĠÂ·Â¯ Â°Â¯Â·Â¯Â¯Â¯
ĠÂ·Â¯ Â°Â¯Â±Â¯Â¯Â¯
ĠÂ¯Â·Â±Â¯ Â±
ĠÂ¯Â·Â±Â¯ Ã·Â¯Â¯Â¯
Â°Â¿ Â»Â¯Â¯
Â°Â¿ Â·Â¸Â¯Â¯Â¯
Ã¯Ã¹ Ã¯
ĠÂ¯Â¯Ã·Â±Â¯ Ã·Â°Â¯
Â»Â¯ Â°Â°Â¯
ĠÂ¿Â¯Â¯Â¯Â¯ Â°Â°Â¯
ĠÂ¿Â· ÃĹÂ¯Â¯Â¯Â¯Â¯
ĠÂ·Â¯Â¯Â¯Â¯ ÃĹÂ°Â¯
ĠÂ¯Â¸ Â·
Ä¯Ãī Ä¯
ĠÂ¯Â¯Â±Â¯Â¿ Ã·Â¯Â¯
Ä·Âµ Ã¯Ãĥ
ĠÂ¯Â·Â·Â¯ Â±
ĠÂ¯Â·Â·Â¯ Â¸Â¯Â¯Â¯
Â±Â¯Â· Â¿Â¯
ĠÂ¯Â·Â¿Â¯ Â»Â°Â¯Â¯
ĠÂ¯Â¿Â± Â·Â¯Â¯Â¯Â¯
Â¯Â¯Â° Â´Â¯
Â¯Â¯Â° Ã·Â¯
ĠÂ¯Â» Â·Â¯
ĠÂ¯Â» Â±Â¯Â¯Â·Â¯Â¯
ĠÂ¯Â» Â¯Â¯Â·Â°Â¯Â¯
Ã¯Ä¿ Ã¯
Ã¯Ä¿ Ä¯
Ã¯Ä¿ Ãı
Ã¯Ä¿ Ã±
ĠÂ¯Â¯Â·Â¯Â¿ Â·Â°Â¯
Ã¯Åı Ã³
ĠÂ¿Â¿Â¯Â¯Â¯ Ã·
ĠÂ¿Â¿Â¯Â¯Â¯ Â¿Â·Â¯
ĠÂ¿Â¿Â¯Â¯Â¯ Â·Â°Â¯
ĠÂ¿Â¿Â¯Â¯Â¯ Â´Â°Â¯
Ä¯Åģ Ã¹
ĠÂ¯Â¿Â¿Â¯ Â¿
Â¯Â¯Â¿Â¯ Â·Â¯
ĠÂ±Â¯ Â´Â¯Â¯Â¯Â¯Â¯
ĠÂ±Â¯ Â±Â¯Â¿Â¯Â¯Â¯
ĠÂ±Â¯ ÃĹÂ¯Â¯Â¯Â¯Â¯
ĠÂ±Â¯ Â·Â¯Â¿Â¯Â¯Â¯
ĠÂ¯Â¯Â¯Â°Â¿ ÃĹÂ¯Â¯
ĠÂ¯Â±Â± Â±
ĠÂ¯Â±Â± Â·Â¯Â¯Â¯Â¯
Æģ Ã¯
ÃĹÂ´Â¯ Â¿Â¯Â¯
ĠÂ¯Â¯Â¯Â¯Â» ÃĹÂ¯Â¯
Ä¯ÃĲ Ã¯
Ä¯ÅĹ Äĥ
Ä¿Ä± Ãĳ
ĠÂ¯Â·Â´Â¯ Ã·Â´Â¯Â¯
ĠÂ·Â·Â¯Â¯ Â¿
ĠÂ¯Â´Â¯Â¯ Â¿Â±Â¯Â¯
ÅıÃ± Ã¯ÃĶ
ĠÂ¯Â¸Â¯Â¯ Â¿Â°Â¯Â¯
ĠÂ¯Â¿Â¸Â¯Â¯ Â·Â´Â¯
ĠÂ¯Â¯Â·Â· Â°Â¯Â¯Â¯
ĠÂ±Â¯Â¯Â¯ Â·
ĠÂ¯ÃĹÂ°Â¯ Â·Â°Â¯Â¯
Ä¿Âµ Ä¯Ä¿
ĠÂ¯Â¯ÃĹÂ´Â¯ Â°Â°Â¯
ÄıÃĢ Ä¯Ãĳ
ĠÂ¯Â·Â·Â¯Â¯ ÃĹÂ°Â¯
ĠÅ¯ Åı
ĠÅ¯ Ãĵ
ĠÂ¯Â¿Â¯Â¯Â· Â¸Â¯Â¯
ĠÂ¯Â¯Â»Â¯Â¯ Ã·Â¯Â¯
ĠÂ¯Â¯Â±Â±Â¯ Â°Â°Â¯
ĠÂ¯Â¯Â¿Â¸Â¯ Ã·Â¸Â¯
ĠÂ¯Â¯Â¯Â¯Â°Â¯ Â´Â¯
Â¯Â¯Â¯ÃĹ Â·Â¯Â¯
ĠÂ¯Â¯Â¶ Â¯Â¯Â¯Â°Â¯
ĠÂ¯Ã·Â°Â¯ Ã·Â°Â¯Â¯
ĠÂ¯Ã·Â°Â¯ Â¿Â¸Â¯Â¯
ĠÂ¯Â¯Â·Â·Â¯ Â¿Â·Â¯
ĠÂ¯Â±Â°Â¯Â¯Â¯ Â¸Â¯
ĠÂ¯Â¯Â¯Ã· Â¸Â¯Â¯Â¯
Ã¿Ãĳ Ä¯Ã³
Â¿Â¯Â¯Â· Â·Â¯Â¯
ÃıÄ´ Ã¯
Ä¿Ä³ Ã³
ĠÂ¯Â¯Â¯Â» Â¯Â·
ĠÂ¯Â¯Â¯Â» Â¯Â±Â°Â¯
ĠÂ¯Â¯Â¯Â» Â¯Â´Â¯Â¯
ĠÂ°Â¯Â¯Â¯ Â´Â¯Â¯Â¯
ĠÂ¯Â¯Ã·Â¸ Â¿
ĠÂ¯Â·Â¸Â¯ Â±Â´Â¯Â¯
Ã¯Ä¸ Ã¯
ĠÂ¯Â¿Â¿Â¯Â¯ Â±Â±Â¯
ĠÂ¯Â¯Â¯ÃĹ Â¯Â¿Â¯Â¯
Ã¿Ã° ÅıÃģ
Ã¿Ã° Ä¯Äģ
Â¿Â· Â¿Â¯
Â°Â° ÃĹÂ¯Â¯
Â±Â¿Â¯ Â°Â¯
ĠÂ¯Â·Â¯Â¯ÃĹ Â¿Â¯Â¯
Ã¯ÃĤ Ä¯
ĠÂ¿Â·Â¯Â¯Â¯Â¯ Â´Â¯
Ã½ Ãı
Â¯Â¸ Â¿Â¯Â¯
ĠÂ¯Â°Â¿Â¯ Â»
ĠÂ¯Â¿Â¯Â· Â°Â¯Â¯Â¯
ĠÂ¯Â¯Â°Â· Â¸Â¯Â¯Â¯
Ã¿Ä³ Ãĵ
ĠÂ¯Â¯Â·Â¿ Â´Â¯Â¯Â¯
ĠÂ¿Â°Â¯Â¯ Â·Â¯Â¯Â¯
ĠÂ¯Â¯Â¿Â¶ Â¯Â¿Â¯Â¯
ĠÂ·Â± Â±Â°Â¯Â¯Â¯Â¯
ĠÂ¯Â¿Ã· Â¯Â±Â¯Â¯Â¯
ĠÂ¯Â¯Â¯Â¯Â¸Â¯ Â·Â¯
ĠÂ¯Â´Â¯Â¯Â¯Â¯ Â´Â¯
ĠÂ°Â¯Â¯Â¯Â¯Â¯ Â·Â¯
ĠÂ±Â¯Â·Â¯Â¯ Â·Â¯Â¯
Ä¿Ã¯Ãı ÃĢ
ĠÂ±Â¯Â°Â¯Â¯ Â±Â¯Â¯
ĠÂ·Â°Â°Â¯ ÃĹÂ°Â¯Â¯
Ġ ÄĢ
Ġ Ãł
Ġ Ã·Â°Â¯
Ġ Äµ
Ġ Ã·Â±Â¯Â¯
Ġ ÆŁ
Ġ Ã°Ã¯
Â¯ Â´Â¯Â±Â¯Â¯
Â¯Â¯ Â¸Â¯Â±Â¯Â¯Â¯
Â¯Â¯ Â¶Â°Â¯
Â¯Â¯Â¯ Â°Â±Â¯Â¯
Â¯Â¯Â¯ Â°Â¿Â¯Â¯
Â± Â°Â°Â¯
Â± Â»Â±Â¯Â¯
Ã¯ ÅıÃı
Ã¯ Ä½
ĠÂ¯Â¯Â¯Â¯Â¯ Â¿Â¯Â¿
ĠÂ¯Â¯Â¯Â¯Â¯ Â·Â¯Â¿
ĠÂ¯Â¯Â¯Â¯Â¯ Â´Â¯Â°
Ä¯ Ä°Ã¯
Ä¯ ÅĪ
Ä¯ Ã¨
Â· Â±Â¿Â·Â¯Â¯
Â· Â±Â¿Â°Â¯Â¯
Ãı Ã¯ÃĶ
Ãı Ä¼
Â¯Â¯Â¯Â¯ Â±Â·Â¯
Â¯Â¯Â¯Â¯ Â¿Â´Â¯
Â¿ Â·Â°Â¯
Â¿ Â°Â¯Â¯Â¯Â°Â¯
Â°Â¯Â¯ Â±Â°Â¯Â¯
Â·Â¯Â¯ Â´Â¯Â¯Â¯
Â·Â¯Â¯ Â·Â±Â¯Â¯
ĠÂ¯Â¯Â¯ Â·Â¯Â¯Â¯Â°
Â°Â¯ Â¸
Â±Â¯ Â±Â±Â¯Â¯Â¯
Â±Â¯ Â±Â¿Â¯Â¯
Â±Â¯ Â»Â±Â¯Â¯
Â±Â¯ Ã·Â¸Â¯
Â¿Â¯Â¯Â¯ Â¸Â°Â¯
ĠÂ¯Â¯Â· Â¸Â¯Â¿Â¯Â¯
ĠÂ¯Â¯Â· Â¸Â¯Â·
ĠÂ¯Â¯Â· Ã·Â·Â¯Â¯Â¯
ĠÂ¯Â¯Â¿ Ã·Â±Â¯Â¯Â¯
Â±Â¯Â¯Â¯ Â°Â°Â¯
Åı ÃĿ
Åı Ã°Ä¯
Ã¿ Ä°Ãı
ÃĹ Â¿
ÃĹ Â´Â¿Â·Â¯Â¯
Â¹ Â¼
Ãĥ Ã¯Ãĳ
Ãĥ ÃıÄ¯
Ãĥ Ãĭ
Ãĥ Ãł
Ãĥ Ä¯Äı
ĠÂ¯Â¯Â·Â¯ Â·Â¯Â±Â¯
ĠÂ¯Â¯Â·Â¯ Â±Â¯Â¯Â±
ĠÂ¯Â¿ Â±Â±Â¯
Â°Â¯Â¯Â¯Â¯ Â¿
Â°Â¯Â¯Â¯ Â±
Â°Â¯Â¯Â¯ Â´Â¯Â¯
Â°Â¯Â¯Â¯ ÃĹÂ¯Â¯
ĠÂ¯Â¯Â¿Â¯ Â°Â¯
ĠÂ¯Â¯Â¿Â¯ Â¿Â¯Â±Â¯
Ä° Åĳ
Ä° Ã¯Ãĳ
ĠÂ¯Â· Â¿Â°Â¯
ĠÂ¯Â· Â·Â°
ĠÂ¯Â· Â¿Â¯Â¯Â¯Â°Â¯
ĠÂ¯Â· Â¿Â±
ĠÂ¯Â· Â¯Â¯Â¯Â¯Â¯Â±
ĠÂ¯Â· Â·Â¯Â¯Â¯Â¿Â¯
Ã· Â¯Â¿Â¯Â¯
Ã· Â¯ÃĹ
Ã· Â°Â¿Â±Â¯Â¯
Ã· Â¯Â¿Â¯Â¯Â¯Â¯
Ä¯Ã¯ Åĵ
Ä¯Ã¯ ÃŁ
Ä¯Ã¯ ÃıÃģ
Ä¯Ã¯ ÅĶ
Ä¯Ã¯ ÃıÃī
Â±Â¯Â¯Â¯Â¯ Â´Â¯
Ã¯Ãı Ä±
Ã¯Ãı Å¯
Â·Â¯ Â±Â·Â¯Â¯
Â·Â¯ Â°Â·Â¯Â¯
Â·Â¯ Â°Â´Â¯Â¯
Ãģ ÅĢ
Ãģ Ä¯Ãĳ
Ãģ Ä¯Åĵ
Ãĵ Åĥ
Ãĵ Ã´
ĠÂ¯Â¯Â·Â¯Â¯ ÃĹÂ¸Â¯
ĠÂ¯Â¯Â°Â¯ Â´
ĠÂ¯Â¯Â°Â¯ Â´Â°Â¯Â¯
ĠÂ¯Â¯Â°Â¯ Â¿Â¯Â±Â¯
ĠÂ¯Â¯Â°Â¯ Â±Â¯Â°Â¯
Ã± Åĥ
Ã± Ä¹
Ã± ÃıÃı
Ã³ Ä¯Ãĥ
Ã³ Ãħ
Ã³ Ã±Ãģ
ĠÂ¯Â¯Â¿Â¯Â¯ Ã·Â¸Â¯
Ä· Ã´
Ä· Ä³Ã³
ĠÂ¯Â± ÃĹÂ°
ĠÂ¯Â± Ã·Â¯Â¯Â±Â¯Â¯
ĠÂ¯Â± Â¸Â¯Â·Â¯Â¯Â¯
Ä³ ÅĹ
Ä³ ÃĶ
Ä³ ÅŁ
Ãĳ ÃĻ
Ãĳ Ä¯Ã¿
Ãĳ Ã¯Äĥ
Ãĳ Ä°Ä¿
ĠÂ¯Â¯ÃĹ Â·Â¯Â±Â¯Â¯
ĠÂ¯Â¯ÃĹ Â¿Â·Â¯Â¯Â¯
ĠÂ¯Â¯ÃĹ Â¿Â¿Â¯Â¯Â¯
ĠÂ¯Â¯ÃĹ Â·Â¿Â¯Â¯Â¯
ĠÂ¯Â¯ÃĹ Â¯Â¯Â¯Â¯Â°
Â¯Â¯Â±Â¯Â¯ Â·Â¯
ÃĲ Äĥ
ÃĲ Ã¸
Â¿Â¯ Â°Â¿Â¯Â¯
ÃĢ ÃĦ
ÃĢ ÃŁ
ÃĢ ÃıÃ¯
ĠÂ¯Â¯Â¯Â° Â°Â¯Â±Â¯
ĠÄ¯ Ãĺ
ĠÄ¯ Ä²
ĠÄ¯ Æģ
ĠÄ¯ Ã¶
ĠÄ¯ Ã½
ĠÄ¯ Ã²Ãı
ĠÂ¯Â¯Â¯Â°Â¯ Â»Â±Â¯
ĠÂ¯Â¯Â¯Â°Â¯ ÃĹÂ·Â¯
ĠÂ¯Â¯Ã· Â¯Â·Â·Â¯Â¯
ĠÂ¯Â¯Ã· Â±Â¯Â¯Â´Â¯
ĠÂ¯Â¯Â¯Â±Â¯ Â±Â·Â¯
ĠÂ¯Â¿Â¯Â¯ Â·Â¯
ĠÂ¯Â¿Â¯Â¯ Â±Â¯Â±Â¯
Åĵ ÃĢ
ĠÂ¯Â¯Â¯Â¯Â¿ Â°Â·Â¯
ĠÂ¯Â¿Â¯Â¯Â¯ Â±Â¿Â¯
ĠÂ¯Â¿Â¯Â¯Â¯ Ã·Â¸Â¯
Ä± Ã¯Ãı
ÅĹ Åı
ÅĹ Ã¯Ã¯ÃĲ
Â¸Â¯Â¯ Ã·Â°Â¯
Â±Â°Â¯ Â°
ÃĹÂ¯Â¯ Â±
ÃĹÂ¯Â¯ Â·Â°Â¯
ĠÃı Äĥ
ĠÃı Ä¹
ĠÃı Ä¸
ĠÃı ÃĪ
ĠÃı Ã¯Åı
ĠÃı ÃĨ
ĠÃ¯ Ã³Ãı
ĠÃ¯ ÅıÃ¿
ĠÃ¯ Ã©
Â¯Â¯Â¯Â¯Â¯Â¯Â¯ Â±
ĠÂ¯Â¯Â¯Â¯Â· Â·Â·Â¯
ĠÂ¯Â·Â¯Â¯ Â°Â·Â¯Â¯
ĠÂ¯Â·Â¯Â¯ Â°Â¿Â¯Â¯
ÃĻ Ä¯Ã¯
ÃĻ Ä°Ã¯
Ã¹ Ã³
Ã¹ Ä±
Ã¹ ÅĲ
Ã¹ ÃıÃģ
Ã¹ Ä¯Ãĵ
Åĥ ÃŁ
Åĥ Å¹
Â¯Â¿ Ã·Â¯Â¯Â¯
ĠÂ¯Â° Â±Â¯Â¯Â·
ĠÂ¯Â° ÃĹÂ°
ĠÂ¯Â° Â·Â¯Â¿Â·Â¯Â¯
ĠÂ¯Â° ÃĹÂ¯Â·Â¯Â¯Â¯
Äģ ÃĪ
Â´Â¯ Ã·Â±Â¯
ĠÄ¯Ã¯ Ã³
ĠÄ¯Ã¯ Å£
Äı Åĵ
Äı ÅĢ
Ã° Åĥ
ÃĶ Åı
ÃĶ Ã¯Ãı
ÃĶ ÃĶ
Âµ ÃĻ
Âµ Ã¯Ãĳ
ĠÂ¯Â¯Â± Â¿Â¯Â±Â¯Â¯
Ãĺ Ä¯Ã³
ÃĦ Ä¯Ã¹
ÃŁ Ä¯Ã¯
ÃŁ Äģ
Ãĩ Ãĺ
ĠÃ¯Ãı ÅĲ
ĠÃ¯Ãı Ã´
Â» Â¯Â¿Â°Â¯Â¯
Â¸Â¯ ÃĹÂ¸Â¯
Ä¯Ãı Åı
Ä¯Ãı Ä°
Ä¯Ãı Ãĩ
Ä¯Ãı Ä¯Ãī
Ã·Â¯Â¯ Â°Â¯Â¯Â¯
Ã·Â¯Â¯ Â±Â±Â¯
ĠÂ¯Â±Â¯Â¯Â¯ ÃĹÂ¸Â¯
ĠÂ¯Â±Â°Â¯ Â°
ĠÂ¿ Â´Â¯
ĠÂ¿ Â±Â±Â¯Â¯
ĠÂ¿ Â¿Â±
ĠÂ¿ Â±Â¯Â¯Â¯Â°Â¯Â¯
ĠÂ¯Â¯Â¯Â·Â¯ Â¶Â¯Â¯
ĠÂ¯Â¯Â¯Â·Â¯ Â¸Â°Â¯
Â¯Â±Â¯Â¯ Â·Â¯
Â¯Â±Â¯Â¯ Â·Â°Â¯
ĠÂ¯Â¯Â° Â¸
ĠÂ¯Â¯Â° Â·Â¯Â±Â¯Â¯
ĠÂ¯Â¯Â° Â±Â¯Â¸Â¯Â¯
Â¯Â·Â¯Â¯ Â·
Â¯Â·Â¯Â¯ Â´Â¯Â¯
Â¯Â·Â¯Â¯ Â¿Â¯
Â¯Â°Â¯Â¯ Â°
ÅŁ Ã¿
ÅŁ Ä°
ÅŁ Äĥ
ÃĹÂ°Â¯Â¯ Â¿Â¯Â¯
Â¯Â¯Â¯Â±Â¯ Â±
ĠÂ¯Â°Â¯Â¯Â¯ ÃĹÂ¸Â¯
ĠÂ¯Â°Â¯Â¯Â¯ Â¿Â´Â¯
ĠÂ¯Â°Â¯Â¯Â¯ Ã·Â·Â¯
ĠÂ¯Â¯Â¿Â° Â°Â¿Â¯Â¯
ÅĢ Âµ
Åĳ ÃĲ
Åĳ Åĥ
Ã¯Ã¯ Ã³
Ã¯Ãĵ Ä¿
ĠÂ¯Â±Â°Â¯Â¯ Â±
ĠÂ¯Â±Â°Â¯Â¯ Ã·Â±Â¯
Ä´ Ã³
ÃıÃĥ Ä¯Ä¯
Ä¯Ä¯ Ä·
Ä¯Ä¯ Ã°
ÄĢ Ãģ
Â¿Â·Â¯ Â¿Â·Â¯
ĠÂ¯Â¯Ã·Â¯ ÃĹÂ¿Â¯Â¯
ĠÂ· Â·Â±Â¯
ĠÂ· Â»Â¯Â¯Â¯Â¯Â¯Â¯
Ä¯Ã± Ãģ
Ä¯Ã¿ Ãģ
Âº ÃıÂµ
ĠÂ¯Â¯Â¯Â· Â¸
Å¿ ÃĢ
Å¿ Ã°
Ã´ Ã¯Ãı
ĠÃ¯Ã¯ ÃĢ
Åģ Ä¯Ãģ
ÃıÃģ Ä¯Ä¿
ĠÂ¯ÃĹ Â¶Â¯Â¯
ĠÂ¯ÃĹ Â±Â¯Â·
ĠÂ¯ÃĹ Â¯Â·Â¯Â¯Â¯Â¯
ĠÂ¯ÃĹ Â¶Â¯Â¯Â¯Â¯Â¯
ĠÂ¯Â¯Â¸ Â¯Â·Â·Â¯Â¯
ĠÂ¯Â¯Â´Â¯ Â±Â¿Â¯Â¯
Äĩ Ã°
ÅĦ Ãģ
ĠÂ¯Â¿Â¯ Â±Â¯Â¿Â¯Â¯
ĠÂ¯Â¿Â¯ Â±Â°Â¯Â¯Â¯
Ã¯Ãĳ Ã¯Ã¯
Ãī Ä¯Ä¿
ÃıÃı Ã³
Ä¯Ã³ Ãĳ
Ãħ Ä¹
ĠÂ¯Ã· Â¯Â¿
ĠÂ¯Ã· Â·Â¯Â±Â¯Â¯Â¯
ĠÂ¯Ã· Â±Â¯Â¯Â·
ĠÂ¯Ã· Â·Â¯Â·Â¯Â¯Â¯
ĠÂ¯Ã· Â¸Â¯Â¯ÃĹÂ°Â¯
ÃıÃ¯ Ãĩ
ĠÂ¯Â¯ÃĹÂ° Â´Â¯Â¯Â¯
ĠÂ¯Â¯ÃĹÂ° ÃĹÂ·Â¯Â¯
ĠÂ¯Â¯Â±Â°Â¯ Â¸Â°Â¯
ĠÂ¯Â¯Â±Â°Â¯ Â¿Â¿Â¯
ĠÂ¯Â¯Â±Â°Â¯ ÃĹÂ¸Â¯
ĠÂ¯Â¯Â¯Â¯Â± Â±
ĠÂ¯Â¯Â¯Â¯Â± Â·Â±Â¯
ĠÂ¯Â¯Â¯Â¯Â¯Â¿ Â°
ĠÂ¯Â¯Â¯Â¯Â¯Â¿ Ã·Â¯
ĠÂ¯Â¯Â¸Â¯ Â±Â±Â¯Â¯
ĠÂ¯Â¯Â¸Â¯ Â±Â·Â¯Â¯
Â¯ÃĹ Â±Â¯Â°Â¯Â¯
ĠÃıÃı Åģ
Â¿Â°Â¯Â¯ Â·
ĠÂ¯Â¯Â¯Â´Â¯ Ã·Â°Â¯
ĠÂ¯Â¯Â¿Â± Â±
ĠÂ¯Â¯Â¿Â± Â»Â¯Â¯Â¯
ĠÂ¯Â·Â¯ Â±Â¯Â±Â¯Â¯
ĠÂ¯Â·Â¯ Â¿Â¯Â°Â¯Â¯
Â·Â°Â¯ Â±Â¯Â¯Â¯
Â·Â°Â¯ Â·Â´Â¯
Ã£ Ã¯
ÅĶ Ã¿
ĠÂ¯Â¯Â¯Â¯ÃĹ Â±
ĠÂ¯Â°Â°Â¯ Â°
ĠÂ¯Â°Â°Â¯ Ã·Â±Â¯Â¯
Ã¯Ãĺ Ãı
ĠÂ¯Â¯Â» Â·Â¯
ĠÂ¯Â¯Â» Â°Â¯Â·Â¯Â¯
ĠÂ¯Â¿Â°Â¯Â¯ Ã·
ĠÂ¯Â¯Â¯Â´ Â±Â°Â¯Â¯
ĠÂ¯Â¯Â¯Â´ Â¯Â¿Â¸Â¯
Â¯Â° Â°Â°Â¯
Äĳ ÃĶ
ÃıÃ± Ãĥ
ĠÂ¯Â¿Â· Â°Â¯Â±Â¯Â¯
ĠÂ¯Â¿Â· Â±Â¯Â±Â¯Â¯
ĠÂ¯Â¿Â· Â¿Â·Â¯Â¯Â¯
ĠÂ¯Â¿Â· Â°Ã·Â¯Â¯Â¯
ĠÂ¯Â±Â° Â¿Â¯
ĠÂ¯Â±Â° Â±Â·Â¯Â¯Â¯
ĠÂ¯Â±Â±Â¯ Â·Â´Â¯Â¯
Â¯Â°Â¯ Â´Â¯
ÃıÄ¯ Ãĩ
ÃıÄ¯ Ãħ
ÃĹÂ¯ Â±Â±Â¯Â¯
ÄŁ Ã§
Â¶ Â±Â¯
Â¶ Â¯ÃĹÂ¯Â¯
ĠÂ¯Â±Â¯ Â±Â¯Â¿Â¯Â¯
ĠÂ¯Â±Â¯ Â±Â¯Â·Â¯Â¯
ĠÂ¯Â¯Â´ Â·Â¯
ĠÂ¯Â¯Â´ Â¿Â·Â¯Â¯Â¯
ÃĹÂ°Â¯ ÃĹ
ĠÂ¯Â¿Â°Â¯ Â·Â´Â¯Â¯
ĠÂ¯Â¿Â°Â¯ Â·Â±Â¯Â¯
ĠÂ¯Â¿Â°Â¯ Ã·Â´Â¯Â¯
Ãł Ãģ
ĠÂ¯Â¯Â¯Â¯Ã· Â·
Â¯Â¯Â±Â¯ Â±Â´Â¯Â¯
ĠÂ¯Â°Â¯ Â¿Â°Â¯Â¯Â¯
Â¯Â± ÃĹÂ¯Â¯
ĠÂ¯Â¯Â·Â± Ã·Â¯Â¯Â¯
ĠÂ±Â¯Â¯Â¯Â¯ ÃĹÂ¯Â¯
Ä¯ÃĻ Ãı
Æı Ä·
Æı Ä±
Â¯Â±Â¯ Â¿Â·Â¯
ĠÂ¯Â°Â°Â¯Â¯ Ã·
ĠÂ¯Â¯Ã·Â± Â·Â±Â¯Â¯
ĠÂ¯Â¯Ã·Â± Â¿Â¿Â¯Â¯
Ã¯Ã³ Ä¯Ä¯
ĠÂ¯Â·Â°Â¯Â¯ Â·Â·Â¯
ĠÂ¯Â¯Â¯Â¸Â¯ Â±
ĠÂ¯Â¯Â¯Â¸Â¯ Ã·
ĠÂ¯Â¯Â¿Â·Â¯ Â¿Â°Â¯
ĠÂ¯Â¯Â¿Â·Â¯ Â·Â±Â¯
ĠÂ¯Â¯Â¿Â·Â¯ Â·Â·Â¯
ĠÂ¯Â¿Â° Â¿Â·Â¯Â¯Â¯
ĠÂ¯Â·Â°Â¯ Â°
ĠÂ¯Â·Â°Â¯ Â°Â°Â¯Â¯
ÄĻ Ãı
ĠÂ¯Â¿Â±Â¯Â¯ Â¸Â¯Â¯
ĠÂ¯Â¿Â±Â¯Â¯ Â·Â¸Â¯
ÄĦ ÃĻ
Ã§ Åı
ĠÂ¯Â¯Â¿Â· ÃĹÂ°Â¯Â¯
ĠÂ¯Â¯Â¸Â¯Â¯ ÃĹÂ´Â¯
ĠÂ¿Â¯ Â´Â¯
ĠÂ¿Â¯ Ã·Â¯
ĠÂ¿Â¯ Â·Â°Â¯Â¯Â¯Â¯
ĠÂ¿Â¯ ÃĹÂ°
ĠÂ¿Â¯ Â¿Â±Â¯Â¯Â¯Â¯
ĠÂ¯Â¯Â¿Â´ Â¯Â¿Â±Â¯
Â¯Â¯Ã· Â¶Â¯
ÅıÂµ Ã¯ÃĶ
Ä¯Ä³ Ä¯
Å° Ä¯
ĠÂ¯Ã·Â¯Â¯ ÃĹÂ¯Â¯Â¯
Ã·Â°Â¯ Â±Â°Â¯
ĠÂ¯Â¯Â¿Â´Â¯ Â´Â°Â¯
ĠÂ± Â±Â°Â¯Â¯
ĠÂ± Â°Â¿Â¯
ÃıÃĳ Ãģ
ÃıÃĳ Ã¯Ã¯
ÃıÃĳ Ã¯ÃĲ
Åĩ Ä¯
Åĩ Ãı
ĠÂ·Â¯Â¯Â¯ Â±
ÃıÄ± Ã³
ĠÂ·Â¯ Â±Â¯Â¯Â¿Â¯Â¯
ĠÂ·Â¯ Â·Â¯Â¯Â±Â¯Â¯
Äħ Ãı
Ä¯Åĥ Ä¯
ÃıÃĵ Ã¯
ÃıÃĵ Ãı
Â°Â¿ Â·
Ã¯Ã¹ Ãı
ĠÂ¯Â¯Â¯Â¯Â¯Â° Â¸Â¯
ĠÂ¯Â¯Ã·Â±Â¯ Â¿Â¿Â¯
ĠÂ¿Â¯Â¯Â¯Â¯ Â±Â±Â¯
ĠÂ¿Â· Â¿
ÃıÃ° Ã¯Ãı
ĠÂ¯Â¸ Â·Â¯
ĠÂ¯Â¸ Â°Â¯Â¯Â¯Â±Â¯
ĠÂ¯Ã·Â¯Â¯Â¯ Â·Â°Â¯
ĠÂ¯Â¿Â¯Â¯Â¯Â¯ Â»Â¯
ĠÂ¯Â¯Â°Â° Â°Â°Â¯Â¯
Ä·Âµ Ãı
Â±Â· Â¸Â¯Â¯
Ã¯Ä° Ä¿
Äµ Ãģ
ĠÂ¯Â·Â¿Â¯ Â°Â°Â¯Â¯
ĠÂ¯Â·Â¿Â¯ Â·Â±Â¯Â¯
Â±Â¯Â¿ Â»Â¯Â¯
ĠÂ¯Â¯Â¯Â¯Â¯Â± Â±Â°
ĠÂ¯Â¿Â± Â°Â¿
Â°Â· Â¿Â¯Â¯Â¯
Â°Â· Â¸Â¯Â¯Â¯
Â°Â· Â¿Â±Â¯
Â·Â° Â±Â¯
ĠÅı Äģ
ĠÂ¯Â´ Â°Â¯Â¯Â¯Â°Â¯
Â¯Â¯Â± Â°Â¯Â¯Â¯Â¯
ĠÂ¯Â¯Â¿Â¸ Â¯Â·Â·Â¯
Ä¿Ãģ Ä¯
ĠÂ¯Â» Â¯Â¯Â¯Â¯Â°Â¯
ĠÂ¯Â¯Â±Â± Â¿Â¸Â¯Â¯
ĠÂ¯Â·Â±Â¯Â¯ Â¿
ÃıÄ³ Ãı
ĠÂ¯Â¯Â¯Â°Â¿ Â»Â¯Â¯
Â°Â¯Â· Â¿Â¯Â¯
ĠÄ¯Ã¯Ãı Ä¯Ã¯Ãı
Ã¯Ã´ Ä¯ÃĻ
ĠÂ¯Â¯Â¯Â¯Â» Â±Â°Â¯
ĠÂ¯Â¯Ã·Â´ Â·
ĠÂ¯Â¯Ã·Â´ Â¿Â±Â¯Â¯
ĠÂ¯Â·Â° Â¿Â¯Â¯Â¯Â¯
ĠÂ¯Â¯Â°Â°Â¯ Â·Â·Â¯
ĠÂ¯Â¯Â°Â°Â¯ Â°Â·Â¯
ĠÂ¯Â±Â°Â¯Â· Â¿Â¯Â¯
ĠÂ¯Â·Â´Â¯ Ã·Â¯Â¯Â¯
ĠÂ¯Â·Â´Â¯ Ã·Â°Â¯Â¯
ĠÂ¯Â¯Ã·Â´Â¯ Ã·Â°Â¯
ĠÂ¯Â¯Ã·Â´Â¯ Â·Â·Â¯
Â±Â° ÃĹ
ĠÂ¯Â¿Â¸Â¯Â¯ Â±Â°Â¯
Â¿Â° Â·Â±Â¯Â¯
Â¿Â° ÃĹÂ±Â¯Â¯
ÅıÃĳ Ã¯Ãı
ÅıÃĳ Ã¯ÃĶ
ĠÂ¿Â¿Â¯ Â°Â¯Â¯Â¯Â¯
ĠÂ¿Â¿Â¯ Â±Â¯Â¯Â¯Â¯
ĠÂ¯Â¯Â·Â· ÃĹÂ¯Â¯Â¯
ĠÂ¯Â¯Â·Â· Ã·Â±Â¯Â¯
ĠÂ¯Â¯ÃĹÂ´Â¯ Â±Â±Â¯
ĠÂ¯Â·Â± Â±Â¯Â¯Â¯Â¯
ĠÄ¿ Ã¿
ĠÂ¯Â·Â´Â¯Â¯ Â¿Â·Â¯
Ã¯Ãħ Ä¯
Â¿Â± Â·Â°Â¯Â¯
ĠÃıÃģ Ãı
ĠÃıÃģ ÅĹ
ĠÄ· Ãı
Ã¯Ä¹ Ãĥ
ÃĹÂ° Â±Â°Â¯Â¯
ĠÂ¯Â¯Â¯Ã· ÃĹÂ¯Â¯Â¯
ĠÂ¯Â¯Â¯Ã· Â¯Â¿Â¯Â¯
Ã¶ Ã¯
ĠÂ¯Â¯Â·Â´Â¯ Â°Â°Â¯
ĠÃ· Â°
ĠÃ· Â·Â¯Â¯Â¯
Â·Â¯Â· Â¿Â¯Â¯
Â·Â¯Â· Â¿Â¯
Ä§ Ã¯
Ä§ Ãĥ
ĠÂ·Â· Â°Â¯Â¯Â¯Â¯Â¯
ĠÂ¯Â¯Ã·Â¸ Â·Â´Â¯Â¯
Ã¿ÃĲ Ãı
ĠÂ¯Â´Â¯Â¯Â¯ Â·
ĠÃĹ Â¸
ĠÃĹ Â·Â¯Â¯Â¯Â¯Â¯Â¯
ĠÂ¯Â¿Â·Â¯Â· Â¿Â¯Â¯
ĠÂ¯Â¿Â¿Â¯Â¯ ÃĹÂ¯Â¯
Â¿Â· Â¿Â¯Â¯Â¯
Â¿Â· Â°Â¯Â¯Â¯
Ã¿Âµ Ãı
ĠÂ¯Â¿Â´ Â¯Â¿Â¸Â¯Â¯
Â°Ã· Â±Â¯Â¯Â¯
Â·Â· Â·Â¯Â¯
ĠÂ±Â°Â¯Â¯Â¯ Â±Â°Â¯
ĠÄ¯Äĥ ÃĻ
ĠÂ» Â°Â¯Â¯Â¯Â¯Â¯Â¯
ĠÂ¿Â·Â¯Â¯Â¯Â¯ ÃĹÂ¯
ĠÂ¯Â¯ÃĹÂ¸ Â¿Â¯Â¯Â¯
ĠÂ¯Â±Â°Â¯Â¯Â· Â¸Â¯
Ã¯Ã² Ãı
Ã¿Âº Ãı
ĠÂ¯Â¯Â¯Â¯Â¿Â· Â¿Â¯
ĠÂ¯Â¿Â±Â¯Â¯Â¯ Â´Â¯
ĠÂ¯Â¯ÃĹÂ±Â¯Â¯ Â´Â¯
Â¯Â¯Â´ Â·Â¯Â¯
Â¯Â¯Â´ Â·Â¯
ĠÂ¯Â¿ÃĹ Â°Â¿Â¯Â¯Â¯
ĠÂ¯Â¿Â¯Â· Â·Â¯Â¯Â¯
ÅıÃ¯Ã¯ ÃĲ
ÃıÄ¸ Ãĥ
ĠÂ¯Â¯Â°Â· ÃĹÂ¯Â¯Â¯
Â¯Â¯Â» Â¸Â¯Â¯
ĠÂ¯Â¯Â·Â¿ ÃĹÂ¯Â¯Â¯
Â±Â¯Ã· Â¿Â¯Â¯
ĠÂ¯Â¯Â¯Â±Â° Â±Â°Â¯
ĠÂ¯Â¯Â·Â¯Â¯ÃĹ Â¿Â¯
ĠÂ¯Â±Â°Â¿ Â´Â¯Â¯Â¯
Â¿Â¯Ã· Â¸Â¯Â¯
ĠÂ¯Â±Â¯Â¿ Â¸Â¯Â¯Â¯
ĠÂ¸Â¯ Â±Â¯Â¯Â¯Â¯Â¯
ĠÂ¯Â¯Â¯Â¯Ã·Â¯ Â·Â¯
ĠÂ¯Â¯Â¯Â¯Â¯Â¸ Â·Â¯
ĠÂ¯Â¯Â¯Â¯Â¯Â¸ Â´Â¯
Ã³Ä± Åı
ĠÃĹÂ¯ Â°Â¯Â¯Â¯Â¯Â¯
ĠÂ¯Â±Â¸ Â°Â¯Â¯Â¯Â¯
ĠÂ¯Â¯Â¿Â¯Â» Â·Â¯Â¯
Ã¿Ä´ Ãģ
ĠÂ°Â¯Â¿Â¯Â¯ Â°Â¯Â¯
ĠÃ¯Ãķ Ã¿
ĠÂ±Â¯Â°Â¯Â¯ Â°Â¯Â¯
ĠÂ¯Â±Â¯Â¯Â¯Â¯Â¯ Â±
ĠÂ°Â¯Â±Â¯Â¯ Â±Â¯Â¯
ĠÂ±Â°Â°Â¯ Â±Â¯Â¯Â¯
ĠÂ¯Â¯Â¯Â¿Â·Â¯ Â°Â¯
ĠÂ·Â¿Â±Â¯Â¯Â¯ Â¿Â¯
Ã ª
Ã ¬
Ã Ń
Ä «
Ġ ÅĲ
Ġ ÃĹÂ±Â¯Â¯
Ġ ÃĹÂ´Â¯
Ġ ÃĲÃı
Â¯ Â¶Â¯
Â¯Â¯Â¯ Â´Â°Â¯Â¯
Â¯Â¯Â¯ Â´Â·Â¯
ĠÂ¯ Â°Â¯Â·Â¯Â¯
Â± Â´Â¯Â¯Â¯Â¯Â¯
Â± Â°Â·Â¯Â¯Â¯
Ã¯ Æģ
Â° Â¶Â¯Â¯Â¯
ĠÂ¯Â¯Â¯Â¯Â¯ Â´Â¯
ĠÂ¯Â¯Â¯Â¯Â¯ Â¸Â¯
Ä¯ ÅıÂµ
Ä¯ Åļ
Ä¯ Æĵ
Ä¯ Æĳ
Â· Â»
Â· Â±Â¯Â¯Â°Â¯
Â· Â°Â·
Â· Â±Â¿Â±Â¯Â¯
Ãı ÅıÃ±
Ãı Ã«
Ãı Æĵ
Ãı ÄĤ
Â¯Â¯Â¯Â¯ Â°Â´Â¯Â¯
Â¿ Ã·Â°Â¯Â¯
Â¿ Â·Â·Â¯
Â¿ Ã·Â¯Â¯Â¯Â¯Â¯
Â¿ Â°ÃĹÂ¯Â¯Â¯
Â¯Â¯Â¯Â¯Â¯ Â»Â¯
Â°Â¯Â¯ Â´Â¯Â¯Â¯
Â°Â¯Â¯ Ã·Â¯
Â±Â¯Â¯ Â¸Â¯Â¯Â¯
Â±Â¯Â¯ ÃĹÂ¯
Â·Â¯Â¯ ÃĹÂ¯
Â·Â¯Â¯ Â¸Â°Â¯
Â°Â¯ Â°Â¿Â¯
Â°Â¯ ÃĹÂ·Â¯
Â±Â¯ Â±Â·Â¯
Â±Â¯ Â±Â·Â¯Â¯
Â±Â¯ Â´Â°Â¯Â¯
Â±Â¯ Â¿Â¯Â¿Â¯
ĠÂ¯Â¯Â· Ã·Â¯Â¯Â¯Â¯
ĠÂ¯Â¯Â· Â¸Â¯Â·Â´Â¯
Â·Â¯Â¯Â¯ Â°Â°Â¯
Åı Ã²
Åı Åī
Åı Ã±Ãı
Ã¿ ÃıÃ¯
Ã¿ Äĳ
Ã¿ ÄĦ
Ã¿ Ä¯Ä±
Ã¿ Ä¯Åı
Ã¿ Ä°Ã¯
Â´ Â±Â¯Â¯Â¯Â¯Â¯
Â´ Â´Â¯Â¯
Â´ Ã·Â°Â¯Â¯
ÃĹ Â±Â¿Â¯Â¯Â¯
ÃĹ Â¯Â·Â·Â¯Â¯
Â¹ Â½
Ãĥ Ä¯ÃĻ
Ãĥ Ã±Ãı
ĠÂ¯Â¯Â·Â¯ Â¿Â¯Â¯
ĠÂ¯Â¿ Â¶
ĠÂ¯Â¿ Â¶Â¯Â¯
ĠÂ¯Â¿ Â»Â¯Â±Â¯Â¯Â¯
ĠÂ¯Â¯Â¿Â¯ Â¿Â¯
ĠÂ¯Â¯Â¿Â¯ Â°Â¯Â·Â¯
ĠÂ¯Â¯Â¿Â¯ Â´Â·Â¯Â¯
Ä° ÃıÃĥ
Ä° Äĩ
Ä° ÃıÃ¯
Ä° Å£
ĠÂ¯Â· Â¯Â¯Â¯Â¯Â¯
ĠÂ¯Â· ÃĹÂ±Â¯Â¯Â¯Â¯
ĠÂ¯Â· Â»Â¯Â¿Â¯Â¯Â¯
Ã· Â¸Â¯Â¯Â¯Â¯Â¯
Ã· Â¯Â·Â±Â¯Â¯
Ã· Â±Â¯Â±Â°Â¯
Ã· Â¯Â¿Â¸Â¯Â¯Â¯
Ä¿ Ã¯Ã¯
Ä¿ Ã´
Ä¿ Ä¯Ã³
Ä¿ Ã²
Ä¯Ã¯ Ä³
Ä¯Ã¯ Ä±
Ä¯Ã¯ Ãĺ
Ä¯Ã¯ Ä´
Ä¯Ã¯ Ä¯Ã¹
Ä¯Ã¯ Ã¯Ãģ
Â´Â¯Â¯ ÃĹÂ¸Â¯
Â´Â¯Â¯ Â¿Â´Â¯
Ã¯Ãı ÃıÃĢ
Ã¯Ãı ÃıÃī
ĠÂ¯Â¯Â±Â¯ Â·Â¯Â·Â¯
Â·Â¯ ÃĹÂ´Â¯Â¯
Â¸ ÃĹ
Â¸ Ã·
Â¸ Â¯Â·Â´Â¯Â¯
Â¸ Â¯Â¿Â·Â¯Â¯Â¯
Ãģ Äı
Ãģ Ä¯Ã¹
Ãģ Ã¯Ãģ
Ãģ Ä³Ã¯
Ãģ Ä±Ãı
Ãĵ Ä·
Ãĵ Ã¯Ãģ
Ãĵ Ä±Ã³
ĠÂ¯Â¯Â·Â¯Â¯ Â´
ĠÂ¯Â¯Â°Â¯ Â¸Â±Â¯Â¯
Ã± Åĳ
Ã± Ä¯Ä¯
Ã± Ä¯Âµ
ĠÂ¯Â¯Â°Â¯Â¯ Â´
ĠÂ¯Â¯Â°Â¯Â¯ Ã·Â¸Â¯
ĠÂ¯Â¯Â°Â¯Â¯ Â¿Â¯Â°
ĠÂ¯Â¯Â±Â¯Â¯ Â»Â°Â¯
ĠÂ¯Â¯Â±Â¯Â¯ Â¸Â±Â¯
Ã³ Åĵ
Ã³ Å¯
Ã³ ÅĢ
Ã³ Ã²
ĠÂ¯Â¯Â¿Â¯Â¯ Â±Â¿Â¯
ĠÂ¯Â¯Â¿Â¯Â¯ Â°Â·Â¯
Ä· ÃıÄ¯
Ä· ÃıÃ³
Ä· Ä±Ã¯
ĠÂ¯Â± Ã·Â¯Â¯
ĠÂ¯Â± ÃĹÂ±Â¯
Ãĳ ÅĲ
Ãĳ Ä°Ãĵ
Â¯Â¯Â±Â¯Â¯ Â°Â¯Â¯
ÃĲ Ã¯Ãĳ
ÃĲ Ã¯Ãģ
ÃĲ Æģ
ÃĢ Å¯
ÃĢ Ãĩ
ÃĢ Ä¯Äģ
ĠÂ¯Â¯Â¯Â° Â°Â¯
ĠÂ¯Â¯Â¯Â° Â»Â°Â¯Â¯
ĠÂ¯Â¯Â¯Â° Â·Â¯Â°Â¯
ĠÄ¯ Ä¸
ĠÄ¯ ÃıÄ¯
ĠÄ¯ ÄŁ
ĠÄ¯ Ã³Ãı
ĠÄ¯ Äĭ
ĠÂ¯Â¯Ã· Â¯Â¯ÃĹ
ĠÂ¯Â¯Ã· Â·Â¯Â°Â¯Â¯
ĠÂ¯Â¯Ã· Â·Â¯Â±Â°Â¯
ĠÂ¯Â¯Â¯Â±Â¯ Â°Â·Â¯
ĠÂ¯Â¯Â¯Â±Â¯ Â°Â¿Â¯
ĠÂ¯Â¿Â¯Â¯ Â¿Â¯Â±Â¯
Åĵ Ã¯Ãı
ĠÂ¯Â¯Â¯Â¯Â¿ Ã·
Ä± Æģ
ÅĹ Ãĩ
ÅĹ ÅĽ
ÅĹ Ä±Ãģ
Â¸Â¯Â¯ Â¿Â¯Â¯Â¯
Â¸Â¯Â¯ Â¿Â±Â¯
Â±Â°Â¯ Â¿Â¯
ÃĹÂ¯Â¯ Â°Â¯Â¯Â¯
ÃĹÂ¯Â¯ Â·Â¸Â¯
Å¯ Ã¯Ãı
Å¯ Ã»
Å¯ ÅĴ
Å¯ Ã¨
Å¯ ÆĲ
ĠÃı Ä¯Ãı
ĠÃı Ã¯Ãĵ
ĠÃı Ãķ
ĠÃı Ä¿Ãģ
ĠÃı Åī
ĠÃı ÄģÃĺ
ĠÃ¯ Å°
ĠÃ¯ Ã²
ĠÂ¯Â¯Â¯Â¯Â· Ã·Â°Â¯
ĠÂ¯Â¯Â¯Â¯Â· Â¸Â°Â¯
ĠÂ¯Â·Â¯Â¯ Â´
ĠÂ¯Â·Â¯Â¯ Â·Â¯Â·Â¯
Ã¹ Âµ
Äĥ Ãĥ
Äĥ Ãĵ
Åĥ Äģ
Â¯Â¿ Â´
Â¯Â¿ Â·Â¯Â¯Â¯Â¯Â¯
Â¯Â¿ Â¿Â¯Â¯Â¯Â¯
ĠÂ¯Â° Â±Â¯Â¯ÃĹÂ¯Â¯
ĠÂ¯Â° Â·Â±Â¯Â¯Â¯Â¯
Äģ Ä¯Ãĵ
Äģ Ä°Ãĥ
Â´Â¯ Â±Â´Â¯Â¯
Â´Â¯ Â»Â¯Â¯Â¯
Â´Â¯ Â¶Â¯Â¯
ĠÂ¯Â¯Â¯Â± Â·Â¯
ĠÂ¯Â¯Â¯Â± Â±Â¯Â°Â¯
ĠÂ¯Â¯Â¯Â± Â»Â·Â¯Â¯
Â¯Â· Â´Â±Â¯
ĠÄ¯Ã¯ Äģ
ĠÄ¯Ã¯ Äı
ĠÄ¯Ã¯ Ãł
Äı ÅĶ
Ã° Ä¯Ãı
Ã° ÅĲ
ÃĶ ÃĢ
ÃĶ Ä±Ã¯
Âµ ÃĶ
Âµ Ãĩ
Ã·Â¯Â¯Â¯ Â·
Ã·Â¯Â¯Â¯ Â¿Â¯
Ã·Â¯Â¯Â¯ Â·Â´Â¯
Ãĺ Åı
Ãĺ Ãĵ
Ãĺ Äĥ
Ãĺ Ã¸
ÃĦ Ãĳ
ÃĦ Äº
ÃŁ ÃĶ
ÃŁ Åĳ
ĠÃ¯Ãı Å·
ĠÂ¯Â±Â¯Â¯ Â±Â¯
Â¸Â¯ Â¸Â¯Â¯Â¯
Ä¯Ãı ÃıÃĥ
Ä¯Ãı Ä¯Åĥ
Ä¯Ãģ Ä°
Ä¯Ãģ Ä¸
Ã·Â¯Â¯ ÃĹ
Ã·Â¯Â¯ Ã·Â±Â¯Â¯
ĠÂ¿ Ã·Â¯Â¯
ĠÂ¿ Â±Â¯Â¯Â¯Â¿Â¯Â¯
Ä¯Ãĥ Ä±
ĠÂ¯Â¯Â¯Â·Â¯ Â´Â°Â¯
ĠÂ¯Â¯Â¯Â·Â¯ Ã·Â·Â¯
ĠÂ¯Â¯ÃĹÂ¯ Â°Â·Â¯Â¯
ĠÂ¯Â¯ÃĹÂ¯ Â±Â¿Â¯Â¯
Â¯Â±Â¯Â¯ Â·
Â¯Â±Â¯Â¯ ÃĹÂ¯Â¯
ĠÂ¯Â¯Â° Â»Â¯Â¯Â¯Â¯
Â¯Â°Â¯Â¯ Â·
Â¯Â°Â¯Â¯ Â·Â°Â¯
Â¯Â°Â¯Â¯Â¯ Â·Â¯
ÃĹÂ°Â¯Â¯ Â¿Â¯
ĠÂ¯Â¯Â¿Â° Ã·Â°Â¯Â¯
ÅĢ Ãĥ
ÅĢ Ã³
ÅĢ ÅĹ
ĠÂ¯Â¿Â·Â¯Â¯ Â¶Â¯Â¯
Ä¹ Ãĳ
Ä¹ Äĥ
Åĳ Ãĳ
Ã¯Ã¯ Ãĺ
ÅĲ Ã±
ÅĲ Ä³
ÅĲ Ãħ
Ã·Â°Â¯Â¯ Â°Â¯Â¯
Ã·Â°Â¯Â¯ ÃĹÂ¯Â¯
Ã¯Ãĵ Ä¯Äģ
ĠÂ¯Â±Â°Â¯Â¯ Â»Â±Â¯
ĠÂ¯Â±Â°Â¯Â¯ Â°Â·Â¯
ÃıÃĥ Ä¯Ã¯
ÃıÃĥ Ã¯Ãĳ
Ä¯Ä¯ Ä³
Ä¯Ä¯ ÃŁ
ÄĢ Ãĥ
ÄĢ Ã±Ãĳ
ĠÂ· Â±Â¯Â¯Â¯Â¯
ĠÂ· Â´Â¯Â¯Â¯
ĠÂ· Â¿Â¯Â¯Â¯Â°Â¯Â¯
ĠÂ· Â¿Â¯Â¯Â¯Â·Â¯Â¯
ĠÂ· ÃĹÂ¯Â¯Â¯Â¯Â¯Â¯
ĠÂ· Â±Â¯Â¯Â¿
ĠÂ· Â¿Â¯Â¯Â¯Â¿Â¯Â¯
ĠÂ· Â¿Â±Â¯Â¯Â¯Â¯Â¯
Ä¯Ã± Ãĥ
Ä¯Ã¿ Ã±
Ä¯Ã¿ ÃıÃĵ
Ä¯Ã¿ Ã±Ã±
Âº ÃıÃī
ĠÄ¯Ä¯ Åĥ
Â¯Â¿Â¯Â¯ Â±
Â¯Â¿Â¯Â¯ Â·Â¯
Â¯Â¿Â¯Â¯ Â¿Â¯
Å¿ Ã¿
Å¿ Ä°
Ã´ ÃĶ
Ã´ Åĳ
ĠÃ¯Ã¯ Ãģ
Åģ Ã±
ÃıÃģ Ã¯Ãı
ÃıÃģ Ä¯ÃĶ
ĠÂ¯ÃĹ Â¸
ĠÂ¯ÃĹ Â¯Â°Â¯
ĠÂ¯ÃĹ Â·Â¯Â¯Â±Â¯Â¯
ĠÂ¯ÃĹ Â±Â¯Â·Â¯Â¯Â¯
ĠÂ¯ÃĹ Â¸Â¯Â¿Â¯Â¯Â¯
ĠÂ¯ÃĹ Â´Â¯Â¯Â¯Â·Â¯
Ã¯ÃĲ Ä¯Ã±
ÄĹ Ãĵ
ĠÂ¯Â¯Â¯Â¿ Â°ÃĹÂ¯Â¯
ĠÂ¯Â¯Â±Â° Â°Â°Â¯Â¯
Â»Â¯Â¯ Â±Â±Â¯
Â¯Â¯Â¿ Â¶Â¯Â¯
ĠÂ¯Â¯Â±Â¯Â¯Â¯ Â¶Â¯
ĠÂ¯Â¿Â¯ Â±Â¯Â·Â¯Â¯
ĠÂ¯Â¿Â¯ Â·Â¯Â°Â¯Â¯
ĠÂ¯Â¿Â¯ Â°Â°Â¯Â¯Â¯
ĠÂ¯Â¯Ã·Â° Â¿Â¸Â¯Â¯
Ã¯Ãĳ Åı
Ä¯Ã¹ ÅıÃģ
ÃıÃı Ä¯Ãĥ
Ãħ Ãı
Ãħ Ä¯Ã¯
ĠÂ¯Ã· ÃĹÂ¯
ĠÂ¯Ã· Â¿Â¯Â¯Â¿Â¯Â¯
ĠÂ¯Ã· Â±Â¯Â·
ĠÂ¯Ã· Â·Â¯Â¯Â·
ĠÂ¯Ã· Â¸Â¯Â¿Â·Â¯Â¯
ĠÂ¯Ã· Â´Â¯Â¿Â·Â¯Â¯
ĠÂ¯Ã· Â¸Â¯Â¯Â¯Â¿Â¯
ĠÂ¯Â¯Â·Â° Ã·Â°Â¯Â¯
ÃıÃ¯ Ä¯Ãı
ÃĽ ÃĲ
ÃĽ Âº
Â°Â°Â¯ Â°Â¯Â¯
ĠÂ¯Â¯Â¯Â¯Â± Â±Â¿Â¯
Ã¯Ãĥ Ä¯Äĳ
ĠÂ¯Â¯Â°Â¯Â¯Â¯ Â»Â¯
Â¯ÃĹ Â¿Â¯
Â¯ÃĹ Â¯Â¯Â¿Â¯Â¯
Â¯ÃĹ Â´Â¯Â¯Â¯
Â¯ÃĹ Ã·Â¯Â¯
ĠÂ¯Â¯Â¯Â¯Â° Â±Â±Â¯
ĠÂ¯Â¯Â¯Â¯Â° ÃĹÂ°Â¯
ĠÂ¯Â¯Â¯Â¯Â° Â´Â±Â¯
Ä¯Ãĳ Ãĥ
Ä¯Ãĳ Ãģ
ĠÃıÃı Åĥ
ĠÃıÃı Ãĩ
ĠÂ¯Â¯ÃĹÂ¯Â¯ Â°
Ã¯Ä¯ Å¯
Ã¯Ä¯ ÃĻ
ĠÂ¯Â·Â¯ Â±Â±Â¯Â¯Â¯
Â·Â°Â¯ Â¿
Â·Â°Â¯ Â¸Â¯Â¯
Â·Â°Â¯ Ã·Â¯Â¯
ÃıÃĦ Ä¯Ã¹
ÅĶ Åģ
ÅĶ Æģ
Ä¯Äĥ Ã¯
ÅıÃĥ Ã¯
ĠÂ¯Â¯Â¯Â¯ÃĹ Â°Â·Â¯
Â¯Ã· Â¯Â°Â¯Â¯Â¯
Â¯Ã· Â±Â¯Â±Â¯Â¯
Â¯Ã· Â¯Â°Â¯
ĠÂ¯Â°Â°Â¯ Â±
ĠÂ¯Â°Â°Â¯ Â¿Â¿Â¯Â¯
Â¯Â¯Â¯Â·Â¯ Â·
Ã¯Ãĺ Äĥ
ĠÂ¯Â¯Â» Â¯Â¯Â·
ĠÂ¯Â¯Â» Â´Â¯Â¯Â¯Â¯
Â¯Â¯Â°Â¯ Â¿Â¯
Ã·Â¯ Â±Â¯
Ã·Â¯ Â·Â¯
ĠÂ¯Â¯ÃĹÂ°Â¯ Ã·Â°Â¯
ĠÂ¯Â¿Â· Â·Â¯
ĠÂ¯Â¿Â· Â°Â¯Â·Â¯Â¯
Â¯Â¯Â¯Â· Â»Â¯
Å· Ãĵ
ĠÂ¯Â±Â° Â±Â¿Â¯Â¯Â¯
ĠÂ¯Â±Â° Â°Â·Â¯Â¯Â¯
ĠÂ¯Â±Â° Â·Â¿Â¯Â¯Â¯
ĠÂ¯Â±Â° Â·Â¸Â¯Â¯Â¯
ĠÂ¯Â±Â±Â¯ Ã·Â°Â¯Â¯
ĠÂ¯Â±Â±Â¯ Â¿Â¿Â¯Â¯
Â¯Â°Â¯ Â¸Â¯Â¯
Â¯Â°Â¯ Â°Â°Â¯Â¯
Â¯Â°Â¯ Â·Â¿Â¯Â¯
ÃıÄ¯ ÃĲ
ÄŁ ÃŁ
ÄŁ Ãħ
Â¶ Â¿Â¯Â¯
Â¶ Â¿Â·Â¯Â¯
ĠÂ¯Â±Â¯ Â±Â¿Â¯Â¯Â¯
ĠÂ¯Â±Â¯ Â±Â°Â¯Â¯Â¯
ĠÂ¯Â±Â¯ Â±Ã·Â¯Â¯Â¯
ĠÂ¯Â¯Â´ Â¿Â¿Â¯Â¯Â¯
ĠÂ¯Â¯Â´ Â¿Â°Â¯Â¯Â¯
ĠÂ¯Â¯Â´ Â°Â±Â¯Â¯Â¯
ĠÂ¯Â¯Â´ Â°Â·Â´Â¯Â¯
ĠÂ¯Â¯Ã·Â°Â¯ Â»Â¯Â¯
ĠÂ¯Â¯Ã·Â°Â¯ ÃĹÂ°Â¯
ĠÂ¯ÃĹÂ¯Â¯ Â±
ĠÂ¯ÃĹÂ¯Â¯ ÃĹ
ĠÂ¯ÃĹÂ¯Â¯ Â°Â°Â¯Â¯
ĠÂ¿Â·Â¯Â¯ Ã·Â±Â¯Â¯
Ãĭ Ãģ
ĠÂ¯Â¯Â¿Â±Â¯ Â·Â±Â¯
Ãµ Ä¯
ĠÂ¯Â¿Â±Â¯ ÃĹÂ°Â¯Â¯
ĠÂ¯Â¿Â±Â¯ Â¿Â¿Â¯Â¯
ĠÂ¯Â¯Â¯Â¯Ã· Â´Â°Â¯
ĠÂ¯Â¯Â¯Â¯Ã· Â°Â¿Â¯
ĠÂ¯Â°Â¯ Â·Â·Â¯Â¯Â¯
ĠÂ¯Â°Â¯ Â·Â¿Â¯Â¯Â¯
ĠÂ¯Â°Â¯ Â·Â±Â¯Â¯Â¯
Â¯Â± Â¿Â¯Â¯Â¯Â¯
ÅĽ Ãĥ
Ã¯Ã± Ä¯Ã¿
Ã¯Ã± Ä¯Äĥ
Â¿Â¯Â¯Â¯Â¯ Â¸Â¯
ÃĴ ÃĢ
ĠÂ¿Â¯Â¯Â¯ Â·Â±Â¯Â¯
ÃıÂµ Äı
ĠÂ¯Â¯Â¯Â°Â¯Â¯ ÃĹÂ¯
ĠÂ¯Â¯ÃĹÂ± Â°Â¯Â¯Â¯
ĠÂ¯Â¯ÃĹÂ± Ã·Â¯Â¯Â¯
ĠÂ¯Â¯ÃĹÂ± Â¿Â¿Â¯Â¯
Æı Ä³
Æı Äı
Â¯Â±Â¯ Â¿
Â¯Â±Â¯ ÃĹ
Å£ Ä¯
ĠÂ¯Â¯Ã·Â± Â´Â¯Â¯Â¯
ÃĤ Ã¯
Ã¯Ã³ Ã¯
ĠÂ¯Â·Â°Â¯Â¯ Â°Â°Â¯
ĠÂ¯Â¯ÃĹÂ±Â¯ ÃĹÂ°Â¯
Â¯Â±Â°Â¯ Â¸Â¯Â¯
ĠÂ¯Â·Â°Â¯ ÃĹ
ÄĻ Ã¯
ÄĻ Ãĥ
Äĵ Ã¯
ĠÂ¯Â¿Â±Â¯Â¯ Â°Â°Â¯
Ã§ Ãģ
Ã§ ÃĢ
ĠÂ¯Â¯Â¿Â· Ã·
ĠÂ¯Â¯Â¿Â· ÃĹÂ¯Â¯Â¯
Â¯Â¯Â·Â¯ Â·Â¯Â¯Â¯
Â¯Â¯ÃĹ Â°Â¯Â¯Â¯Â¯
ÃĪ Ãı
Ã¯Ä± Åı
ĠÂ¿Â¯ Ã·
ĠÂ¿Â¯ Â°Â¯Â¯Â·Â¯Â¯
ĠÂ¿Â¯ Â·Â¯Â¯Â°Â¯Â¯
ĠÂ¯Ã·Â°Â¯Â¯ Â·Â°Â¯
ĠÂ¯Ã·Â°Â¯Â¯ ÃĹÂ±Â¯
Â¯Â¯Ã· Â¯ÃĹÂ¯Â¯Â¯
ĠÂ°Â¯Â¯Â¯Â¯ ÃĹÂ¯Â¯
Ã¯Ã° Ä°
ĠÂ¯Â¯Â¯Â¿Â¯ Â¿
Å° ÃĻ
Â¯Â·Â¯ Â·
Ã» Ä¯
Ã» Ãĳ
Ã» Âµ
ĠÂ¯Â±Â±Â¯Â¯ Ã·Â°Â¯
ĠÂ¯Â¯Â¿Â´Â¯ ÃĹ
ĠÂ¯Â¯Â¿Â´Â¯ Â·Â±Â¯
ĠÂ± Â°Â±Â¯
Ä¯ÃĢ Ä¯
ÃıÃĳ Ã¯Ãı
ÃıÃĳ ÃĢ
Ä¯Åı Ãĳ
Ä¯Ä· Ã¯Ãĵ
ÃıÄ± Ãı
ĠÂ·Â¯ Â°
ĠÂ·Â¯ Ã·
ĠÂ·Â¯ Â±Â¯Â¯Â°Â¯Â¯
ĠÂ·Â¯ Â·Â¯Â¯Â°Â¯Â¯
ĠÂ·Â¯ Â°Â¯Â¿Â¯Â¯Â¯
ĠÂ·Â¯ Â·Â°Â¯Â¯Â¯Â¯
ĠÂ·Â¯ Â·Â¯Â¯Â´Â¯Â¯
ÃıÂº Åı
ĠÂ¯Â·Â±Â¯ ÃĹÂ°Â¯Â¯
ĠÂ¯Â·Â±Â¯ Â°Â°Â¯Â¯
Äħ ÃĻ
Ã² Ãĵ
Â°Â¿ ÃĹÂ¯Â¯
Ã¯Ä· Âµ
ĠÂ¯Â¿Â¸ Â°Â¯Â¯Â¯Â¯
ĠÂ¯Â¯Â¯Â±Â¯Â¯ Â»Â¯
Â¯Â¿Â¯ Â¸Â¯Â¯Â¯
Â¯Â¿Â¯ Â·Â°Â¯Â¯
Â»Â¯ Â¸Â¯Â¯
ĠÂ¿Â¯Â¯Â¯Â¯ Â·Â·Â¯
ĠÂ¿Â· Â¿Â¯Â·Â¯Â¯Â¯
ĠÂ¿Â· Â±Â°Â¯Â¯Â¯Â¯
ÃıÃ° Ã¯Ãĳ
ĠÂ·Â¯Â¯Â¯Â¯ Â»Â¯Â¯
ĠÂ¯Â¸ Â´Â¯
ĠÂ¯Â¸ Â¿Â¯Â¯Â¯Â¯Â¯
ĠÂ¯Â¸ Â¿Â¯Â·Â¯Â¯Â¯
ĠÂ¯Â¸ Â°Â¯Â¿Â·Â¯Â¯
ĠÂ¿Â·Â¯ Â·
Ä¯Ãī Ãı
Â¿Â¯Â· Â·Â¯Â¯Â¯
ĠÂ¯Â¯Â°Â° Â¿Â¸Â¯Â¯
ĠÂ¯Â·Â·Â¯ Â¿Â°Â¯Â¯
Â±Â¿ Â·
Â±Â¿ Â±Â°Â¯
Ã¤ Ãģ
Äµ Ã¹
Äµ Âµ
Â±Â¯Â¿ ÃĹÂ¯Â¯
Â°Â· Â°Â¯Â¯Â¯
ĠÂ¯Â¯Â·Â±Â¯ Â»Â±Â¯
ÃĥÄ¯ Åĵ
ĠÂ¯Â¿Â¸Â¯ Â±Â°Â¯Â¯
ĠÂ¯Â» Â¯Â¯Â°Â¯Â¯Â¯
ĠÂ¯Â» Â±Â¯Â¯Â¿Â¯Â¯
ĠÂ¯Â°Â° Â°
ĠÂ¿Â¯Â¯ Â·Â¯
ĠÂ¯Â¯Â·Â¯Â· Â±Â°Â¯
ĠÂ¯Â¿Â´Â¯Â¯ ÃĹ
ĠÂ¯Â¿Â´Â¯Â¯ Â¿Â±Â¯
ĠÂ¯Â¿Â´Â¯Â¯ Â·Â·Â¯
ĠÂ¯Â¿Â´Â¯Â¯ Â·Â´Â¯
Ã¯Åı Ãĵ
ĠÂ¿Â¿Â¯Â¯Â¯ ÃĹÂ°Â¯
ĠÂ¯Â¿Â¿Â¯ Â¿Â±Â¯Â¯
Â¯Â¯Â¿Â¯ Â±Â¯Â¯
ĠÂ±Â¯ ÃĹÂ¯Â¯
Â°Â¯Â· Â¶Â¯Â¯
Åł Ãģ
ÅıÃĵ Ã¯Ãĥ
Ã¿Ä± Ãĳ
Å¯Âµ Ä¯Ã¹
ĠÂ°Â¯ Â¿Â¯Â·Â¯Â¯Â¯
ĠÂ°Â¯ Â±Â°Â¯Â¯Â¯Â¯
ĠÂ¯Â¯Â·Â´ Â¿Â±Â¯Â¯
Ã¯Åĥ Ã¯
Ã¯Åĥ Ã¹
ĠÂ·Â·Â¯Â¯ Â°Â°Â¯Â¯
ĠÂ¯ÃĹÂ±Â¯Â¯ ÃĹÂ¯Â¯
ĠÂ¯Â´Â¯Â¯ ÃĹ
ĠÂ¯Â¸Â¯Â¯ Â¿Â±Â¯Â¯
Â±Â° Â¿Â¯
Â±Â° Â±Â°Â¯Â¯
ĠÂ¯Â¿Â¸Â¯Â¯ Â¿Â·Â¯
ĠÂ¿Â¿Â¯ Â¿Â·Â¯Â¯Â¯
Ã¯Äĥ ÃĻ
ĠÂ·Â¯Â¯ Â¿Â¯
ĠÂ·Â¯Â¯ Â¿Â·Â¯Â¯Â¯
Ä¿Ã± ÃĦ
Ä¿Âµ Ä¯Ãı
ĠÂ¯Â¯Â¯Â¯Â´ ÃĹÂ¯Â¯
ĠÂ¯Â¯ÃĹÂ´Â¯ Â·Â´Â¯
ÃģÄ¯ Ã¡
ĠÂ¯Â·Â·Â¯Â¯ Â¿Â·Â¯
ĠÅ¯ Ä¯Ã¯
ĠÅ¯ Äı
ĠÂ¯Â¯Â±Â±Â¯ ÃĹÂ±Â¯
ĠÂ¯Â¯Â¿Â¸Â¯ Â°Â°Â¯
ĠÂ¯Â¯Â¿Â¸Â¯ Â±Â±Â¯
Ã¿Ã± Ã¯
ĠÂ¯Â¯Â¯Â¯Â°Â¯ Â¸Â¯
ĠÂ¯Â¯Â¯Â¯Â¸ Â¸Â¯Â¯
ĠÂ·Â·Â¯Â¯Â¯ Â·
ĠÂ¯Â¯Â¶ Â±Â¯Â¯Â¯Â¯
ĠÂ¯Â¯Â¶ Â¯ÃĹÂ¯Â¯Â¯
ĠÂ¯Â¯Â¶ Â¯Â¯Â¸Â¯Â¯
ĠÂ¯Ã·Â°Â¯ ÃĹÂ¯Â¯Â¯
ĠÂ¯ÃĹÂ´Â¯Â¯ ÃĹ
Ã¯Ãī Ä¯
ĠÂ¯Â¯Â°Â¯ÃĹ Â¸Â¯Â¯
ĠÂ¯Â¯Â¯Ã· Â¯Â·Â¯Â¯
Ã¿Ãĳ Ä¯Äĥ
Æĩ Ãı
ĠÂ¯Â¯Â¿Â¯Â¯Â· Â¿Â¯
ĠÄı Ä¯
ĠÄı Ãģ
ĠÂ¯Â¿Â´Â¯ ÃĹÂ¯Â¯Â¯
ĠÂ¯Â¯Â°Â¯Ã· Â¸Â¯Â¯
Ä¿Ã³ Ãĥ
Ä¿Ã³ ÃĢ
ÃĮ Ä¯
ĠÂ¯Â°Â±Â¯ ÃĹÂ¯Â¯Â¯
ĠÂ¯Â¯Â¯Â¶ Â¯ÃĹÂ¯Â¯
ĠÂ¯Â¯Â¯Â¿Â¯Â¯ Â´Â¯
ĠÂ°Â¯Â¯Â¯ Â¿
ĠÂ°Â¯Â¯Â¯ Â¿Â·Â¯Â¯
ĠÃ· Â¸
ĠÄ¯Ä· Ã¹
Â°Â¯Â¯Â· Â¿Â¯
ĠÂ·Â· Â¿Â¯
ĠÃĹ ÃĹÂ¯Â¯Â¯Â¯Â¯Â¯
ĠÂ¯Â¿Â·Â¯Â¿ Â·Â°Â¯
ĠÂ¯Ã·Â±Â¯Â¯ Ã·
ĠÂ¯Â·Â´ Â¯Â¿Â·Â¯Â¯
Â°Â¯Â¿ ÃĹÂ¯Â¯
Â¿Â· Â¿
Â¿Â· Â·Â¯Â¯Â¯Â¯
Â¿Â· Â¸Â¯Â¯Â¯
Ãį Ä¯
ĠÂ¯Â·Â¯Â¯Â¿ Â»Â¯Â¯
Â°Â·Â¯ Â°Â¯
Â°Ã· Â¯Â¯Â¯Â¯
Â·Â· Â¿Â¯Â¯
ĠÂ±Â°Â¯Â¯Â¯ Â¸Â°Â¯
Â±Â¯Â¯Â¿ Â´Â¯
ĠÃŁ Ä°
ĠÃŁ Ãĩ
ÃıÃ¸ ÃĢ
ĠÂ¯Â¯Â·Â°Â¯Â¯ Ã·Â¯
ĠÂ¯Â¯Â·Â°Â¯Â¯ ÃĹÂ¯
Â·Â¯Â¯Â· Â¿Â¯
ÃıÃģÄ¯ Åķ
ĠÂ¯Â¯ÃĹÂ¸Â¯ Â°Â°Â¯
ĠÂ¯Â¯Â±Â¯ÃĹ Â¿Â¯Â¯
ĠÂ¯Â¯Â¯Â·Â¯Â· Â¸Â¯
ĠÂ¯Â¯ÃĹÂ¯Â¯Â· Â¿Â¯
ĠÂ¯Â¿ÃĹ Â°Â¿
ĠÂ¯Â¯Â¿Â°Â· Â¿Â¯Â¯
ĠÂ¯Ã·Â¸Â¯Â¯ ÃĹ
ĠÂ¯Ã·Â¸Â¯Â¯ ÃĹÂ´Â¯
ĠÂ¯Â¯Â°Â¿ ÃĹÂ¯Â¯Â¯
ĠÂ·Â±Â¯Â¯Â¯ Â¿Â¯Â¯
ĠÂ±Â±Â¯Â¯Â¯ Â´Â¯Â¯
Â¯Â¸Â¯ Â°Â¯
ĠÂ¯Â¿Â°Â¯Â¯Â¯ Â¸Â¯
ÅĵÃģ Ä¯Ãı
ĠÂ¯Ã·Â¿Â¯ Â´Â°Â¯Â¯
ĠÂ±Â° Â¿Â¯Â¯Â¯Â¯Â¯
ĠÂ¯Â¯Â±Â¯Ã· Â¸Â¯Â¯
ÃĥÃĳ Ãĳ
ĠÂ¿Â°Â¯Â¯Â¯ Â¿Â¯Â¯
ĠÂ·Â± ÃĹÂ¯
ĠÂ¯Â¯Â±Â¯Â¯Â¯Â¯ Â·
Â¿Â¸ Â°Â¿Â¯Â¯Â¯
ĠÃĹÂ¯ Â±Â¯Â¯Â¯Â¯Â¯
ĠÂ´Â¯Â¯Â¯ Â·Â¯Â¯Â¯
ĠÂ¯Â¯Â¿Â¸Â¯Â¯ Â¸Â¯
ÅŁÃĳ Ä¯Äĥ
ĠÂ±Â¯Â¿Â¯Â¯ Â°Â¯Â¯
ĠÂ¿Â¸ Â¯Â¯Â¯Â¿Â¯Â¯
ĠÃ¯ÃıÄ¿ Ã¯Ä·
ÃıÃ±Ãı ÅıÃģ
ĠÂ±Â¯Â±Â¯Â¯ Â·Â¯Â¯
ĠÂ¯Â¯Â¯Â¿Â·Â¯ Â·Â¯
Ã İ
Ä ¥
Å ª
Æ ĸ
Ġ Â±Â¯Â¿Â¯Â¯Â¯
Ġ Æĥ
Ġ Ã·Â¯Â¯Â¯Â¯Â¯
Ġ Ã«
Ġ Â»Â°Â¯Â¯
Â¯ Â¸Â¯Â¯Â¯Â¯Â¯Â¯
Â¯Â¯ Â°Â·Â¯Â¯Â¯
Â¯Â¯Â¯ Â¶Â¯Â¯Â¯
ĠÂ¯Â¯Â¯Â¯ Â¿Â¯Â¯Â¿
ĠÂ¯ Â´Â¯Â¯Â¯Â¯Â¯
Â± Â±Â¯Â·Â¯Â¯
Â± Â±Â±Â¯
Ã¯ Å¯Ãı
Ã¯ Å¸
ĠÂ¯Â¯Â¯Â¯Â¯ Â°Â¯Â¿
Ä¯ Å¯Ãı
Ä¯ ÂºÄ¯
Ä¯ Å¢
Â· Â»Â¯Â¯Â¯
Â· Â´Â¯Â·Â¯Â¯
Â· Â¿Â·Â¯Â¯Â¯
Ãı Ä£
Ãı ÃĿ
Ãı Ã¥
Ãı ÅĶÃģ
Â¯Â¯Â¯Â¯ Â»
Â¿ Â·Â¯Â¯Â¯Â¯Â¯Â¯
Â¿ Â·Â´Â¯Â¯
Â¿ Â¿Â¸Â¯Â¯
Â¿ Â±Â¿
Â¿ Ã·Â±Â¯Â¯Â¯Â¯
Â¿ Â¸Â¯Â·Â¯Â¯Â¯
Â¯Â¯Â¯Â¯Â¯ Ã·Â¯Â¯
Â°Â¯Â¯ Â·Â°Â¯Â¯
Â±Â¯Â¯ Â±Â°
ĠÂ¯Â¯Â¯ Â·Â¯Â¯Â¯
Â¿Â¯Â¯ Â¸Â°Â¯Â¯
Â¿Â¯Â¯ Â»Â±Â¯
Â°Â¯ Â´
Â°Â¯ Â´Â¯
Â°Â¯ Â±Â·Â¯Â¯
Â°Â¯ Â°Â´Â¯Â¯
Â±Â¯ Â¸Â¯
Â±Â¯ ÃĹÂ¯
Â±Â¯ Â´Â±Â¯
Â±Â¯ Â±Â¿Â¯
Â±Â¯ Â°Â¿Â¯Â¯
Â±Â¯ Â¿Â¯Â±Â¯
Â¿Â¯Â¯Â¯ Â¿Â±Â¯
Â¿Â¯Â¯Â¯ Â±Â°
ĠÂ¯Â¯Â· Â»Â¯
ĠÂ¯Â¯Â· Â´Â¯Â¯Â±Â¯
ĠÂ¯Â¯Â· Â´Â¯Â¯Â·Â¯
ĠÂ¯Â¯Â¿ Â¿Â¯Â¯Â±Â¯
ĠÂ¯Â¯Â¿ Â»Â¯Â¿Â¯Â¯
Â±Â¯Â¯Â¯ Â»Â¯Â¯
Â±Â¯Â¯Â¯ Â·Â°Â¯
Åı Å³
Åı Æı
Åı Ä²
Åı Ã©
Ã¿ Ãĭ
Ã¿ Ãľ
Â´ Â°Â¯Â¯Â¯Â¯Â¯
Â´ Â¯Â¯Â¯Â±Â¯Â¯
Â´ Â·Â¯Â¯Â¯Â¯Â¯
Â´ Ã·Â¯Â¯Â¯
Â´ Â¿Â¯Â¯Â¯Â¯Â¯
Â´ Â°Â°Â¯Â¯
Â´ ÃĹÂ±Â¯Â¯
Â´ Â¿Â¯Â´Â¯Â¯
ÃĹ Â¿Â¯Â¯Â¯
ÃĹ Â¯Â¯Â¯Â¯Â¯Â¯Â¯
ÃĹ Â¯Â¿Â¯Â¯
ÃĹ Â¯ÃĹÂ°Â¯Â¯
ÃĹ Â±Â¯Â¯Â¯Â°Â¯
ÃĹ Â±Â¿Â·Â¯Â¯
ÃĹ Â¯Â¿Â¸Â¯Â¯Â¯
Ãĥ Äı
Ãĥ ÄĢ
Ãĥ Ä¯Ä³
Ãĥ Ä°Ãı
ĠÂ¯Â¯Â·Â¯ Â°Â¯Â±Â¯
ĠÂ¯Â¯Â·Â¯ Â¿Â¯Â¯Â°
ĠÂ¯Â¿ Ã·Â°Â¯
ĠÂ¯Â¿ Â¿Â¯Â¯Â¿Â·Â¯
ĠÂ¯Â¿ Â·Â°Â¯Â±Â°Â¯
ĠÂ¯Â¿ Â±Â°Â¯Â±Â¯Â¯
ĠÂ¯Â¿ Â±Â¿Â±Â¯Â¯Â¯
ĠÂ¯Â¿ Â·Â¯Â¯Â¯Â¯Â°
Â°Â¯Â¯Â¯Â¯ Â´Â¯
Â°Â¯Â¯Â¯ ÃĹÂ¯
Ä° ÄĢ
Ä° Å¿
Ä° Ä¯Ã¹
Ä° ÃıÃı
Ä° Ã£
Ä° Ä¯Äģ
Ä° ÄŁ
Ä° Ä¯Ä·
ĠÂ¯Â· Ã·Â¯Â¯
ĠÂ¯Â· Â±Â·
ĠÂ¯Â· Â°Â·
ĠÂ¯Â· ÃĹÂ¯Â¯Â±Â¯Â¯
ĠÂ¯Â· ÃĹÂ¯Â¯Â·Â¯Â¯
ĠÂ¯Â· Ã·Â±Â¯Â¯Â¯Â¯
ĠÂ¯Â· Â´Â¯Â¯Â¯Â·Â¯
ĠÂ¯Â· Â±Â°Â¯Â±Â¯Â¯
ĠÂ¯Â· Â°Â¯Â¯Â¯Â¯Â¿
Ã· Â¸
Ã· Â¯Â¯Â¯Â¯Â·Â¯
Ä¿ ÅĹ
Ä¿ Ãĭ
Ä¿ ÃĤ
Ä¿ Ã±Ãı
Ä¯Ã¯ Ã¹
Ä¯Ã¯ Ä¯Ã¿
Ä¯Ã¯ Ã¯ÃĲ
Ä¯Ã¯ Ä¯Ä³
Â´Â¯Â¯ Â·Â¯Â¯Â¯
Â´Â¯Â¯ Â¿Â¿Â¯
Â´Â¯Â¯ ÃĹÂ·Â¯
Ã¯Ãı ÃĻ
Ã¯Ãı Ãĩ
Ã¯Ãı Ä¯Äģ
Ã¯Ãı Ä¯Åģ
ĠÂ¯Â¯Â±Â¯ Â°Â¯Â°Â¯
ĠÂ¯Â¯Â±Â¯ Â±Â¯Â°Â¯
Â·Â¯ Â±Â¿Â¯Â¯Â¯
Â·Â¯ Â¶Â¯Â¯
Â¸ ÃĹÂ°Â¯Â¯
Â¸ Â°Â°Â¯Â¯
Ãģ Å¯
Ãĵ Äĥ
Ãĵ Ã¯Ãĳ
ĠÂ¯Â¯Â°Â¯ Â·Â¯Â°Â¯
ĠÂ¯Â¯Â°Â¯Â¯ Â´Â±Â¯
ĠÂ¯Â¯Â±Â¯Â¯ Â´
ĠÂ¯Â¯Â±Â¯Â¯ Â±Â¯Â±
Ã³ ÅŁ
Ã³ Ã¸
Ã³ Ä¯Ã³
Ã³ Åĺ
Ã³ Ä¯ÃĲ
Ã³ ÃģÄ¯
Ã³ Ä°Ãģ
Ã³ Ä±Ã³
Ã³ Ã±Ãĳ
ĠÂ¯Â¯Â¿Â¯Â¯ Â´Â±Â¯
ĠÂ¯Â¯Â¿Â¯Â¯ Â»Â±Â¯
ĠÂ¯Â¯Â¿Â¯Â¯ ÃĹÂ·Â¯
Ä· Ä¯Ãı
Ä· Ä´
Ä· ÄĢ
Ä· Äĩ
Ä· ÃıÃı
Ä· ÄŁ
Ä· Å£
ĠÂ¯Â± Â¿Â¯Â¯Â´Â¯Â¯
ĠÂ¯Â± Â¸Â¯Â¯Â·Â¯Â¯
ĠÂ¯Â± Â·Â¯Â¯Â¯Â·Â¯
Ä³ Ä¯Ä¯
Ä³ Ã´
Ä³ Ä¯Ãĵ
Ä³ Å£
Ä³ ÃĥÄ¯
Ãĳ ÃŁ
Ãĳ Ã¯Ãģ
Ãĳ Ä¯ÃĢ
ĠÂ¯Â¯ÃĹ Â¿Â¯Â±Â¯Â¯
ĠÂ¯Â¯ÃĹ Â¿Â¯Â·Â¯Â¯
ĠÂ¯Â¯ÃĹ Â´Â¯Â¯Â·Â¯
ÃĲ Ã¯Ãĵ
ÃĲ Ä¯Äĥ
Â¿Â¯ Â±Â´Â¯Â¯
Â¿Â¯ Â·Â°Â¯
ÃĢ Ã¸
ÃĢ Ã¿Ãģ
ĠÂ¯Â¯Â¯Â° Â¸Â°Â¯Â¯
ĠÂ¯Â¯Â¯Â° Â¿Â¯Â±Â¯
ĠÄ¯ ÅĽ
ĠÄ¯ Æı
ĠÄ¯ Ãľ
ĠÄ¯ Å¯Ã¯
Â¯Â¯Â·Â¯Â¯ Â¸Â¯Â¯
ĠÂ¯Â¯Â¯Â°Â¯ Â°Â·Â¯
Â¯Â¯Â¿Â¯Â¯ Â°
ĠÂ¯Â¯Ã· Â¯Â¯Â¿Â±Â¯
ĠÂ¯Â¯Ã· Â¯Â¯Â¿Â°Â¯
ĠÂ¯Â¯Ã· Â¯Â·Â¿Â¯Â¯
ĠÂ¯Â¯Â¯Â±Â¯ Â¿Â´Â¯
ĠÂ¯Â¿Â¯Â¯ Â´
ĠÂ¯Â¿Â¯Â¯ Â»Â°Â¯Â¯
ĠÂ¯Â¿Â¯Â¯ Â°Â¿Â¯Â¯
ĠÂ¯Â¿Â¯Â¯ Â±Â¸Â¯Â¯
Åĵ Åĵ
Åĵ ÅŁ
Åĵ Ä·Ã¯
ĠÂ¯Â¯Â¯Â¯Â¿ Â¸
Ä± ÃĦ
Ä± ÄĹ
Ä± ÃĴ
Ä± Ä·Âµ
ÅĹ ÃĻ
ÅĹ ÃŁ
ÅĹ Ä¯ÃĻ
ÅĹ Ã¯Ã¿
ÅĹ ÃıÃ¿
ÅĹ Ä±Ãĵ
Â¸Â¯Â¯ Â±
Â¸Â¯Â¯ Â°
Â¸Â¯Â¯ Â¿Â¸Â¯
ÃĹÂ¯Â¯ Â¿Â¯Â¯Â¯
ÃĹÂ¯Â¯ Â±Â¯Â¯Â¯
ÃĹÂ¯Â¯ Â¿Â·Â¯
ÃĹÂ¯Â¯ Â¸Â°Â¯
ÃĹÂ¯Â¯ Â¿Â´Â¯
Å¯ Ä´
Å¯ Ã£
Å¯ Ãļ
Å¯ Ä±Ã¯
Å¯ Ã¥
ĠÃı ÃĽ
ĠÃı Ä¯Ãĳ
ĠÃı Ãĭ
ĠÃı Äī
ĠÃı Ãļ
ĠÃı Ãľ
ĠÃı ÃĬ
ĠÃ¯ Ä¯Ãĥ
ĠÃ¯ Ä¯Ã¿
ĠÃ¯ Ä¯Ã¹
ĠÃ¯ ÅĻ
ĠÃ¯ ÄĪ
ĠÃ¯ Äĺ
ĠÃ¯ ÃĿ
ĠÂ¯Â·Â¯Â¯ Â·Â¯Â°Â¯
ÃĻ Ä¯Ä¯
ÃĻ Âº
ÃĻ Ä¯Å¿
Ã¹ Ã±
Ã¹ ÃĦ
Ã¹ Ãĩ
Ã¹ ÅĲÃģ
Äĥ Ãĩ
Â¯Â¿ Â¿Â·Â¯
Â¯Â¿ Â·Â°Â¯Â¯
Â¯Â¿ Â·Â·Â¯
Â¯Â¿ Â°Â¿Â¯Â¯
ĠÂ¯Â° Â±Â¯Â¿
ĠÂ¯Â° ÃĹÂ¯Â¿Â¯Â¯Â¯
ĠÂ¯Â° Â´Â¯Â¯Â±Â¯Â¯
ĠÂ¯Â° Â·Â¯Â¯Â¯Â·Â¯
ĠÂ¯Â° Ã·Â°Â¯Â±Â¯Â¯
Äģ Ä¯Ã¯
Äģ Ä±
Äģ Ã¸
Â´Â¯ Â·Â±Â¯Â¯
Â´Â¯ Â¸Â°Â¯Â¯
ĠÂ¯Â·Â¯Â¯Â¯ ÃĹÂ·Â¯
Â¯Â· Â°Â¯Â±Â¯Â¯
Â¯Â· Â·Â°Â¯Â¯
Â¯Â· Â°Â¯Â·Â¯Â¯
ĠÄ¯Ã¯ ÄĢ
Äı Ä¯Ä¯
Äı ÃĽ
Äı Ã¡
Ã° ÃıÃ¯Ã°
ÃĶ Äģ
ÃĶ Ã°
ÃĶ Ä¯Ãĵ
Â¯Â±Â¯Â¯Â¯ Â·Â¯
Â·Â¯Â¯Â¯Â¯ Â´Â¯
Âµ ÃĦ
Âµ Ä¯Ãģ
Âµ Ã¯Âµ
Âµ Ã¯Ã£
Âµ Ã¯ÃĽ
Ã·Â¯Â¯Â¯ Â´Â°Â¯
ĠÂ¯Â¯Â± ÃĹ
ĠÂ¯Â¯Â± Â¶
ĠÂ¯Â¯Â± Â´Â¯Â°Â¯Â¯
ĠÂ¯Â¯Â± Â»Â¯Â¯Â¯Â¯
ĠÂ¯Â¯Â± Â·Â¯Â¸Â¯Â¯
ĠÂ¯Â¯Â± ÃĹÂ¯Â¯Â¯Â¯
Ãĺ Åĥ
ÃĦ Ä¯ÃĻ
Ãĩ Äı
Ãĩ Åĳ
ĠÃ¯Ãı ÃĻ
ĠÃ¯Ãı Ãī
ĠÃ¯Ãı ÃĪ
Â¿Â·Â¯Â¯ Â·Â¯Â¯
ĠÂ¯Â¿Â·Â¯ Â»
Â´Â¯Â¯Â¯ Â°
ĠÂ¯Â±Â¯Â¯ Â±Â¯Â°Â¯
ĠÂ¯Â±Â¯Â¯ Â·Â¯Â·Â¯
Â¸Â¯ ÃĹÂ±Â¯
Â¸Â¯ ÃĹÂ·Â¯
Ä¯Ãı Ãĵ
Ä¯Ãı Ä¯Ãı
Ä¯Ãı Ä¯Ã³
Ä¯Ãı Ä¯Ä¿
Â¯Â¯Â¯Â°Â¯ Â±
Ä¯Ãģ Ä¯Åģ
Ã·Â¯Â¯ Â°Â¯
ĠÂ¯Â±Â°Â¯ Â±Â·Â¯Â¯
ĠÂ¿ ÃĹÂ¯Â¯Â¯
ĠÂ¿ ÃĹÂ¯
ĠÂ¿ Â¿Â¯Â·
ĠÂ¿ Â¿Â°
ĠÂ¿ Â¯Â¯Â¯Â¯Â¯Â¯Â°
ĠÂ¯Â°Â¯Â¯ Â±Â´Â¯Â¯
Ä¯Ãĥ Ä¯Åı
ĠÂ¯Â¯ÃĹÂ¯ Â¿Â¯
Â¯Â±Â¯Â¯ Â±
ĠÂ¯Â¯Â° ÃĹ
ĠÂ¯Â¯Â° Â±Â¿Â·Â¯Â¯
ĠÂ¯Â¯Â° Ã·Â±Â¯Â¯Â¯
Â¯Â·Â¯Â¯ Â±Â°Â¯
Â¿Â±Â¯Â¯ Â±Â¯
Â¿Â±Â¯Â¯ Â¿Â·Â¯
Â¯Â¯Â· Â°
Â¯Â¯Â· Â»Â¯Â¯
ĠÂ¯Â¯Â¿Â° Â±Â¿Â¯Â¯
ÅĢ Ä¯Ã³
ĠÂ¯Â¿Â·Â¯Â¯ Â»Â±Â¯
Ä¹ ÃĲ
Åĳ ÃĻ
Åĳ Äĥ
Åĳ Ã°
Åĳ Ã»
Ã¯Ã¯ Ä¿
Ã¯Ã¯ Ä¯Ã±
ÅĲ Äģ
Ã¯Ãĵ Ä¯Ã¹
ĠÂ¯Â±Â°Â¯Â¯ Ã·Â´Â¯
Ä´ Ä¿
Ä´ Ãĵ
Ä´ Âµ
Ä¯Ä¯ Äģ
ÄĢ Ä±
ÄĢ Ã¹
ÄĢ Ã°
ÄĢ Ã¸
Â¿Â·Â¯ Â°Â¯Â¯Â¯
ĠÂ¯Â¯Ã·Â¯ Â»Â°Â¯Â¯
ĠÂ· Ã·
ĠÂ· Â»
ĠÂ¯Â¯Â´Â¯Â¯ Ã·
ĠÂ¯Â¯Â´Â¯Â¯ Â¶Â¯Â¯
Ä¯Ã± Ä¯Ã¯
Âº Ä¯Ãĥ
Âº ÅıÃģ
Âº Ä¯Ãĳ
Âº Ã¯Ã±
ĠÂ¯Â¯Â¯Â· Â°Â°Â¯Â¯
ĠÂ¯Â¯Â¯Â· Ã·Â´Â¯Â¯
ĠÂ¯Â¯Â¯Â· Â°Â±Â¯Â¯
ĠÄ¯Ä¯ Åĵ
Å¿ Ã³
Å¿ Ãĩ
Ã´ Ãĥ
Ã´ ÃŁ
ĠÃ¯Ã¯ ÅŁ
ĠÂ³ Â²
Åģ Ã¿
Åģ Âµ
ÃıÃģ Ä·
ÃıÃģ Ä¯Ä±
ĠÂ¯ÃĹ Â¯Â°
ĠÂ¯ÃĹ Â¶
ĠÂ¯ÃĹ Â±Â¯Â¿Â·Â¯Â¯
ĠÂ¯ÃĹ Â¿Â¯Â¿Â¯Â¯Â¯
ĠÂ¯ÃĹ Â¿Â¯Â±Â¯Â¯Â¯
ĠÂ¯ÃĹ Â±Â¯Â±Â°Â¯Â¯
ĠÂ¯ÃĹ Â¸Â¯Â¯Â°Â¯Â¯
Ã¯ÃĲ Ã¯Ãı
ĠÂ¯Â¯Â¸ Â´Â¯Â°Â¯Â¯
Ã¸ Åı
Ã¸ ÃĢ
Ã¸ Ä¯Ãģ
Ã¸ Ã´
ÄĹ Ãĳ
ĠÂ¯Â¯Â¯Â¿ Â·Â·Â¯Â¯
ĠÂ¯Â¯Â´Â¯ Â°ÃĹÂ¯Â¯
ĠÂ¯Â¯Â´Â¯ Â°Â¸Â¯Â¯
Â¯Â¯Â¿ Â·Â±Â¯
Äĩ Ãĥ
Äĩ Ä¯Ã¯
Äĩ Ä³
Äĩ Åĺ
Ä¸ Ä¿
Ä¸ Ãĳ
Ä¸ ÃĢ
ĠÂ¯Â¿Â¯ Â¸
ĠÂ¯Â¿Â¯ Â±Â±Â¯Â¯Â¯
ĠÂ¯Â¿Â¯ Ã·Â¯Â¯Â¯Â¯
ĠÂ¯Â¯Ã·Â° Â°
Ã¯Ãĳ ÃĢ
Ã¯Ãĳ ÃıÂµ
Ãī Ä°
Ãī Ä¯Ã¯
Ä¯Ã¹ ÅĶ
ÃıÃı Ä¯Ãĳ
ĠÂ¯Ã· Â·Â¯Â¿Â¯Â¯Â¯
ĠÂ¯Ã· Â±Â¯Â°Â¯Â¯Â¯
ĠÂ¯Ã· Â»Â¯
ĠÂ¯Ã· Â¸Â¯Â·
ĠÂ¯Ã· Â·Â¯Â¿Â·Â¯Â¯
ĠÂ¯Ã· Â¸Â¯Â¯Â¯Â±Â¯
ĠÂ¯Â¯Â·Â° ÃĹÂ°Â¯Â¯
ĠÂ¯Â¯Â·Â° Â°Â°Â¯Â¯
ÃıÃ¯ Ã¹
Â°Â°Â¯ Â¿Â¯Â¯
Åĺ Ä¯Ãģ
Ã¯Ãģ Ä¯Ã³
Ã¯Ãģ Ä¯Ãĵ
ĠÂ¯Â¯Â¸Â¯ Â»Â¯Â¯Â¯
ĠÂ¯Â¯Â¸Â¯ Ã·Â´Â¯Â¯
ĠÂ¯Â¯Â¸Â¯ Â°Â¿Â¯Â¯
Â¯ÃĹ Â±Â¯Â¯Â¯
ĠÂ¯Â¯Â¯Â¯Â° Â°Â±Â¯
Ã¯Ä¯ Åĥ
Ã¯Ä¯ Åģ
Ä¯Ãĵ Ä¯Ãĵ
Ã¯ÃĻ Ä¯Ã¯
ĠÂ¯Â¯Â¿Â± Â±Â±Â¯Â¯
ĠÂ¯Â¯Â¿Â± Â°Â¿Â¯Â¯
ĠÂ¯Â·Â¯ Â´
ĠÂ¯Â·Â¯ Â±Â´Â¯Â¯Â¯
Â·Â°Â¯ Â¿Â¯Â¯Â¯
Ã£ Ã¿
ÅĶ Ä¯
Â±Â±Â¯ Â¿
ÅıÃĥ Ã¯Ãĺ
ÅıÃĥ Ä¯ÅĹ
ĠÂ¯Â¯Â» Â°Â¯Â¿Â¯Â¯
ĠÂ¯Â¯Â» Â¯Â»Â¯Â¯Â¯
ĠÂ¯Â¯Â» Â¯Â±Â¸Â¯Â¯
ÅĻ Ã³
Â¯ÃĹÂ°Â¯Â¯ Â°Â¯
Ã·Â¯ Â°Â¯
Äĳ Ãĥ
ĠÂ¯Â¯ÃĹÂ°Â¯ ÃĹÂ·Â¯
Â¯Â¯Â¸Â¯Â¯ ÃĹ
ĠÂ¯Â¿Â· Â±Â¯Â·Â¯Â¯
ĠÂ¯Â¿Â· Â±Â¿Â·Â¯Â¯
ĠÂ¯Â¿Â· Â·Â¿Â¯Â¯Â¯
Â¯Â¯Â¯Â· Â¸Â¯Â¯
Å· ÃĻ
ĠÂ¯Â±Â° Â±Â¸Â¯Â¯Â¯
ĠÂ¯Â±Â° Â¿Â¯Â¿Â¯Â¯
ĠÂ¯Â±Â±Â¯ Â±
ĠÂ¯Â±Â±Â¯ ÃĹÂ±Â¯Â¯
ĠÂ¯Â±Â±Â¯ Ã·Â±Â¯Â¯
Â¯Â°Â¯ Â·Â°Â¯Â¯
Â¯Â°Â¯ Â·Â°Â¯
Â¯Â°Â¯ Â·Â´Â¯Â¯
Â¯Â°Â¯ Â·Â±Â¯
Â¯Â°Â¯ Â·Â·Â¯
ÃıÄ¯ ÅĹ
ÃĹÂ¯ Â±
ÄŁ Ä°
Â¶ Â±Â¯Â¯
Â¶ Â¯Â±Â¯Â¯Â¯
Â¶ Â¯Â´Â¯Â¯
ĠÂ¯Â±Â¯ Â°Â¿Â¯Â¯Â¯
ĠÂ¯Â±Â¯ Â¿Â¯Â°Â¯Â¯
ĠÂ¯Â±Â¯ Ã·Â¯Â¯Â¯Â¯
ĠÂ¯Â¯Ã·Â°Â¯ Ã·Â¸Â¯
Ä» Ã³
Ä» Ãĳ
Å± Ãı
Ãĭ Ã¿
Ãĭ ÃĲ
Ãł Ãı
Ã¯Ä³ Ã±
Ãµ ÃĲ
ĠÂ¯Â¿Â±Â¯ Â¿Â¸Â¯Â¯
ĠÂ¯Â¯Â¯Â¯Ã· Ã·Â¯Â¯
Â¯Â¯Â±Â¯ Â°Â¯Â¯Â¯
ĠÂ¯Â°Â¯ Â°Â¯Â¿Â¯Â¯
ĠÂ¯Â°Â¯ Â±Â·Â¯Â¯Â¯
Â¯Â± Â°Â¿Â±Â¯Â¯
Â¯Â± Â°Â±Â¯Â¯Â¯
Â¯Â± Â°Â·Â¯
Â¿Â°Â¯ Â¿
ĠÂ¿Â¯Â¯Â¯ Â·Â·Â¯Â¯
ĠÂ¯Â¯Â¯Â°Â¯Â¯ Ã·Â¯
ĠÂ¯Â¯ÃĹÂ± Â·Â±Â¯Â¯
Æı Ã±
Æı ÄĢ
Â¯Â±Â¯ ÃĹÂ¯Â¯
Â¯Â±Â¯ Â¿Â±Â¯Â¯
ĠÂ¯Â°Â°Â¯Â¯ Â¿Â°Â¯
ĠÂ¯Â°Â°Â¯Â¯ Ã·Â°Â¯
ĠÂ¯Â¯Ã·Â± ÃĹÂ¯Â¯Â¯
ĠÂ¿Â·Â¯Â¯Â¯ Â·Â±Â¯
ĠÂ¿Â·Â¯Â¯Â¯ ÃĹÂ´Â¯
Ã¯Ã³ Ä¯Ã±
ĠÂ¯ÃĹÂ°Â¯Â¯ Â·Â°Â¯
ĠÂ¯Â¿Â° Â¿Â¿Â¯Â¯Â¯
ĠÂ¯Â¿Â° Â¿Â±Â¯Â¯Â¯
Ä¯Ä¿ Âµ
ĠÂ¯Â·Â°Â¯ Â´Â¯Â¯Â¯
ÄĻ Ä¿
ÄĻ Ã°
ÄĦ Ä¯
Ã§ Ä·
ĠÂ¯Â¯Â¿Â· ÃĹ
ĠÂ¯Â¯Â¿Â· Ã·Â¯Â¯Â¯
Â¯Â¯Â·Â¯ Â·
Â¯Â¯Â·Â¯ Â·Â¯Â¯
ĠÂ¯Â¯Â·Â¯Â¯Â¯ Â°Â°
Â¯Â¯ÃĹ Â±Â°Â¯
ĠÂ¯Â¯Â¸Â¯Â¯ Â·Â¸Â¯
ĠÂ¿Â¯ Â±Â¯Â¯Â¿Â¯Â¯
ĠÂ¿Â¯ Â¿Â¯Â¯Â·Â¯Â¯
ĠÂ¿Â¯ Â±Â¯Â¯Â¯Â±Â¯
ĠÂ¿Â¯ Â¿Â¯Â¿Â¯Â¯Â¯
ĠÂ¿Â¯ Â¿Â¯Â±Â¯Â¯Â¯
ĠÂ¿Â¯ ÃĹÂ¯Â¯Â·Â¯Â¯
ĠÂ¿Â¯ Â¿Â¸Â¯Â¯Â¯Â¯
Ä¯Ãħ Ãı
ĠÂ¯Â¯Â¿Â´ Â±Â°Â¯Â¯
ĠÂ¯Ã·Â°Â¯Â¯ Â·Â±Â¯
ĠÂ¯Ã·Â°Â¯Â¯ Â·Â·Â¯
ĠÂ¯Ã·Â°Â¯Â¯ Â¸Â°Â¯
Â¯Â¯Ã· Â±Â¯Â¯Â¯Â¯
Â¯Â¯Ã· Â¯Â¸Â¯Â¯Â¯
Â¯Â¯Ã· Â¶Â¯Â¯
ĠÂ¯Â¯Â¯Â¸ Â¯Â¿
ĠÂ¯Â¯Â¯Â¸ Â·Â±Â¯Â¯
ÃıÄ° Ãı
ÃıÄ° Ã³
ĠÄ¯Ãı Ãĩ
Ã¯Âº Å¯
Ã¯Âº Ä¯Ãı
Ã¯Âº ÅıÃģ
ĠÂ¯Â¯Â¯Â¿Â¯ Â°Â°Â¯
Ã¯ÃĦ Ãı
Å° Ã¿
Â¯Â·Â¯ Â±Â°Â¯Â¯
Â¯Â·Â¯ Â¸Â¯Â¯Â¯
ĠÂ¯Ã·Â¯Â¯ Ã·
ĠÂ¯Â±Â±Â¯Â¯ ÃĹÂ·Â¯
ĠÂ± Â·Â¯
ĠÂ± Â±Â±Â¯
ĠÂ± Â¿Â·Â¯Â¯Â¯Â¯Â¯
ĠÂ± Â±Â¯Â¯Â¯Â¯Â°Â¯
Â·Â±Â¯ Â·Â°Â¯
ÃıÃĳ Ä¯Ã¯
ĠÂ·Â¯Â¯Â¯ Â¿Â¸Â¯Â¯
ĠÂ·Â¯Â¯Â¯ ÃĹÂ±Â¯Â¯
Ä¯Ä± Ãĥ
ÃıÃ³ Ä¯
ÃıÃ³ Ãģ
ĠÂ·Â¯ Â±Â¯Â¯Â¯Â°Â¯
ĠÂ·Â¯ Â·Â¯Â¯Â¿Â¯Â¯
ĠÂ·Â¯ Ã·Â¯Â°Â¯Â¯Â¯
ÃıÂº Ã¯Ã¹
Äħ ÃıÅĹ
Ã¯Âµ Ã¯Ãı
Ã¯Ã¿ Ãĥ
Ã¯Ã¹ Ãģ
Ã¯Ã¹ ÃĶ
Â¯Â¿Â¯ Â¿Â·Â¯Â¯
ĠÂ¯Â¯Ã·Â±Â¯ Ã·
ĠÂ¯Â¯Ã·Â±Â¯ Â·Â´Â¯
Â»Â¯ Ã·Â¯Â¯
ĠÂ¿Â¯Â¯Â¯Â¯ ÃĹÂ´Â¯
ĠÂ¿Â· Â¿Â¯Â±Â¯Â¯Â¯
ÃıÃ° Ä¯Ã¯
ÃıÃ° Ãĵ
Ä² Ã±
ĠÂ¯Â¸ Â±Â¯Â¯Â¿Â¯Â¯
ĠÂ¯Â¸ Â°Â¯Â·
ĠÂ¿Â·Â¯ Â¿Â°Â¯Â¯Â¯
Â¿Â¯Â· Â¸Â¯Â¯
Â¿Â¯Â· Â°Â°Â¯
ĠÂ¯Â¯Â¯Â¯Â¯ÃĹ Â¶Â¯
ÄĲ Ãı
ÄĲ ÃĶ
Ä·Âµ Ã¯Ãĺ
Ã¯Ä° Ä¯Ã±
ĠÂ¯Â·Â·Â¯ Ã·
Â±Â¯Â· Â±Â°Â¯
Â±Â¿ Â¶Â¯Â¯
Äµ Ã±
ÃıÃĶ Ä¯
ÃıÃĶ Ã¯Ãı
Ä¯Äı Ãı
ĠÂ¯Â·Â¿Â¯ Â¿
ĠÂ¯Â·Â¿Â¯ ÃĹÂ°Â¯Â¯
ĠÂ¯Â¯Â¯Â¯Â¯Â± Â»Â¯
ĠÂ¯Â´ Â±
Â¯Â¯Â° Â°Â¯Â¯Â¯
Â¯Â¯Â± Â±
Â¯Â¯Â± ÃĹÂ¯Â¯
Â¯Â¯Â± Â´Â¯Â¯Â¯
ĠÂ¯Â¯Â¿Â¸ Â¯Â·Â°Â¯
ĠÂ¯Â¿Â¸Â¯ Â¸Â¯Â¯Â¯
ĠÂ¯Â» Â´Â¯
ĠÂ¯Â» Â¯Â¯Â±Â¯Â¯Â¯
ĠÂ¿Â¯Â¯ Â´Â¯Â¯Â¯Â¯
ĠÂ¿Â¯Â¯ Â±Â¿Â·Â¯Â¯
ĠÂ¯Â¯Â·Â¯Â· Â»Â¯Â¯
ĠÂ¯Â¯Â±Â¯Â· Â±Â°Â¯
Ã¯Åı Ã±
ÄĽ Ãı
ĠÂ¿Â¿Â¯Â¯Â¯ Ã·Â°Â¯
ĠÂ¿Â¿Â¯Â¯Â¯ Ã·Â´Â¯
Åī Ã¯
ĠÂ¯Â·Â±Â¯Â¯ Â°Â°Â¯
ĠÂ¯Â·Â±Â¯Â¯ Â·Â±Â¯
ĠÂ¯Â¿Â¿Â¯ ÃĹ
ĠÂ¯Â¿Â¿Â¯ ÃĹÂ°Â¯Â¯
Â¯Â¯Â¿Â¯ Â°Â¯Â¯
ĠÂ±Â¯ Â»Â¯Â¯Â¯Â¯Â¯
Ä¯ÃŁ Ã¯
ĠÂ¯Â¯Â¯Â¯Â» Â¯Â°Â¯
Â¯Â¯Â¯Ã· Â¿Â¯
ĠÃ¯Ãĵ Ã¿
Å´ Ãı
ĠÃ¿ Ãĩ
ĠÂ¯Â±Â°Â¯Â· Â¸Â¯Â¯
ÃĬ Ä¯
ĠÂ¯Â·Â´Â¯ ÃĹ
ĠÂ°Â¯ Â±Â¯Â¿Â¯Â¯Â¯
ĠÂ°Â¯ Â·Â¯Â¿Â¯Â¯Â¯
ĠÂ¯Â¯Ã·Â´Â¯ Â·Â±Â¯
ĠÂ·Â·Â¯Â¯ Ã·Â°Â¯Â¯
ĠÂ¯Â¯Â¿Â¯Â¿ ÃĹÂ¯Â¯
ĠÂ¯Â´Â¯Â¯ Â¿
ĠÂ¯Â´Â¯Â¯ Â»Â¯Â¯Â¯
ĠÂ¯Â¸Â¯Â¯ Â¿Â¸Â¯Â¯
Â±Â° Â·Â¯
ĠÂ¯Â¿Â¸Â¯Â¯ Â¸Â¯Â¯
ÃıÃĺ ÃĢ
ĠÂ¿Â¿Â¯ Â·Â¯Â¯Â¯Â¯
ĠÂ¯Â¯Â¯Â°Â· ÃĹÂ¯Â¯
ĠÂ¯Â¯Â·Â· Â·
ĠÂ¯Â¯Â·Â· Ã·Â°Â¯Â¯
ĠÂ±Â¯Â¯Â¯ Â´Â¯Â¯Â¯
ĠÂ±Â¯Â¯Â¯ Â·Â°Â¯Â¯
ĠÂ±Â¯Â¯Â¯ Â»Â¯Â¯Â¯
ĠÂ·Â¯Â¯ Â±Â¿Â·Â¯Â¯
ÅıÃ³ Ã¯
ÅıÃ³ ÃĢ
ĠÄ¯Ã¹ ÃĶ
Ä¿Âµ Ä¯Ã¯
ĠÂ¯Â¯ÃĹÂ´ Â·
ĠÂ¯Â¯ÃĹÂ´ Â·Â¯Â¯Â¯
ĠÂ° Â°Â¯Â¯Â¯Â¯
ĠÂ° Â¿Â·Â¯
Ä¯Ãķ Ã¯
Å¹ Ãĥ
ĠÂ¯Â¯ÃĹÂ´Â¯ Â´Â¯Â¯
ĠÂ¯Â¯ÃĹÂ´Â¯ Â¸Â¯Â¯
ĠÂ¯Â·Â·Â¯Â¯ Â·Â°Â¯
ĠÅ¯ Ä°
ĠÅ¯ Ã±
ĠÂ¯Â·Â´Â¯Â¯ Â¿
ĠÂ¯Â·Â´Â¯Â¯ Â·Â°Â¯
Ã·Â´Â¯ Â±Â¯Â¯Â¯
ÅĴ Ãģ
ĠÂ¯Â¯Â¶ Â¯Â¯Â¯
ĠÂ¯Â¯Â¶ Â¯Â¯Â´Â¯Â¯
ĠÂ¯Â¯Â¶ Â¯Â¯ÃĹÂ¯Â¯
ĠÂ¯ÃĹÂ´Â¯Â¯ Â·
ĠÂ¯ÃĹÂ´Â¯Â¯ Â´Â¯Â¯
Ä¿Ãĳ Ã¯
ĠÃģ Ã¯
ĠÃģ Ã°Ãĳ
ÅıÄ³ Ãı
ĠÂ¿Â¿ ÃĹÂ¯Â¿Â¯Â¯Â¯
Å§ Ã¯
ĠÂ¯Â¯Â¯Ã· Â´Â¯Â¯Â¯
ĠÂ¯Â¯Â¯Â±Â· Â¸Â¯Â¯
ÃıÄ´ Ã¹
ĠÂ¯Ã·Â´Â¯Â¯ Â¸Â¯Â¯
ĠÄı Ã¯Ãı
ĠÄı Ãĺ
ĠÂ¯Â¿Â´Â¯ Â¸Â¯Â¯Â¯
ĠÂ¯Â¿Â´Â¯ Â·Â´Â¯Â¯
ĠÂ¯Â¯ÃĹÂ¯Â¯Â¯ Â¶Â¯
ĠÂ¯Â¯Â·Â´Â¯ Â¸Â¯Â¯
Ä¿Ã³ ÃĦ
ĠÂ¯Â¸Â¯Â¯Â¯ ÃĹÂ¯Â¯
ĠÂ¯Â¸Â¯Â¯Â¯ Ã·Â¯Â¯
ĠÂ¯Â°Â±Â¯ Â±Â°Â¯Â¯
ĠÂ¯Â±Â°Â¯ÃĹ Â¶Â¯Â¯
ĠÂ¯Â¯Â¯Â¶ Â¯Â±Â°Â¯
ĠÂ°Â¯Â¯Â¯ Â·Â°Â¯Â¯
ĠÃ· Â·Â¯Â¯
ĠÃ· Â±Â¯Â¯Â¯
ĠÃ· Â°Â¯Â¯Â¯
Â¿Â¯Â¿ Â±Â°Â¯
Â¿Â¯Â¿ Â´Â¯Â¯Â¯
Ã« Ä·
ĠÂ·Â· Â¿Â±Â¯Â¯Â¯Â¯
ĠÂ¯Â¯Ã·Â¸ Â·Â¯Â¯Â¯
Ä½ Ä¯
ĠÃĵ Ã¯
ÅĹÂµ Ä¯
ÅĹÂµ Ãı
Ã¿ÃĲ Ä¯Äģ
ĠÃĹ Â°Â¯Â¯Â¯
ĠÃĹ Â¸Â¯Â¯
ĠÃ¯Ã³ Ãĵ
Ã¿Ä° ÃĻ
ĠÂ¯Â±Â°Â¯Ã· Â¿Â¯Â¯
ĠÂ¯Â¿Â¿Â¯Â¯ Â¿
ĠÂ¯Â¿Â¿Â¯Â¯ Â°Â°Â¯
ĠÂ¯ÃĹÂ´Â¯ Â°Â¯Â¯Â¯
ĠÂ¯ÃĹÂ´Â¯ Â·Â´Â¯Â¯
Â¿Â· Â¿Â¯Â¯
Ãį Ãı
ĠÂ¯Â¿Â´ Â¯Â¿Â±Â¯Â¯
ĠÂ·Â·Â¯ Â·Â¯Â¯Â¯Â¯
ĠÂ¯Â¯Â´Â¯Â· Â¿Â¯Â¯
ĠÂ¯Â¯ÃĹÂ¯Â· Â¸Â¯Â¯
Ä¯Ä¯Ã¯ Ãĵ
Â°Ã· Â¸Â¯Â¯
Â·Â· Â¸Â¯Â¯
ĠÂ±Â°Â¯Â¯Â¯ Ã·Â´Â¯
ÅıÃħ Ä¯
ĠÂ» Â¯Â¿Â¯Â¯
ĠÂ» Â¯Â±Â¯
ĠÂ¯Â¯Â±Â°Â¯Â· Â¸Â¯
ĠÂ¿Â·Â¯Â¯Â¯Â¯ Â±Â°
Â±ÃĹ Â¸Â¯Â¯
ĠÂ¯Â¯Ã·Â¸Â¯ Ã·Â¯Â¯
Â¿Â¯ÃĹ Â¸Â¯Â¯
ĠÂ¯Â°Â±Â¯Â¯ Â±Â±Â¯
ĠÂ¯Â¯Â±Â· Â·Â°Â¯Â¯
ĠÃ¯Ã¹ Ãĵ
ĠÄ³ Ã¯Ãı
Â±Â¯ÃĹ Â¿Â¯Â¯
ĠÂ¯Â¯Â°Â¯Â± Â¸Â¯Â¯
Â°Â¯ÃĹ Â¸Â¯Â¯
Ä¿Ã¹ ÃĶ
ĠÂ¯Â·Â¿ Â°Â¿Â¯Â¯Â¯
ĠÂ¯Â·Â¿ Â±Â·Â¯Â¯Â¯
ĠÃıÃĲ Äĥ
Â¯Â¯Â´ Â¿Â¯Â¯
Â¯Â¯Â´ Â´Â¯Â¯
ĠÂ¯Â¿ÃĹ Â´
ĠÂ¯Â¿ÃĹ Â¯Â¯Â¿Â¯Â¯
ĠÂ¯Â¿ÃĹ Â¯Â¿Â°Â¯Â¯
Â¯Â¯Â¸Â¯ Â°Â¯Â¯Â¯
ĠÂ¯Â¯Â°Â¿ Â¸Â¯Â¯Â¯
Â·Â°Â¿ Â´Â¯Â¯
ĠÂ¯Â°Â°Â¯Â¯Â¯ Â¸Â¯
ĠÂ±Â±Â¯Â¯Â¯ Â·Â¯Â¯
Â¯Â¯Â» Â¿Â¯Â¯
Ã¯Ä² Ä¯
ĠÂ¿Â°Â¯Â¯ Â¿Â¯Â¯Â¯
ĠÂ¯Â¯Â¿Â´Â¯Â¯ Â´Â¯
ĠÂ¯Â·Â¸Â¯Â¯ ÃĹÂ·Â¯
ĠÂ¯Â¯ÃĹÂ·Â¯ ÃĹ
ĠÂ¿Â¸Â¯Â¯ ÃĹ
Å¿Ã± Âº
ĠÂ¯Â¿Â» Â¯Â¯Â±Â¯Â¯
ĠÂ¯Â¿Â» Â¯Â·Â¯Â¯Â¯
ĠÂ¯Â¯Â·Â¯ÃĹ ÃĹÂ¯Â¯
ĠÂ¯Â¯Â¿Â¶ Â¯Â·Â¯Â¯
Â°Â¯Â±Â¯ Â·Â¯
ĠÂ¯Â¿Ã· Â¯Â¯Â¿Â¯Â¯
ĠÂ¯Â±Â¿ Â±Â¯Â°Â¯Â¯
ĠÂ¸Â¯Â¯ Â°Â¯Â¯Â¯Â¯
ĠÂ¸Â¯Â¯Â¯Â¯ Â¿Â¯Â¯
ĠÂ¯Â´Â°Â¯ Â¿Â¯Â¯Â¯
ĠÂ¯Â´Â°Â¯ Â·Â´Â¯Â¯
ĠÂ¯Ã·Â¸ Â°
ĠÂ°Â¯Â¯Â¯Â¯Â¯ Â¿Â¯
ĠÂ¯Â¯Â¿Â¯Â» Â¿Â¯Â¯
ĠÂ¯Â¯Â±Â¯Â¯Â° Â´Â¯
Ä·Ã¯Ã¯ ÃĲ
Ã¿Ä´ Ãĥ
ĠÂ¿Â¿Â·Â¯ Â¿Â·Â¯Â¯
ĠÂ¯Â¿Â¿Â¯Â· Â·Â¯Â¯
Ã¿Ã¹ Ãĳ
ĠÂ°Â¯Â·Â¯ Â±Â´Â¯Â¯
ĠÂ¿Â°Â¯ Â¿Â¯Â¯Â¯Â¯
ĠÂ¯Â¿Â±Â°Â¯ Â·Â¯Â¯
ĠÅ¯Ãĳ Ã±
Â¯Â¯Â¯Â» Â´Â¯
Â¯Â¯Â¶ Â°Â¯Â¯
ĠÂ¯Â¯Â·Â¯Â» Â¿Â¯Â¯
ĠÂ°Â¯Â°Â¯Â¯ Â·Â¯Â¯
ĠÂ¯Â¯Â¯Â¿Â¯Â¯Â¯ Â±
ĠÂ»Â¯Â¯ Â°Â¯Â¯Â¯Â¯
ĠÂ¯Â¯Â¯ÃĹÂ¯Â¯ Â±Â¯
ĠÂ¿Â¯Â·Â¯Â¯Â¯ Â°Â¯
ĠÂ·Â·Â¯Â· Â·Â¯Â¯Â¯
ĠÃ¯ÃıÃĪ Ã¯Ã£
Ä ª
Å ¦
Ġ ÅĶ
Ġ ÃĹÂ°Â¯
Ġ Â¸Â¯Â¯Â¯Â¯Â¯
Ġ Äī
Ġ Äħ
Ġ Ã²
Ġ Â°Â¯Â¿Â¯Â¯Â¯
Ġ Ä·Ãģ
Ġ Ã·Â°Â¯Â¯Â¯Â¯
Ġ Ã³Ãĳ
Ġ ÅŁÃģ
Ġ ÅĥÄ¯
Ġ Ã²Ãı
Â¯ Â´Â¯Â¿Â¯Â¯
Â¯ Â´Â¯Â±Â¯Â¯Â¯
Â¯Â¯ Â°Â¿Â±Â¯Â¯
Â¯Â¯ Â±Â¿
Â¯Â¯ Â»Â¯Â¯Â¯Â¯Â¯
Â¯Â¯ Â´Â¿Â¯Â¯Â¯
Â¯Â¯Â¯ Â°Â·Â¯Â¯
Â¯Â¯Â¯ Â±Â¿Â¯Â¯
Â¯Â¯Â¯ Â±Â±
Â¯Â¯Â¯ Â´Â¿Â¯
ĠÂ¯ Â±Â¯Â°Â¯Â¯
ĠÂ¯ Â°Â¯Â±Â¯Â¯
ĠÂ¯ Â±Â¯Â·Â¯Â¯
Â± Â·Â¯Â¿Â¯Â¯Â¯
Â± Â·Â¯Â·Â¯Â¯
Â± Â»Â¯
Â± Â°Â·
Â± Â¶Â¯Â¯Â¯
Ã¯ ÄıÃı
Ã¯ Åļ
Ã¯ ÅĹÂµ
Ã¯ Æĵ
Ã¯ ÄĶ
Â° Â±Â¯Â°Â¯Â¯
Â° Â°Â¯Â·Â¯Â¯
Â° Â»Â¯Â¯
Â° Â±Â¯Â·Â¯Â¯
Â° Â¸Â¯Â¯Â¯Â¯
Â° Â»Â¯
Â° Â±Â·Â¯Â¯Â¯
Â° Â°Â±Â¯Â¯Â¯
Ä¯ Ä°Ä¯
Ä¯ Æĩ
Â· Â¿Â±Â¯
Â· Â±Â¯Â¯Â°Â¯Â¯
Â· ÃĹÂ¯Â¯Â¯Â¯Â¯
Â· Â°Â¯Â¯Â¯Â°Â¯
Â· ÃĹÂ´Â¯Â¯
Â· ÃĹÂ±Â¯Â¯
Â· Â¶Â¯
Â· Â¿Â¿Â¯Â¯Â¯
Â· Ã·Â·Â¯Â¯
Ãı Ä¿Ãģ
Ãı ÅĴ
Ãı Ä¶
Ãı ÅĬ
Ãı ÄıÃ¯
Ãı ÅĺÃĥ
Ãı Å²
Â¯Â¯Â¯Â¯ ÃĹÂ°Â¯Â¯
Â¯Â¯Â¯Â¯ Â»Â¯Â¯Â¯
Â¯Â¯Â¯Â¯ Â°Â·Â¯
Â¯Â¯Â¯Â¯ Â±Â¿Â¯Â¯
Â¿ Â±Â°Â¯Â¯
Â¿ Â¿Â°Â¯Â¯
Â¿ Â°Â°Â¯Â¯
Â¿ Â±Â¿Â·Â¯Â¯
Â¿ Â´Â¯Â¿Â¯Â¯
Â¿ Â·Â°Â¯Â¯Â¯Â¯
Â¿ Ã·Â´Â¯
Â¿ ÃĹÂ¯Â·Â¯Â¯Â¯
Â¯Â¯Â¯Â¯Â¯ ÃĹÂ¯Â¯
Â°Â¯Â¯ Ã·Â±Â¯
Â°Â¯Â¯ Ã·Â¸Â¯
Â°Â¯Â¯ Â»Â°Â¯
Â±Â¯Â¯ Ã·Â¯
Â±Â¯Â¯ Â°Â±Â¯
Â·Â¯Â¯ Ã·Â´Â¯Â¯
Â·Â¯Â¯ Ã·Â¸Â¯
Â¿Â¯Â¯ Â´
Â¿Â¯Â¯ Â°Â·Â¯
Â¿Â¯Â¯ ÃĹÂ·Â¯
Â°Â¯ Â±Â·Â¯
Â°Â¯ Â»Â°Â¯Â¯
Â°Â¯ Â·Â¯Â±Â¯
Â°Â¯ Â¸Â¿Â¯Â¯
Â±Â¯ Â·Â¯Â¯Â¯Â¯
Â±Â¯ Â¸Â°Â¯Â¯
Â±Â¯ Â¿Â¯Â°Â¯
Â±Â¯ Â·Â¯Â±Â¯
Â¿Â¯Â¯Â¯ Â±
ĠÂ¯Â¯Â· Â¯Â¯Â¯Â·
ĠÂ¯Â¯Â· Â´Â¯Â¯Â¿Â¯
ĠÂ¯Â¯Â¿ ÃĹÂ·
Â·Â¯Â¯Â¯ Ã·Â¯Â¯
Â·Â¯Â¯Â¯ Â¿Â·Â¯
Â·Â¯Â¯Â¯ ÃĹÂ°Â¯
Â±Â¯Â¯Â¯ Ã·Â¯
Â±Â¯Â¯Â¯ Â¿Â±Â¯
Â±Â¯Â¯Â¯ Â·Â´Â¯
Åı ÅĶ
Åı Ã¯Ã±
Åı Å£
Åı ÄĦ
Åı ÄĲ
Åı Åķ
Åı Ä¯Ã¯Ãı
Åı Ã¥
Åı Å²
Ã¿ Ãķ
Ã¿ Äĵ
Ã¿ ÃĪ
Ã¿ Ã¯Ä·
Ã¿ ÃĢÄ¯
Ã¿ Åľ
Â´ Â´
Â´ Â¯Â¿Â±Â¯Â¯
Â´ Â·Â·Â¯Â¯
ÃĹ ÃĹÂ¯Â¯
ÃĹ Â¯Â±Â¯Â¯
ÃĹ Â¯Ã·Â°Â¯Â¯
ÃĹ Â±Â¯Â´Â¯Â¯
ÃĹ Â·Â·Â¯
Ãĥ Ã¸
Ãĥ Ã°Ãı
ĠÂ¯Â¯Â¯Â¯Â¯Â¯ Â°Â·
ĠÂ¯Â¯Â¯Â¯Â¯Â¯ ÃĹÂ°
ĠÂ¯Â¿ Â¯Â¿Â¯Â¯
ĠÂ¯Â¿ Â¯Â¿Â´Â¯Â¯Â¯
ĠÂ¯Â¿ Â±Â¿Â¿Â¯Â¯Â¯
ĠÂ¯Â¿ Â´Â¯Â¯Â¯Â¿Â¯
Â°Â¯Â¯Â¯Â¯ Â±
Â°Â¯Â¯Â¯Â¯ Â¿Â¯
ĠÂ¯Â¯Â¿Â¯ Â±Â¯Â¯
ĠÂ¯Â¯Â¿Â¯ Â´Â¯
ĠÂ¯Â¯Â¿Â¯ Â¿Â¯Â¿Â¯
ĠÂ¯Â¯Â¿Â¯ Â·Â¯Â·Â¯
Ä° Âº
Ä° ÃıÃģ
Ä° Ã¯ÃĻ
Ä° Ãķ
Ä° Ä¯Åı
ĠÂ¯Â· Â¯Â¿Â¯Â¯
ĠÂ¯Â· Â·Â°Â¯
ĠÂ¯Â· Â¶Â¯Â¯
ĠÂ¯Â· ÃĹÂ¯Â¯Â°Â¯Â¯
ĠÂ¯Â· Â¯Â¿Â¸Â¯Â¯Â¯
ĠÂ¯Â· Â´Â¯Â¯Â¯Â¿Â¯
ĠÂ¯Â· Â¯Â±Â¯Â¯Â±Â¯
ĠÂ¯Â· Â¯Â°Â¯Â¯Â·Â¯
Ã· Â¯Â¸Â¯Â¯Â¯
Ã· Â±Â¯Â¯Â±Â¯
Ã· Â¯Â·Â´Â¯Â¯
Ã· Â°Â·Â¯Â¯Â¯
Ã· Â¯Ã·Â·Â¯Â¯
Ä¿ Ä°Ã¯
Ä¯Ã¯ Ä¯Ãģ
Ä¯Ã¯ Ä¸
Ä¯Ã¯ Ä¯Åĥ
Â´Â¯Â¯ Â¸Â°Â¯
Â´Â¯Â¯ Â¶Â¯
Â´Â¯Â¯ Â»Â±Â¯
Ã¯Ãı Äı
Ã¯Ãı ÃıÃ¯
Ã¯Ãı ÃıÂµ
Ã¯Ãı Ä¯Ä³
ĠÂ¯Â¯Â±Â¯ Â¸
ĠÂ¯Â¯Â±Â¯ ÃĹÂ°Â¯
ĠÂ¯Â¯Â±Â¯ Â´Â°Â¯Â¯
ĠÂ¯Â¯Â±Â¯ Â·Â¯Â¿Â¯
ĠÂ¯Â¯Â±Â¯ Â»Â·Â¯Â¯
Â·Â¯ Â»
Â·Â¯ Â±Â·Â¯
Â·Â¯ Ã·Â¸Â¯
Â·Â¯ Â´Â±Â¯Â¯
Â¸ Â°Â¯Â¯Â¯Â¯Â¯
Â¸ Â·Â°Â¯Â¯
Â¸ Â¯Â·Â±Â¯Â¯
Â¸ Â·Â´Â¯Â¯
Â¸ Â¯Â¿Â´Â¯Â¯
Ãģ Ãĩ
Ãģ Ä´
Ãģ ÄĢ
Ãģ Ä¯Ã±
Ãģ ÃĴ
Ãģ Ãľ
Ãģ Ä¯Ãķ
Â¯Â¯Â°Â¯Â¯ Â¿Â¯Â¯
Â¯Â¯Â°Â¯Â¯ Â·Â¯
Â¯Â¯Â°Â¯Â¯ Â¿Â¯
Ãĵ Ãĺ
Ãĵ Ä´
Ãĵ Ã¸
Ãĵ Ãī
Ãĵ Ãħ
Ãĵ Äī
Ãĵ Ã±Ãģ
ĠÂ¯Â¯Â·Â¯Â¯ Â»Â±Â¯
ĠÂ¯Â¯Â·Â¯Â¯ Â±Â¯Â±
ĠÂ¯Â¯Â·Â¯Â¯ Â´Â¯Â±
ĠÂ¯Â¯Â°Â¯ Â¶
ĠÂ¯Â¯Â°Â¯ Â¶Â¯Â¯Â¯
ĠÂ¯Â¯Â°Â¯ Â¿Â¯Â°Â¯
ĠÂ¯Â¯Â°Â¯ ÃĹÂ¯Â¿Â¯
Ã± Å¯
Ã± Ä¯Ãĵ
Ã± Ã£
Ã± ÃıÄ¯
Ã± Ãķ
Ã± ÃĵÃı
Ã± ÃĦÃ¯
ĠÂ¯Â¯Â±Â¯Â¯ Â¸
Ã³ Ä¯Ãģ
Ã³ ÄĹ
Ã³ Ã§
Ã³ Ä¯Åı
Ã³ Ä²
Ã³ ÅĴ
Ã³ Åľ
ĠÂ¯Â¯Â¿Â¯Â¯ Â°Â¿Â¯
Ä· Åĳ
Ä· ÅĽ
Ä· Ã»
Ä· Ã¯Ã¿
Ä· Å¡
Ä· Åħ
ĠÂ¯Â± Â¿Â·Â¯
ĠÂ¯Â± Â¿Â°Â¯
ĠÂ¯Â± Â¿Â°
ĠÂ¯Â± Â·Â¯Â¿Â±Â¯Â¯
ĠÂ¯Â± ÃĹÂ¯Â¿Â¯Â¯Â¯
ĠÂ¯Â± Â·Â¯Â·Â°Â¯Â¯
ĠÂ¯Â± ÃĹÂ±
ĠÂ¯Â± Â¸Â¯Â°Â¯Â¯Â¯
ĠÂ¯Â± ÃĹÂ°Â¯Â°Â¯Â¯
Ä³ Äĩ
Ä³ ÃıÃ¯
Ä³ Ãµ
Ä³ Ã²
Ãĳ Äı
Ãĳ Äĩ
Ãĳ ÃıÃı
Ãĳ Ä¯Ä³
Ãĳ ÃıÃĵ
Ãĳ Å´
Ãĳ Ä°Ã³
ĠÂ¯Â¯ÃĹ Â¯Â¯Â¿Â°Â¯
ĠÂ¯Â¯ÃĹ Â·Â¯Â´Â¯Â¯
ĠÂ¯Â¯ÃĹ Â¸Â¯Â¯Â¿Â¯
Â¯Â¯Â±Â¯Â¯ Â·Â¯Â¯
Â¯Â¯Â±Â¯Â¯ Â°Â¯
Â¯Â¯Â±Â¯Â¯ Â¿Â¯
ÃĲ ÄĢ
ÃĲ Ãħ
ÃĲ Ä¯Ãĩ
Â¿Â¯ Â´
Â¿Â¯ Ã·Â·Â¯Â¯
Â¿Â¯ Â´Â°Â¯Â¯
Â¯Â·Â¯Â¯Â¯ Â°Â¯Â¯
ÃĢ Ã³
ÃĢ Ä¯Ãĥ
ÃĢ Ã´
ÃĢ ÃıÃı
ĠÂ¯Â¯Â¯Â° Â¸
ĠÂ¯Â¯Â¯Â° Â°Â´Â¯Â¯
ĠÂ¯Â¯Â¯Â° Â»Â·Â¯Â¯
ÃĹÂ¯Â¯Â¯ Â¿Â¯
ÃĹÂ¯Â¯Â¯ Â¸Â¯
ĠÄ¯ Âº
ĠÄ¯ Åĺ
ĠÄ¯ Ãĭ
ĠÄ¯ Ä·Ãĥ
ĠÄ¯ Ä¼
ĠÄ¯ Ã©
ĠÂ¯Â¯Â¯Â°Â¯ Â°Â¿Â¯
ĠÂ¯Â¯Â¯Â°Â¯ Ã·Â¸Â¯
ĠÂ¯Â¯Ã· Â¯Â¯Â¿
ĠÂ¯Â¯Ã· Â»Â¯Â¯Â¯Â¯
ĠÂ¯Â¯Ã· Â¯Â¯Ã·Â´Â¯
ĠÂ¯Â¯Ã· Â·Â¿
ĠÂ¯Â¯Â¯Â±Â¯ Ã·Â´Â¯
ĠÂ¯Â¯Â¯Â±Â¯ Â±Â¿Â¯
ĠÂ¯Â¿Â¯Â¯ Â¸
ĠÂ¯Â¿Â¯Â¯ Â·Â¯Â°Â¯
ĠÂ¯Â¿Â¯Â¯ ÃĹÂ¿Â¯Â¯
ĠÂ¯Â¿Â¯Â¯ Â»Â·Â¯Â¯
Åĵ ÃŁ
Åĵ Åĳ
Åĵ Ã¯Ã¯
Åĵ Ä¯Ä¯
Åĵ Ä±Ãĵ
Åĵ Ä±Ãģ
ĠÂ¯Â¯Â¯Â¯Â¿ Â¿Â¿Â¯
ĠÂ¯Â¯Â¯Â¯Â¿ Â¸Â±Â¯
ĠÂ¯Â¿Â¯Â¯Â¯ Â»
ĠÂ¯Â¿Â¯Â¯Â¯ Ã·Â·Â¯
ĠÂ¯Â¿Â¯Â¯Â¯ Â±Â¯Â°
Ä± Äı
Ä± Åĳ
Ä± Ã¯Ã¯
Ä± ÅĲ
Ä± Ã¸
ÅĹ ÃĦ
ÅĹ ÃıÃ¯
Â¸Â¯Â¯ Â·Â¯Â¯Â¯
Â¸Â¯Â¯ Â»Â¯Â¯
Â¸Â¯Â¯ Ã·Â¸Â¯
ÃĹÂ¯Â¯ ÃĹÂ°Â¯
ÃĹÂ¯Â¯ Â·Â±Â¯
ÃĹÂ¯Â¯ Â¿Â¸Â¯
Å¯ Ä¯Ã¯
Å¯ ÅĶ
Å¯ Å±
Å¯ Å°
ĠÃı Ä¯Ã±
ĠÃı Âº
ĠÃı Ä¯Äı
ĠÃ¯ Ã»
ĠÃ¯ Åī
ĠÃ¯ Ãº
ĠÃ¯ Ä³Ãģ
ĠÃ¯ ÃĢÃı
ĠÂ¯Â¯Â¯Â¯Â· Â´
ĠÂ¯Â¯Â¯Â¯Â· ÃĹÂ±Â¯
ĠÂ¯Â·Â¯Â¯ Â¶Â¯Â¯Â¯
ĠÂ¯Â·Â¯Â¯ Â·Â¯Â±Â¯
ÃĻ ÄĢ
ÃĻ ÃĬ
Ã¹ Ä´
Äĥ Ä¿
Äĥ Ä³
Äĥ Ä¯Ãģ
Äĥ Ä¯Ä¯
Äĥ ÄĢ
Äĥ ÅĻ
Äĥ Ä°Ãĵ
Åĥ Ãĩ
Â¯Â¿ Â±Â¯Â¯Â¯Â¯Â¯
Â¯Â¿ Â¸Â°Â¯
Â¯Â¿ Â±Â¿Â¯
ĠÂ¯Â° Â±Â¯Â¯Â¯Â·Â¯
ĠÂ¯Â° Â¿Â±
ĠÂ¯Â° Â±Â¯Â¯Â·Â°Â¯
ĠÂ¯Â° ÃĹÂ¯Â¯Â°Â¯Â¯
ĠÂ¯Â° Â¿Â·Â¯Â¯Â¯Â¯
Äģ Ã¿
Äģ Ä³
Äģ Åĵ
Äģ Äģ
Äģ ÃĶ
Äģ Âµ
Äģ Ä¯Ãı
Â´Â¯ Ã·Â¸Â¯Â¯
ĠÂ¯Â·Â¯Â¯Â¯ ÃĹÂ´Â¯
ĠÂ¯Â·Â¯Â¯Â¯ ÃĹÂ¸Â¯
ĠÂ¯Â¯Â¯Â± Â´
ĠÂ¯Â¯Â¯Â± ÃĹÂ¿Â¯Â¯
Â¯Â· Â¿Â·Â¯Â¯
Â¯Â· Â±Â¿Â·Â¯Â¯
Â¯Â· Â°Â¿Â¯
ĠÄ¯Ã¯ Ã¯Ãı
Äı Ã¹
Äı Ä¸
Äı Ãħ
Äı Åĺ
Äı ÃıÃĵ
Äı Ã°Ã¯
Ã° Äĥ
Ã° Ä´
Ã° Ä¯Ã¿
Ã° Ä¸
Ã° Ä¯Ã¹
Ã° Ä¯Ãĳ
Ã° Ä¯Äģ
Ã° ÃıÄ¯
ÃĶ Ã¯Ãģ
Âµ Ä³
Âµ Ä±
Âµ Ã¹
Âµ Äı
Âµ Ã°
Âµ Ä¯Ã¿
Âµ ÅĦ
Âµ ÃıÃı
Âµ Ä¯Ã»
Ã·Â¯Â¯Â¯ Â¸Â°Â¯
ĠÂ¯Â¯Â± Â¿Â¯Â¿Â¯Â¯
ĠÂ¯Â¯Â± Â±Â¿Â¿Â¯Â¯
Â±Â°Â¯Â¯ Â±Â¯
ÃĦ Ã°
ÃŁ Ã°
ÃŁ Ä¯Ãģ
ÃŁ Ãħ
ÃŁ Ãĭ
ÃŁ ÃĤ
Ãĩ ÃĶ
Ãĩ ÅĶ
ĠÃ¯Ãı Å¿
ĠÃ¯Ãı Å°
ĠÃ¯Ãı ÃģÄ¯
Â» Â¿
Â» Ã·Â¯Â¯
Â» Â¯Â¯Â¯Â±Â¯
Â» Â¯Â·Â·Â¯
Â¿Â·Â¯Â¯ Ã·Â¯Â¯
ĠÂ¯Â¿Â·Â¯ Â»Â°Â¯Â¯
ĠÂ¯Â¿Â·Â¯ Â´Â¯Â°Â¯
Â´Â¯Â¯Â¯ Â¸Â¯
ĠÂ¯Â±Â¯Â¯ Â»Â°Â¯Â¯
ĠÂ¯Â±Â¯Â¯ Â¿Â¯Â±Â¯
Â¸Â¯ Â¿Â¯
Â¸Â¯ Ã·Â·Â¯
Ä¯Ãı Ä¿
Ä¯Ãı Äı
Ä¯Ãı ÃĶ
Ä¯Ãı ÃıÃģ
Ä¯Ãģ Ä¯Ãı
Ã·Â¯Â¯ ÃĹÂ°Â¯Â¯
Ã·Â¯Â¯ Â¿Â±Â¯
ĠÂ¯Â±Â¯Â¯Â¯ Â¿Â¸Â¯
ĠÂ¯Â±Â¯Â¯Â¯ Â¿Â´Â¯
ĠÂ¯Â±Â°Â¯ Â·Â°Â¯
ĠÂ¿ Â°Â·Â¯Â¯
ĠÂ¿ Â±Â¯Â¯Â¯Â·Â¯Â¯
ĠÂ¿ Â±Â¯Â¯Â·Â¯Â¯Â¯
ĠÂ¿ Â±Â¯Â¯Â¿Â¯Â¯Â¯
ĠÂ¿ Â°Â¯Â¯Â¯Â¯Â°Â¯
ĠÂ¯Â°Â¯Â¯ Â¿Â¯Â±Â¯
Ä¯Ãĥ Ä°
Ä¯Ãĥ Ãĳ
Ä¯Ãĥ ÃĲ
Ä¯Ãĥ Ä¯Ãģ
Ä¯Ãĥ Ä¯Ãĵ
ĠÂ¯Â¯Â¯Â·Â¯ Ã·Â±Â¯
ĠÂ¯Â¯Â¯Â·Â¯ Â´Â±Â¯
ĠÂ¯Â¯ÃĹÂ¯ Ã·Â·Â¯Â¯
ĠÂ¯Â¯ÃĹÂ¯ Â»Â°Â¯Â¯
ĠÂ¯Â¯Â° Â±Â¯Â¿Â·Â¯
ĠÂ¯Â¯Â° Â°Â¯Â¯Â´Â¯
Â¯Â·Â¯Â¯ Â¿
Â¯Â·Â¯Â¯ Â·Â¯
Â¯Â·Â¯Â¯ ÃĹÂ¯Â¯
Â¯Â·Â¯Â¯ Â·Â°Â¯
Â¯Â°Â¯Â¯ Â¿
ÅŁ ÃĽ
ÅŁ Ãĭ
ÅŁ ÂµÃ¯
Â¯Â¯Â· Â´
Â¯Â¯Â· Â´Â¯Â¯Â¯
Â¯Â¯Â· Â°Â°Â¯
ĠÂ¯Â°Â¯Â¯Â¯ Â¶Â¯Â¯
ĠÂ¯Â°Â¯Â¯Â¯ Â¸Â°Â¯
ĠÂ¯Â¯Â¿Â° Â°Â¯Â±Â¯
ÅĢ Ä±
ÅĢ Å¹
Ä¹ Ä³
Åĳ Ä¯Ã³
Ã¯Ã¯ Åı
Ã¯Ã¯ Ã¿
Ã¯Ã¯ Ã¯Ãı
Ã¯Ã¯ Ã±
Ã¯Ã¯ Ã°
Ã¯Ã¯ Ä¯Ã³
ÅĲ Ãĭ
Ã¯Ãĵ ÃĢ
Ã¯Ãĵ Ä¯Ã¿
Ã¯Ãĵ Ä¯Ãĳ
Ã¯Ãĵ Ä¯Äı
Ä¯Ä¯ Ä¯Ãı
Ä¯Ä¯ ÄĹ
Ä¯Ä¯ Äĩ
Â¿Â·Â¯ Â·
Â¿Â·Â¯ Â·Â¯Â¯Â¯
ĠÂ· Â´Â¯Â¯
ĠÂ· Â»Â¯Â¯Â¯
ĠÂ· Â°Â°Â¯Â¯
ĠÂ· Â·Â·Â¯
ĠÂ· Â±Â¯Â¿
ĠÂ· Â±Â°Â¯Â±Â¯Â¯Â¯
ĠÂ¯Â¯Â´Â¯Â¯ Â±
ĠÂ¯Â¯Â´Â¯Â¯ ÃĹÂ±Â¯
Ä¯Ã¿ Ä¸
Âº Ä°
Âº Ã³
Âº Ä±
Âº Ä¯Ãµ
ĠÂ¯Â¯Â¯Â· Â±Â¿Â¯Â¯
Â·Â°Â¯Â¯ Â¸Â¯Â¯
ĠÄ¯Ä¯ ÃŁ
Å¿ ÄĹ
Ã´ Ä°
Ã´ Ãĺ
ĠÃ¯Ã¯ Ãĳ
ĠÃ¯Ã¯ Ä±
ĠÃ¯Ã¯ Ä¸
ÃıÃģ Ä¯Ã³
ÃıÃģ Ä¯Ä·
ÃıÃģ Ä¯Äµ
ĠÂ¯ÃĹ Â±Â¯Â±Â¯Â¯Â¯
ĠÂ¯ÃĹ Â±Â°Â¯Â¯Â¯Â¯
ĠÂ¯ÃĹ Â´Â¯Â¿Â¯Â¯Â¯
Ã¯ÃĲ Ãĥ
ĠÂ¯Â¯Â¸ Â±Â¯Â·Â¯Â¯
ĠÂ¯Â¯Â¸ Â°Â¿Â±Â¯Â¯
ĠÂ¯Â¯Â¸ Â±Â¯Â¿Â±Â¯
ĠÂ¯Â¯Â¸ Â°Ã·
Ã¸ Ã¿
Ã¸ Ã¹
Ã¸ Ä´
Ã¸ Ä¯Ãĵ
ÄĹ Ãĩ
ĠÂ¯Â¯Â¯Â¿ Â°Â°Â¯Â¯
ĠÂ¯Â¯Â´Â¯ Â°Â¯
ĠÂ¯Â¯Â´Â¯ ÃĹÂ±Â¯Â¯
ĠÂ¯Â¯Â´Â¯ Â±Â±Â¯Â¯
ĠÂ¯Â¯Â´Â¯ Â°Â·Â¯Â¯
ĠÂ¯Â¯Â±Â° Â±
ĠÂ¯Â¯Â±Â° Ã·Â°Â¯Â¯
ĠÂ¯Â¯Â±Â° Ã·Â´Â¯Â¯
ĠÂ¯Â¯Â±Â° Ã·Â±Â¯Â¯
Â»Â¯Â¯ Â»Â¯Â¯
Â¯Â¯Â¿ Â±Â±Â¯
Â¯Â¯Â¿ Â¸Â°Â¯
Â¯Â¯Â¿ Â°Â·Â¯
ĠÂ¯Â¯Â±Â¯Â¯Â¯ Â±Â°
ÅĦ ÃĻ
Ä¸ Ã¹
ĠÂ¯Â¿Â¯ Â¿Â¯Â¿Â¯Â¯
ĠÂ¯Â¯Ã·Â° Â°Â°Â¯Â¯
Ãī ÃĲ
ÃıÃı Ã±
ÃıÃı Âµ
ÃıÃı ÃıÃģ
ÃıÃı Ãī
ÃıÃı Ä¯Ãħ
Ãħ ÃĲ
Ãħ Ä¯Ä¯
Ãħ Ä¸
ĠÂ¯Ã· Â»Â¯Â¯
ĠÂ¯Ã· Â¿Â¯Â¯Â±Â¯Â¯
ĠÂ¯Â¯Â·Â° Â°Â¯
ÃıÃ¯ Åı
ÃĽ Ã¿
ÃĽ Ã±
Åĺ Ã¿
Åĺ Åĥ
Åĺ ÅĽ
Åĺ Å£
ĠÂ¯Â¯Â¯Â¯Â± Ã·Â°Â¯
ĠÂ¯Â¯Â¯Â¯Â± Â¶Â¯Â¯
ĠÂ¯Â¯Â¯Â¯Â± Â°Â¿Â¯
Â»Â¯Â¯Â¯ Â¿Â¯
ÃıÃĢ Ä¯Ã±
ÃıÃĢ Ã¯ÃĲ
Ã¯Ãĥ Ã¯Ã¹
Ã¯Ãģ Åı
Ã¯Ãģ Ä¯Ãģ
Ã¯Ãģ Ä¯Ä¯
ĠÂ¯Â¯Â¸Â¯ Ã·Â·Â¯Â¯
Â¯ÃĹ Â¯Â¯Â°Â¯Â¯
Â¯ÃĹ Â±Â±Â¯
ĠÂ¯Â¯Â¯Â¯Â° Â·Â¸Â¯
Ä¯Ãĳ Ãĵ
Ä¯Ãĳ Ä¯Ãģ
Ä¯Ãĳ Ä¯Ã³
ĠÃıÃı Ä¹
ĠÃıÃı Äĩ
ĠÂ¯Â¯ÃĹÂ¯Â¯ ÃĹÂ·Â¯
Ã¯Ä¯ ÃĢ
Â¿Â°Â¯Â¯ Â±Â°Â¯
ĠÂ¯Â¯Â¿Â± Â·Â¿Â¯Â¯
ĠÂ¯Â·Â¯ Â°Â¯Â±Â°Â¯
ĠÂ¯Â·Â¯ Ã·Â¯Â¯Â¯Â¯
Â·Â°Â¯ Â¿Â·Â¯Â¯
Â·Â°Â¯ Â¿Â°Â¯
ÅĶ Ã³
Â±Â±Â¯ Â±Â±Â¯
Ä¯Âµ Ã¯ÃĲ
Ã¯ÃĢ Ã¿
ĠÂ¯Â¯Â¯Â¯ÃĹ Â°Â¿Â¯
Â¯Ã· Â´
Â¯Ã· Â±Â¯Â¯Â¯Â¯Â¯
Â¯Ã· Â¿Â¯
Â¯Ã· Â¯Â¿Â¯Â¯Â¯
Â¯Ã· Â±Â°Â¯
Â¯Ã· Â¯Â±Â¯Â¯Â¯
Â¯Ã· Â´Â¯Â¯Â¯
Â¯Ã· Â°Â°Â¯
ĠÂ¯Â°Â°Â¯ Ã·Â·Â¯Â¯
Å³ Ãĥ
Å³ Ã¹
ĠÂ¯ÃĹÂ¯Â¯Â¯ Â·Â°Â¯
ĠÂ¯ÃĹÂ¯Â¯Â¯ Â·Â±Â¯
ĠÂ¯Â¯Â» Â¯Â´Â¯Â¯Â¯
ĠÂ¯Â¯Â» Â¯Ã·Â¸Â¯Â¯
ĠÂ¯Â¿Â°Â¯Â¯ ÃĹÂ¸Â¯
ĠÂ¯Â¯Â¯Â´ Â´Â¯Â¯Â¯
ĠÂ¯Â¯Â¯Â´ Â·Â°Â¯Â¯
ĠÂ¯Â¯Â¯Â´ Â¯Â¿Â°Â¯
ĠÂ¯Â¯Â¯Â´ Â¿Â´Â¯Â¯
Â¯Â° Ã·
Â¯Â° Â¿Â·Â¯
Â¯Â° Â¿Â´Â¯Â¯
Äĳ Ã¯
ĠÂ¯Â¯ÃĹÂ°Â¯ Â±
ĠÂ¯Â¯ÃĹÂ°Â¯ Ã·Â´Â¯
ÃıÃ± ÃĢ
ÃıÃ± ÃıÃı
Â¯Ã·Â°Â¯Â¯ Â°Â¯
ĠÂ¯Â¿Â· Â´Â¯Â°Â¯Â¯
Å· ÃĲ
ĠÂ¯Â±Â° Â·Â¯
ĠÂ¯Â±Â° Â±ÃĹÂ¯Â¯Â¯
ĠÂ¯Â±Â±Â¯ Â·Â·Â¯Â¯
Â¯Â°Â¯ Â°
Â¯Â°Â¯ Â¿Â·Â¯Â¯
Â¯Â°Â¯ Â·Â±Â¯Â¯
Â¯Â°Â¯ Â¿Â¸Â¯Â¯
ÃıÄ¯ ÅĢ
ÃıÄ¯ Äµ
ÃĹÂ¯ Â¸Â°Â¯Â¯
ÄŁ Åı
ÄŁ Ã°
ÄŁ Ãī
Â¶ Â·Â¯
Â¶ Â¯Â¯Â¿Â¯Â¯
Â¶ Â¯Â¯Â±Â¯
ĠÂ¯Â±Â¯ Â¸Â¯Â¯Â¯Â¯
ĠÂ¯Â±Â¯ Â±Â¸Â¯Â¯Â¯
ĠÂ¯Â¯Â´ Â¿Â¯
ĠÂ¯Â¯Â´ Â°Â¯Â¯Â°Â¯
ĠÂ¯Â¯Â´ Â°Â·Â¯Â¯Â¯
ĠÂ¯Â¯Â´ Â°ÃĹÂ¯Â¯Â¯
ĠÂ¯Â¯Â´ Â·Â±Â¯Â¯Â¯
ĠÂ¯Â¯Ã·Â°Â¯ Â¿Â¸Â¯
ÃĹÂ°Â¯ Ã·
Å± Ã¹
ĠÂ¯Â¿Â°Â¯ Â±
ĠÂ¯Â¿Â°Â¯ ÃĹÂ±Â¯Â¯
Ãĭ Ã±
Ãĭ ÃĶ
Ãĭ Ä´
Â¿Â±Â¯ Â¸Â¯Â¯
Â¿Â±Â¯ Â±Â°Â¯
Â¿Â±Â¯ Ã·Â¯Â¯Â¯
ĠÂ¯Â¿Â±Â¯ Â°Â°Â¯Â¯
ĠÂ¯Â¿Â±Â¯ Â±Â±Â¯Â¯
ĠÂ¯Â°Â¯ Ã·
ĠÂ¯Â°Â¯ Â°Â¿Â±Â¯Â¯
ĠÂ¯Â°Â¯ Â±Â±Â¯Â¯Â¯
ĠÂ¯Â°Â¯ Â±Â°Â¯Â¯Â¯
ĠÂ¯Â°Â¯ Â±Â¯Â·Â°Â¯
ÅĽ Ä¯
ĠÂ¯Â¯Â¿Â¯Â· Â»Â¯Â¯
ĠÂ¯Â¯Â¿Â¯Â· Â¶Â¯Â¯
Ã¯Ã± Ã¯Ãı
Â¿Â¯Â¯Â¯Â¯ Â±
ÃĴ Ä¯Ã¯
ÃĴ Ãģ
ÃĴ ÃĦ
Â¿Â°Â¯ Ã·
ĠÂ¿Â¯Â¯Â¯ Â±Â¯
ĠÂ¿Â¯Â¯Â¯ ÃĹÂ´Â¯Â¯
ĠÂ¿Â¯Â¯Â¯ ÃĹÂ±Â¯Â¯
ÃıÂµ Ã¯Ãĵ
ĠÂ¯Â¯Â·Â± Ã·Â°Â¯Â¯
ĠÂ¯Â¯Â·Â± Â·Â´Â¯Â¯
ĠÂ±Â¯Â¯Â¯Â¯ Â·
ĠÂ¯Â¯Â¯Â°Â¯Â¯ Â°Â°
Ä¯ÃĻ ÃĢ
ĠÂ¯Â¯ÃĹÂ± ÃĹÂ¯Â¯Â¯
ĠÂ¯Â¯ÃĹÂ± Ã·Â´Â¯Â¯
Æı Ãĺ
Æı Ãī
ĠÂ¯Â°Â°Â¯Â¯ Â¸Â°Â¯
ĠÂ¯Â°Â°Â¯Â¯ ÃĹÂ´Â¯
ĠÂ¯Â¯Â¿Â°Â¯ Â´Â°Â¯
ĠÂ¯Â¯Â¿Â°Â¯ Â¿Â´Â¯
ĠÂ¯Â¯Ã·Â± Â°Â¯Â¯Â¯
ĠÂ¿Â·Â¯Â¯Â¯ Â·Â¸Â¯
ĠÂ¯Â·Â°Â¯Â¯ Â±Â±Â¯
ĠÂ¯Â·Â°Â¯Â¯ ÃĹÂ°Â¯
ĠÂ¯Â¯ÃĹÂ±Â¯ Â¿Â¿Â¯
ĠÂ¯ÃĹÂ°Â¯Â¯ Â¶Â¯Â¯
ĠÂ¯ÃĹÂ°Â¯Â¯ Â·Â±Â¯
ĠÂ¯Â¯Â¿Â·Â¯ Ã·Â°Â¯
Ãķ Ã¯
ĠÂ¯Â¯Â°Â¯Â· Â¶Â¯Â¯
Ä¯Ä¿ Ãı
Ä¯Ä¿ Ãģ
Ä¯Ä¿ Ãĳ
Ä¯Ä¿ Ã¹
ĠÂ¯Â·Â°Â¯ ÃĹÂ´Â¯Â¯
ÄĻ ÃĻ
ÄĻ ÃĦ
ĠÂ¯Â¿Â±Â¯Â¯ Â»Â¯Â¯
ĠÂ¯Â¿Â±Â¯Â¯ Â¿Â¿Â¯
ÄĦ Ãĳ
Ã§ Ä°
Ã§ Ä±
ĠÂ¯Â¯Â¿Â· Â±
ĠÂ¯Â¯Â¿Â· Â»Â¯Â¯Â¯
ĠÂ¯Â¯Â¿Â· Â¿Â°Â¯Â¯
ĠÂ¯Â¯Â¿Â· Â°Â°Â¯Â¯
Â¯Â¯ÃĹ Ã·Â¯Â¯
ĠÂ¯Â¯Â¸Â¯Â¯ Â¶Â¯Â¯
Ã¯Ä± Ä¯Ãĥ
Â¯Â´Â¯Â¯ Â°Â¯Â¯
ĠÂ¿Â¯ ÃĹÂ°Â¯
ĠÂ¿Â¯ Â±Â¯Â·Â¯Â¯Â¯
ĠÂ¿Â¯ Â·Â¯Â·Â¯Â¯Â¯
ĠÂ¿Â¯ Â±Â°Â¯Â¯Â¯Â¯
ĠÂ¿Â¯ Â°Â¿Â±Â¯Â¯Â¯
ĠÂ¯Â¯Â¿Â´ Â±Â¯Â¯Â¯
ĠÂ¯Â¯Â¿Â´ Â¯Â¿Â¿Â¯
ĠÂ¯Ã·Â°Â¯Â¯ Â¿Â·Â¯
ĠÂ¯Â¯Â¯Â¸ Â±Â°Â¯Â¯
ĠÂ¯Â¯Â¯Â¸ Â¯Â¿Â¿Â¯
ÅıÂµ Ã¯Ãĳ
ÅıÂµ Ã¯ÃĻ
ÅıÂµ Ã¯ÃĦ
ĠÄ¯Ãı Ã³
ĠÄ¯Ãı ÃĲ
ĠÂ¯Â¯Â¯Â·Â¯Â¯ ÃĹÂ¯
ĠÂ¯Â¯Â¯Â¿Â¯ Ã·
ĠÂ¯Â¯Â¯Â¿Â¯ Â¿Â°Â¯
ĠÂ¯Â¯Â¯Â¿Â¯ Â·Â·Â¯
Ã¯ÃĦ Ä¯Ã¹
Å° ÃĶ
Å° Âµ
Â¯Â·Â¯ Â±
Â¯Â·Â¯ Â¿
Â¯Â·Â¯ Â¿Â±Â¯Â¯
ĠÂ¯Ã·Â¯Â¯ Â°Â¯
ĠÂ¯Ã·Â¯Â¯ Ã·Â°Â¯Â¯
Ã·Â°Â¯ Â·Â°Â¯
ĠÂ¯Â±Â±Â¯Â¯ Ã·Â·Â¯
ĠÂ¯Â¯Â¿Â´Â¯ Â·Â¸Â¯
ĠÂ± Â±Â¯Â¯Â·
ĠÂ± Â±Â°
ĠÂ± Â±Â±Â¯Â¯Â¯Â¯Â¯
Ãļ Ã¯
Ãļ Ãı
Â·Â±Â¯ Â±Â°Â¯
ĠÂ·Â¯Â¯Â¯ Â¸Â¯Â¯Â¯
ĠÂ·Â¯Â¯Â¯ Â°Â°Â¯Â¯
ĠÂ·Â¯Â¯Â¯ Â¿Â´Â¯Â¯
Ãľ Ä¯
Ä¯Ä± Ã¿
Ä¯Ä± Ãĵ
Æĥ Ãĳ
ĠÂ¯Â¯Â·Â¯Â± ÃĹÂ¯Â¯
ÃıÃĲ Ä¯Ã¯
ÃıÃĲ Ãģ
ĠÂ·Â¯ Â¿Â¯Â¯Â¯
ĠÂ·Â¯ Â´Â¯
ĠÂ·Â¯ Â¿Â¯Â¯Â¿Â¯Â¯
ĠÂ·Â¯ Â¿Â¯Â°Â¯Â¯Â¯
ĠÂ·Â¯ Ã·Â°
ĠÂ·Â¯ Â·Â¯Â¯Â¯Â·Â¯
ĠÂ·Â¯ Â»Â¯Â¯Â±Â¯Â¯
Ã² Ãĺ
Â°Â¿ Â¿Â¯
Â°Â¿ Â·Â°Â¯
Ã¯Ã¿ Ãı
Ã¯Ã¹ Ä¯
Ã¯Ä· Ã³
ĠÂ¯Â¯Â¯Â±Â¯Â¯ Ã·Â¯
Â¯Â¿Â¯ Â±
Â¯Â¿Â¯ Â´Â¯Â¯Â¯
ĠÂ¯Â¯Ã·Â±Â¯ Â·Â¸Â¯
ĠÂ¿Â¿Â¯Â¯ Â¸Â¯Â¯Â¯
ĠÂ¿Â¿Â¯Â¯ Â¿Â´Â¯Â¯
ĠÂ¿Â¿Â¯Â¯ Ã·Â¸Â¯Â¯
ĠÂ¿Â¯Â¯Â¯Â¯ Ã·
ĠÂ¿Â¯Â¯Â¯Â¯ ÃĹÂ°Â¯
ĠÂ¿Â¯Â¯Â¯Â¯ Â¿Â°Â¯
ĠÂ¿Â¯Â¯Â¯Â¯ Â·Â´Â¯
ĠÂ¿Â¯Â¯Â¯Â¯ ÃĹÂ¸Â¯
ĠÂ¿Â· Â·Â¯Â¯
ĠÂ¿Â· ÃĹÂ°Â¯Â¯Â¯Â¯
Â¯Â¯Â¯Â¿ Â·
Â¯Â¯Â¯Â¿ Â»Â¯
ÃıÃ° Ãĥ
ÃıÃ° Ãĳ
ĠÂ·Â¯Â¯Â¯Â¯ Â°Â°Â¯
ĠÂ¯Â¸ Â¿Â¯
ĠÂ¯Â¸ Â°Â¯Â¯Â´Â¯Â¯
ĠÂ¯Â¸ Â°Â¯Â¿
Ä¯Ãī Ã¯
ĠÂ¯Â¿Â¯Â¯Â¯Â¯ Ã·Â¯
ÄĲ ÃĲ
ĠÂ¯Â¯Â°Â° Â±
ĠÂ¯Â¯Â±Â¯Â¿ Â·
ĠÂ¯Â¯Â±Â¯Â¿ Â·Â±Â¯
Ä·Âµ Ã¯ÃĽ
Â±Â· Â´Â¯Â¯Â¯
Ã¯Ä° Ãĳ
ĠÂ¯Â·Â·Â¯ Â±Â´Â¯Â¯
Â±Â¿ Â°
Äµ Ä¯
Ä¯Äı Ã¯
ĠÂ¯Â·Â¿Â¯ Â±
ĠÂ¯Â¯Â¯Â¯Â¯Â± Â°Â°
Â°Â· Â°Â°Â¯
Â°Â· Â±Â±Â¯
ĠÅı Ã±
ĠÅı Ä·
ĠÅı Ãĺ
Â¯Â¯Â± Â±Â°Â¯
Â¯Â¯Â± Â´Â¯
Â¯Â¯Â± Â°Â°Â¯
ĠÂ¯Â¯Â¿Â¸ Â¯Â¿Â°Â¯
ĠÂ¯Â¯Â¿Â¸ Â¯Â·Â´Â¯
ĠÂ¯Â¯Â¿Â¸ Â¯Â¿Â¸Â¯
ĠÂ¯Â¯Â·Â±Â¯ Â¿Â±Â¯
ĠÂ¯Â¿Â¸Â¯ Ã·Â·Â¯Â¯
ĠÂ¯Â» Â±Â¯Â¿Â¯Â¯Â¯
ĠÂ¯Â» Â±Â¯Â°Â¯Â¯Â¯
ĠÂ¯Â» Â±Â¯Â·Â¯Â¯Â¯
ÆĢ Ã¯
ÆĢ Ãı
ĠÂ¯Â¯Â±Â± ÃĹÂ¯Â¯Â¯
Ä¯Åĵ Ãı
ĠÂ¿Â¯Â¯ Â°Â¯Â·Â¯Â¯
ĠÂ¿Â¯Â¯ Â°Â·Â¯Â¯Â¯
Ã¯Åĵ Ãı
ĠÂ¯Â¯Â·Â¯Â· Â°Â°Â¯
ĠÂ¯Â¿Â´Â¯Â¯ Â¿Â°Â¯
ĠÂ¯Â¯Â·Â¯Â¿ Â¶Â¯Â¯
ÄĽ ÃĻ
ĠÂ¯Â¯Â¯Â¯Â·Â¯ Ã·Â¯
ĠÂ¿Â¿Â¯Â¯Â¯ Ã·Â¸Â¯
ĠÂ¯Â·Â±Â¯Â¯ Â»Â¯Â¯
ĠÂ¯Â·Â±Â¯Â¯ Â±Â±Â¯
ĠÂ¯Â¿Â¿Â¯ Â¿Â°Â¯Â¯
ĠÂ¯Â¿Â¿Â¯ Â°Â°Â¯Â¯
ĠÂ¯Â¿Â¿Â¯ Ã·Â±Â¯Â¯
ÃıÄ³ Ãģ
Â¯Â¯Â¿Â¯ Â±
ĠÂ±Â¯ Â°
ĠÂ±Â¯ Â¿Â¯Â¿Â¯Â¯Â¯
ĠÂ¯Â¯Â¯Â°Â¿ Ã·Â¯Â¯
Ä¯Ã° Ä¯
ĠÂ¯Â¯Â°Â± Â±Â°Â¯Â¯
Å¯Ãĳ Ãı
Å¯Ãĳ Ä¯Ãģ
ĠÃ¿ Ã³
ĠÃ¿ ÃĶ
ĠÂ¯Â·Â° Â°Â±Â¯Â¯Â¯
Äº Ä¯
Ä·Ãĥ Ä¯Ä·
ĠÂ°Â¯ Â´Â¯Â¯Â¯Â¯Â¯
ĠÂ°Â¯ Â°Â¯Â¯Â¯Â±Â¯
ĠÂ¯Â¯Ã·Â´Â¯ Â°Â°Â¯
ĠÂ¯Â¯Ã·Â´Â¯ Â±Â±Â¯
ĠÂ·Â·Â¯Â¯ Â´Â¯Â¯Â¯
ĠÂ·Â·Â¯Â¯ Â·Â´Â¯Â¯
ĠÂ·Â·Â¯Â¯ ÃĹÂ´Â¯Â¯
ĠÂ¯Â¯Â¿Â¯Â¿ Â¶Â¯Â¯
ÅıÃ± Ä¯Ã¯
ĠÂ¯Â¸Â¯Â¯ Â·Â´Â¯Â¯
Â±Â° Â±Â°Â¯
ĠÂ¯Â¿Â¸Â¯Â¯ Â·Â·Â¯
Â¿Â° Â±Â¯
Â¿Â° Â°Â¯Â¯Â¯
Â¿Â° Â±Â°Â¯Â¯
ĠÂ¿Â¿Â¯ Â±Â¿Â¯Â¯Â¯
ĠÂ¯Â¯Â¯Â°Â· Â»Â¯Â¯
ĠÂ¯Â¯Â·Â· Ã·Â¯Â¯Â¯
Ã¯Äĥ Ãĳ
ĠÂ±Â¯Â¯Â¯ Â»
ĠÂ±Â¯Â¯Â¯ Â¿Â°Â¯Â¯
ĠÂ·Â¯Â¯ Â°Â¿Â¯Â¯Â¯
ÅıÃ³ Ä¯
Ä¿Ã± ÃĲ
Äĭ Ãı
Äĭ ÃĻ
ÄĪ Ã¯
ÄĪ Ãı
Ä¯Ã´ Ãı
ĠÂ° Â·Â¯Â¯
ĠÂ¯Â¯Â¯Â¯Â´ Â±Â°Â¯
ĠÂ¯Â¯ÃĹÂ´Â¯ Â·Â·Â¯
ĠÂ¯Â·Â·Â¯Â¯ ÃĹ
ĠÅ¯ Ã¹
ÅıÄ± Ãı
ÅıÄ± Ã¯Ãı
ĠÂ¯Â·Â± Â·Â¯Â¯Â¯Â¯
ĠÄ¿ Ã³
ĠÄ¿ ÃĦ
ĠÂ¯Â·Â´Â¯Â¯ ÃĹ
ĠÂ¯Â¯Â¿Â¸Â¯ ÃĹÂ¯Â¯
ĠÄ¯Ã¿ Ãĳ
ĠÄ¯Ã¿ ÃĻ
Â¯Â¯Â¯ÃĹ Â¿Â¯
Â´Â¯Â· Â±Â¯Â¯Â¯
ĠÂ·Â·Â¯Â¯Â¯ Â¿Â±Â¯
ĠÂ·Â·Â¯Â¯Â¯ Â¿Â¿Â¯
Â¿Â± ÃĹÂ¯Â¯Â¯
Â¿Â± Â±Â°Â¯Â¯
ĠÃıÃģ Åĵ
ĠÂ¯Â¯Â¶ Â°
ĠÂ¯Ã·Â°Â¯ Ã·Â¯Â¯Â¯
Ä¿Ãĳ Ãı
Ã°Ãı Ä¯Ã±
ĠÄ· Ã³Ãĳ
Ã¯Ä¹ Ãģ
ĠÄ¯Ãģ Ãı
ĠÄ¯Ã³ Ã¯
ĠÄ¯Ã³ ÅĹ
Ã¯Ãī Ãı
ĠÂ¯Â¯Â°Â¯ÃĹ Â°
ĠÂ¯Â¯Â°Â¯ÃĹ ÃĹÂ¯Â¯
ÅıÄ³ Ä¯
ĠÂ¿Â¿ Â¸
ĠÂ¿Â¿ ÃĹÂ¯Â·Â¯Â¯Â¯
ÃĹÂ° Â¿Â¯
Ä¯ÃĶ Ä¯
Â°ÃĹ Â¸Â¯Â¯
ĠÂ±Â°Â¯Â¯ Â´Â¯Â¯Â¯
ÄıÃĥ Ä¯Ã±
ĠÄ° Ä¯Ã¯
ĠÂ¯Â¯Â·Â´Â¯ Â·Â·Â¯
ĠÂ¯Â¸Â¯Â¯Â¯ Â±Â°Â¯
ĠÂ¯Â°Â±Â¯ Â±Â±Â¯Â¯
ĠÂ¯Â±Â°Â¯ÃĹ Â¿Â¯Â¯
ĠÂ°Â¯Â¯Â¯ Ã·Â¯Â¯Â¯
ĠÂ°Â¯Â¯Â¯ Â±Â°Â¯Â¯
ÆŁ Ãĥ
ĠÃ· Â±
ĠÃ· Â¿Â¯Â¯
ĠÃ· Â´Â¯Â¯Â¯Â¯Â¯Â¯
ĠÂ¯Â¯Â±Â°Â¿ Â±Â°Â¯
ĠÂ¯Â¯Â±Â°Â¿ Â·Â°Â¯
Ã« Ä¯
Ã« Ãĥ
Ä½ Ãı
ĠÂ¯Â´Â¯Â¯Â¯ Â¿Â·Â¯
ĠÃĹ Â¯Â¿Â¯Â¯
ĠÃĹ Â¯Â¿Â¯Â¯Â¯Â¯Â¯
ĠÂµ Ãĩ
Ã¯Ä¸ Ãĵ
ĠÂ¯Â¿Â·Â¯Â· Â±Â°Â¯
ĠÃ¯Ã³ Ã³
ĠÃ¯Ã³ ÃĶ
ĠÂ¯Ã·Â±Â¯Â¯ ÃĹÂ°Â¯
Ä¯Ã² Ãĥ
ĠÂ¯Ã·Â¯ Â´Â¯
ĠÂ¯Â±Â°Â¯Ã· Â¸Â¯Â¯
ĠÃĥ Ãĥ
ĠÂ¯Â¯Â¿Â¯ÃĹ Â¸Â¯Â¯
Â±Â¿Â¯ Â¿Â¯Â¯
Ã¯ÅĹ Ã³
ĠÂ¯Â·Â· Â·
Å·Âµ Ä¿
Å·Âµ Ä¯Ã¹
ÃıÃĤ Ã¯
Â°Â¿Â¯Â¯ Â°
ĠÂ¯Ã·Â´Â¯ Ã·
ĠÂ¯Ã·Â´Â¯ Ã·Â¸Â¯Â¯
Â·Â· Â±Â¯Â¯Â¯
ĠÂ±Â°Â¯Â¯Â¯ Â¿Â·Â¯
ĠÂ°Â¯Â¯ Â±ÃĹÂ¯Â¯Â¯
ĠÂ±Â±Â¯Â¯ ÃĹÂ°Â¯Â¯
Â¯Â»Â¯Â¯ Â·Â¯
Â¿Â¯Â¯Â¿ Â»Â¯Â¯
ĠÂ¯Â¯Ã·Â¸Â¯ Ã·Â±Â¯
Â¿Â¯ÃĹ Â¿Â¯Â¯
ĠÂ¯Â¯Â·Â¸ Â¿Â¯Â¯Â¯
ĠÂ¯Â¯Ã·Â°Â¯Â· Â¿Â¯
ĠÂ¯Â»Â¯Â¯ Â¿Â·Â¯Â¯
ĠÂ¯Â±Â¯Â¯Â¿ Â»Â¯Â¯
ĠÄ³ Âµ
ĠÂ¯Â¯Â±Â¿ Â¸Â¯Â¯Â¯
ÃıÃģÄ¯ ÅĶ
ĠÂ¯Â¿Â·Â¯Ã· Â¿Â¯Â¯
ĠÂ¯Â¯ÃĹÂ¸Â¯ ÃĹÂ¯Â¯
ÆĦ ÃĻ
ĠÂ¯Â·Â¿ Â°Â·Â¯Â¯Â¯
ĠÂ¯Â¯ÃĹÂ±Â¯Â¯ Â¸Â¯
ĠÅĹ Ä¯
Å¯Ä± Ä¯Ãģ
ĠÂ¯Ã·Â¸Â¯Â¯ Â±Â°Â¯
ĠÂ¯Ã·Â¸Â¯Â¯ ÃĹÂ¯Â¯
ĠÂ¯Ã·Â¸Â¯Â¯ ÃĹÂ¸Â¯
Ã¿Ãĺ Ä¯
Ã¯ÅĶ Äģ
ĠÂ¯Â¯Â°Â¿ Â´Â¯Â¯Â¯
ĠÂ¯Â±Â´Â¯ Â´Â¯Â¯Â¯
ĠÂ±Â±Â¯Â¯Â¯ Â±Â±Â¯
ĠÂ¯Â·Â¯Â· Â°Â¯Â¯Â¯
Ä¯Å³ Ãı
Â¯Â¯Â» Â´Â¯
ĠÂ¯Â´Â¯ Â°Â¯Â¯Â¯Â¯
ĠÂ¿Â°Â¯Â¯ Â±Â¯Â¯Â¯
ĠÂ¯Â¯Â¯Â°Ã· Â¿Â¯Â¯
ĠÂ¯Ã·Â° Â¿Â¯Â¯Â¯Â¯
ĠÃ¯Ãĺ Äĥ
ĠÂ¯Â¿Â» Â±Â¯Â¯Â¯Â¯
ĠÂ¯Â¿Â» Â¯Â°Â¯Â¯Â¯
ĠÂ¯Â¿Â» Â¯Ã·Â¯Â¯Â¯
ĠÂ¯Â¿Â» Â¯Â¿Â°Â¯Â¯
ÅıÃıÃ¯ Ä´
ĠÂ¯Â¯Â¿Â¶ Â¯Â±Â¯Â¯
ĠÂ¯Â¯Â±Â·Â¯ Â¿Â°Â¯
Â¯Â¯Â¸ Â·Â¯
ĠÂ¿Â°Â¯Â¯Â¯ Â·Â¯Â¯
ĠÂ¯Â¯Â¯Â¯Â¶ Â¿Â¯Â¯
ĠÂ¯Â¯Â¯Â¯Â¶ Â´Â¯Â¯
ĠÂ·Â°Â¯Â¯ Â¿Â¯Â¯Â¯
ĠÃĻ Ã¯Ãı
ĠÂ¯Â¯Â¯Â¯Ã·Â¯ Â¿Â¯
Â¿Â¸ Â°Â·Â¯Â¯Â¯
ÅĹÃ± ÄĢ
ĠÂ¯Â¿ÃĹÂ¯Â¯ Â¸Â¯Â¯
ĠÂ¯Â±Â¿ Â´
ĠÂ¯Â±Â¯Â· Â¸Â¯Â¯Â¯
ĠÂ¯Â¯Â¯Â»Â¯Â¯ Â·Â¯
ĠÂ¯Â´Â°Â¯ Â·Â°Â¯Â¯
ĠÂ¯ÃĹÂ´ Â¯Â¿
ĠÂ¯ÃĹÂ´ Â¯Â¿Â¸Â¯Â¯
ĠÃĹÂ¯Â¯Â¯ Â·Â¯Â¯Â¯
ÃĩÃĲ ÃıÃ±
ĠÂ¯Â¿Â¸Â¯Â¯Â¯ Â´Â¯
ĠÂ¿Â¸ Â¯Â¯Â¯Â·Â¯Â¯
ĠÃĽ Ä¯Åı
Â¯Â¯Â¯Â¸ Â¿Â°
ĠÂ´Â¯Â¯ Â±Â¯Â¯Â¯Â¯
ĠÂ¿Â·Â·Â¯ Â·Â¯Â¯Â¯
ĠÂ¿Â´Â¯Â¯ Â¿Â·Â¯Â¯
ĠÂ¯Â±Â°Â°Â¯ Â°Â¯Â¯
ĠÂ°Â¿Â¯Â¯Â¯ Â°Â¯Â¯
ĠÃĹÂ¯Â¯Â¯Â¯Â¯ Â°Â¯
ĠÂ¿Â°Â°Â¯Â¯ Â±Â±Â¯
ĠÂ¯Â´Â¯Â¯Â¯Â¯Â¯ Â°
ĠÂ¯Â¯Â±Â¯ÃĹÂ°Â¯ Â°
Å ŀ
Æ ļ
Ġ Â°Â¯Â¯Â°Â¯
Ġ Â±Â¯Â¯Â±Â¯
Ġ Â´Â¯Â·Â¯Â¯
Ġ Ä·Âµ
Ġ Åħ
Ġ Å¯Âµ
Ġ ÃĹÂ±Â¯
Ġ Åĭ
Ġ Æĩ
Ġ Â¾
Ġ Ã¹Ãı
Ġ Ä»Ã¯
Ġ Ã´Ã¯
Â¯ Â¶Â¯Â¯Â¯Â¯Â¯
Â¯Â¯ Â°Â¸Â¯Â¯Â¯
Â¯Â¯ Â±Â·
ĠÂ¯Â¯Â¯Â¯ Â±Â°Â¯
ĠÂ¯Â¯Â¯Â¯ Â»Â¯
ĠÂ¯Â¯Â¯Â¯ Â°Â¯Â¯Â·
Â± Ã·Â¯
Â± Â¿Â±Â¯
Â± Â¿Â°Â¯
Â± Â·Â¯Â°Â¯Â¯
Ã¯ ÅıÂµ
Ã¯ ÆĹ
Â° Â¸
Â° Â¿Â·Â¯
Â° Â±Â¯Â±Â¯Â¯
Â° ÃĹÂ¯
Â° Â¶
Â° Â¿Â¯Â¯Â·Â¯Â¯
Â° Â±Â°Â¯Â¯Â¯Â¯
Â° Â°Â´Â¯Â¯
Â° Â´Â°Â¯Â¯
Ä¯ ÄĪ
Ä¯ Ã¢
Ä¯ Äķ
Ä¯ Å¥
Ä¯ Æħ
Â· ÃĹÂ¯Â¯
Â· Â±Â¯Â¯Â¯Â°Â¯
Â· Ã·Â±Â¯Â¯
Â· Â±Â°Â¯Â¯Â¯Â¯
Â· Â±Â°Â¯Â¯Â¯
Â· Â°Â¯Â¯Â¯Â¿Â¯
Â· ÃĹÂ¯Â¿Â¯Â¯Â¯
Ãı ÄĪ
Ãı Å¯Ã¯
Ãı ÅĹÃ¯
Ãı Å¯ÃĢ
Ãı ÄĶ
Ãı Æĳ
Â¯Â¯Â¯Â¯ Â·Â°Â¯Â¯
Â¯Â¯Â¯Â¯ Â±Â·Â¯Â¯
Â¯Â¯Â¯Â¯ ÃĹÂ·Â¯
Â¯Â¯Â¯Â¯ Ã·Â·Â¯
Â¿ Â±Â¿Â¯Â¯Â¯
Â¿ Â´Â¯Â±Â¯Â¯
Â¿ Â»Â¯Â¯Â¯Â¯
Â¿ ÃĹÂ°
Â¿ Ã·Â°
Â¿ Â¶Â¯Â¯Â¯Â¯
Â¿ Â¸Â¯Â±Â¯Â¯Â¯
Â¯Â¯Â¯Â¯Â¯ Ã·Â¯
Â°Â¯Â¯ Â¶Â¯
Â°Â¯Â¯ Â±Â°
Â±Â¯Â¯ Â»
Â±Â¯Â¯ Â±Â¿Â¯
Â±Â¯Â¯ Â»Â°Â¯
Â·Â¯Â¯ Â»Â¯Â¯Â¯
Â·Â¯Â¯ ÃĹÂ·Â¯
ĠÂ¯Â¯Â¯ Â±Â°Â¯Â·Â¯
Â¿Â¯Â¯ Â±Â±Â¯Â¯
Â¿Â¯Â¯ Â±Â·Â¯
Â¿Â¯Â¯ Â°Â¿Â¯
Â°Â¯ Â°Â±Â¯Â¯
Â°Â¯ Â±Â¿Â¯
Â±Â¯ Â±Â°
Â±Â¯ Â¿Â¯Â·Â¯Â¯
Â±Â¯ Â°Â¯Â°Â¯
Â±Â¯ Â´Â·Â¯Â¯
Â±Â¯ Â¸Â´Â¯Â¯
Â¿Â¯Â¯Â¯ ÃĹÂ¯
Â¿Â¯Â¯Â¯ Â¿Â°Â¯
Â¿Â¯Â¯Â¯ Â»Â¯
Â¿Â¯Â¯Â¯ Â´Â°Â¯
ĠÂ¯Â¯Â· Â¿Â¯Â·
ĠÂ¯Â¯Â· Ã·Â±Â¯Â¯Â¯
ĠÂ¯Â¯Â¿ Â¿Â¯Â¯
ĠÂ¯Â¯Â¿ ÃĹÂ¯Â¯Â¯Â¯
ĠÂ¯Â¯Â¿ Â¯Â¯Â¯Â¯Â¿
ĠÂ¯Â¯Â¿ Â»Â¯Â±Â¯Â¯
ĠÂ¯Â¯Â¿ Â¿Â¯Â¯Â¯Â°
Â·Â¯Â¯Â¯ Â¿Â°Â¯
Â·Â¯Â¯Â¯ Â»Â¯
Â±Â¯Â¯Â¯ Â±Â±Â¯
Â±Â¯Â¯Â¯ Ã·Â´Â¯
Åı Ä¯Ã±
Åı Ä¯Ã°
Åı Åħ
Åı Ä£
Åı Ã°Ãı
Åı ÅĥÃ¹
Ã¿ Å³
Ã¿ ÅĻ
Ã¿ ÃģÄ¯
Â´ ÃĹÂ¯
Â´ Â±Â±Â¯Â¯
ÃĹ Â·Â¯Â¯Â¯Â¯
ÃĹ Â¯Â°
ÃĹ Â¯ÃĹÂ±Â¯Â¯
ÃĹ Â¿Â°Â¯Â¯Â¯
ÃĹ Â°Â¯Â¯Â¯Â¿Â¯
Â¹ Â¾
Ãĥ Äĥ
Ãĥ Ã¯Ãĵ
Ãĥ Ä¯Ã¿
Ãĥ ÅĦ
Ãĥ Ã¯Ãģ
Ãĥ Å±
Ãĥ Ã¯Ã°
ĠÂ¯Â¯Â·Â¯ Â±Â¯Â¿Â¯
ĠÂ¯Â¯Â·Â¯ Â±Â¯Â¯Â°
ĠÂ¯Â¯Â¯Â¯Â¯Â¯ Â±
ĠÂ¯Â¯Â¯Â¯Â¯Â¯ Â±Â¿
ĠÂ¯Â¯Â¯Â¯Â¯Â¯ Â·Â·
ĠÂ¯Â¿ Â¯Â±Â¯Â¯
ĠÂ¯Â¿ Â±Â·
ĠÂ¯Â¿ Ã·Â±Â¯
ĠÂ¯Â¿ Â¿Â¯Â¯Â¯Â·Â¯
ĠÂ¯Â¿ Â¿Â¯Â¯Â¯Â¿Â¯
ĠÂ¯Â¿ ÃĹÂ¯Â¯Â¯Â±Â¯
ĠÂ¯Â¿ Â±Â°Â¯Â¿Â¯Â¯
ĠÂ¯Â¿ Â¯Â¯Â¯Â¯Â¯Â¿
ĠÂ¯Â¯Â¿Â¯ Â±Â¯Â°Â¯
ĠÂ¯Â¯Â¿Â¯ Â±Â¯Â·Â¯
ĠÂ¯Â¯Â¿Â¯ Â¿Â¯Â·Â¯
ĠÂ¯Â¯Â¿Â¯ ÃĹÂ¯Â±Â¯
Ä° ÃĽ
Ä° Ä¯Äĥ
Ä° ÅĻ
Ä° Ä¯Ãĩ
Ä° Ã§
Ä° ÃĥÄ¯
Ä° Ä¯ÄĹ
ĠÂ¯Â· Â±Â°Â¯Â¯
ĠÂ¯Â· Â¯Â°Â¯Â¯
ĠÂ¯Â· Â±Â¿
ĠÂ¯Â· Â¶Â¯
ĠÂ¯Â· Â¸Â¯Â¯Â¯Â°Â¯
ĠÂ¯Â· Â¿Â·
ĠÂ¯Â· Â¿Â¯Â¯Â¯Â¿Â¯
ĠÂ¯Â· Ã·Â¯Â·Â¯Â¯Â¯
ĠÂ¯Â· Â¸Â¯Â¯Â¯Â±Â¯
ĠÂ¯Â· Ã·Â±
ĠÂ¯Â· ÃĹÂ±
ĠÂ¯Â· Â¯ÃĹÂ¯Â¯Â¯Â¯
ĠÂ¯Â· Ã·Â°Â¯Â·Â¯Â¯
ĠÂ¯Â· Ã·Â°Â¯Â¯Â°Â¯
Ã· ÃĹÂ¯Â¯
Ã· Â±Â¯Â·Â¯Â¯
Ã· Â±Â¯Â¯Â·Â¯Â¯
Ã· Â¿Â¯Â¯Â¯Â¯
Ã· Â´Â¯Â·Â¯Â¯
Ã· Â¶Â¯
Ã· Â¯Â¿Â·Â¯Â¯Â¯
Ä¿ Ä´
Ä¿ Ã¸
Ä¿ Åĩ
Ä¿ Ã¯Ä·
Ä¿ Ã¹Ãı
Ä¯Ã¯ Ã³
Ä¯Ã¯ Ä¯Ãĳ
Ä¯Ã¯ Ä¯Ä¯Ã¯
Â´Â¯Â¯ Ã·Â·Â¯
Ã¯Ãı Ã¯Ãĥ
Ã¯Ãı Ä¯Ãĳ
Ã¯Ãı Ä¯Ãĵ
Ã¯Ãı ÃıÃĳ
Ã¯Ãı Ä¯Ã¯Ãı
ĠÂ¯Â¯Â±Â¯ Â±Â¯
ĠÂ¯Â¯Â±Â¯ Â°Â¯Â·Â¯
Â·Â¯ Â·Â´Â¯
Â·Â¯ ÃĹÂ´Â¯
Â·Â¯ Â»Â±Â¯Â¯
Â·Â¯ Ã·Â¸Â¯Â¯
Â¸ Ã·Â¯Â¯Â¯
Â¸ Â´Â¯Â¯Â¯
Â¸ Â¸Â¯
Â¸ ÃĹÂ±Â¯Â¯
Â¸ Â±Â±Â¯Â¯
Â¸ Â¿Â°Â¯Â¯Â¯
Ãģ Åĳ
Ãģ ÃıÃĥ
Ãģ Åĺ
Ãģ Å³
Ãģ Ä¯Ä±
Ãģ Ä¯Ä·
Ãĵ Å¯
Ãĵ Ä¯Ä¯
Ãĵ Ä¯Ã±
Ãĵ Ä¯Ã³
Ãĵ Ã¯Ä¯
Ãĵ ÃĤ
Ãĵ Ä°Ã¹
Ãĵ ÃĲÃı
Ãĵ Ã°Ãĳ
ĠÂ¯Â¯Â·Â¯Â¯ Â»Â°Â¯
ĠÂ¯Â¯Â°Â¯ Â°Â¯Â·Â¯
ĠÂ¯Â¯Â°Â¯ Â°Â¯Â±Â¯
ĠÂ¯Â¯Â°Â¯ Â±Â¯Â¿Â¯
ĠÂ¯Â¯Â°Â¯ Â·Â¯Â¿Â¯
ĠÂ¯Â¯Â°Â¯ Â´Â¿Â¯Â¯
Ã± ÄĢ
Ã± ÃĽ
Ã± Ãł
Ã± ÃĴ
ĠÂ¯Â¯Â°Â¯Â¯ Â¸
ĠÂ¯Â¯Â°Â¯Â¯ Â±Â·Â¯
ĠÂ¯Â¯Â±Â¯Â¯ Â»
ĠÂ¯Â¯Â±Â¯Â¯ Â·Â¯Â±
Ã³ Å¿
Ã³ Ä¯Ãĳ
Ã³ Ã¯Ä¯
Ã³ ÅıÂµ
Ã³ ÃıÃĳ
Ã³ Ãľ
Ã³ Ã¯Åı
Ã³ Äº
ĠÂ¯Â¯Â¿Â¯Â¯ Ã·Â·Â¯
Ä· ÅŁ
Ä· Ã¯Ãĥ
Ä· Å±
Ä· Ãł
Ä· ÃĴ
Ä· ÃĤ
Ä· Äĵ
Ä· Æģ
Ä· Ä±Ãģ
Ä· ÃıÃ¯Ãĥ
Ä· ÃĥÄ¯ÅĹ
ĠÂ¯Â± ÃĹÂ°Â¯
ĠÂ¯Â± Â´Â¯Â¯Â·Â¯Â¯
ĠÂ¯Â± Â´Â¯Â¯Â°Â¯Â¯
ĠÂ¯Â± Â¸Â¯Â¯Â°Â¯Â¯
ĠÂ¯Â± Â´Â¯Â¯Â¿Â¯Â¯
ĠÂ¯Â± Â¸Â¯Â¯Â±Â¯Â¯
ĠÂ¯Â± Â¿Â¯ÃĹ
ĠÂ¯Â± Â¿Â´Â¯
ĠÂ¯Â± Ã·Â±Â¯Â¯Â¯Â¯
ĠÂ¯Â± Â·Â¯Â¯ÃĹÂ¯Â¯
ĠÂ¯Â± ÃĹÂ¯Â·Â°Â¯Â¯
ĠÂ¯Â± Â±Â¿Â°Â¯Â¯Â¯
ĠÂ¯Â± Â±Â°Â¯Â±Â¯Â¯
ĠÂ¯Â± Ã·Â°Â¯Â·Â¯Â¯
ĠÂ¯Â± ÃĹÂ±Â¯Â°Â¯Â¯
ĠÂ¯Â± Â±Â°Â¯Â±Â°Â¯
ĠÂ¯Â± Â·Â¯Â¯Â¯Â¯Â±
Ä³ Ä¯Ãĥ
Ä³ ÄĢ
Ä³ Ä¯Ã±
Ä³ Ã¯Ä¯
Ä³ ÅĻ
Ä³ ÃıÄ¯
Ä³ Ã§
Ãĳ Ä·
Ãĳ Ä±
Ãĳ Ä¯Ã±
Ãĳ Åģ
Ãĳ ÃıÃģ
Ãĳ Ä¸
Ãĳ Ãī
Ãĳ Ä¯Ã³
Ãĳ ÃıÃ¯
Ãĳ ÃģÄ¯
ĠÂ¯Â¯ÃĹ Â¯Â¯Â¿Â±Â¯
ĠÂ¯Â¯ÃĹ Â·Â¯Â¯Â±Â¯
ĠÂ¯Â¯ÃĹ Â¿Â°Â¯Â¯Â¯
ĠÂ¯Â¯ÃĹ Â¯Â¿Â»Â¯Â¯
ĠÂ¯Â¯ÃĹ ÃĹÂ¯Â¯Â¯Â¯
ÃĲ ÃĻ
ÃĲ ÅĢ
ÃĲ Ä¯Ãĳ
ÃĲ Ã¯Ä¯
ÃĲ Ã¯ÃĻ
ÃĲ Å³
Â¿Â¯ Ã·Â¯Â¯
Â¿Â¯ Â±Â±Â¯
Â¿Â¯ Â°Â¿Â¯Â¯Â¯
Â¿Â¯ Â·Â·Â¯
Â¿Â¯ Â°Â·Â¯Â¯
ÃĢ Ä¯Ã¿
ÃĢ Ã¯Ãģ
ÃĢ Ä¯Ä¿
ĠÂ¯Â¯Â¯Â° Â±Â¯
ĠÂ¯Â¯Â¯Â° Â´
ĠÂ¯Â¯Â¯Â° Â¿Â¯Â¿Â¯
ĠÂ¯Â¯Â¯Â° Â¿Â¯Â·Â¯
ĠÄ¯ ÃĪ
ĠÄ¯ Å¹
ĠÄ¯ ÃģÄ¯
ĠÄ¯ Ä£
ĠÄ¯ Ä±Ã¯
ĠÄ¯ Ä¯ÃıÄ¯
Â¯Â¯Â·Â¯Â¯ Â·Â¯Â¯
ĠÂ¯Â¯Â¯Â°Â¯ Â¸
Â¯Â¯Â¿Â¯Â¯ Â°Â¯
Â¯Â¯Â¿Â¯Â¯ Â´Â¯Â¯
ĠÂ¯Â¯Ã· Â·Â¯Â¿Â¯Â¯
ĠÂ¯Â¯Ã· Â¿Â¯Â·Â¯Â¯
ĠÂ¯Â¯Ã· Â¶Â¯Â·Â¯Â¯
ĠÂ¯Â¯Â¯Â±Â¯ Â»
ĠÂ¯Â¯Â¯Â±Â¯ Â¿Â¸Â¯
ĠÂ¯Â¯Â¯Â±Â¯ Ã·Â·Â¯
ĠÂ¯Â¿Â¯Â¯ Â°Â¯
ĠÂ¯Â¿Â¯Â¯ Â±Â¯
ĠÂ¯Â¿Â¯Â¯ Â·Â°
ĠÂ¯Â¿Â¯Â¯ Â°Â·Â¯Â¯
ĠÂ¯Â¿Â¯Â¯ Â·Â¯Â·Â¯
Åĵ Ä¹
Åĵ Ä¯Ã±
Åĵ Ãħ
Åĵ ÂµÃ¯
Åĵ Ä³Ãĵ
ĠÂ¯Â¿Â¯Â¯Â¯ Â°Â·Â¯
Ä± ÅĹ
Ä± ÃŁ
Ä± ÅŁ
Ä± ÅĢ
Ä± ÄĢ
Ä± ÃĽ
Ä± ÃĥÄ¯
ÅĹ Å¯
ÅĹ Äı
Â¸Â¯Â¯ Â±Â¯Â¯Â¯
Â¸Â¯Â¯ Ã·Â°Â¯Â¯
Â¸Â¯Â¯ Ã·Â±Â¯
Â¸Â¯Â¯ Ã·Â´Â¯
Â±Â°Â¯ Â±Â±Â¯
ÃĹÂ¯Â¯ Â°Â¯
ÃĹÂ¯Â¯ Â¿Â·Â¯Â¯
ÃĹÂ¯Â¯ Â»Â¯Â¯
ÃĹÂ¯Â¯ Â¿Â±Â¯
Å¯ Äĥ
Å¯ ÄĪ
Å¯ Ä°Ä¯
Å¯ Åµ
ĠÃı Ä¯Ãĥ
ĠÃı Ä¯Ã³
ĠÃı Ã£
ĠÃı Ã¯Ãĺ
ĠÃı ÃĴ
ĠÃı Ä¿Ã¯
ĠÃ¯ Ä¯Ãĵ
ĠÃ¯ Ãł
ĠÃ¯ Æĥ
ĠÃ¯ Å¡
ĠÃ¯ ÅıÃĩ
ĠÃ¯ Ã¿Ãĳ
ĠÃ¯ Ã¶
ĠÃ¯ Ä·Ã³
Â¯Â¯Â¯Â¯Â¯Â¯Â¯ Â·
ĠÂ¯Â¯Â¯Â¯Â· ÃĹ
ĠÂ¯Â¯Â¯Â¯Â· Â¿Â¿Â¯
ĠÂ¯Â¯Â¯Â¯Â· Â¿Â´Â¯
ĠÂ¯Â·Â¯Â¯ Â¿Â¯Â°Â¯
ĠÂ¯Â·Â¯Â¯ Â´Â±Â¯Â¯
ĠÂ¯Â·Â¯Â¯ Â±Â¯Â±Â¯
ÃĻ Ã¯Ãı
ÃĻ Ãĺ
ÃĻ Åļ
Ã¹ Ä¯Ãģ
Ã¹ ÃıÃı
Ã¹ Ã¯Ãģ
Ã¹ Ã¯Ä¯
Ã¹ ÃĲÃģ
Äĥ Åĳ
Äĥ Ã¯Ã¯
Äĥ Ä¯Åı
Äĥ Ã³Ãı
Åĥ Ãĵ
Åĥ Ä¯Ä¯
Åĥ ÄĹ
Â¯Â¿ Â°Â¯Â¯Â¯Â¯Â¯
Â¯Â¿ Â±Â¯Â°Â¯Â¯
Â¯Â¿ Â´Â¯Â¯Â¯Â¯
Â¯Â¿ Â¿Â±Â¯
Â¯Â¿ Â·Â±Â¯Â¯
Â¯Â¿ Â¶Â¯Â¯Â¯
ĠÂ¯Â° Ã·
ĠÂ¯Â° Â¿Â°Â¯
ĠÂ¯Â° Â±Â¿
ĠÂ¯Â° Â¿Â¯Â·Â°Â¯Â¯
ĠÂ¯Â° Â·Â¯Â¯Â¯Â°Â¯
ĠÂ¯Â° Â·Â¯Â¿Â±Â¯Â¯
ĠÂ¯Â° Â¸Â¯Â¿Â¯Â¯Â¯
ĠÂ¯Â° Â·Â¯Â¿
ĠÂ¯Â° Â±Â¯Â¯Ã·
ĠÂ¯Â° Â±Â¯Â¯Â¯Â¿Â¯
ĠÂ¯Â° Â¿Â¯Â»Â¯Â¯Â¯
ĠÂ¯Â° Â·Â¯Â¯Â´Â¯Â¯
ĠÂ¯Â° Ã·Â¯Â·Â¯Â¯Â¯
ĠÂ¯Â° ÃĹÂ±
Äģ Ãĩ
Äģ Ä¯Ä¯
Äģ Åģ
Äģ ÅĲÃĥ
Äģ Ã±Ã¹
Â´Â¯ Â¿Â¯
Â´Â¯ Â´Â¯Â¯Â¯
Â´Â¯ Â±Â±Â¯Â¯
ĠÂ¯Â·Â¯Â¯Â¯ Â±Â·Â¯
ĠÂ¯Â·Â¯Â¯Â¯ Ã·Â¸Â¯
ĠÂ¯Â¯Â¯Â± Â°Â´Â¯Â¯
ĠÂ¯Â¯Â¯Â± Ã·Â·Â¯Â¯
Â¯Â· ÃĹ
Â¯Â· Â·Â¯Â¯Â¯Â¯
Â¯Â· Â¿Â±Â¯Â¯
Â¯Â· Â»Â¯Â¯Â¯
Â¯Â· Â±Â·Â¯
Â¯Â· Â°Â·Â¯
ĠÄ¯Ã¯ Ã¯Ä¯
ĠÄ¯Ã¯ ÃıÄ¯
ĠÄ¯Ã¯ ÃĥÄ¯
Äı Ä¯Ã¯
Äı Äģ
Äı Ä¹
Äı Ã§
Äı ÃĢÄ¯
Äı ÂºÄ¯
Äı Ä¯Ä¯Ã¯
Ã° Ã¯Ä¯
Ã° ÃĴ
Ã° Å°
ÃĶ Ä°
ÃĶ Ã¯Ã°
Âµ ÃıÃģ
Âµ Ä¯Ã¹
Âµ Ä¯Ãĵ
Âµ Ã¯Ãĺ
Ã·Â¯Â¯Â¯ ÃĹÂ¯Â¯
ĠÂ¯Â¯Â± Â»
ĠÂ¯Â¯Â± Â¸Â¯Â·Â¯Â¯
ĠÂ¯Â¯Â± Â¸Â¯Â°Â¯Â¯
ĠÂ¯Â¯Â± Â±Â¯Â¿Â·Â¯
ĠÂ¯Â¯Â± Â¸Â¯Â¸Â¯Â¯
Ãĺ Ä³
Ãĺ ÅĲ
Ãĺ Ä¯Ä¯
Ãĺ Ä¯Ã¿
Ãĺ Ä¯Ãĵ
Â±Â°Â¯Â¯ Â±Â¯Â¯
Â±Â°Â¯Â¯ Â¿Â¯Â¯
Â¸Â¯Â¯Â¯ Â¸Â¯
ÃĦ Åı
ÃĦ Ã¯Ãı
ÃĦ Ä±
ÃĦ Ã¯Ã±
ÃŁ ÅĹ
Ãĩ Äģ
Ãĩ Ä¹
Ãĩ Ä¯Âµ
ĠÃ¯Ãı Ãĺ
ĠÃ¯Ãı Ãµ
Â» Â·Â¯
Â» Â¿Â·Â¯Â¯
Â» Â¯ÃĹÂ¯Â¯Â¯
Â» Â¯Â±
Â» Â¯Â¿Â´Â¯Â¯
Â» Â¯Â¿Â¸Â¯
Â¿Â·Â¯Â¯ Â±Â°Â¯
ĠÂ¯Â¿Â·Â¯ Â¿Â¯Â¿Â¯
Â´Â¯Â¯Â¯ Â´Â¯Â¯
ĠÂ¯Â±Â¯Â¯ ÃĹÂ·Â¯Â¯
Â³Â³ Â³Â³
Â¸Â¯ Â»Â¯Â¯
Â¸Â¯ Ã·Â¸Â¯
Ä¯Ãı Ã¿
Ä¯Ãı Ä¯Ä³
Ä¯Ãı Ä¯ÃĦ
Â¯Â¯Â¯Â°Â¯ Â°
Ä¯Ãģ Ä³
Ä¯Ãģ Ä¯Ãģ
Ä¯Ãģ Ä¯Ä¯
Ä¯Ãģ Ã¯ÃıÃ¿
Ã·Â¯Â¯ Â±
Ã·Â¯Â¯ Ã·Â¯Â¯Â¯
ĠÂ¯Â±Â¯Â¯Â¯ Â°Â·Â¯
ĠÂ¯Â±Â°Â¯ Â±Â¯
ĠÂ¯Â±Â°Â¯ Â¸
ĠÂ¯Â±Â°Â¯ Â±Â´Â¯Â¯
ĠÂ¯Â±Â°Â¯ Â±Â°
ĠÂ¿ Â¿Â±Â¯Â¯
ĠÂ¿ Â±Â¯Â¯Â¯Â¯Â°Â¯
ĠÂ¿ Â»Â¯Â¯Â¯Â¯Â¯Â¯
ĠÂ¯Â°Â¯Â¯ Â¶Â¯Â¯Â¯
ĠÂ¯Â°Â¯Â¯ Â°Â¿Â¯Â¯
ĠÂ¯Â°Â¯Â¯ Â±Â¯Â±Â¯
Ä¯Ãĥ Ã¿
Ä¯Ãĥ Ä¿
Ä¯Ãĥ Ä¯Ã¯
Ä¯Ãĥ ÃĻ
Ä¯Ãĥ Ä¯Ãı
ĠÂ¯Â¯Â¯Â·Â¯ Â±
ĠÂ¯Â¯Â¯Â·Â¯ Ã·Â´Â¯
ĠÂ¯Â¯Â¯Â·Â¯ Â°Â·Â¯
ĠÂ¯Â¯Â¯Â·Â¯ Â¿Â´Â¯
ĠÂ¯Â¯ÃĹÂ¯ Â´
ĠÂ¯Â¯ÃĹÂ¯ Â·Â¯
ĠÂ¯Â¯ÃĹÂ¯ Â¸Â°Â¯Â¯
ĠÂ¯Â¯ÃĹÂ¯ ÃĹÂ·Â¯Â¯
ĠÂ¯Â¯ÃĹÂ¯ Â·Â¯Â°Â¯
Â¯Â±Â¯Â¯ Â¸Â¯Â¯
Â¯Â±Â¯Â¯ Ã·Â¯Â¯
Â¯Â±Â¯Â¯ Â¿Â·Â¯
ĠÂ¯Â¯Â° Ã·Â¯
ĠÂ¯Â¯Â° Â±Â¯Â·
ĠÂ¯Â¯Â° Â±Â¸Â¯Â¯Â¯
ĠÂ¯Â¯Â° Â¿Â¯Â¿Â¯Â¯
Â¿Â±Â¯Â¯ Â±Â°Â¯
ÅŁ Ã¹
ÅŁ Ä¯Ãı
ÃĹÂ°Â¯Â¯ Â±Â¯Â¯
ÃĹÂ°Â¯Â¯ Â±Â¯
Â¯Â¯Â¯Â±Â¯ Â¿Â¯
Â¯Â¯Â· Â·
Â¯Â¯Â· Â°Â¯Â¯Â¯Â¯
Â¯Â¯Â· Â°Â¯Â¯Â¯
ĠÂ¯Â°Â¯Â¯Â¯ Â±Â·Â¯
ĠÂ¯Â¯Â¿Â° Â°Â¯
ĠÂ¯Â¯Â¿Â° Ã·
ĠÂ¯Â¯Â¿Â° Ã·Â±Â¯Â¯
ĠÂ¯Â¯Â¿Â° Â±Â·Â¯Â¯
ĠÂ¯Â¯Â¿Â° Â¿Â´Â¯Â¯
ÅĢ ÃĻ
ÅĢ Ä¯Ä·
ÅĢ Ä¯Äı
ĠÂ¯Â¿Â·Â¯Â¯ Â¿Â´Â¯
Ä¹ Ãĵ
Ä¹ ÃĻ
Ä¹ Ã¹
Ä¹ Ä¯Ãı
Åĳ Ä¯Ã¯
Åĳ Ä±
Åĳ Ãī
Ã¯Ã¯ Ã¹
Ã¯Ã¯ Äģ
Ã¯Ã¯ Ä¯Ãı
ÅĲ Ä¿
ÅĲ ÃĲ
ÅĲ Åĥ
Â¯Â¯Â´Â¯Â¯ Â°Â¯Â¯
Ã¯Ãĵ ÃıÃģ
Ã¯Ãĵ Ã¯Ã±
ĠÂ¯Â±Â°Â¯Â¯ Â°Â±Â¯
ĠÂ¯Â±Â°Â¯Â¯ ÃĹÂ¸Â¯
ĠÂ¯Â±Â°Â¯Â¯ Ã·Â·Â¯
Ä´ Åı
Ä´ Ä¯Ã¯
Ä´ Ã¯Ãı
Ä´ Äģ
Ä´ ÃŁ
Ä¯Ä¯ Å¯
Ä¯Ä¯ ÃĻ
Ä¯Ä¯ Äı
Ä¯Ä¯ Ãĺ
Ä¯Ä¯ Ä²
ÄĢ Åĥ
ÄĢ Âµ
ÄĢ Å±
Â¿Â·Â¯ Â¿
ĠÂ· Â°Â¯Â¯Â¯Â¯
ĠÂ· Â·Â°Â¯
ĠÂ· Â±Â·
ĠÂ· Â±Â·Â¯
ĠÂ· Â±Â±
ĠÂ· Â°Â¯Â¯Â¯Â¿Â¯Â¯
ĠÂ· Â±Â¯Â¯Â¯Â¯Â°Â¯
ĠÂ· Â±Â¯Â¯Â¯Â¯Â±Â¯
ĠÂ¯Â¯Â´Â¯Â¯ Â´Â°Â¯
ĠÂ¯Â¯Â´Â¯Â¯ Â·Â´Â¯
Ä¯Ã± Ä°
Ä¯Ã± ÃĶ
Ä¯Ã± Ä¯Ã¿
Ä¯Ã¿ Ã¯Ãĵ
Âº Ã¯Ã¯
Âº Ã¯ÃĲ
Âº Ä¯Ãĩ
ĠÂ¯Â¯Â¯Â· Â·Â¯
ĠÂ¯Â¯Â¯Â· Â°Â¿Â¯Â¯
ĠÂ¯Â¯Â¯Â· ÃĹÂ¿Â¯Â¯
ĠÄ¯Ä¯ Å¯
ĠÄ¯Ä¯ Äģ
Â¯Â¿Â¯Â¯ Â¿
Â¯Â¿Â¯Â¯ Â±Â°Â¯
Â¯Â¿Â¯Â¯ Â¿Â·Â¯
Å¿ Äĺ
Ã´ ÃĢ
ĠÃ¯Ã¯ Äģ
Åģ Ãĳ
Åģ Ã¯Ãĵ
ÃıÃģ Ä¯Ã¯
ÃıÃģ ÃıÃĲ
ĠÂ¯ÃĹ Â¯Â¿Â¯
ĠÂ¯ÃĹ Â·Â¯Â¯Â·Â¯Â¯
ĠÂ¯ÃĹ Â»Â¯Â¯Â¯Â¯Â¯
ĠÂ¯ÃĹ Â¿Â¯Â¯Â´Â¯Â¯
ĠÂ¯ÃĹ Â¸Â¯Â¯Â¯Â°Â¯
ĠÂ¯ÃĹ Â¯Â¿Â°Â¯Â¯Â¯
ĠÂ¯ÃĹ Ã·Â±Â¯Â¯Â¯Â¯
ĠÂ¯ÃĹ Â´Â¯Â¯Â¯Â¿Â¯
ĠÂ¯Â¯Â¸ Â±Â¯Â¯Â±Â¯
ĠÂ¯Â¯Â¸ Â°Â¯Â¯Â±Â¯
ĠÂ¯Â¯Â¸ Â±Â¿
ĠÂ¯Â¯Â¸ Â±Â¿Â·Â¯Â¯
ĠÂ¯Â¯Â¸ Â°Â·
Ã¸ Ãĥ
Ã¸ Ä±
Ã¸ Âµ
Ã¸ Ãĺ
Ã¸ Ä¯Ãĥ
Ã¸ Ä¹
ÄĹ Åĳ
ĠÂ¯Â¯Â¯Â¿ ÃĹ
ĠÂ¯Â¯Â¯Â¿ Â·Â´Â¯Â¯
ĠÂ¯Â¯Â¯Â¿ Â°Â¯Â°Â¯
ĠÂ¯Â¯Â¯Â¿ ÃĹÂ¿Â¯Â¯
ĠÂ¯Â¯Â´Â¯ Â±Â·Â¯Â¯
ĠÂ¯Â¯Â±Â° Â»Â¯Â¯Â¯
Â»Â¯Â¯ Â¸Â¯Â¯
Â»Â¯Â¯ ÃĹÂ¯Â¯
Â¯Â¯Â¿ Â±
[...]
