{"<s>":0,"<pad>":1,"</s>":2,"<unk>":3,"<mask>":4,"!":5,"\"":6,"#":7,"$":8,"%":9,"&":10,"'":11,"(":12,")":13,"*":14,"+":15,",":16,"-":17,".":18,"/":19,"0":20,"1":21,"2":22,"3":23,"4":24,"5":25,"6":26,"7":27,"8":28,"9":29,":":30,";":31,"<":32,"=":33,">":34,"?":35,"@":36,"A":37,"B":38,"C":39,"D":40,"E":41,"F":42,"G":43,"H":44,"I":45,"J":46,"K":47,"L":48,"M":49,"N":50,"O":51,"P":52,"Q":53,"R":54,"S":55,"T":56,"U":57,"V":58,"W":59,"X":60,"Y":61,"Z":62,"[":63,"\\":64,"]":65,"^":66,"_":67,"`":68,"a":69,"b":70,"c":71,"d":72,"e":73,"f":74,"g":75,"h":76,"i":77,"j":78,"k":79,"l":80,"m":81,"n":82,"o":83,"p":84,"q":85,"r":86,"s":87,"t":88,"u":89,"v":90,"w":91,"x":92,"y":93,"z":94,"{":95,"|":96,"}":97,"~":98,"¡":99,"¢":100,"£":101,"¤":102,"¥":103,"¦":104,"§":105,"¨":106,"©":107,"ª":108,"«":109,"¬":110,"®":111,"¯":112,"°":113,"±":114,"²":115,"³":116,"´":117,"µ":118,"¶":119,"·":120,"¸":121,"¹":122,"º":123,"»":124,"¼":125,"½":126,"¾":127,"¿":128,"À":129,"Á":130,"Â":131,"Ã":132,"Ä":133,"Å":134,"Æ":135,"Ç":136,"È":137,"É":138,"Ê":139,"Ë":140,"Ì":141,"Í":142,"Î":143,"Ï":144,"Ð":145,"Ñ":146,"Ò":147,"Ó":148,"Ô":149,"Õ":150,"Ö":151,"×":152,"Ø":153,"Ù":154,"Ú":155,"Û":156,"Ü":157,"Ý":158,"Þ":159,"ß":160,"à":161,"á":162,"â":163,"ã":164,"ä":165,"å":166,"æ":167,"ç":168,"è":169,"é":170,"ê":171,"ë":172,"ì":173,"í":174,"î":175,"ï":176,"ð":177,"ñ":178,"ò":179,"ó":180,"ô":181,"õ":182,"ö":183,"÷":184,"ø":185,"ù":186,"ú":187,"û":188,"ü":189,"ý":190,"þ":191,"ÿ":192,"Ā":193,"ā":194,"Ă":195,"ă":196,"Ą":197,"ą":198,"Ć":199,"ć":200,"Ĉ":201,"ĉ":202,"Ċ":203,"ċ":204,"Č":205,"č":206,"Ď":207,"ď":208,"Đ":209,"đ":210,"Ē":211,"ē":212,"Ĕ":213,"ĕ":214,"Ė":215,"ė":216,"Ę":217,"ę":218,"Ě":219,"ě":220,"Ĝ":221,"ĝ":222,"Ğ":223,"ğ":224,"Ġ":225,"ġ":226,"Ģ":227,"ģ":228,"Ĥ":229,"ĥ":230,"Ħ":231,"ħ":232,"Ĩ":233,"ĩ":234,"Ī":235,"ī":236,"Ĭ":237,"ĭ":238,"Į":239,"į":240,"İ":241,"ı":242,"Ĳ":243,"ĳ":244,"Ĵ":245,"ĵ":246,"Ķ":247,"ķ":248,"ĸ":249,"Ĺ":250,"ĺ":251,"Ļ":252,"ļ":253,"Ľ":254,"ľ":255,"Ŀ":256,"ŀ":257,"Ł":258,"ł":259,"Ń":260,"Â¯":261,"Â¯Â¯":262,"ĠÂ¯Â¯":263,"Â¯Â¯Â¯":264,"ĠÂ¯Â¯Â¯Â¯":265,"ĠÂ¯":266,"Â±":267,"Ã¯":268,"Â°":269,"Â³":270,"ĠÂ¯Â¯Â¯Â¯Â¯":271,"Ä¯":272,"Â·":273,"Ãı":274,"Â¯Â¯Â¯Â¯":275,"Â¿":276,"Â¯Â¯Â¯Â¯Â¯":277,"Â°Â¯Â¯":278,"Â±Â¯Â¯":279,"Â·Â¯Â¯":280,"ĠÂ¯Â¯Â¯":281,"Â¯Â¯Â¯Â¯Â¯Â¯":282,"Â¿Â¯Â¯":283,"Â°Â¯":284,"Â±Â¯":285,"Â¿Â¯Â¯Â¯":286,"ĠÂ¯Â¯Â·":287,"ĠÂ¯Â¯Â¿":288,"Â·Â¯Â¯Â¯":289,"ĠÂ¯Â¯Â¯Â¯Â¯Â°Â¯Â¯":290,"ĠÂ¯Â¯Â¯Â¯Â¯Â±Â¯Â¯":291,"ĠÂ¯Â¯Â¯Â¯Â¯Â·Â¯Â¯":292,"Â±Â¯Â¯Â¯":293,"Åı":294,"Ã¿":295,"Â´":296,"ÃĹ":297,"ĠÂ¯Â¯Â¯Â¯Â¯Â¿Â¯Â¯":298,"ĠÂ¯Â¯Â¯Â¯Â¿Â¯Â¯Â¯":299,"Â±Â¯Â¯Â¯Â¯Â¯":300,"ĠÂ¯Â¯Â·Â¯Â¯Â¯Â¯Â¯":301,"Â¹":302,"Ãĥ":303,"ĠÂ¯Â¯Â·Â¯":304,"ĠÂ¯Â¯Â¿Â¯Â¯Â¯Â¯Â¯":305,"Â°Â¯Â¯Â¯Â¯Â¯":306,"ĠÂ¯Â¯Â¯Â¯Â¯Â¯":307,"ĠÂ¯Â¯Â¯Â¯Â·Â¯Â¯Â¯":308,"ĠÂ¯Â¿":309,"ĠÂ¯Â¯Â±Â¯Â¯Â¯Â¯Â¯":310,"Â°Â¯Â¯Â¯Â¯":311,"ĠÂ¯Â¯Â°Â¯Â¯Â¯Â¯Â¯":312,"Â°Â¯Â¯Â¯":313,"ĠÂ¯Â¯Â¿Â¯":314,"Ä°":315,"ĠÂ¯Â·":316,"Ã·":317,"Ä¿":318,"Ä¯Ã¯":319,"Â±Â¯Â¯Â¯Â¯":320,"Â´Â¯Â¯":321,"Ã¯Ãı":322,"ĠÂ¯Â¯Â±Â¯":323,"Â·Â¯":324,"Â¸":325,"Ãģ":326,"Â¯Â¯Â°Â¯Â¯":327,"Ãĵ":328,"ĠÂ¯Â¯Â¯Â¯Â±Â¯Â¯Â¯":329,"ĠÂ¯Â¯Â·Â¯Â¯":330,"ĠÂ¯Â¯Â°Â¯":331,"Ã±":332,"ĠÂ¯Â¯Â°Â¯Â¯":333,"ĠÂ¯Â¯Â±Â¯Â¯":334,"ĠÂ¯Â¯Â¯Â°Â¯Â¯Â¯Â¯":335,"Ã³":336,"ĠÂ¯Â¯Â¿Â¯Â¯":337,"Ä·":338,"ĠÂ¯Â±":339,"Ä³":340,"Ãĳ":341,"ĠÂ¯Â¯ÃĹ":342,"Â¯Â¯Â±Â¯Â¯":343,"ĠÂ¯Â¯Â¯Â¯Â¯Â¯Â°Â¯":344,"ÃĲ":345,"ĠÂ¯Â¿Â¯Â¯Â¯Â¯Â¯Â¯":346,"Â¿Â¯":347,"ĠÂ¯Â¯Â¯Â¯Â°Â¯Â¯Â¯":348,"Â¯Â·Â¯Â¯Â¯":349,"ÃĢ":350,"ĠÂ¯Â¯Â¯Â±Â¯Â¯Â¯Â¯":351,"ĠÂ¯Â¯Â¯Â°":352,"Â¯Â¿Â¯Â¯Â¯":353,"ÃĹÂ¯Â¯Â¯":354,"ĠÄ¯":355,"Â¯Â¯Â·Â¯Â¯":356,"ĠÂ¯Â¯Â¯Â°Â¯":357,"ĠÂ¯Â·Â¯Â¯Â¯Â¯Â¯Â¯":358,"ĠÂ¯Â¯Â¯Â¯Â¯Â¯Â±Â¯":359,"Â¯Â¯Â¿Â¯Â¯":360,"ĠÂ¯Â¯Ã·":361,"ĠÂ¯Â¯Â¯Â±Â¯":362,"ĠÂ¯Â¿Â¯Â¯":363,"Åĵ":364,"ĠÂ¯Â¯Â¯Â¯Â¿":365,"ĠÂ¯Â¿Â¯Â¯Â¯":366,"Ä±":367,"Â¯Â¯Â¯Â±Â¯Â¯":368,"ÅĹ":369,"Â¸Â¯Â¯":370,"Â±Â°Â¯":371,"ÃĹÂ¯Â¯":372,"Â¯Â¯Â¯Â°Â¯Â¯":373,"Å¯":374,"ĠÃı":375,"ĠÃ¯":376,"Â¯Â¯Â¯Â¯Â¯Â¯Â¯":377,"ĠÂ¯Â¯Â¯Â¯Â·":378,"ĠÂ¯Â·Â¯Â¯":379,"ÃĻ":380,"Ã¹":381,"Äĥ":382,"Åĥ":383,"Â¯Â¿":384,"ĠÂ¯Â°":385,"Äģ":386,"Â´Â¯":387,"ĠÂ¯Â·Â¯Â¯Â¯":388,"ĠÂ¯Â¯Â¯Â±":389,"Â¯Â·":390,"Â¯Â¯Â¯Â¿Â¯Â¯":391,"Â¯Â¯Â¯Â·Â¯Â¯":392,"ĠÄ¯Ã¯":393,"Äı":394,"Ã°":395,"ÃĶ":396,"Â¯Â±Â¯Â¯Â¯":397,"Â·Â¯Â¯Â¯Â¯":398,"Â·Â¯Â¯Â¯Â¯Â¯":399,"Âµ":400,"ĠÂ¯Â±Â¯Â¯Â¯Â¯Â¯Â¯":401,"Â²":402,"Ã·Â¯Â¯Â¯":403,"ĠÂ¯Â¯Â±":404,"Ãĺ":405,"Â¿Â¯Â¯Â¯Â¯Â¯":406,"Â±Â°Â¯Â¯":407,"Â¸Â¯Â¯Â¯":408,"ÃĦ":409,"ĠÂ¯Â¯Â¯Â¯Â¯Â´Â¯Â¯":410,"ÃŁ":411,"Ãĩ":412,"ĠÃ¯Ãı":413,"ĠÂ¯Â¯Â·Â¯Â±Â¯Â¯Â¯":414,"ĠÂ¯Â¯Â¯Â¯Â¯Â¯Â¯Â¯":415,"ĠÂ¯Â¯Â·Â¯Â¿Â¯Â¯Â¯":416,"ĠÂ¯Â¯Â·Â¯Â¯Â±Â¯Â¯":417,"Â»":418,"Â¿Â·Â¯Â¯":419,"ĠÂ¯Â°Â¯Â¯Â¯Â¯Â¯Â¯":420,"ĠÂ¯Â¿Â·Â¯":421,"Â´Â¯Â¯Â¯":422,"ĠÂ¯Â±Â¯Â¯":423,"Â³Â³":424,"ĠÂ¯Â¯Â¯Â¯ÃĹÂ¯Â¯Â¯":425,"Â¯Â¯Â¿Â¯Â¯Â¯":426,"Â¸Â¯":427,"Ä¯Ãı":428,"ĠÂ¯Â¯Â±Â¯Â¯Â±Â¯Â¯":429,"ĠÂ¯Â¯Â¯Â·Â¯Â¯Â¯Â¯":430,"Â¯Â¯Â¯Â°Â¯":431,"Ä¯Ãģ":432,"Ã·Â¯Â¯":433,"ĠÂ¯Â±Â¯Â¯Â¯":434,"ĠÂ¯Â¯Â°Â¯Â¯Â°Â¯Â¯":435,"ĠÂ¯Â¯Â±Â¯Â¿Â¯Â¯Â¯":436,"ĠÂ¯Â¯Â¿Â¯Â·Â¯Â¯Â¯":437,"ĠÂ¯Â±Â°Â¯":438,"ĠÂ¿":439,"Â¯ÃĹÂ¯Â¯Â¯":440,"Â¯Â¯Â·Â¯Â¯Â¯":441,"ĠÂ¯Â¯Â¯Â¯Â¯Â¯Â·Â¯":442,"ĠÂ¯Â¯Â¯Â¯Â¿Â·Â¯Â¯":443,"ĠÂ¯Â°Â¯Â¯":444,"Ä¯Ãĥ":445,"ĠÂ¯Â¯Â¯Â·Â¯":446,"Â´Â¯Â¯Â¯Â¯Â¯":447,"ĠÂ¯Â¯Â·Â¯Â¯Â·Â¯Â¯":448,"ĠÂ¯Â¯ÃĹÂ¯":449,"Â¯Â±Â¯Â¯":450,"ĠÂ¯Â¯Â±Â¯Â¯Â·Â¯Â¯":451,"ĠÂ¯Â¯ÃĹÂ¯Â¯Â¯Â¯Â¯":452,"ĠÂ¯Â¿Â·Â¯Â¯Â¯Â¯Â¯":453,"ĠÂ¯Â¯Â·Â¯Â¯Â°Â¯Â¯":454,"ĠÂ¯Â¯Â¯Â°Â¯Â±Â¯Â¯":455,"Â¯Â¯Â°Â¯Â¯Â¯":456,"ĠÂ¯Â¯Â°":457,"Â¯Â·Â¯Â¯":458,"Â¿Â±Â¯Â¯":459,"Â¯Â°Â¯Â¯":460,"ĠÂ¯Â¯Â¯Â¯Â¿Â±Â¯Â¯":461,"ĠÂ¯Â¯Â¯Â¯Â·Â°Â¯Â¯":462,"ĠÂ¯Â¯Â°Â¯Â·Â¯Â¯Â¯":463,"ÅŁ":464,"Â¯Â°Â¯Â¯Â¯":465,"ÃĹÂ°Â¯Â¯":466,"Â¯Â¯Â¯Â±Â¯":467,"Â¯Â¯Â·":468,"ĠÂ¯Â¯Â¿Â¯Â¯Â°Â¯Â¯":469,"ĠÂ¯Â¯Â¿Â¯Â¯Â±Â¯Â¯":470,"ĠÂ¯Â¯Â¿Â¯Â¯Â¿Â¯Â¯":471,"Â¯Â·Â°Â¯Â¯":472,"ĠÂ¯Â¯Â¯Â¯Â¯Â·":473,"ĠÂ¯Â°Â¯Â¯Â¯":474,"ĠÂ¯Â¯Â°Â¯Â¯Â·Â¯Â¯":475,"ĠÂ¯Â¯Â¿Â°":476,"ĠÂ¯Â¯Â¯Â¯Â¯ÃĹÂ¯Â¯":477,"ĠÂ¯Â±Â°Â¯Â¯Â¯Â¯Â¯":478,"ĠÂ¯Â¯Â¯Â¯Â¯Â±Â°Â¯":479,"ÅĢ":480,"ĠÂ¯Â¿Â·Â¯Â¯":481,"ĠÂ¯Â¯Â´Â¯Â¯Â¯Â¯Â¯":482,"ĠÂ¯Â¯Â¯Â±Â¯Â°Â¯Â¯":483,"ĠÂ¯Â¯Â¯Â°Â¯Â·Â¯Â¯":484,"Â±Â¯Â°Â¯Â¯":485,"Ä¹":486,"Åĳ":487,"Â°Â¯Â±Â¯Â¯":488,"Â´Â¯Â¯Â¯Â¯":489,"Â¯Â¯Â¯Â¯Â°Â¯":490,"Ã¯Ã¯":491,"ÅĲ":492,"Â¯Â¯Â´Â¯Â¯":493,"Â±Â´Â¯Â¯":494,"Â¯Â¯Â±Â¯Â¯Â¯":495,"Ã·Â°Â¯Â¯":496,"ĠÂ¯Â¯Â°Â¯Â±Â¯Â¯Â¯":497,"ĠÂ¯Â¯Â±Â¯Â¯Â¿Â¯Â¯":498,"Â¯Ã·Â¯Â¯Â¯":499,"Ã¯Ãĵ":500,"ĠÂ¯Â±Â°Â¯Â¯":501,"Ä´":502,"ĠÂ¯Â¯Â±Â¯Â¯Â°Â¯Â¯":503,"ÃıÃĥ":504,"ĠÂ¯Â¿Â¯Â¯Â¯Â±Â¯Â¯":505,"Ä¯Ä¯":506,"ÄĢ":507,"Â¿Â·Â¯":508,"ĠÂ¯Â¯Ã·Â¯":509,"ĠÂ¯Â¯Â¯Â¯Â±Â°Â¯Â¯":510,"Â¯Â¿Â±Â¯Â¯":511,"ĠÂ·":512,"ĠÂ¯Â¯Â´Â¯Â¯":513,"Ä¯Ã±":514,"Ä¯Ã¿":515,"Âº":516,"Â¯Â¿Â·Â¯Â¯":517,"ĠÂ¯Â¯Â¯Â·":518,"Â·Â°Â¯Â¯":519,"ĠÄ¯Ä¯":520,"Â¯Â¿Â¯Â¯":521,"Å¿":522,"ĠÂ¯Â¯Â¯Â¯Â¯Â¯Â¿Â¯":523,"Ã´":524,"ĠÃ¯Ã¯":525,"ĠÂ³":526,"Åģ":527,"ÃıÃģ":528,"ĠÂ¯ÃĹ":529,"Ã¯ÃĲ":530,"ĠÂ¯Â¯Â¸":531,"Ã¸":532,"ÄĹ":533,"ĠÂ¯Â¯Â¯Â°Â¿Â¯Â¯Â¯":534,"ĠÂ¯Â¯Â¯Â¿":535,"ĠÂ¯Â¯Â´Â¯":536,"ĠÂ¯Â·Â¯Â¯Â¯Â°Â¯Â¯":537,"ĠÂ¯Â¿Â¯Â¯Â¯Â·Â¯Â¯":538,"ĠÂ¯Â¯Â±Â°":539,"Â°Â¯Â·Â¯Â¯":540,"ĠÂ¯Â¯Â°Â¯Â¯Â±Â¯Â¯":541,"Â»Â¯Â¯":542,"Â¯Â¯Â¿":543,"ĠÂ¯Â¯Â¯Â¯Ã·Â¯Â¯Â¯":544,"Â±Â¯Â¿Â¯Â¯":545,"ĠÂ¯Â¯Â±Â¯Â¯Â¯":546,"Äĩ":547,"ÅĦ":548,"Ä¸":549,"ĠÂ¯Â¯Â°Â¯Â¯Â¿Â¯Â¯":550,"ĠÂ¯Â¿Â¯":551,"ĠÂ¯Â¯Ã·Â°":552,"ĠÂ¯Â¯Â¯Â¯Â´Â¯Â¯Â¯":553,"Â¯Â¯Â¯Â¯Â±Â¯":554,"Ã¯Ãĳ":555,"ÅıÃģ":556,"Ãī":557,"Ä¯Ã¹":558,"ĠÂ¯Â¯Â¿Â¯Â¯Â·Â¯Â¯":559,"ĠÂ¯Â¯Ã·Â¯Â¯Â¯Â¯Â¯":560,"ÃıÃı":561,"Ä¯Ã³":562,"ĠÂ¯Â¯Â±Â°Â¯Â¯Â¯Â¯":563,"Ãħ":564,"ĠÂ¯Ã·":565,"Â±Â¯Â±Â¯Â¯":566,"ĠÂ¯Â¯Â¿Â¯Â¯Â¯":567,"ĠÂ¯Â¯Â·Â°":568,"Ã¯ÃĶ":569,"ĠÂ¯Â¯Â¯Â¯Â¸Â¯Â¯Â¯":570,"Â¯Â¿Â°Â¯Â¯":571,"ÃıÃ¯":572,"ĠÂ¯Â¯Â¯Â¯Â¯Â¸Â¯Â¯":573,"ĠÂ¯Â¯Â¯Â±Â¯Â¿Â¯Â¯":574,"ĠÂ¯Â¯ÃĹÂ°":575,"ÃĽ":576,"ĠÂ¯Â¯Â·Â¯Â°Â¯Â¯Â¯":577,"Â°Â°Â¯":578,"ĠÂ¯Â¯Â±Â°Â¯":579,"ĠÂ¯Â¯Â¿Â°Â¯Â¯Â¯Â¯":580,"Åĺ":581,"Â°Â¯Â°Â¯Â¯":582,"ĠÂ¯Â¿Â¯Â¯Â¿Â¯Â¯Â¯":583,"ĠÂ¯Â¯Â¯Â¯Â±":584,"Â¿Â¯Â¯Â¯Â¯Â¯Â¯":585,"Â»Â¯Â¯Â¯":586,"Â¯Â¯Â¯Â´Â¯Â¯":587,"Â±Â¯Â·Â¯Â¯":588,"ĠÂ¯Â¯Â°Â¯Â¿Â¯Â¯Â¯":589,"ĠÂ¯Â¯Â¯Â°Â¯Â°Â¯Â¯":590,"ĠÂ¯Â¯Â¯Â¯Â¯Â¿":591,"ÃıÃĢ":592,"ĠÂ¯Â¯ÃĹÂ°Â¯Â¯Â¯Â¯":593,"Ã¯Ãĥ":594,"ĠÂ¯Â¯Â°Â¯Â¯Â¯":595,"ĠÂ¯Â¯Â·Â¯Â¯Â¿Â¯Â¯":596,"Â¸Â¯Â¯Â¯Â¯":597,"ĠÂ¯Â¿Â¯Â¯Â¯Â°Â¯Â¯":598,"Â¼":599,"ĠÂ¯Â¯Ã·Â°Â¯Â¯Â¯Â¯":600,"Ã¯Ãģ":601,"ĠÂ¯Â¯Â¸Â¯":602,"Â°Â¯Â¿Â¯Â¯":603,"Â¯ÃĹ":604,"ĠÂ¯Â¯Â¯Â¯Â°":605,"Ä¯Ãĳ":606,"ĠÃıÃı":607,"ĠÂ¯Â¯Â¯Â¯Â¿Â°Â¯Â¯":608,"ĠÂ¯Â¯Â·Â¯Â±Â´Â¯Â¯":609,"ĠÂ¯Â¯ÃĹÂ¯Â¯":610,"Ã¯Ä¯":611,"Â¿Â°Â¯Â¯":612,"ĠÂ¯Â¯Â¯Â¿Â¯Â¯Â¯Â¯":613,"Â¯Â±Â°Â¯Â¯":614,"Ä¯Ãĵ":615,"ĠÂ¯Â¯Â¯Â´Â¯":616,"Ã¯ÃĻ":617,"Â¯Â¯Â±Â°Â¯":618,"ĠÂ¯Â¯Â±Â¯Â°Â¯Â¯Â¯":619,"ĠÂ¯Â¯Â¿Â¯Â°Â¯Â¯Â¯":620,"ĠÂ¯Â¯Â¿Â±":621,"ĠÂ¯Â¯Â¸Â¯Â¯Â¯Â¯Â¯":622,"ĠÂ¯Â¯Â¿Â¯Â¿Â¯Â¯Â¯":623,"ĠÂ¯Â·Â¯":624,"Â·Â°Â¯":625,"Ã£":626,"Â°Â¯Â¯Â°Â¯":627,"ÃıÃĦ":628,"ÅĶ":629,"Â¯Â¸Â¯Â¯Â¯":630,"Ä¯Äĥ":631,"Â±Â±Â¯":632,"ĠÂ¯Â¯Â·Â°Â¯Â¯Â¯Â¯":633,"Â¯Â¯ÃĹÂ¯Â¯":634,"ĠÂ¯Â¯Â¯Â¯Â¯Ã·Â¯Â¯":635,"Ä¯Âµ":636,"Â±Â¯Â¯Â±Â¯Â¯":637,"ĠÂ¯Â¯Â·Â¯Â·Â¯Â¯Â¯":638,"ĠÂ¯Â¯Â¯Â°Â¯Â¿Â¯Â¯":639,"ÅıÃĥ":640,"Ã¯ÃĢ":641,"ĠÂ¯Â¯Â¯Â¯ÃĹ":642,"ĠÂ¯Â¯Â¯Â±Â¯Â±Â¯Â¯":643,"Â¯Ã·":644,"Â°Â¿Â¯Â¯Â¯":645,"ĠÂ¯Â¯Â¿Â¯Â±Â¯Â¯Â¯":646,"ĠÂ¯Â°Â°Â¯":647,"ĠÂ¯Â¯Â·Â¯Â¯Â¯Â°Â¯":648,"Å³":649,"Â¯Â¯Â¯Â·Â¯":650,"ĠÂ¯Â¯Â·Â¯Â¯Â´Â¯Â¯":651,"Ã¯Ãĺ":652,"ĠÂ¯Â¯Â±Â¯Â·Â¯Â¯Â¯":653,"ĠÂ¯ÃĹÂ¯Â¯Â¯":654,"ĠÂ¯Â¯Â»":655,"ÅĻ":656,"ĠÂ¯Â·Â¯Â¯Â·Â¯Â¯Â¯":657,"ĠÂ¯Â¿Â°Â¯Â¯":658,"Â¯ÃĹÂ°Â¯Â¯":659,"Â·Â¯Â¯Â¯Â¯Â¯Â¯":660,"ĠÂ¯Â¯Â¯Â´":661,"ĠÂ¯Â¯Â¿Â±Â¯Â¯Â¯Â¯":662,"Â¯Â°":663,"Â¯Â¯Â°Â¯":664,"Ã·Â¯":665,"ĠÂ¯Â¯Â±Â¯Â¯Â¯Â°Â¯":666,"ĠÂ¯Â·Â¯Â¯Â±Â¯Â¯Â¯":667,"ĠÂ¿Â¯Â¯Â¯Â¯Â¯Â¯Â¯":668,"Äĳ":669,"Ä¯Äģ":670,"ĠÂ¯Â¯ÃĹÂ°Â¯":671,"ĠÂ¯Â¯Â¯Â¯Â±Â´Â¯Â¯":672,"Â¯Â¯Â¿Â·Â¯Â¯":673,"ÃıÃ±":674,"Â¯Â¯Â¸Â¯Â¯":675,"ĠÂ¯Â·Â¯Â¯Â¯Â¿Â¯Â¯":676,"Â±Â¯Â¯Â¿Â¯Â¯":677,"Â±Â¯Â¯Â·Â¯Â¯":678,"Â¯Ã·Â°Â¯Â¯":679,"ĠÂ¯Â¯Â¯Â±Â¯Â·Â¯Â¯":680,"ĠÂ¯Â¿Â·":681,"ĠÂ¯Â¯Â¯Â¯Â¯Â·Â°Â¯":682,"Â¯Â¯Â¯Â·":683,"Å·":684,"ĠÂ¯Â±Â°":685,"ĠÂ¯Â±Â±Â¯":686,"ĠÂ¯Â¯Â¯Â¯ÃĹÂ°Â¯Â¯":687,"Â¯Â°Â¯":688,"ĠÂ¯Â¯Â¯Â¯Â¯Â¿Â·Â¯":689,"Â±Â¯Â¯Â±Â¯":690,"Â¯Â¯Â¯Â±Â°Â¯":691,"ÃıÄ¯":692,"ĠÂ¯Â¿Â±Â¯Â¯Â¯Â¯Â¯":693,"ĠÂ¯Â¯Â¯Â´Â¯Â¯Â¯Â¯":694,"ĠÂ¯Â·Â¯Â¯Â¯Â±Â¯Â¯":695,"ÃĹÂ¯":696,"ÄŁ":697,"ĠÂ¯Â¯Â±Â¯Â±Â¯Â¯Â¯":698,"Â¶":699,"ĠÂ¯Â¯Â¯Â¯Â·Â±Â¯Â¯":700,"ĠÂ¯Â±Â¯Â¯Â¯Â°Â¯Â¯":701,"ĠÂ¯Â¿Â¯Â¯Â¯Â¿Â¯Â¯":702,"ĠÂ¯Â¯Â·Â¯Â±Â°Â¯Â¯":703,"ĠÂ¯ÃĹÂ¯Â¯Â¯Â¯Â¯Â¯":704,"ĠÂ¯Â±Â¯":705,"Â¯Â¯Â¿Â±Â¯Â¯":706,"Â°Â¯Â¯Â·Â¯Â¯":707,"ĠÂ¯Â¯Â´":708,"ĠÂ¯Â¯Ã·Â°Â¯":709,"ÃĹÂ°Â¯":710,"Ä»":711,"Â¯Â¯ÃĹÂ¯Â¯Â¯":712,"ĠÂ¯Â¯Â°Â¯Â°Â¯Â¯Â¯":713,"Å±":714,"Â±Â¿Â¯Â¯Â¯":715,"ĠÂ¯Â¿Â°Â¯":716,"Â°Â¯Â¯Â±Â¯Â¯":717,"ĠÂ¯ÃĹÂ¯Â¯":718,"ĠÂ¯Â¯Â¯Â¯Â¯Â»Â¯Â¯":719,"ĠÂ¿Â·Â¯Â¯":720,"Ãĭ":721,"ĠÂ¯Â¯Â¿Â±Â¯":722,"ĠÂ¯Â°Â°Â¯Â¯Â¯Â¯Â¯":723,"ĠÂ¯Â¿Â°Â¯Â¯Â¯Â¯Â¯":724,"Â°Â¯Â¯Â°Â¯Â¯":725,"Ãł":726,"ĠÂ¯Â·Â°Â¯Â¯Â¯Â¯Â¯":727,"ĠÂ¯Â·Â¯Â¯Â¯Â·Â¯Â¯":728,"Â¿Â±Â¯":729,"ĠÂ¯Â¿Â·Â¯Â¿Â·Â¯Â¯":730,"Ã¯Ä³":731,"ĠÂ¯Â¯Â¯Â¯Ã·Â°Â¯Â¯":732,"Â±Â¯Â¯Â°Â¯":733,"Â¸Â¯Â¯Â¯Â¯Â¯":734,"ĠÂ¿Â·Â¯Â¯Â¯Â¯Â¯Â¯":735,"Ãµ":736,"ĠÂ¯Â¯Â¿Â¯Â¯Â¯Â±Â¯":737,"Â¯Â¯Â¯Â¯Â·Â¯":738,"ĠÂ¯Â¿Â±Â¯":739,"Â±Â¯Â´Â¯Â¯":740,"ĠÂ¯Â¯Â¯Â¯Ã·":741,"Â¯Â¯Â±Â¯":742,"ĠÂ¯Â¯Â¯Â·Â¯Â¿Â¯Â¯":743,"ĠÂ¯Â°Â¯":744,"Â¯Â¯Â¯ÃĹÂ¯Â¯":745,"ĠÂ·Â¯Â¯Â¯Â¯Â¯Â¯Â¯":746,"Â¯Â±":747,"Â¯Â¯Â·Â°Â¯Â¯":748,"Â±Â¯Â¯Â°Â¯Â¯":749,"ĠÂ¯Â¯ÃĹÂ±Â¯Â¯Â¯Â¯":750,"ÅĽ":751,"ĠÂ¯Â¯Â¿Â¯Â·":752,"Ã¯Ã±":753,"Â¿Â¯Â¯Â¯Â¯":754,"Â¯Â¯Â¯Â¯Â°Â¯Â¯":755,"ĠÂ¯Â¯ÃĹÂ¯Â¿Â¯Â¯Â¯":756,"Â¯Â¯Â¯Â¿Â¯":757,"ĠÂ¯Â¯Â°Â¯Â¯Â´Â¯Â¯":758,"ÃĴ":759,"Â¯Â·Â±Â¯Â¯":760,"Â¿Â°Â¯":761,"ĠÂ¿Â¯Â¯Â¯":762,"ÃıÂµ":763,"ĠÂ¯Â¯Â¿Â¯Â¯Â¯Â°Â¯":764,"ĠÂ¯Â±Â±Â¯Â¯Â¯Â¯Â¯":765,"ĠÂ¯Â¯Â·Â±":766,"ĠÂ±Â¯Â¯Â¯Â¯":767,"ĠÂ¯Â¯Â°Â¯ÃĹÂ¯Â¯Â¯":768,"ĠÂ¯Â¯Â¯Â°Â¯Â¯":769,"Ä¯ÃĻ":770,"ĠÂ¯Â¯ÃĹÂ±":771,"Æı":772,"Â¯Â±Â¯":773,"ĠÂ¯Â¯Â¯Â¯Â»Â¯Â¯Â¯":774,"ĠÂ¯Â¿Â·Â¯Â¿Â¯Â¯Â¯":775,"Â¯Â´Â¯Â¯Â¯":776,"ĠÂ¯Â¯Â°Â¯Â¯Â¯Â°Â¯":777,"ĠÂ¯Â°Â°Â¯Â¯":778,"ĠÂ¯Â¯Â¿Â°Â¯":779,"Â°Â°Â¯Â¯":780,"Â±Â¯Â¿Â¯Â¯Â¯":781,"ĠÂ¯Â¯Â¯Â°Â·Â¯Â¯Â¯":782,"Å£":783,"ĠÂ¯Â¯Ã·Â±":784,"ĠÂ¯Â¯Â¯Â°Â¯Â¯Â°Â¯":785,"ĠÂ¯Â¯Â¯Â¯Â·Â¿Â¯Â¯":786,"ĠÂ¯Â¯Â¯Â¯Â¯Â°Â°Â¯":787,"ĠÂ¯Â¯Â·Â°Â¯":788,"ĠÂ¿Â·Â¯Â¯Â¯":789,"ÃĤ":790,"ĠÂ¯Â¯Ã·Â±Â¯Â¯Â¯Â¯":791,"Â¯Â·Â´Â¯Â¯":792,"Ã¯Ã³":793,"ĠÂ¯Â¯ÃĹÂ¯Â¯Â·Â¯Â¯":794,"Ä¯Ãĩ":795,"ĠÂ¯Â¯Â¿Â·Â¯Â¯Â¯Â¯":796,"ĠÂ¯Â¯Â¯Â¯Â¯Â¿Â±Â¯":797,"Â¯Â¯Â¯Â¿Â¯Â¯Â¯":798,"ĠÂ¯Â·Â°Â¯Â¯":799,"ĠÂ¯Â¯ÃĹÂ±Â¯":800,"Â°Â·Â¯Â¯Â¯":801,"ĠÂ¯Â¯Â°Â¯Â·Â°Â¯Â¯":802,"ĠÂ¯Â¯Â¯Â¸Â¯":803,"ĠÂ¯Â¿Â¯Â¯Â·Â¯Â¯Â¯":804,"ĠÂ¯ÃĹÂ°Â¯Â¯":805,"ĠÂ¯Â¯Â¿Â·Â¯":806,"ĠÂ¯Â¯Â·Â¯Â¿Â·Â¯Â¯":807,"Â¯Â¿Â¸Â¯Â¯":808,"Ãķ":809,"ĠÂ¯Â¯ÃĹÂ¯Â¯Â±Â¯Â¯":810,"ĠÂ¯Â±Â¯Â¯Â¯Â±Â¯Â¯":811,"ĠÂ¯Â¯Â¯Â±Â¿Â¯Â¯Â¯":812,"ĠÂ¯Â¯ÃĹÂ¯Â¯Â°Â¯Â¯":813,"ĠÂ±Â¯Â¯Â¯Â¯Â¯Â¯Â¯":814,"ĠÂ¯Â¯Â±Â¯Â¿Â±Â¯Â¯":815,"Â¿Â¯Â·Â¯Â¯Â¯":816,"Â¯Â¯Â¯Â¯Â±Â¯Â¯":817,"Â¯Â¯Â´Â¯Â¯Â¯":818,"ÃĹÂ¯Â¯Â¯Â¯Â¯":819,"Â¯Â±Â°Â¯":820,"ĠÂ¯Â¯Â°Â¯Â·":821,"ĠÂ¯Â¯Â¯Â¯Â°Â°Â¯Â¯":822,"ĠÂ¯Â¯Â»Â¯Â¯Â¯Â¯Â¯":823,"ĠÂ¯Â¿Â°":824,"Ä¯Ä¿":825,"ĠÂ¯Â·Â°Â¯":826,"ÄĻ":827,"Â±Â¯Â¯Â¯Â¯Â¯Â¯":828,"Â¯Â¯Â¿Â·Â¯":829,"Äĵ":830,"ĠÂ¯Â±Â¯Â¯Â¯Â·Â¯Â¯":831,"Â¯Â¯Â±Â°Â¯Â¯":832,"ĠÂ¯Â·Â¯Â¯Â¿Â¯Â¯Â¯":833,"ĠÂ¯Â¿Â±Â¯Â¯":834,"ÄĦ":835,"Ã§":836,"ĠÂ¯Â¯Â¯Â·Â¯Â±Â¯Â¯":837,"ĠÂ¯Â¯Â¿Â·":838,"Â¯Â¯Â·Â¯":839,"ĠÂ¯Â¯Â·Â¯Â¯Â¯":840,"ĠÂ¯Â¯Â°Â¯Â¯Â¯Â±Â¯":841,"ĠÂ¯Â¯Â¿Â¯Â·Â°Â¯Â¯":842,"ĠÂ¯Â±Â°Â¯Â±Â¯Â¯Â¯":843,"Â´Â¯Â±Â¯Â¯":844,"Â¯Â¯ÃĹ":845,"Â¯Â¯Â¯Â·Â¯Â¯Â¯":846,"Â¯Â¯Â¯Â¸Â¯Â¯":847,"Â¯Â¯Â¯Â¯Â·Â¯Â¯":848,"ÃĪ":849,"ĠÂ¯Â±Â¯Â¯Â¯Â¯":850,"ĠÂ¯Â¯Â¸Â¯Â¯":851,"Ã¯Ä±":852,"Â¯Â´Â¯Â¯":853,"ĠÂ¯Â¯Â¯Â¯Â·Â´Â¯Â¯":854,"ĠÂ¿Â¯":855,"Ä¯Ãħ":856,"ĠÂ¯Â¯Â¯Â¯Â¯Â¿Â°Â¯":857,"Â¿Â¯Â¯Â±Â¯Â¯":858,"Â´Â¯Â·Â¯Â¯":859,"ĠÂ¯Â¯Â¿Â´":860,"ĠÂ¯Ã·Â¯Â¯Â¯Â¯Â¯Â¯":861,"ĠÂ¯Ã·Â°Â¯Â¯":862,"ĠÂ¯Â¯Â¿Â¯ÃĹÂ¯Â¯Â¯":863,"Â¯Â¯Ã·":864,"ĠÂ¯Â¯Â¯Â¸":865,"ĠÂ¯Â¿Â¯Â¯Â±Â¯Â¯Â¯":866,"Äī":867,"Â¯Â°Â¯Â¯Â¯Â¯":868,"ĠÂ¯Â¯Â±Â¯Â¯Â¯Â±Â¯":869,"ÅıÂµ":870,"Â½":871,"ÃıÄ°":872,"ĠÂ¯Â¯Â°Â¯Ã·Â¯Â¯Â¯":873,"ĠÄ¯Ãı":874,"Ä¯Ä³":875,"ĠÂ¯Â±Â¯Â¯Â·Â¯Â¯Â¯":876,"Â·Â´Â¯Â¯":877,"Â¿Â¯Â¯Â¿Â¯Â¯":878,"ĠÂ¯Â¯Â¯Â·Â¯Â¯":879,"ĠÂ¯Â°Â¯Â¯Â¯Â°Â¯Â¯":880,"ĠÂ¯Â¿Â¯Â¯Â¯Â¯Â°Â¯":881,"Â°Â¸Â¯Â¯Â¯":882,"ĠÂ¯Â±Â°Â¯Â±Â°Â¯Â¯":883,"ĠÂ¯Â¯Ã·Â¯Â¯":884,"ĠÂ°Â¯Â¯Â¯Â¯":885,"Â¿Â¯Â¯Â°Â¯Â¯":886,"ĠÂ¯Â¯Â¯Â·Â¯Â°Â¯Â¯":887,"ĠÂ¯Â°Â¯Â¯Â¯Â±Â¯Â¯":888,"Â°Â¿Â±Â¯Â¯":889,"ĠÂ¯Â¯Â±Â¯Â¿Â·Â¯Â¯":890,"ĠÂ¯Â¯ÃĹÂ°Â¯Â±Â¯Â¯":891,"Â·Â±Â¯Â¯":892,"Ã¯Âº":893,"Ã¯Ã°":894,"ĠÂ¯Â±Â¯Â¯Â±Â¯Â¯Â¯":895,"ĠÂ¯Â¯Â¯Â¿Â¯":896,"Ã¯ÃĦ":897,"Å°":898,"Â¯Â¯Â¯Â¯Â¿Â¯Â¯":899,"Â¯Â¯Ã·Â¯Â¯":900,"ĠÂ¯Â¯Â¯Â¯Â¯Â±Â±Â¯":901,"ĠÂ¯Â¯Â¿Â¯Â¯Â´Â¯Â¯":902,"ĠÂ¯Â¯Â¿Â¯Â¸Â¯Â¯Â¯":903,"Â¯Â·Â¯":904,"ĠÂ¯Â°Â¯Â¯Â¯Â¯":905,"Â±Â¯Â¯Â¯Â°Â¯":906,"ĠÂ¯Â¯Ã·Â°Â¯Â±Â¯Â¯":907,"ĠÂ¯Ã·Â¯Â¯":908,"ĠÂ¯Â±Â¯Â¯Â¿Â¯Â¯Â¯":909,"Ã·Â°Â¯":910,"Â¯Â»Â¯Â¯Â¯":911,"Ã»":912,"ĠÂ¯Â¯Â¯Â¯Â¯Â¯Â´Â¯":913,"ĠÂ¯Â±Â±Â¯Â¯":914,"ĠÂ¯Â¯Â¯Â¸Â¯Â¯Â¯Â¯":915,"ĠÂ¯Â¯Â¿Â´Â¯":916,"ĠÂ±":917,"ĠÂ¯Â¯Â¯Â¯Â±Â±Â¯Â¯":918,"ĠÂ¯Â¯Â·Â¯Â¯Â¯Â±Â¯":919,"ĠÂ¯Â¯Â·Â±Â¯Â¯Â¯Â¯":920,"Â¶Â¯Â¯":921,"ĠÂ¯Â¯Â¯Â·Â¯Â·Â¯Â¯":922,"ĠÂ¯Â¯Â±Â°Â¯Â±Â°Â¯":923,"ĠÂ¯Â±Â¯Â¯Â¯Â¿Â¯Â¯":924,"Ãļ":925,"Â¿Â¸Â¯Â¯":926,"Â·Â±Â¯":927,"Ä¯ÃĢ":928,"Ã¡":929,"ÃıÃĳ":930,"Åĩ":931,"ĠÂ·Â¯Â¯Â¯":932,"ĠÂ¯Â¯Â°Â¯Â¯Â¸Â¯Â¯":933,"Â¯Â¯Â¿Â°Â¯Â¯":934,"ĠÂ°Â¯Â¯Â¯Â¯Â¯Â¯Â¯":935,"ĠÂ¯Â¯Â·Â¯Â°":936,"Ãľ":937,"Â¯Â¯Â¸Â¯Â¯Â¯":938,"Ä¯Ä±":939,"Ä¯Åı":940,"Â¯Â¯Â·Â°Â¯":941,"ĠÂ¯Â¯Â´Â¯Â¯Â°Â¯Â¯":942,"Æĥ":943,"Â¯Â¯Â¯Â¯Â¿Â¯":944,"ĠÂ¯Â°Â¯Â¯Â¯Â¿Â¯Â¯":945,"Â°Â¿Â·Â¯Â¯":946,"ÃıÃ³":947,"Â·Â¯Â°Â¯Â¯":948,"Â¯Â¯Â°Â°Â¯":949,"ĠÂ¯Â¯Â·Â¯Â±":950,"ÃıÃĲ":951,"ĠÂ¯Â¯Â¯Â±Â¯Â¯Â±Â¯":952,"Ä¯Ä·":953,"ÃıÄ±":954,"Â¯Â¯Â¯Â¿Â·Â¯":955,"ĠÂ·Â¯":956,"ÅıÃı":957,"ÃıÂº":958,"ĠÂ¯Â¯Â¯Â¯Â¯Â¯Â¯":959,"ĠÂ¯Â·Â±Â¯":960,"Äħ":961,"Â¯ÃĹÂ¯Â¯":962,"ÅıÃ¯":963,"Ä¯Åĥ":964,"ÃıÃĵ":965,"Â·Â¯Â¯Â±Â¯Â¯":966,"Â·Â¯Â¿Â¯Â¯Â¯":967,"Ã²":968,"ĠÂ¯Â¯Â¯Â¯Â¯Â·Â±Â¯":969,"Â°Â¿":970,"ĠÂ¯Â±Â°Â¯Â¯Â°Â¯Â¯":971,"ĠÂ¯Â·Â¯Â¯Â°Â¯Â¯Â¯":972,"ĠÂ¯Â¯Â´Â¯Â¯Â·Â¯Â¯":973,"Ã¯Âµ":974,"Â¯Â±Â´Â¯Â¯":975,"ĠÂ¯Â¿Â·Â¯Â¯Â±Â¯Â¯":976,"Ã¯Ã¿":977,"ĠÂ¯Â¿Â·Â¯Â¯Â·Â¯Â¯":978,"Â°Â¯Â¯Â±Â¯":979,"ĠÂ¯Â¯Ã·Â°Â¯Â·Â¯Â¯":980,"Â·Â¯Â·Â¯Â¯":981,"Ã¯Ã¹":982,"Â°Â¯Â¯Â¯Â°Â¯":983,"ĠÂ¯Â¯Â¯Â¯Â·Â·Â¯Â¯":984,"Ã¯Ä·":985,"ĠÂ¯Â¯ÃĹÂ°Â¯Â·Â¯Â¯":986,"Â·Â¯Â±Â¯Â¯":987,"ĠÂ¯Â°Â¯Â¯Â¯Â·Â¯Â¯":988,"ĠÂ¯Â¿Â¸":989,"ĠÂ¯Â¯Â±Â¯Â¯ÃĹÂ¯Â¯":990,"ĠÂ¯Â·Â±Â¯Â¯Â¯Â¯Â¯":991,"ĠÂ¯Â¯Â¯Â±Â¯Â¯":992,"ĠÂ¯Â¿Â·Â¯Â¯Â°Â¯Â¯":993,"Â±Â¯Â°Â¯Â¯Â¯":994,"Â¯Â¿Â¯":995,"ĠÂ¯Â¯Â¯Â¯Â¯Â°":996,"ĠÂ¯Â¯Ã·Â±Â¯":997,"Â·Â·Â¯":998,"Â¯Ã·Â´Â¯Â¯":999,"Â±Â¯Â¯Â±Â°Â¯":1000,"ĠÂ¿Â¿Â¯Â¯":1001,"Â¯Â¯Â¯Ã·Â¯Â¯":1002,"ĠÂ¯Â¯Â¿Â´Â¯Â¯Â¯Â¯":1003,"Â»Â¯":1004,"ĠÂ¯Â¯Â¯Â°Â¿Â·Â¯Â¯":1005,"ĠÂ¯Â¯Â·Â¯Â¯ÃĹÂ¯Â¯":1006,"Â·Â¯Â¿Â¯Â¯":1007,"ĠÂ¯Â¯Â¯Â¯Â¿Â¿Â¯Â¯":1008,"ĠÂ¯ÃĹÂ°Â¯Â¯Â¯Â¯Â¯":1009,"ĠÂ¯Â¯Â·Â¯Â°Â´Â¯Â¯":1010,"ĠÂ¯Â¯Â¯Â°Â¯Â±Â°Â¯":1011,"Â³Â¹":1012,"Â¯Â¯Â¿Â±Â¯":1013,"ĠÂ¿Â¯Â¯Â¯Â¯":1014,"Â¸Â¯Â±Â¯Â¯":1015,"ĠÂ¿Â·":1016,"Â°Â¯Â¯Â¿Â¯Â¯":1017,"Â¯Â¯Â¯Â¿":1018,"ĠÂ¯Â¯Â°Â°Â¯Â¯Â¯Â¯":1019,"Â¯Â¯Ã·Â°Â¯Â¯":1020,"ĠÂ¿Â¿Â¯Â¯Â¯Â¯Â¯Â¯":1021,"ÃıÃ°":1022,"Â¯ÃĹÂ±Â¯Â¯":1023,"ĠÂ¯Â¯Â¯Â¯Â¯ÃĹÂ°Â¯":1024,"ĠÂ¯Â¿Â¯Â¯Â°Â¯Â¯Â¯":1025,"ĠÂ¯Â¯Â°Â¯Â±Â°Â¯Â¯":1026,"Ä²":1027,"ĠÂ·Â¯Â¯Â¯Â¯":1028,"ĠÂ¯Â¸":1029,"ĠÂ¯Â¯Â·Â¯Â¯Â±Â°Â¯":1030,"ĠÂ¿Â·Â¯":1031,"ĠÂ¯Â¯Â¯Â´Â¯Â±Â¯Â¯":1032,"Â¯Â¿Â¯Â¯Â¯Â¯":1033,"Â¯Â°Â°Â¯Â¯":1034,"ĠÂ¯Ã·Â¯Â¯Â¯":1035,"Â¯Â¯Ã·Â¯Â¯Â¯":1036,"ĠÂ¯Â¯Â±Â¯Â¯Â±Â°Â¯":1037,"Ä¯Ãī":1038,"Ã·Â¯Â¯Â¯Â¯Â¯":1039,"ĠÂ¯Â¯Â±Â°Â¯Â±Â¯Â¯":1040,"ĠÂ¯Â·Â¯Â¯Â¯Â¯Â±Â¯":1041,"Â¯ÃĹÂ´Â¯Â¯":1042,"Â±Â·Â¯Â¯Â¯":1043,"Â±Â¯Â±Â°Â¯":1044,"ĠÂ¯Â¯Â»Â¯":1045,"ĠÂ¯Â°Â¯Â¯Â¿Â¯Â¯Â¯":1046,"Â°Â¯Â¯Â¯Â¯Â¯Â¯":1047,"ĠÂ¯Â¯Â·Â¯Â¿Â±Â¯Â¯":1048,"ĠÂ¯Â¯Â¯Â°Â¿Â±Â¯Â¯":1049,"ĠÂ¯Â¿Â¯Â¯Â¯Â¯":1050,"ĠÂ¯Â¯Â·Â¯Â´Â¯Â¯Â¯":1051,"ĠÂ¯Â±Â°Â¯Â·Â¯Â¯Â¯":1052,"Â¿Â¯Â·":1053,"ĠÂ¯Â¯Â¯Â¯Â¯ÃĹ":1054,"ĠÂ¯Â¯Â¿Â¯Â´Â¯Â¯Â¯":1055,"Â·Â¯Â¯Â·Â¯Â¯":1056,"ĠÂ¯Â¯Â¯Â±Â¯Â¯Â°Â¯":1057,"ÄĲ":1058,"Â¯Â¸Â¯Â¯":1059,"Å¡":1060,"ĠÂ¯Â¯Â±Â¯Â¯Â´Â¯Â¯":1061,"Â°Â¯Â±Â°Â¯":1062,"ĠÂ¯Â¯Â·Â¯Ã·Â¯Â¯Â¯":1063,"ĠÂ¯Â¯Â°Â°":1064,"ĠÂ¯Â°Â¯Â¯Â·Â¯Â¯Â¯":1065,"ĠÂ¯Â¯Â±Â¯Â¿":1066,"Â¸Â°Â¯Â¯":1067,"ĠÂ¯Â¯Â¯Â¯Â°Â±Â¯Â¯":1068,"Ä·Âµ":1069,"Â±Â·":1070,"Â¯Â±Â¯Â¯Â¯Â¯":1071,"Ã¯Ä°":1072,"ÃĹÂ´Â¯Â¯":1073,"ĠÂ¯Â¯Â¿Â±Â¯Â°Â¯Â¯":1074,"ĠÂ¯Â·Â·Â¯":1075,"Â¿Â¯Â¯Â·Â¯Â¯":1076,"Â¯Â¯Â¯Â·Â°Â¯":1077,"ÃıÃ¿":1078,"ĠÂ¯Â¿Â·Â¯Â¯Â¯":1079,"Â·Â¯Â¯Â°Â¯Â¯":1080,"Â±Â¯Â·":1081,"Â°Â¯Â¯ÃĹÂ¯Â¯":1082,"Â±Â¸Â¯Â¯Â¯":1083,"ĠÂ¯Â¯Ã·Â¯Â¯Â±Â¯Â¯":1084,"ĠÂ¯Â°Â¯Â¯Â°Â¯Â¯Â¯":1085,"ĠÂ¯Â·Â¿Â¯Â¯Â¯Â¯Â¯":1086,"Â±Â¿":1087,"Ã¤":1088,"ĠÂ¯Â¯Â¯Â¯ÃĹÂ±Â¯Â¯":1089,"Äµ":1090,"ĠÂ¯Â¯Â¯Â±Â·Â¯Â¯Â¯":1091,"Â°Â¯Â¯Â¯Â±Â¯":1092,"ÃıÃĶ":1093,"Ä¯Äı":1094,"Â±Â¿Â·Â¯Â¯":1095,"ĠÂ¯Â¯Â¯Â¯Â¯Â·Â·Â¯":1096,"ĠÂ³Â³":1097,"ĠÂ¯Â¯Â´Â¯Â±Â¯Â¯Â¯":1098,"Â³Â²":1099,"ĠÂ¯Â·Â¿Â¯":1100,"Â·Â¯Â´Â¯Â¯Â¯":1101,"ĠÂ¯ÃĹÂ¯Â¯Â¯Â°Â¯Â¯":1102,"ĠÂ¯Â·Â·Â¯Â¯Â¯Â¯Â¯":1103,"Â´Â°Â¯":1104,"ĠÂ¯Â¯ÃĹÂ¯Â±Â¯Â¯Â¯":1105,"Â±Â¯Â¿":1106,"ĠÂ¯Â¯Â¯Â¯Â¯Â±":1107,"ĠÂ¯Â¿Â±":1108,"Â±Â¯Â´Â¯Â¯Â¯":1109,"Â±Â¯Â·Â¯Â¯Â¯":1110,"ĠÂ¯Â¯ÃĹÂ±Â¯Â°Â¯Â¯":1111,"Â¸Â¯Â·Â¯Â¯":1112,"Ä°Ã¯":1113,"Ã¯ÃŁ":1114,"Â°Â·":1115,"ĠÂ¯Â¯Â¯Â°Â¯Â¯Â±Â¯":1116,"ĠÂ¯Â¯Â¯Â¯Â¿Â¸Â¯Â¯":1117,"Â¯Â¯ÃĹÂ°Â¯Â¯":1118,"ĠÂ¯Â¯Â±Â±Â¯Â¯Â¯Â¯":1119,"ĠÂ¯Â¯Â±Â°Â¯Â·Â¯Â¯":1120,"ĠÂ¯Â¯Â±Â¯Â¿Â°Â¯Â¯":1121,"Â±Â¯Â¿Â·Â¯Â¯":1122,"Â·Â°":1123,"ĠÅı":1124,"Â±Â¯Â¯Â¯Â±Â¯":1125,"ĠÂ¯Â¯ÃĹÂ¯Â·Â¯Â¯Â¯":1126,"Â´Â¯Â°Â¯Â¯":1127,"ĠÂ¯Â¯Â·Â°Â¯Â±Â¯Â¯":1128,"ĠÂ¯Â¯Â°Â¯Â¯ÃĹÂ¯Â¯":1129,"ĠÂ¯Â¯Â¯Â±Â¯Â´Â¯Â¯":1130,"Â¯Â¯Â·Â´Â¯Â¯":1131,"ĠÂ¯Â´":1132,"Â´Â¯Â¯Â°Â¯":1133,"Â¯Â¯Â°":1134,"Â¯Â¯Â±":1135,"Â¿Â¯Â°Â¯Â¯Â¯":1136,"ĠÂ¯Â¯Â°Â¯ÃĹÂ°Â¯Â¯":1137,"Â¯Â¯Â¯Â±Â¯Â¯Â¯":1138,"Â¿Â¯Â¿Â¯Â¯Â¯":1139,"ĠÂ¯Â¯Â¿Â¸":1140,"Â·Â´Â¯":1141,"ĠÂ¯Â¯Â·Â±Â¯":1142,"ÃĥÄ¯":1143,"ĠÂ¯Â¯Â¯Â¯Â¯Ã·":1144,"ĠÂ¯Â¿Â¸Â¯":1145,"Ä¿Ãģ":1146,"ĠÂ¯Â»":1147,"ÆĢ":1148,"ĠÂ¯Ã·Â°Â¯Â¯Â¯Â¯Â¯":1149,"ÃĹÂ±Â¯Â¯":1150,"ĠÂ¯Â¯Â±Â°Â¿Â¯Â¯Â¯":1151,"ĠÂ¯Â¯Â¿Â¯Â¿Â±Â¯Â¯":1152,"ĠÂ¯Â¯Â¯Â´Â¯Â·Â¯Â¯":1153,"Ã¯Ä¿":1154,"ĠÂ¯Â¯Ã·Â°Â¿Â¯Â¯Â¯":1155,"ĠÂ¯Â°Â°":1156,"Å¯Ãı":1157,"Â¯Â¯Â¿Â°Â¯":1158,"Ã·Â´Â¯Â¯":1159,"ĠÂ¯Â¯Â¯Â¯Â¿Â¯":1160,"ĠÂ¯Â¯Â±Â±":1161,"ĠÂ¯Â¯Â·Â¯Â¯Ã·Â¯Â¯":1162,"ÃıÃĩ":1163,"ĠÂ¯Â·Â¯Â¯ÃĹÂ¯Â¯Â¯":1164,"Ä¯Åĵ":1165,"Ã¿Ãı":1166,"ĠÂ¯Â¯Â´Â¯Â¯Â¯":1167,"ĠÂ¯Â·Â¯Â¯Â¯Â¯Â°Â¯":1168,"Â¯Â¯Â»Â¯Â¯":1169,"ĠÂ¿Â¯Â¯":1170,"Ã¯Åĵ":1171,"ĠÂ¯Â·Â¯Â¯Â¯Â´Â¯Â¯":1172,"Â¹Â³":1173,"ĠÂ¯Â¯Â´Â¯Â¯Â¿Â¯Â¯":1174,"ĠÂ¯Â¯Â·Â¯Â·":1175,"ĠÂ¯Â¿Â´Â¯Â¯":1176,"ĠÂ¯Â¯Â·Â¯Â¿":1177,"ĠÂ¯Â¯Â´Â¯Â¯Â±Â¯Â¯":1178,"ĠÂ¯Â¯Â±Â¯Â·":1179,"Ã¯Åı":1180,"ÄĽ":1181,"ĠÂ¯Â¯ÃĹÂ°Â¯Â°Â¯Â¯":1182,"ĠÂ¯Â¯Â¯Â¯Â·Â¯":1183,"ĠÂ¿Â¿Â¯Â¯Â¯":1184,"Åī":1185,"ĠÂ¯Â·Â±Â¯Â¯":1186,"Ä¯Åģ":1187,"ĠÂ¯Â¿Â¿Â¯":1188,"ĠÂ¯Â¯Â¯Â¯Â¿Â´Â¯Â¯":1189,"ÃıÄ³":1190,"ĠÂ¯Â¯Â¯Â¿Â·Â¯Â¯Â¯":1191,"ĠÂ¯Â¯Â¿Â¯Â¯Â¯Â·Â¯":1192,"ĠÂ¯Â¯Â°Â¯Â¿Â·Â¯Â¯":1193,"ĠÂ¯Â¯ÃĹÂ±Â¯Â·Â¯Â¯":1194,"ĠÂ¯Â¯Â±Â¯Â´Â¯Â¯Â¯":1195,"ĠÂ¯Â¯Â·Â¯Â·Â°Â¯Â¯":1196,"Ã·Â±Â¯Â¯":1197,"Â¯Â¯Â¿Â¯":1198,"Ã¯Ãĩ":1199,"ĠÂ¯Â¯Â¯Â¯Â¯Â¿Â¿Â¯":1200,"Ä¯ÄĹ":1201,"Â¯Â¿Â·Â¯":1202,"Â¯Â¯Â±Â±Â¯":1203,"ĠÂ¯Â¿Â¿Â¯Â¯Â¯Â¯Â¯":1204,"Â¯Â¯Â·Â±Â¯Â¯":1205,"ĠÂ¯Â¿Â·Â¯Â¯Â±Â°Â¯":1206,"ĠÂ±Â¯":1207,"ÃıÃī":1208,"ĠÂ¯Â¿Â¯Â¯Â¯Â¯Â±Â¯":1209,"ĠÂ¯Â¯Â¯Â°Â¿":1210,"Â°Â¯Â·":1211,"ĠÄ¯Ã¯Ãı":1212,"Â¯Â¯Â¿Â¸Â¯Â¯":1213,"Ä¯Ã°":1214,"Â±Â±Â¯Â¯":1215,"Â¸Â°Â¯":1216,"Ã¯Ã´":1217,"Â»Â¯Â¯Â¯Â¯":1218,"ĠÂ¯Â¯Â¿Â°Â¯Â±Â¯Â¯":1219,"ĠÂ¯Â¯Â¯Â¯Â±Â·Â¯Â¯":1220,"Â°Â¯Â¿Â¯Â¯Â¯":1221,"ĠÂ¯Â¯Â±Â¯ÃĹÂ¯Â¯Â¯":1222,"ĠÂ¯Â¿Â¯Â¯Â¿Â·Â¯Â¯":1223,"ĠÂ¯Â¯Â°Â±":1224,"Â¿Â¯Â¸Â¯Â¯Â¯":1225,"ĠÂ¯Â¿Â¯Â¯Â¯ÃĹÂ¯Â¯":1226,"Â°Â¯Â·Â¯Â¯Â¯":1227,"ĠÂ¯Â¯Â´Â¯Â·Â¯Â¯Â¯":1228,"Â¿Â¿Â¯":1229,"ĠÂ¯Â¯Â·Â°Â¯Â·Â¯Â¯":1230,"ÅıÄ¯":1231,"ĠÂ¯Â±Â±":1232,"Â°ÃĹÂ¯Â¯Â¯":1233,"ĠÂ¯ÃĹÂ¯Â¯Â¯Â´Â¯Â¯":1234,"Â±Â¯Â¯Â·Â¯":1235,"Â¯Â¯Â¯Â¯Â¯Â°Â¯":1236,"ĠÂ¯Â¯Â¯Â¯Â¯Â¯Â¸Â¯":1237,"ĠÃ¯Ä¯":1238,"Ä¯ÃŁ":1239,"Åħ":1240,"Å¯Ãĳ":1241,"Â·Â¯Â±Â¯Â¯Â¯":1242,"ĠÂ¯Â¯Â·Â¯Â¯Â¸Â¯Â¯":1243,"Ä¯ÃĦ":1244,"Æģ":1245,"ÃĹÂ´Â¯":1246,"Â¯Â·Â¯Â¯Â¯Â¯":1247,"Â¯Â¯Â¯Â°Â¯Â¯Â¯":1248,"ĠÂ¯Â¯Â¯Â¯Â»":1249,"ĠÂ¯Â¯Â¿Â¯Â¯Â±Â°Â¯":1250,"ÃıÄģ":1251,"Â´Â¯Â¿Â¯Â¯":1252,"Â¸Â¯Â¿Â¯Â¯":1253,"Â¯Â¯Â¯Ã·":1254,"ĠÂ¯Â±Â¯Â¯Â¯Â¯Â°Â¯":1255,"ĠÃ¯Ãĵ":1256,"ĠÂ¯Â¿Â¯Â¯Â¯Â±Â°Â¯":1257,"Â¯Ã·Â±Â¯Â¯":1258,"Â¯Â¯Â¯Â¯Â¯Â¯Â¯Â¯":1259,"Ä³Ã¯":1260,"ĠÂ¯Â·Â¯Â¯Â¯Â¯":1261,"ĠÂ¯Â¯ÃĹÂ±Â¯Â±Â¯Â¯":1262,"ĠÂ¯Â¯Ã·Â´":1263,"ĠÂ¯Â¿Â°Â¯Â¯Â·Â¯Â¯":1264,"Â¯Â¿Â´Â¯Â¯":1265,"Å´":1266,"Ä¯ÃĲ":1267,"Ã¯Ã£":1268,"Â¯Â·Â¯Â¯Â¯Â¯Â¯":1269,"ĠÂ¯Â°Â¯Â¯Â¯Â¯Â°Â¯":1270,"ĠÂ¯Â¯Â¯Â¯Â¯Ã·Â°Â¯":1271,"ĠÂ¯Â¯Â¯Â¯Ã·Â´Â¯Â¯":1272,"Ä¯ÅĹ":1273,"Â·Â¯Â¯Â¿Â¯Â¯":1274,"ĠÂ¯Â±Â°Â¯Â¯Â¿Â¯Â¯":1275,"ĠÂ¯Â¯Â´Â¯Â¯Â´Â¯Â¯":1276,"Ã±Ãı":1277,"ĠÂ¯Â¯Â¿Â¯Â·Â±Â¯Â¯":1278,"ĠÃ¿":1279,"Ã¯Ã¸":1280,"Â±Â¯Â±Â¯Â¯Â¯":1281,"Â¯Â¯Â¯Â¿Â±Â¯":1282,"ĠÂ¯Â·Â°":1283,"ĠÂ¯Â±Â¯Â¯Â¯Â¯Â±Â¯":1284,"Â°Â¿Â°Â¯Â¯":1285,"ĠÂ¯Â¯Â±Â¯Â¯Â¯Â·Â¯":1286,"Â°Â¯Â¯Â¸Â¯Â¯":1287,"Â±Â¯Â¿Â±Â¯Â¯":1288,"ĠÂ¯Â¯Â°Â°Â¯":1289,"Åł":1290,"Â¿Â¯Â±Â¯Â¯Â¯":1291,"ĠÂ¯Â¯ÃĹÂ¯Â¯ÃĹÂ¯Â¯":1292,"ĠÂ¯Â¯Â¿Â±Â¯Â¿Â¯Â¯":1293,"ĠÂ¯Â°Â¯Â¯Â±Â¯Â¯Â¯":1294,"ĠÂ¯Â¯Â¿Â¯Â±Â°Â¯Â¯":1295,"ĠÂ¹":1296,"Ä·Ã¯":1297,"ĠÂ¯Â±Â°Â¯Â·":1298,"ÃĬ":1299,"Ä¿Ä±":1300,"ĠÂ¯Â¯Â°Â¯Â¸Â¯Â¯Â¯":1301,"ĠÂ¯Â±Â¯Â¯Â°Â¯Â¯Â¯":1302,"ĠÂ¯Â¯Â¿Â°Â¯Â°Â¯Â¯":1303,"ĠÂ¯Â¯Â¯Â·Â¯Â¯Â±Â¯":1304,"ĠÂ¯Â¯Â°Â¯Â¿Â±Â¯Â¯":1305,"Äº":1306,"Â±Â±Â¯Â¯Â¯":1307,"ÅıÃĵ":1308,"ĠÂ¯Â¯Â±Â¯Â¯Â·":1309,"Ã¿Ä±":1310,"ĠÂ¯Â¯Â¯Â°ÃĹÂ¯Â¯Â¯":1311,"ĠÂ¯Â±Â°Â¯Â¯Â·Â¯Â¯":1312,"Â¯Â¯Â¯Â´Â¯":1313,"Â¯Â¿Â¯Â¯Â¯Â¯Â¯":1314,"Ä·Ãĥ":1315,"Ä¯Äĳ":1316,"ĠÂ¯Â¯Â±Â¯Â¯Ã·Â¯Â¯":1317,"ĠÂ¯Â¯Â·Â¯ÃĹÂ¯Â¯Â¯":1318,"ĠÂ¯Â·Â´Â¯":1319,"Â±Â¯Â¯Â·":1320,"Ä¯Ä¹":1321,"ĠÂ¯Â¯Â¯Â°Â¯ÃĹÂ¯Â¯":1322,"Ä¿Ä¯":1323,"Å¯Âµ":1324,"ĠÂ¯Â¯ÃĹÂ¯Â¯Â¿Â¯Â¯":1325,"Â¯Â¯Â¯Â¿Â°Â¯":1326,"ĠÂ°Â¯":1327,"Â°Â¯Â¯Â´Â¯Â¯":1328,"ĠÂ¯Â¯Â¿Â°Â¸Â¯Â¯Â¯":1329,"ĠÂ¯Â¯Â¯Â¯Â¯Â¯Â¯Â°":1330,"Â¯Â¯Â·Â±Â¯":1331,"Â¯Â¯Â¯Â°Â°Â¯":1332,"ĠÂ¯Â¯Â·Â¯Â¯Â¯Â·Â¯":1333,"Â·Â¯Â·Â¯Â¯Â¯":1334,"Â¯Â¯Â¯Â¯Â¯Â±Â¯":1335,"ĠÂ¯Â¯Â°Â¯Â¯Â±Â°Â¯":1336,"ĠÂ¯Â¯Â°Â±Â¯Â¯Â¯Â¯":1337,"Ä¿Ã¯":1338,"ĠÂ¯Â¯Â·Â°Â¿Â±Â¯Â¯":1339,"ĠÂ¯Â¯Â¸Â¯Â±Â¯Â¯Â¯":1340,"ĠÂ¯Â¯ÃĹÂ°Â¿Â¯Â¯Â¯":1341,"ĠÂ¯Â¯Â·Â´":1342,"ĠÂ¯Â¯Â¿Â¯Â¿Â·Â¯Â¯":1343,"ĠÂ¯Â¯ÃĹÂ¯Â¿Â°Â¯Â¯":1344,"Â¶Â¯":1345,"ĠÂ¯Â¯Â·Â¯Â¯Â·":1346,"Â»Â¯Â¯Â¯Â¯Â¯":1347,"ĠÂ¯Â¯Â¿Â°Â¯Â¿Â¯Â¯":1348,"ĠÂ¯Â¯Ã·Â´Â¯":1349,"Ã¯Åĥ":1350,"ĠÂ¯Â¯Â¿Â¯Ã·Â¯Â¯Â¯":1351,"Â¯Â°Â¯Â¯Â¯Â¯Â¯":1352,"ÃĹÂ±Â¯":1353,"ĠÂ¯Â¯Â°Â¯Â¿":1354,"ĠÂ¯Â¯Â¯Â¿Â¿Â¯Â¯Â¯":1355,"ĠÂ·Â·Â¯Â¯":1356,"ĠÂ¯Â¯Â·Â·Â¯Â¯Â¯Â¯":1357,"ĠÂ¯Â¯Â¯Â¯Â¯Â°Â±Â¯":1358,"Ä¿Ãı":1359,"Ã³Ãı":1360,"ĠÂ¯Â¯Ã·Â°Â¯Â°Â¯Â¯":1361,"ÃıÃ¹":1362,"Â¿Â¯Â·Â°Â¯Â¯":1363,"Â·Â¯Â°Â¯Â¯Â¯":1364,"ĠÂ¯Â¯Â¯Â¯Â±Â¿Â¯Â¯":1365,"ĠÂ¯Â·Â¯Â¯Â·":1366,"ĠÂ¯Â´Â¯Â¯Â¯Â¯Â¯Â¯":1367,"ĠÂ¯ÃĹÂ±Â¯Â¯":1368,"ÃıÃ´":1369,"ĠÂ¯Â¯Â·Â°Â¯Â°Â¯Â¯":1370,"ĠÂ¯Â¿Â·Â¯Â¯Â¿Â¯Â¯":1371,"ĠÂ¯Â¸Â¯Â¯Â¯Â¯Â¯Â¯":1372,"Ãº":1373,"Â¯Â¯Â·Â·Â¯":1374,"ĠÂ¯Â¯Â¯Â¯Â¯Â¶Â¯Â¯":1375,"ĠÂ¯Â¯Ã·Â¯Â¿Â¯Â¯Â¯":1376,"ĠÂ¯Â¯Â±Â°Â¿Â·Â¯Â¯":1377,"ĠÂ¯Â¯Â¯Â¯Ã·Â±Â¯Â¯":1378,"ĠÂ¯Â¯Â·Â¯Â¿Â°Â¯Â¯":1379,"ĠÂ¯Â±Â°Â¯Â¯Â±Â¯Â¯":1380,"ĠÂ¯Â¯Â¿Â¯Â¿":1381,"ĠÂ¯Â±Â¯Â¯Â¯Â´Â¯Â¯":1382,"ĠÂ¯Â´Â¯Â¯":1383,"ĠÂ¯Â¯Â±Â¯Â¯Â¸Â¯Â¯":1384,"ÅıÃ±":1385,"Ã¯Äģ":1386,"Ã¯ÃĽ":1387,"ĠÂ¯Â¯Â¯Â·Â¯Â¯Â°Â¯":1388,"ĠÂ¯Â¸Â¯Â¯":1389,"ĠÂ¯Â¯Â¯Â´Â¯Â°Â¯Â¯":1390,"ĠÂ´":1391,"Å¯Ãģ":1392,"Â±Â°":1393,"ĠÂ¯Â¿Â´Â¯Â¯Â¯Â¯Â¯":1394,"ĠÂ¯Â¿Â¸Â¯Â¯":1395,"ĠÂ¯Â¯Ã·Â¯Â¯Â·Â¯Â¯":1396,"Â¯Â·Â¿Â¯Â¯":1397,"ĠÂ¯Â¯Â¯Â¯Â¯Â·Â´Â¯":1398,"ÃıÃĺ":1399,"ĠÂ¯Â¯Â·Â¯Â°Â°Â¯Â¯":1400,"Ã¯Ãł":1401,"Â¿Â°":1402,"ÅıÃĳ":1403,"ĠÂ¯Â¯Â¯Â°Â¿Â°Â¯Â¯":1404,"ĠÂ¿Â¿Â¯":1405,"Â¸Â¯Â°Â¯Â¯":1406,"ĠÂ¯Â¯Â¯Â°Â·":1407,"ĠÂ¯Â¯Â·Â·":1408,"Ã¯Äĥ":1409,"Â¿Â·Â¯Â¯Â¯Â¯Â¯":1410,"ĠÂ¯ÃĹÂ¯Â¯Â¯Â¿Â¯Â¯":1411,"ĠÂ¯Â¯Ã·Â°Â¯Â¿Â¯Â¯":1412,"ĠÂ¯Â¿Â¯Â¯Â¯Â´Â¯Â¯":1413,"ĠÂ±Â¯Â¯Â¯":1414,"Â°Â¯Â¯Â·Â¯":1415,"ĠÂ¯Â¯Â¯Â±Â±Â¯Â¯Â¯":1416,"ĠÂ´Â¯Â¯Â¯Â¯Â¯Â¯Â¯":1417,"Â¿Â¯Â¯Â¯Â±Â¯Â¯":1418,"ĠÂ·Â¯Â¯":1419,"ÅıÃ³":1420,"ĠÄ¯Ã¹":1421,"Â±Â°Â¯Â¯Â¯Â¯":1422,"Ä¿Ã±":1423,"ĠÂ¯Â±Â¯Â¯ÃĹÂ¯Â¯Â¯":1424,"ĠÂ¯Â¯Â°Â¯Â¯Â¯Â·Â¯":1425,"ĠÂ¯Â¯ÃĹÂ¯Â·Â°Â¯Â¯":1426,"Äĭ":1427,"ĠÂ¯Â¯Â¸Â¯Â¯Â·Â¯Â¯":1428,"ĠÂ¯Â¯Â¯Â¯ÃĹÂ´Â¯Â¯":1429,"ĠÂ¯Â¿Â·Â¯Â¯Â·":1430,"ÄĪ":1431,"ĠÂ¯ÃĹÂ°Â¯":1432,"Åĭ":1433,"Â±Â¿Â°Â¯Â¯":1434,"Â¯Ã·Â¯Â¯":1435,"Ä¿Âµ":1436,"ĠÂ¯Â¯Â¯Â¯Â°Â·Â¯Â¯":1437,"ĠÂ¯Â¯ÃĹÂ´":1438,"Â¯Â·Â°Â¯":1439,"Ä¯Ã´":1440,"Â¿Â·Â¯Â¯Â¯":1441,"Â¯Â¿Â¿Â¯Â¯":1442,"ĠÂ¯Â¯Â¸Â¯Â¯Â±Â¯Â¯":1443,"Â¯Â¯Â¯Â±Â±Â¯":1444,"Ä°Ãĵ":1445,"Ã¿Ã¯":1446,"Â·Â°Â¯Â¯Â¯Â¯":1447,"ĠÂ¯Â¯Â¯Â·Â·Â¯Â¯Â¯":1448,"ĠÂ¯Â¯Â·Â°Â¿Â¯Â¯Â¯":1449,"ĠÂ°":1450,"Â¯Â±Â¯Â¯Â¯Â¯Â¯":1451,"ĠÂ¯Â¯Â¿Â°Â¯Â·Â¯Â¯":1452,"Ãĸ":1453,"Â°Â¯Â±Â¯Â¯Â¯":1454,"ĠÂ¯Â¯Ã·Â±Â¯Â±Â¯Â¯":1455,"Ä°Ãı":1456,"ĠÂ¯Â¯Â±Â¯Â¯Â·Â°Â¯":1457,"ĠÂ¯Â¯Â¿Â±Â¯Â±Â¯Â¯":1458,"Â°Â¯Â¯Â±Â°Â¯":1459,"ĠÂ¯Â¯Â¯Â°Â°Â¯Â¯Â¯":1460,"ĠÂ¯Â¯Â¯Â¯Â´":1461,"Â°Â±Â¯":1462,"ĠÂ¯Â¯Ã·Â±Â¯Â·Â¯Â¯":1463,"ÃĢÄ¯":1464,"ĠÂ¯Â¯Â¯Â¯Â°Â¿Â¯Â¯":1465,"Ä°Ãĥ":1466,"ĠÂ¯Â¯Â°Â¯Â¯Â·":1467,"Ä¯Ãķ":1468,"Å¹":1469,"ĠÂ¯Â±Â°Â¯ÃĹÂ°Â¯Â¯":1470,"ĠÂ¸":1471,"Ä¿Ãĥ":1472,"Â¯Â»":1473,"ĠÂ¯Â¯ÃĹÂ´Â¯":1474,"Â¯Â°Â°Â¯":1475,"Â¿Â¯Â¯Â¯Â°Â¯":1476,"ĠÂ¯Â¯ÃĹÂ±Â¿Â¯Â¯Â¯":1477,"ĠÂ·Â·Â¯Â¯Â¯Â¯Â¯Â¯":1478,"Â±Â¯Â¯ÃĹÂ¯Â¯":1479,"ÄıÃĢ":1480,"Â¯Â¯ÃĹÂ°Â¯":1481,"Â¿Â¯Â¯Â¯Â±Â¯":1482,"ĠÂ¯Â±Â°Â¯Â¿Â¯Â¯Â¯":1483,"ĠÂ¯Â¯Â¯Â¸Â¯Â±Â¯Â¯":1484,"ĠÂ¯Â·Â´Â¯Â¯Â¯Â¯Â¯":1485,"ĠÂ¯Â¯Â¯Â·Â¯Â´Â¯Â¯":1486,"Â°Â¯Â´Â¯Â¯":1487,"Ä¯Ãµ":1488,"ÃıÃĻ":1489,"Äĺ":1490,"Â´Â¯Â¯Â·Â¯Â¯":1491,"ĠÂ¯Â¿Â¯Â¯Â¿Â±Â¯Â¯":1492,"ÃģÄ¯":1493,"ĠÂ¯Â·Â·Â¯Â¯":1494,"Ä¼":1495,"ĠÂ¯Â±Â°Â¯Â¯Â´Â¯Â¯":1496,"Â¸Â¯Â¯Â°Â¯":1497,"ĠÅ¯":1498,"Â¯Â¯Â°Â°Â¯Â¯":1499,"ÅıÄ±":1500,"ĠÂ¯Â¯Â¯Â°Â¯Â¯Â·Â¯":1501,"Â±Â¯Â¿Â·Â¯":1502,"ĠÂ¯Â¿Â¸Â¯Â¯Â¯Â¯Â¯":1503,"ĠÂ¯Â°Â¯Â¯Â¯Â¯Â±Â¯":1504,"ĠÂ¯Â¯Â¿Â¸Â¯Â¯Â¯Â¯":1505,"Â¯Â·Â·Â¯Â¯":1506,"Â¯Â¯Â»Â¯Â¯Â¯":1507,"Â¯Â¯Â¯Â¯Â´Â¯":1508,"ĠÂ¯Â¿Â¯Â¯Â·":1509,"Â¯Â¯Â·Â¯Â¯Â¯Â¯Â¯":1510,"Ä¯Äĩ":1511,"ĠÂ¯Â¯Â¯Â´Â¯Â¿Â¯Â¯":1512,"ÃĨ":1513,"ĠÂ¯Â¯Â¿Â¯ÃĹÂ°Â¯Â¯":1514,"Â±Â¯Â¯Â´Â¯Â¯":1515,"ĠÂ¸Â¯Â¯Â¯Â¯Â¯Â¯Â¯":1516,"ÃıÃħ":1517,"Ã¿Ä¯":1518,"Â¿Â¯Â´Â¯Â¯Â¯":1519,"ĠÂ¯Â¯Â¯Â¯Â±Â¯":1520,"Â±Â¯Â¸Â¯Â¯":1521,"Â·Â¯Â¯Â¯Â°Â¯":1522,"ĠÂ¯Â¯Â¸Â¯Â¯Â°Â¯Â¯":1523,"Â¯Â±Â±Â¯Â¯":1524,"ĠÂ¯Â·Â±":1525,"ĠÂ¯Â·Â¯Â¯Â±Â°Â¯Â¯":1526,"ĠÂ¯Â¯ÃĹÂ¯Â¯Â¯Â°Â¯":1527,"ÅıÃ¿":1528,"ĠÂ¯Â¯Â±Â¯Â±Â°Â¯Â¯":1529,"ĠÄ¿":1530,"Â°Ã·Â¯Â¯Â¯":1531,"Â¯Â¯Ã·Â´Â¯Â¯":1532,"ĠÂ¯Â±Â°Â¯ÃĹÂ¯Â¯Â¯":1533,"ĠÂ¯Â¯ÃĹÂ¯Â¿Â·Â¯Â¯":1534,"Â±Â¯Â¯Ã·Â¯Â¯":1535,"ĠÂ¯Â¯Â»Â¯Â¯":1536,"Â±Â¯Â¯Â¯Â·Â¯":1537,"ĠÂ¯Â¯Â´Â¯Â¿Â¯Â¯Â¯":1538,"ĠÂ¯Â¯Ã·Â´Â¯Â¯Â¯Â¯":1539,"ĠÂ¯Â¯Â¯Â°Â¯Â´Â¯Â¯":1540,"ĠÂ¯Â¿Â·Â¯Â¯Â¯Â°Â¯":1541,"ĠÂ¯Â¯Â±Â±Â¯":1542,"ĠÂ¯Â¯Â·Â¯Â±Â±Â¯Â¯":1543,"Ã¯ÃĴ":1544,"Â±Â¿Â±Â¯Â¯":1545,"ĠÂ¯Â¯Â¿Â¯Â¯ÃĹÂ¯Â¯":1546,"ĠÂ¯Â¯Ã·Â¯Â¯Â°Â¯Â¯":1547,"ĠÂ¯Â¯Â¿Â°Â·Â¯Â¯Â¯":1548,"ĠÂ¯Â¯ÃĹÂ¯Â°Â¯Â¯Â¯":1549,"ĠÂ¯Â¿Â°Â¯Â¯Â°Â¯Â¯":1550,"ĠÂ¯Â¯Â¯Â¿Â°Â¯Â¯Â¯":1551,"ĠÂ¯Â¯Â·Â¯Ã·Â°Â¯Â¯":1552,"ĠÂ¯Â±Â¯Â¯Â·Â°Â¯Â¯":1553,"ĠÂ¯Â¯ÃĹÂ°Â¯Â¯Â°Â¯":1554,"ĠÂ¯Â·Â´Â¯Â¯":1555,"Ä·Ä¯":1556,"ĠÃıÃ¯":1557,"Â°Â±Â¯Â¯":1558,"Ä¡":1559,"Â¯Â¯Â¯Â·Â´Â¯":1560,"ĠÂ¯Â¯Â¿Â¸Â¯":1561,"ĠÂ¯Â°Â±Â¯Â¯Â¯Â¯Â¯":1562,"ÃıÄ¿":1563,"ĠÂ¯Â°Â°Â¯Â¯Â°Â¯Â¯":1564,"ĠÂ¯Â¯Ã·Â°Â¯Â¯Â°Â¯":1565,"ĠÂ¯Â·Â¯Â¯Â·Â°Â¯Â¯":1566,"Â¯Â¸Â°Â¯Â¯":1567,"Â¯Â¯Â¿Â¿Â¯":1568,"Â¿Â¯Â¯Â¯Â°Â¯Â¯":1569,"Ã¿Ã±":1570,"Â¿Â¯ÃĹÂ¯Â¯Â¯":1571,"Ä£":1572,"Â¯Â¯Â¯Â»Â¯Â¯":1573,"ÅıÃĩ":1574,"ĠÂ¯Â¯Â¯Â¯Â°Â´Â¯Â¯":1575,"ĠÄ¯Ã¿":1576,"ĠÂ¯Â¿Â¯Â¯Â·Â°Â¯Â¯":1577,"ĠÂ¯Â¯Â±Â¯Â·Â°Â¯Â¯":1578,"ĠÂ¯Â¯Â¯Â¯Â°Â¯":1579,"Â°Â¯ÃĹÂ¯Â¯":1580,"Ã·Â±Â¯":1581,"ĠÂ¯Â¿Â·Â¯Â·Â¯Â¯Â¯":1582,"ĠÂ¯Â¯Â¿Â¯Â»Â¯Â¯Â¯":1583,"Ã·Â´Â¯":1584,"Ã¿Ãģ":1585,"Ã¯Ãħ":1586,"ĠÄ¯Ã±":1587,"ĠÂ¯Â¯Â±Â°Â¿Â±Â¯Â¯":1588,"Â¿Â¯Â¯Â±Â°Â¯":1589,"ĠÂ¯Â¯Â·Â±Â¯Â°Â¯Â¯":1590,"ĠÂ¯Â¯Â¯Â°Â¯Â¸Â¯Â¯":1591,"Â¯Â¯Â¯ÃĹ":1592,"Ä·Ãģ":1593,"ĠÂ¯Â±Â°Â¯Â°Â¯Â¯Â¯":1594,"ĠÂ¯Â±Â·Â¯Â¯Â¯Â¯Â¯":1595,"Â´Â¯Â±Â°Â¯":1596,"ĠÂ¯Â¯Â¯Â¯Â¯Â¯Â¯Â±":1597,"ĠÂ¯Â¯Â¯Â¯Â¸":1598,"ĠÂ¯Â¯Â¿Â°Â¿Â¯Â¯Â¯":1599,"Â´Â¯Â·":1600,"ĠÂ·Â·Â¯Â¯Â¯":1601,"Â·Â¯Â¯Â°Â¯":1602,"ÃĹÂ°Â¯Â¯Â¯Â¯":1603,"ĠÂ¯Â¯Â¯Â°Â±Â¯Â¯Â¯":1604,"ÃĥÃ¯":1605,"ÅĴ":1606,"ĠÂ¯Â¯Â´Â¯Â°Â¯Â¯Â¯":1607,"Â¿Â¯Â¯Â¿Â¯Â¯Â¯":1608,"Â¿Â±":1609,"ĠÃıÃģ":1610,"ĠÂ¯Â¯Â¿Â¯Â±Â´Â¯Â¯":1611,"Ã·Â°Â¯Â¯Â¯Â¯":1612,"ĠÂ¯Â±Â¯Â¯Â·":1613,"ĠÂ¯Â¯Â¶":1614,"ĠÄ¯Ãĵ":1615,"ĠÂ¯Ã·Â°Â¯":1616,"ĠÂ¯Â·Â°Â¯Â¯Â·Â¯Â¯":1617,"ĠÂ¯Â¯Â±Â°Â¯Â°Â¯Â¯":1618,"ĠÂ¯Â¿Â±Â¯Â¯Â·Â¯Â¯":1619,"ĠÂ¯Â±Â°Â¯Â·Â°Â¯Â¯":1620,"ĠÂ¯Â¿Â¯Â¯Â¯Ã·Â¯Â¯":1621,"Ä±Ãĵ":1622,"ĠÂ¯ÃĹÂ±Â¯Â¯Â¯Â¯Â¯":1623,"ĠÂ¯Â¯ÃĹÂ±Â¯Â¿Â¯Â¯":1624,"ĠÂ¯ÃĹÂ´Â¯Â¯":1625,"Â¿Â¿Â¯Â¯Â¯":1626,"ĠÂ¯Â¯Â¯Â°Â¯Â·":1627,"ĠÂ¯Â¯Â¯Â¯ÃĹÂ¿Â¯Â¯":1628,"Ä¿Ãĳ":1629,"ĠÂ¯Â¯Â·Â´Â¯Â¯Â¯Â¯":1630,"Å¯Ã¯":1631,"ĠÂ¯Â¯Â¯Â°Ã·Â¯Â¯Â¯":1632,"ĠÂ¯Â¯Â¯Â»Â¯Â¯Â¯Â¯":1633,"ĠÂ¯Â¯Â¿Â±Â¯Â·Â¯Â¯":1634,"ĠÂ¯Â¿Â¯Â¯ÃĹÂ¯Â¯Â¯":1635,"ĠÂ¯Â¿Â±Â¯Â¯Â±Â¯Â¯":1636,"Ã°Ãı":1637,"ĠÄ·":1638,"ĠÂ¯Â¯Â·Â·Â¯":1639,"ĠÂ¯Â¯Â¯Â±Â¿Â·Â¯Â¯":1640,"ĠÂ¯Â¿Â¯Â¯Â¿":1641,"ĠÂ¯Â¯ÃĹÂ°Â¯Â¿Â¯Â¯":1642,"Â±Â¯Â¯Â¿Â¯":1643,"ÃıÅı":1644,"Ã¯Ä¹":1645,"Ä¯ÃĽ":1646,"Â¯Â¯Â¯Â·Â±Â¯":1647,"ĠÄ¯Ãģ":1648,"ĠÄ¯Ã³":1649,"ĠÂ¯Â¯Â¯Â¿Â±Â¯Â¯Â¯":1650,"ĠÂ¯Â¯Â¿Â·Â¯Â¿Â·Â¯":1651,"ĠÂ¯Â¯Â¯Â´Â¯Â¯":1652,"ĠÄ¯Ä¿":1653,"ĠÂ¯Â¯Â¯Â±Â¯Â±Â°Â¯":1654,"Ã¯Ãī":1655,"ĠÂ¯Â¿Â¯Â¯Ã·Â¯Â¯Â¯":1656,"ĠÂ¯Â¯Â¯Â·Â¿Â¯Â¯Â¯":1657,"Ä·Ãı":1658,"ĠÂ¯Â±Â°Â¯Â¯Â¯":1659,"Ä°Ä¯":1660,"ÅıÃĢ":1661,"Â¯Â¯Â¯Â¯Â´Â¯Â¯":1662,"ĠÃģ":1663,"Â¿Â¯Â¯Â´Â¯Â¯":1664,"ĠÂ¯Â¯Â°Â¯ÃĹ":1665,"Â·Â¯Â¯Â±Â¯":1666,"ĠÂ¯Â¯Â°Â¯Â¯Â·Â°Â¯":1667,"ĠÂ¯Â¯Ã·Â°Â¿Â·Â¯Â¯":1668,"Â¯Â¿Â·Â¯Â¯Â¯":1669,"Â´Â¯Â¯Â°Â¯Â¯":1670,"ĠÂ¯Â¯Â¸Â¯Â°Â¯Â¯Â¯":1671,"ĠÂ¯Â¯Â°Â¯Â·Â±Â¯Â¯":1672,"Â¿Â¯Â¿Â±Â¯Â¯":1673,"Â¿Â¯Â¯Â¯Â·Â¯Â¯":1674,"ÂµÃ¯":1675,"Â¿Â°Â¯Â¯Â¯":1676,"ĠÂ¯Â¯Â¯Â±Â¯Â¯Â·Â¯":1677,"Â¿Â°Â¯Â¯Â¯Â¯":1678,"ÄıÃı":1679,"ĠÂ¯Â°Â°Â¯Â±Â°Â¯Â¯":1680,"ĠÂ¯Â¯Â°Â¯Â¯Â¯Â¿Â¯":1681,"ĠÂ¯Â°Â°Â¯Â±Â¯Â¯Â¯":1682,"ĠÂ¯Â¿Â°Â¯Â¯Â¸Â¯Â¯":1683,"ĠÂ¯Â¯Â¯Â¯Â¯ÃĹÂ±Â¯":1684,"Â°Â·Â°Â¯Â¯":1685,"ÅıÄ³":1686,"ĠÂ¯Â¯Â¯Â¯Â¿Â¯Â°Â¯":1687,"Â¯Â¯Â¯ÃĹÂ°Â¯":1688,"ĠÂ¿Â¿":1689,"ÃĹÂ°":1690,"ĠÂ¿Â¯Â¯Â¯Â¯Â¯":1691,"Å§":1692,"ĠÂ¯Â¯Â´Â¯ÃĹÂ¯Â¯Â¯":1693,"ÆĹ":1694,"ÃĳÄ¯":1695,"Â¸Â¯Â¯Â·Â¯Â¯":1696,"ĠÂ¯Â¯ÃĹÂ´Â¯Â¯Â¯Â¯":1697,"ĠÂ¯Â·Â¯Â¯Ã·Â¯Â¯Â¯":1698,"ĠÂ¯Â±Â°Â¯Ã·Â¯Â¯Â¯":1699,"ĠÃıÄ¯":1700,"Â¶Â¯Â¯Â¯":1701,"Â±Â°Â¯Â¯Â¯":1702,"Â±Â¯ÃĹÂ¯Â¯":1703,"ĠÂ¯Â¿Â¯Â¯Â¯Â¯Â·Â¯":1704,"Â°Â¯Â¸Â¯Â¯":1705,"Ä°Ãģ":1706,"Â¯Â·Â·Â¯":1707,"ĠÃ¯ÃĲ":1708,"Â·Â¯Â´Â¯Â¯":1709,"Ä¯ÃĶ":1710,"Ä±Ã¯":1711,"ĠÂ¯Â¯Ã·Â¯Â¯Â¿Â¯Â¯":1712,"ĠÂ¯Â¿Â¯Â¯Â¯Â¸Â¯Â¯":1713,"ĠÂ¯Â¯Â¿Â¯Â¿Â°Â¯Â¯":1714,"ĠÂ¯Â¯ÃĹÂ°Â¯Â±Â°Â¯":1715,"ĠÂ¯Â¯Â¯Ã·":1716,"Ã³Ã¯":1717,"ĠÂ¯Â¯Â±Â°Â¯Â¿Â¯Â¯":1718,"Ã¯ÅĲ":1719,"ĠÂ¯Â·Â°Â¯Â¯Â°Â¯Â¯":1720,"ĠÂ¯Â¯Â·Â¯Â¯Â¯Â¿Â¯":1721,"Ã¿Ãĳ":1722,"ĠÂ¯Â¯ÃĹÂ¯Â¿Â±Â¯Â¯":1723,"Â°ÃĹ":1724,"ĠÂ¯Â±Â±Â¯Â¯Â±Â¯Â¯":1725,"ĠÂ¯Â¯Â¯Â¸Â¯Â·Â¯Â¯":1726,"Â¯Â°Â´Â¯Â¯":1727,"ĠÄ¯Ãĥ":1728,"ĠÂ¿Â·Â¯Â¯Â¯Â°Â¯Â¯":1729,"ĠÂ¯Â¯Â¯Â±Â·":1730,"ĠÂ¯Â¯Â¯Â¯Â¯Ã·Â±Â¯":1731,"ĠÂ±Â°Â¯Â¯Â¯Â¯Â¯Â¯":1732,"Â¯Â¯Â¯Â¿Â·Â¯Â¯":1733,"Â¯Â¯Â¯Â·Â·Â¯":1734,"Ä³Ãı":1735,"Â¿Â¿Â¯Â¯":1736,"Ä¯ÅŁ":1737,"Ä¯Åĳ":1738,"ĠÂ¯Â¿Â¯Â¯Â¯Â·":1739,"ĠÂ±Â°Â¯Â¯":1740,"Æĩ":1741,"ĠÂ¯Â¯Â¿Â¯Â¯Â·":1742,"Â¯Â¯Â¯Ã·Â°Â¯":1743,"ĠÂ¯Â¯Â±Â¯Â¯Â¯Â¿Â¯":1744,"ĠÂ¯Â·Â¯Â¯Â¯Â¯Â·Â¯":1745,"ĠÂ¯Â±Â¿Â¯Â¯Â¯Â¯Â¯":1746,"Â¿Â¯Â¯Â·":1747,"Åļ":1748,"ĠÂ¿Â¯Â¯Â¯Â¯Â°Â¯Â¯":1749,"ĠÂ¯Â¿Â°Â¯Â¿Â¯Â¯Â¯":1750,"Â¿Â¸Â¯":1751,"ĠÂ¯Â¯Â¯Â±Â°Â¯Â¯Â¯":1752,"ÃıÄ´":1753,"ĠÂ¯Â¯Â·Â°Â¯Â¿Â¯Â¯":1754,"ĠÂ¯Â¿Â·Â¯Â¯ÃĹÂ¯Â¯":1755,"ĠÂ¯Â±Â±Â¯Â¯Â·Â¯Â¯":1756,"ĠÂ¯Â¯Â´Â¯Â¯Â¯Â°Â¯":1757,"ĠÂ¯Â¯Â¯Â´Â¯Â¯Â°Â¯":1758,"Ä¿Ä³":1759,"ĠÂ¯Â¿Â±Â¯Â¯Â¿Â¯Â¯":1760,"ĠÂ¯Â¯Â¿Â¯Â¯Â¿Â·Â¯":1761,"ĠÂ¯Â¯Â¯Â±Â¯Â¸Â¯Â¯":1762,"ĠÂ¯Â¯Â±Â¯Â¸Â¯Â¯Â¯":1763,"ĠÂ¯Â¿Â¯Â¯Â±Â°Â¯Â¯":1764,"ĠÃ¯Ãĳ":1765,"ĠÂ¯Ã·Â´Â¯Â¯":1766,"ĠÄı":1767,"Â¿Â±Â¯Â¯Â¯Â¯":1768,"ĠÂ¯Â·Â¯Â¯Â±Â´Â¯Â¯":1769,"ĠÂ¯Â¯Â¯Â¯ÃĹÂ·Â¯Â¯":1770,"ĠÂ¯Â¯Â°Â¯Ã·Â°Â¯Â¯":1771,"Â¯Â¯Â·Â´Â¯":1772,"Â·Â¯Â¿Â±Â¯Â¯":1773,"ĠÄ¯Åĥ":1774,"ÄıÃĥ":1775,"ĠÂ¯Â¿Â´Â¯":1776,"Â¯Â¯Â¿Â´Â¯Â¯":1777,"ĠÂ¯Â¯Â¯Â°Â¯Ã·Â¯Â¯":1778,"Ã¶":1779,"ĠÂ¯Â¯ÃĹÂ¯Â¯Â¯":1780,"Â°Â¯Â¯Â¯Â¿Â¯":1781,"Â°Â´Â¯Â¯Â¯":1782,"Â¯Â¯Â·Â¯Â±Â¯Â¯Â¯":1783,"Â¯Â¯Â°Â¯Â¯Â¯Â¯":1784,"ĠÄ°":1785,"Ä¯Ä°":1786,"ĠÂ¯Â¯Â¯Â±Â¯ÃĹÂ¯Â¯":1787,"Å¯Ã±":1788,"Â´Â¯Â·Â¯Â¯Â¯":1789,"ĠÂ¯Â¯Â¸Â¯Â¿Â¯Â¯Â¯":1790,"Â¯Â¯ÃĹÂ±Â¯Â¯":1791,"ĠÂ¯Â»Â¯Â¯Â¯Â¯Â¯Â¯":1792,"ĠÂ¯Â¯Â·Â´Â¯":1793,"ĠÂ¯Â¯Â°Â¯Ã·":1794,"Ä¿Ã³":1795,"ĠÂ¯Â°Â¿Â¯Â¯Â¯Â¯Â¯":1796,"ĠÂ¯Â¿Â·Â¯Â±Â¯Â¯Â¯":1797,"ĠÂ¯Â¿Â¯Â°Â¯Â¯Â¯Â¯":1798,"ĠÂ¯Â¯ÃĹÂ¯Â¯Â´Â¯Â¯":1799,"Â¿Â±Â¯Â¯Â¯":1800,"ĠÂ¯Â·Â¯Â¯Â¿Â·Â¯Â¯":1801,"ÃĮ":1802,"ĠÂ¯Â¯Â¯Â»":1803,"ĠÂ¯Â¯Ã·Â¯Ã·Â¯Â¯Â¯":1804,"ĠÂ¯Â¯Â°Â¯Â¯Ã·Â¯Â¯":1805,"ÃĿ":1806,"ĠÂ¯Â¸Â¯Â¯Â¯":1807,"Â·Â¯Â¯Ã·Â¯Â¯":1808,"ĠÂ¯Â°Â±Â¯":1809,"ĠÂ¯Â¯Ã·Â¯ÃĹÂ¯Â¯Â¯":1810,"ĠÂ¯Â¯Â¿Â´Â¯Â°Â¯Â¯":1811,"ÅĪ":1812,"Â¸Â¯Â¿Â¯Â¯Â¯":1813,"ĠÂ¯Â°Â°Â¯Â·Â¯Â¯Â¯":1814,"Â¯Â¯Ã·Â°Â¯":1815,"ĠÂ¯Ã·Â¯Â¯Â¯Â±Â¯Â¯":1816,"ĠÂ¯Â¯Â¯Â±Â¿Â°Â¯Â¯":1817,"Â¸Â¯Â¯Â¯Â°Â¯":1818,"ĠÂ¯Â¯Â°Â¯Â¿Â°Â¯Â¯":1819,"Å¯Ãĵ":1820,"ĠÂ¯Â±Â°Â¯ÃĹ":1821,"Ä¯ÄĢ":1822,"ĠÂ¯Â¯Â¯Â¶":1823,"Â¯Â±Â±Â¯":1824,"ĠÂ¯Â°Â·Â¯Â¯Â¯Â¯Â¯":1825,"Â°Â±Â¯Â¯Â¯":1826,"Â¯Â¯Â¯Â¯Â¯Â·Â¯":1827,"ĠÂ¯Â¯Â·Â¯Â±Â¸Â¯Â¯":1828,"ÃĥÃı":1829,"ĠÂ¯Â¯Â¿Â´Â¯Â¿Â¯Â¯":1830,"ĠÂ¯Â°Â¯Â¯Â¯Â´Â¯Â¯":1831,"ĠÂ¯Â¯Â¯Â¿Â¯Â¯":1832,"Â¿Â¯Â¿Â·Â¯Â¯":1833,"ĠÂ°Â¯Â¯Â¯":1834,"ĠÂ¯Â¯Â·Â¯Â¯Â·Â°Â¯":1835,"ĠÂ¯Â¯Â¿Â¯Â¯Â¸Â¯Â¯":1836,"Â¯Â¯Â¯ÃĹÂ¯Â¯Â¯":1837,"ĠÃ¯Ã¯Ãı":1838,"ĠÂ¯Â¯Â¯Â·Â¯Â¯Â·Â¯":1839,"ĠÂ¯Â¯Â¸Â¯Ã·Â¯Â¯Â¯":1840,"ÆŁ":1841,"Â°Â°Â¯Â¯Â¯":1842,"Åķ":1843,"ĠÂ¯Â¯ÃĹÂ°Â¿Â·Â¯Â¯":1844,"ĠÂ¯Â¯Â¿Â¯Â¯Â¯Â¿Â¯":1845,"ĠÂ¯Â¿Â°Â¯Â¯Â±Â¯Â¯":1846,"Â±Â¯Â¯Â¿Â·Â¯":1847,"ĠÂ¯Â¯Â¯Â¯Â±Â¸Â¯Â¯":1848,"ĠÃ·":1849,"Â·Â¯Â·":1850,"Â±Â¯Â¯Â·Â°Â¯":1851,"Â°Â¯Â°Â¯Â¯Â¯":1852,"ĠÂ±Â¯Â¯":1853,"ĠÄ¯Ä·":1854,"ĠÂ¯Â¯Â¿Â·Â¯Â¿Â¯Â¯":1855,"Ä¯Ã¯Ãı":1856,"Â¯Â¯Â¯Â¿Â¿Â¯":1857,"ĠÂ¯Â¯Ã·Â°Â¯Â±Â°Â¯":1858,"ĠÂ¯Â·Â°Â¯Â±Â¯Â¯Â¯":1859,"Â°Â¯Â¯Â·":1860,"Â±ÃĹÂ¯Â¯Â¯":1861,"Â¯Â¯Â¯Â¸Â¯":1862,"Â¿Â¯Â¿":1863,"ĠÂ¯Â¯Â±Â°Â¿":1864,"Â±Â·Â¯":1865,"ĠÂ¯Â±Â°Â¯Â¯Â¯Â±Â¯":1866,"Ä§":1867,"ÃıÄ·":1868,"Â°Â¯Â¯Â¿Â¯":1869,"Â·Â·Â¯Â¯Â¯":1870,"Ä¯Å¯":1871,"Â¯Â¯ÃĹÂ´Â¯Â¯":1872,"Â±Â·Â¯Â¯":1873,"ĠÂ¯Â¯Ã·Â±Â¿Â¯Â¯Â¯":1874,"Â´Â¯Â±Â¯Â¯Â¯":1875,"Ã«":1876,"Åľ":1877,"Â¿Â¯Â¯Â¿Â·Â¯":1878,"ĠÂ¯Â¯Â±Â¯Â¯Â¿Â°Â¯":1879,"ĠÂ¯Â¿Â¯Â¯Â¿Â°Â¯Â¯":1880,"ĠÂ·Â·":1881,"ĠÂ¯Â¯Ã·Â¸":1882,"ĠÂ¯Â¯Â´Â¯Â¯Â¯Â±Â¯":1883,"Ä³Ä¯":1884,"ĠÂ¯Ã·Â°Â¯Â¯Â·Â¯Â¯":1885,"Ä½":1886,"ĠÃĵ":1887,"Â·Â¯Â¿":1888,"ÅĹÂµ":1889,"Â¿Â¯Â¯Â¿Â·Â¯Â¯":1890,"ĠÂ¯Â¯Â¯Â¯Â¸Â°Â¯Â¯":1891,"ĠÂ¯Â·Â¯Â¯Â¯ÃĹÂ¯Â¯":1892,"Ã¿ÃĲ":1893,"ÃĹÂ¯Â¿Â¯Â¯Â¯":1894,"Ã³ÃĻ":1895,"ĠÂ¯Â¯ÃĹÂ¯Ã·Â¯Â¯Â¯":1896,"ĠÂ¯Â¿Â¯Â¯Ã·Â°Â¯Â¯":1897,"Â¯Â¿Â±Â¯":1898,"ĠÂ¯Â¯Ã·Â¯Â·Â¯Â¯Â¯":1899,"ĠÂ¯Â·Â°Â¯Â¯Â±Â¯Â¯":1900,"Â´Â±Â¯":1901,"ĠÂ¯Â¯Â°Â¯Â·Â´Â¯Â¯":1902,"ĠÂ¯Â´Â¯Â¯Â¯":1903,"Â¸Â¯Â±Â°Â¯":1904,"ĠÂ¯Â°Â°Â¯Â°Â¯Â¯Â¯":1905,"Ã¼":1906,"Â¯Â¿Â¿Â¯Â¯Â¯":1907,"ĠÂ¯Â±Â±Â¯Â¿Â¯Â¯Â¯":1908,"Â·Â¯Â·Â°Â¯Â¯":1909,"ĠÃĹ":1910,"ĠÂ¯Â¯Ã·Â¯Â¿Â±Â¯Â¯":1911,"Â·Â¯Â¯Â·Â°Â¯":1912,"ĠÂ¯Â¯Â±Â¯Ã·Â¯Â¯Â¯":1913,"Â¯Â·Â±Â¯":1914,"ĠÂ¯Â±Â°Â¯Â¿Â·Â¯Â¯":1915,"Ä¶":1916,"ĠÂ¯Â¿ÃĹÂ¯Â¯Â¯Â¯Â¯":1917,"ĠÂ¯Â·Â¸Â¯":1918,"ĠÂµ":1919,"Ã¯Ä¸":1920,"ĠÂ¯Â¯Â¸Â¯Â·Â¯Â¯Â¯":1921,"Â´Â¯Â¯Â±Â¯":1922,"ĠÂ¯Â¿Â¯Â¯Â´Â¯Â¯Â¯":1923,"ĠÂ¯Â±Â°Â¯Â·Â´Â¯Â¯":1924,"ĠÂ¯Â¯Â·Â¯Â¸Â¯Â¯Â¯":1925,"Â´Â¯Â¯Â±Â¯Â¯":1926,"Ã¥":1927,"ÅĬ":1928,"ĠÂ¯Â¯Â¯Â±Â¯Â¯Â¿Â¯":1929,"ÅĤ":1930,"ĠÂ¯Â¯Â´Â¯Ã·Â¯Â¯Â¯":1931,"ĠÂ¯Ã·Â±Â¯Â¯Â¯Â¯Â¯":1932,"Â±Â¯Â±Â°Â¯Â¯":1933,"ĠÂ¯Â¯Â¯Â±ÃĹÂ¯Â¯Â¯":1934,"ĠÂ¯Â¿Â·Â¯Ã·Â°Â¯Â¯":1935,"Â¿Â¯Â¯Â¯Â·":1936,"ĠÂ¯Â¯Â°Â¯Â°Â°Â¯Â¯":1937,"ĠÃ¯ÃĶ":1938,"Ã©":1939,"ĠÂ¯Â¯Â¯Â¯Â·Â¯Â°Â¯":1940,"Â±Â¯Â¯Â¸Â¯Â¯":1941,"ĠÂ¯Â¿Â·Â¯Â¿":1942,"ĠÅıÃģ":1943,"ĠÂ¯Â°Â¯Â¯ÃĹÂ¯Â¯Â¯":1944,"Â¿Â¯Â±Â°Â¯Â¯":1945,"Â°Â¯Ã·Â¯Â¯":1946,"Â·Â¯Â±Â°Â¯":1947,"ĠÂ¯Â¿Â±Â¯Â¿Â¯Â¯Â¯":1948,"Â°Â·Â¯Â¯":1949,"ĠÂ¯Â¯Â·Â¯Â·Â±Â¯Â¯":1950,"ĠÂ¯Â±Â°Â¯ÃĹÂ´Â¯Â¯":1951,"ĠÂ¿Â¯Â¯Â¯Â±Â¯Â¯Â¯":1952,"Â·Â¯Â¯Â¯Â±Â¯":1953,"ĠÂ¯Â¿Â·Â¯Â·":1954,"ĠÂ¯Â¯Â°Â±Â¯":1955,"ÃĲÄ¯":1956,"ĠÂ¯Â¯Â¯Â¯Â¿Â»Â¯Â¯":1957,"Â¯Â¯Â¯Â¯Â¯Â¿Â¯":1958,"ÂºÄ¯":1959,"ĠÂ¯Â¯Â¯Â¿Â¯Â·Â¯Â¯":1960,"ĠÂ¯Â±Â¯Â¯Â¯ÃĹÂ¯Â¯":1961,"Â±Â±Â°Â¯Â¯":1962,"ĠÂ¯Â¯Â±Â¯Â¯Â¿Â·Â¯":1963,"ĠÂ¯Â¯Â¸Â¯Â¯Â¿Â¯Â¯":1964,"Ã·Â¯Â¯Â±Â¯Â¯":1965,"ĠÂ¯Â¯Â¯Â±Â¿":1966,"ĠÂ¯Â¯Â¶Â¯Â¯Â¯Â¯Â¯":1967,"ĠÃ¯Ã³":1968,"Â»Â±Â¯":1969,"ĠÂ¯Â¯Â¯Â·Â¯Â±Â°Â¯":1970,"ĠÂ¯Ã·Â±Â¯Â¯":1971,"ĠÂ¯Â°Â°Â¯Â°Â°Â¯Â¯":1972,"Ã¯ÄĢ":1973,"ĠÂ¯Â¯Â·Â±Â¯Â±Â¯Â¯":1974,"ĠÄ¯Ä³":1975,"ĠÂ¯Â¯Â±Â¿Â¯Â¯Â¯Â¯":1976,"ĠÄ¯Åģ":1977,"ĠÂ¯Â¯Â¿Â¯Ã·Â°Â¯Â¯":1978,"Ã±Ã¯":1979,"Ã·Â°":1980,"Â±Â´Â¯Â¯Â¯":1981,"ÃĵÄ¯":1982,"ĠÂ¯Â¯Â¯Â¯Â¯Â´Â°Â¯":1983,"Ä¯Ã²":1984,"ĠÂ¯Â¯Â¿Â¯Â·Â´Â¯Â¯":1985,"ĠÂ¯Â¯Â¯Â¸Â¯Â¿Â¯Â¯":1986,"Ä¯ÄĻ":1987,"ĠÂ¯Â¯Â¿Â¯Â¯Ã·Â¯Â¯":1988,"ĠÂ¯Â¯Â¯Â¯Â»Â°Â¯Â¯":1989,"Â±Â¯Â°Â°Â¯":1990,"Â¸Â¯Â¯Â°Â¯Â¯":1991,"Ã¯Ãķ":1992,"Â°Â¯Â¿Â·Â¯Â¯":1993,"ĠÂ¯Â¯Â¿Â´Â¯Â·Â¯Â¯":1994,"ĠÂ¯Â·Â´":1995,"Ã³Ãĳ":1996,"Â±Â¯ÃĹÂ¯Â¯Â¯":1997,"Ã¯ÃıÄ¯":1998,"Â°Â´Â¯Â¯":1999,"Ã¿Ä°":2000,"ĠÂ¯Ã·Â¯":2001,"ĠÂ¯Â·Â¯Â¯Â¯Â±Â°Â¯":2002,"ĠÂ¯Â±Â¯Â¯Â¿Â·Â¯Â¯":2003,"ĠÂ¯Ã·Â¯Â¯Â¯Â·Â¯Â¯":2004,"Â¿Â¯Ã·Â¯Â¯Â¯":2005,"ĠÂ¯Â±Â°Â¯Ã·":2006,"ĠÂ¯Â¯Â¿Â¯Â¯Â¿Â±Â¯":2007,"ĠÂ¯Â¿Â¯Â¯Â¯Â¯Â¿Â¯":2008,"ĠÂ¯Â¿Â¿Â¯Â¯":2009,"ĠÂ¯ÃĹÂ´Â¯":2010,"Â·Â¯Â¯Â·Â¯":2011,"ĠÂ¯Â¯Â¯Â¯Â¯Â¯ÃĹÂ¯":2012,"ĠÂ¯Â¯Â¯ÃĹ":2013,"ĠÂ¯Â·Â¯Â¯ÃĹÂ°Â¯Â¯":2014,"Ä·Äĥ":2015,"ĠÂ¯Â¯Â±Â·Â¯Â¯Â¯Â¯":2016,"ĠÂ¯Â¿Â·Â¯Â°Â¯Â¯Â¯":2017,"ĠÃĥ":2018,"ĠÃ³":2019,"Ã¿Ã°":2020,"Â°Â¯Â¿":2021,"ĠÂ¿Â¯Â¯Â¯Â¯Â±Â¯Â¯":2022,"ĠÂ¯Â¯Â¯Â¿Â¯Â±Â¯Â¯":2023,"Â¯Â¯Â¯Â·Â°Â¯Â¯":2024,"Ä±Ã³":2025,"ÅıÃī":2026,"ÃĵÃ¯":2027,"ĠÂ¯Â±Â¯Â¯ÃĹÂ°Â¯Â¯":2028,"Â±Â°Â¯Â¯Â¯Â¯Â¯":2029,"ĠÂ¯Â±Â¯Â¯Â±Â°Â¯Â¯":2030,"ĠÂ¯Â¿Â±Â¯Â¯Â°Â¯Â¯":2031,"ĠÂ¯Â¿Â¯Â¯Â¯Â·Â°Â¯":2032,"ĠÂ¯Â¯Â¯Â·Â¯Â¿Â·Â¯":2033,"Â´Â¯Â¯Â¿Â¯Â¯":2034,"Â¸Â¯Â¯Â±Â¯":2035,"ĠÂ¯Â¯Â¯Â¿Â¯Â°Â¯Â¯":2036,"ĠÂ¯Â±Â¯Â¯Â¿Â±Â¯Â¯":2037,"ĠÂ¯Â¯Â¿Â´Â¯Â±Â¯Â¯":2038,"Â¸Â¯Â¯Â±Â¯Â¯":2039,"Â¿Â·":2040,"Â°Â¯Â¿Â·Â¯":2041,"Å¯Ãķ":2042,"Ãį":2043,"Â°Â°":2044,"Å¯ÃĲ":2045,"Â¯Â¯Â¯Â¯Â±Â°Â¯":2046,"ĠÂ¯Â¯Â¿Â¯ÃĹ":2047,"Å¯Ã¹":2048,"ĠÄ¯Ãĳ":2049,"ĠÂ¯Â¯Â¯Â·Â±Â¯Â¯Â¯":2050,"Â·Â±":2051,"ÃĹÂ¯Â¯Â±Â¯Â¯":2052,"Ã¯Ä´":2053,"Ä¯ÃĴ":2054,"ĠÂ¯Â¯Â°Â¯Â´Â¯Â¯Â¯":2055,"Ã¯Äı":2056,"Â´Â¯Â¯Â¯Â±Â¯":2057,"Ã·Â·Â¯Â¯":2058,"ĠÂ¯Â¿Â´Â¯Â¯Â·Â¯Â¯":2059,"Â¯Â¯Â±Â¯Â¯Â¯Â¯":2060,"Â±Â¿Â¯":2061,"Ã¿Ãĥ":2062,"Â¯Â¯Â¯Â¯Â±Â¯Â¯Â¯":2063,"Å¯ÃĻ":2064,"ĠÂ¯Â¯Â¯Â±Â¿Â±Â¯Â¯":2065,"Â¯Â±Â·Â¯Â¯":2066,"ĠÂ¯Â¯Â¯Â¯Â·Â¯Â±Â¯":2067,"ĠÂ¯Â±Â°Â¯Â¯Â¯Â°Â¯":2068,"ĠÂ¯Â¿Â°Â¯Â¯ÃĹÂ¯Â¯":2069,"ÃıÃŁ":2070,"Â¯Â¿Â±Â¯Â¯Â¯":2071,"Ã¿Âµ":2072,"ĠÂ¯Â¯Ã·Â±Â¯Â°Â¯Â¯":2073,"Ä¯ÅĻ":2074,"ĠÂ¯Â±Â·Â¯":2075,"ĠÂ¯Â·Â¯Â¯Â¿":2076,"ĠÂ¯Â¿ÃĹÂ¯":2077,"Â°Â¯Â¯Â¯Â·Â¯":2078,"ÃĢÃ¯":2079,"ĠÂ¯Â¿Â·Â¯Ã·Â¯Â¯Â¯":2080,"ĠÂ·Â¯Â¯Â¯Â¯Â¯":2081,"ĠÂ¯Â¯ÃĹÂ¯Â±Â°Â¯Â¯":2082,"Ä¯Âº":2083,"ĠÂ¯Â¯Â·Â±Â¯Â·Â¯Â¯":2084,"ĠÂ¯Â¯Ã·Â¯Â¸Â¯Â¯Â¯":2085,"Ã·Â¯Â¯Â¯Â¯Â¯Â¯":2086,"Â´Â¯Â¯Â¯Â°Â¯":2087,"Â¯Â¯Â¯Â¯Â¸Â¯":2088,"Â¿Â¯Â¯Â±Â¯Â¯Â¯":2089,"Â°Â·Â¯":2090,"ĠÂ¯Â¯Â¯Â¯Â¯Â¯Â»Â¯":2091,"ĠÂ¯Â¿Â´":2092,"ĠÂ¯Ã·Â¯Â¯Â¯Â°Â¯Â¯":2093,"Ã¯ÅĹ":2094,"ĠÂ¯Â·Â·":2095,"ĠÂ¯ÃĹÂ°Â¯Â¯Â·Â¯Â¯":2096,"Â±Â¿Â¯Â¯":2097,"ĠÂ¯Â¯Â¯Â¸Â¯Â°Â¯Â¯":2098,"ÃĳÃ¯":2099,"ĠÂ¯ÃĹÂ´Â¯Â¯Â¯Â¯Â¯":2100,"Â±Â¯Â¿Â°Â¯Â¯":2101,"Â¸Â¯Â·":2102,"Ä¯Ã¯Ã¯":2103,"ÃģÃ¯":2104,"Â¯Â¯Â´Â°Â¯":2105,"ĠÂ¯Â±Â°Â¯Â¯Â±Â°Â¯":2106,"ĠÂ¯Â¯ÃĹÂ°Â¯ÃĹÂ¯Â¯":2107,"ĠÂ¯Â·Â¯Â¯Â¿Â±Â¯Â¯":2108,"ĠÂ¯Â¯ÃĹÂ¯Â´Â¯Â¯Â¯":2109,"Â¿Â·Â¯Â¿Â¯Â¯Â¯":2110,"ÃĹÂ¸Â¯":2111,"Â·Â¯Â¿Â·Â¯Â¯":2112,"ĠÂ¯ÃĹÂ¯Â¯Â¯Â·Â¯Â¯":2113,"Â°Â·Â±Â¯Â¯":2114,"Ä±Ãģ":2115,"ĠÂ¯Â¯Â¯Â°Â¯Â¯Â¿Â¯":2116,"ĠÂ¯Â¯Â¯Â¯Â¯Â¿Â´Â¯":2117,"Å¸":2118,"ĠÂ¯Â·Â¯Â¯ÃĹ":2119,"Å·Âµ":2120,"Â¿Â¯Â¯Â¯Â·Â¯":2121,"Â¾":2122,"ĠÂ¯Â¯Â·Â°Â¯Â¯Â°Â¯":2123,"ÃĳÃı":2124,"Â¿Â¯Â·Â±Â¯Â¯":2125,"Â¯Â¿Â¿Â¯":2126,"Ã¿ÃĢ":2127,"ĠÂ¿Â¯Â¯Â¯Â¯Â·Â¯Â¯":2128,"Â°Â¿Â¯":2129,"Ä¯Ãĭ":2130,"ĠÂ¯Â¿Â·Â¯Â¯Â´Â¯Â¯":2131,"ĠÂ¯Â¯Â¯Â¿Â¯Â¿Â¯Â¯":2132,"Â±Â¯Â¸Â¯Â¯Â¯":2133,"ÅŁÃģ":2134,"ÃıÃĤ":2135,"ĠÂ¯ÃĹÂ¯Â¯Â¯Â±Â¯Â¯":2136,"Â¯Â¯Â¯Â¿Â±Â¯Â¯":2137,"ĠÂ¯Â°Â¯Â¯Â·":2138,"ĠÂ¯Â¯Â±Â¯Â¯Â¿Â±Â¯":2139,"Â»Â°Â¯Â¯":2140,"Â¯Â±Â¿Â¯Â¯":2141,"Â¯Â¯Â¯Â±Â°Â¯Â¯":2142,"ĠÂ¯Â¯Â±Â¯Â±Â´Â¯Â¯":2143,"ÃıÄ¯Ã¯":2144,"Â¯Â¿Â°Â¯":2145,"ĠÂ¯Ã·Â°Â¯Â¯Â°Â¯Â¯":2146,"Â°Â¿Â¸Â¯Â¯":2147,"Â·Â¿Â¯Â¯Â¯":2148,"Ã¯ÃĤ":2149,"ÃıÅĥ":2150,"Ä¯Å¿":2151,"Â±Â¯Â¿Â±Â¯":2152,"ĠÂ¯Â¯Â°Â¯Â¯Â°Â°Â¯":2153,"ĠÂ¿Â·Â¯Â¯Â·Â¯Â¯Â¯":2154,"Â¿Â¯Â¯Â·Â¯Â¯Â¯":2155,"ĠÂ¯Â¿Â·Â¯Â±Â°Â¯Â¯":2156,"ĠÂ¯Â¯Â´Â¯Â¯ÃĹÂ¯Â¯":2157,"ĠÂ¯Â¿Â°Â¯Â¯Â¿Â¯Â¯":2158,"Â¯Â¯Ã·Â±Â¯Â¯":2159,"ĠÂ¯Â°Â¯Â¯Â·Â°Â¯Â¯":2160,"ĠÂ±Â±Â¯Â¯Â¯Â¯Â¯Â¯":2161,"Â°ÃĹÂ±Â¯Â¯":2162,"ĠÂ¯Â°Â°Â¯Â¯Â¿Â¯Â¯":2163,"ĠÂ¯Â¿Â·Â¯Â¯Â¯Â±Â¯":2164,"Â¯Â¯Â¯Â¯ÃĹÂ¯Â¯":2165,"ĠÂ¯Â¿Â¯Â¿Â¯Â¯Â¯Â¯":2166,"ĠÂ·Â·Â¯":2167,"Â·Â¯Â¯Â±Â°Â¯":2168,"ĠÂ¯Â¯Â¿Â¯Â¯Â¿Â°Â¯":2169,"ĠÂ¯Â¯Â´Â¯Â·":2170,"ĠÂ¿Â¯Â¯Â¯Â¿Â¯Â¯Â¯":2171,"Â·Â¯Â¸Â¯Â¯Â¯":2172,"ĠÂ¯Â¯ÃĹÂ±Â¿Â·Â¯Â¯":2173,"ĠÂ¯Â¯Ã·Â°Â¯Â¯":2174,"ĠÂ¯Â±Â¯Â¯Ã·Â¯Â¯Â¯":2175,"ĠÂ¯ÃĹÂ°Â¯Â¯Â°Â¯Â¯":2176,"Ã±Ä¯":2177,"ĠÂ¯Â±Â°Â¯Â°Â°Â¯Â¯":2178,"Â°Â¿Â¯Â¯":2179,"Â±Â¯Â¯Â¿Â±Â¯":2180,"ÃģÃı":2181,"Â±Â¯Â¯Â¿Â°Â¯":2182,"Ã±Ãģ":2183,"ĠÃ¯ÃıÃ¯":2184,"ĠÂ¯Ã·Â´Â¯Â¯Â¯Â¯Â¯":2185,"ÃıÄĥ":2186,"ĠÂ¯Â¯Â¯Â¯Â¿Â¯Â±Â¯":2187,"Â¿Â¯ÃĹÂ°Â¯Â¯":2188,"ĠÂ¯Â¿Â·Â¯Â¿Â±Â¯Â¯":2189,"ĠÂ¯Â¯ÃĹÂ°Â¯Â¯":2190,"ĠÂ¯Â¯Â¯Â±Â¯Â·":2191,"ĠÂ¯Â¯Â¯Â¯Â¯Â±Â·Â¯":2192,"Â¯Â´":2193,"ĠÂ¯Â·Â¯Â¿Â¯Â¯Â¯Â¯":2194,"ĠÂ¯Ã·Â´Â¯":2195,"ĠÂ¯Â±Â¯Â¯Â¯Â¸Â¯Â¯":2196,"Ä³Ãĥ":2197,"Â´Â¯ÃĹÂ¯Â¯":2198,"ĠÂ¯Â¯Â°Â¿Â¯Â¯Â¯Â¯":2199,"ĠÂ¯Â¯Â¿Â±Â¯Â¯Â±Â¯":2200,"ĠÂ¯Â¯Â°Â¯Â¯Â»Â¯Â¯":2201,"Ä±Ãĥ":2202,"ĠÂ¯Â¯Â¯Â¯Â»Â±Â¯Â¯":2203,"ĠÂ¯Â¯Â±Â°Â¯Â¯Â°Â¯":2204,"ĠÂ¯Â°Â¯Â¯Â¿Â±Â¯Â¯":2205,"ĠÂ¯ÃĹÂ±Â¯":2206,"Â¶Â¯Â¯Â¯Â¯":2207,"ĠÂ¯Â¯ÃĹÂ¯Â·":2208,"ÃĹÂ¯Â¯Â·Â¯Â¯":2209,"ĠÂ¯Â¯Â¯Â°Â¯Â·Â°Â¯":2210,"Â±Â¯Â¯Ã·":2211,"ÅĹÃ¯":2212,"Â±Â¿Â¸Â¯Â¯":2213,"Â¿Â¯Â¯Â¿Â±Â¯":2214,"ĠÂ¯Â¯Â»Â¯Â±Â¯Â¯Â¯":2215,"ĠÂ¯Â¿Â°Â¯Â±Â¯Â¯Â¯":2216,"Â¯Â¯ÃĹÂ±Â¯":2217,"Â¿Â¯Â¯Â¯Â±Â°Â¯":2218,"ÃĹÂ¯Â¯Â¯Â¯Â¯Â¯":2219,"Â¯Â¯Â±Â±Â¯Â¯":2220,"ĠÂ¯Â¯Â´Â¯Â¸Â¯Â¯Â¯":2221,"ĠÂ¯Â¯Â¸Â¯Â¯Â´Â¯Â¯":2222,"ÅıÃĻ":2223,"ĠÃĳ":2224,"ĠÂ¯Â±Â¯Â¯Â¯Â¯Â·Â¯":2225,"Ä¯Ä¯Ã¯":2226,"ĠÂ¯Â¯Â¯Â¯Â¯Â·Â¸Â¯":2227,"ĠÂ¯ÃĹÂ°Â¯Â¯Â¿Â¯Â¯":2228,"Â°Ã·":2229,"ĠÂ¯Â±Â¯Â¯Â¯Â±Â°Â¯":2230,"ĠÂ¿Â¯Â¯Â¯Â¯Â¿Â¯Â¯":2231,"Â·Â·":2232,"ĠÂ¯Â¯Â¯Â°Â·Â°Â¯Â¯":2233,"ĠÂ¯Â¯Â¿Â¿Â¯Â¯Â¯Â¯":2234,"ĠÂ±Â°Â¯Â¯Â¯":2235,"ĠÂ°Â¯Â¯":2236,"ĠÂ¯Â¯ÃĹÂ¯Â¯Â¯Â±Â¯":2237,"ÃĹÂ·Â¯":2238,"ĠÂ¯Â°Â°Â¯Â¯Â·Â¯Â¯":2239,"Â¿Â´Â¯Â¯":2240,"ĠÂ¯Â¯Â·Â¿Â¯Â¯Â¯Â¯":2241,"ĠÄ¯Äĥ":2242,"Ã°Ä¯":2243,"Â±Â¯Â¯Â¿":2244,"ĠÂ¯Â·Â¿Â¯Â·Â¯Â¯Â¯":2245,"ĠÂ¯Â¯Â¯Â¯Ã·Â·Â¯Â¯":2246,"Â±Â¯Â¯Â¯Â¿Â¯":2247,"ÅıÃħ":2248,"ĠÃŁ":2249,"ĠÂ¯Â¯ÃĹÂ°Â¿Â±Â¯Â¯":2250,"Â¯Â°Â¿Â¯Â¯Â¯":2251,"ĠÂ¯Â¯Â°Â¯Â¯Â¿Â·Â¯":2252,"ĠÂ¯Â±Â±Â¯Â¯Â°Â¯Â¯":2253,"ĠÂ¯Â¯Â´Â¯Â±Â°Â¯Â¯":2254,"ĠÂ¯Â¯ÃĹÂ¯Â¯Â±Â°Â¯":2255,"Â¯Â°Â±Â¯Â¯":2256,"ĠÂ¿Â¯Â¯Â¯Â·Â¯Â¯Â¯":2257,"Ã³Ä¯":2258,"Â¯Â¯Ã·Â´Â¯":2259,"ĠÂ»":2260,"Â¯Â¯Â¶Â¯Â¯":2261,"Â»Â±Â¯Â¯":2262,"ĠÂ¯Â¯Â±Â°Â¯Â·":2263,"Â°Â¯ÃĹÂ¯Â¯Â¯":2264,"ÃĹÂ¯Â¯Â°Â¯Â¯":2265,"ĠÄ¯Åı":2266,"ĠÂ¯Â°Â°Â¯Â·":2267,"Â¯Â¯Â¯ÃĹÂ´Â¯":2268,"ÅıÃĲ":2269,"ÃĹÂ¯Â±Â¯Â¯Â¯":2270,"Ã¯ÃıÃı":2271,"ĠÂ±Â±Â¯Â¯":2272,"Ä¯Ã»":2273,"ĠÂ¯Â¯Â¯Â·Â°Â¯Â¯Â¯":2274,"Â¯Â¯Â¿Â¿Â¯Â¯":2275,"ĠÂ¯Â¯Â±Â¯Â·Â±Â¯Â¯":2276,"ĠÂ¿Â·Â¯Â¯Â¯Â¯":2277,"ĠÂ¯Â¿Â°Â¯Â¯Â·Â°Â¯":2278,"Å¯ÃĢ":2279,"ÃıÄ°Ãģ":2280,"Ä¯Äī":2281,"ĠÂ¯Â±Â¯Â¯Â¯Â·":2282,"Â¯Â»Â¯Â¯":2283,"ÃıÃ¸":2284,"ÃĳÃĦ":2285,"Â°ÃĹÂ°Â¯Â¯":2286,"ĠÂ¯Â¯ÃĹÂ¯ÃĹÂ¯Â¯Â¯":2287,"Â¯Ã·Â·Â¯Â¯":2288,"Ä·Ã¿":2289,"Â°Â¯Â¯Ã·Â¯Â¯":2290,"ĠÂ¯Â¯Ã·Â¸Â¯Â¯Â¯Â¯":2291,"Â°Â¯Â·Â°Â¯Â¯":2292,"Â°Â¯Â°Â°Â¯":2293,"ĠÂ¯Â¯Â¯Â¯Â¿Â±Â°Â¯":2294,"ĠÂ¯Â¯Ã·Â°Â¿":2295,"Ã¿Ä±Ãĥ":2296,"Ã½":2297,"ĠÂ¯ÃĹÂ¯":2298,"ĠÂ¯Â¯Â·Â°Â¯Â¯":2299,"ÄıÃģ":2300,"Â±Â¯Â±Â±Â¯":2301,"ĠÂ¯Â¯Â·Â°Â¯Â¯Â±Â¯":2302,"Ä³Ãģ":2303,"Â¿Â¯Â·Â´Â¯Â¯":2304,"ĠÂ¯Â°Â¯Â¯Â¿":2305,"ĠÂ¯Â¯Ã·Â°Â·Â¯Â¯Â¯":2306,"ĠÂ¯Â·Â¯Â°Â¯Â¯Â¯Â¯":2307,"ĠÂ¯Â¯ÃĹÂ¸":2308,"Â¿Â¯Â°Â¯Â¯":2309,"Â¯Â¿Â°Â¯Â¯Â¯":2310,"Â¯Â¯Â¯Ã·Â´Â¯":2311,"Â±ÃĹ":2312,"ĠÄ¯Åĵ":2313,"ĠÂ¯Â±Â°Â¯Â¸Â¯Â¯Â¯":2314,"Ä¯Ã£":2315,"Â¿Â¯Â»Â¯Â¯Â¯":2316,"ĠÂ·Â¯Â¯Â¯Â¯Â°Â¯Â¯":2317,"Â¯Â¯Â·Â·Â¯Â¯":2318,"Ã·Â¯Â¿Â¯Â¯Â¯":2319,"Â¿Â¯Â¯Â¿":2320,"ĠÂ¯Â¯Ã·Â¸Â¯":2321,"ĠÂ¯Â¯Â¯Â¯Â¯Â°Â·Â¯":2322,"ÂºÃ¯":2323,"ĠÂ¯Â¿Â¯Â±Â¯Â¯Â¯Â¯":2324,"ĠÂ¯Â¯Ã·Â±Â¯Â¿Â¯Â¯":2325,"Â¿Â¯ÃĹ":2326,"ĠÂ¯Â¯Â·Â¸":2327,"ĠÂ¯Â¯Â¯Â¯Â¿ÃĹÂ¯Â¯":2328,"ĠÂ¯Â°Â±Â¯Â¯":2329,"ÂµÄ¯":2330,"ĠÃĩ":2331,"ĠÄ¯Ã°":2332,"ĠÂ¯Â¯Â¿Â·Â¯Â°Â¯Â¯":2333,"Â¸Â¯Â¯Â¯Â¯Â¯Â¯":2334,"ĠÂ¯Â¯Â±Â¯Â¯Â±Â±Â¯":2335,"ĠÂ¯Â±Â±Â¯Â¯Â¿Â¯Â¯":2336,"Å¤":2337,"ĠÂ¯Â·Â¯Â¯Ã·Â°Â¯Â¯":2338,"Ã°Ãģ":2339,"ĠÂ¯Â°Â¯Â¯Â¿Â·Â¯Â¯":2340,"ĠÂ¯Ã·Â°Â¯Â¯Â±Â¯Â¯":2341,"ĠÂ¯Â°Â¯Â¯Â¯Â¯Â·Â¯":2342,"Â¯Â¯Â¯Â¯Â·":2343,"ĠÂ¯Â±Â°Â¯Â¯Â·":2344,"Â·Â¯Â¯Â·":2345,"ĠÂ¯Â¯Â¿Â°Â¯Â¯Â°Â¯":2346,"ĠÂ¯Â¯Â·Â¯Ã·":2347,"ĠÂ¯Â¯Ã·Â°Â¯Â·":2348,"ĠÂ¯Â»Â¯Â¯":2349,"ĠÂ¯Â·Â¯Â¯Â¯Â·":2350,"ĠÂ¯Â¯Â¯Â¯Â¯ÃĹÂ´Â¯":2351,"ĠÂ¯Â¯Â¸Â¯Â¯Â¯":2352,"ĠÂ¯Â±Â¯Â¯Â¿":2353,"Â¯Â¯Â´Â¯":2354,"Â±Â±":2355,"ĠÂ¯Â±Â¿Â¯":2356,"Ã°Ã¯":2357,"ĠÂ¯Â¿Â·Â¯Â´Â¯Â¯Â¯":2358,"ÃıÄ°Ãĥ":2359,"Â¿Â¯Â¯Â¯Â¿Â¯Â¯":2360,"ĠÂ¯Â¯Ã·Â°Â¿Â±Â¯Â¯":2361,"ĠÂ¯Â¿Â±Â¯Â¯Â¯Â°Â¯":2362,"ĠÂ¯Â¯Â¯Ã·Â¯Â¯Â¯Â¯":2363,"Â°Â¯Â¯Â·Â°Â¯":2364,"ĠÂ¯Â¯Â·Â¯Â¯Â¿Â·Â¯":2365,"ÄıÃĲ":2366,"ĠÂ¯Â¯Â±Â·":2367,"ĠÂ¯Â·Â¿Â¯Â¯":2368,"ĠÂ¯Â¯Â·Â¯Â¯ÃĹÂ°Â¯":2369,"ĠÂ¯Â·Â¸Â¯Â¯Â¯Â¯Â¯":2370,"Â¯Â»Â°Â¯Â¯":2371,"ĠÂ¯Â¯Â¯Â¯Â·Â¸Â¯Â¯":2372,"ĠÂ¯Â·Â¯Â¯Â¸Â¯Â¯Â¯":2373,"Â¯Â¯Â¯Â¯Â°":2374,"Â±Â·Â°Â¯Â¯":2375,"ĠÄ¯Äģ":2376,"Â¯Â°Â·Â¯Â¯":2377,"ÃıÃµ":2378,"Â·Â¯Â±Â°Â¯Â¯":2379,"Â¯Â¯Â¸Â°Â¯":2380,"ĠÃ¯Ã¹":2381,"Ã¯Ä»":2382,"Å¯Ä¯":2383,"Ä¿Ä±Ãģ":2384,"ÃıÅĵ":2385,"Â¿Â´Â¯":2386,"Â°Â¯Â¸Â¯Â¯Â¯":2387,"ĠÂ¯Â¯Â¿Â¯Â±":2388,"Ä¯Ã¸":2389,"ĠÂ¯Â·Â±Â¯Â¯Â±Â¯Â¯":2390,"ĠÂ¯Â¯Â±Â¯Â¯Â»Â¯Â¯":2391,"ĠÂ¯Â¯Â¿Â¯Â¯Â·Â°Â¯":2392,"Â²Â³":2393,"ĠÂ¯Â¯Â¯Â¯Â¯Ã·Â´Â¯":2394,"ĠÂ¯Â¯Â¶Â¯":2395,"ĠÂ¯Â·Â·Â¯Â¿Â¯Â¯Â¯":2396,"ĠÂ¯Â¯Â·Â¯Â¯Â±Â±Â¯":2397,"ĠÂ¯Â±Â¯Â¯Â¸Â¯Â¯Â¯":2398,"Ã¯Ã²":2399,"Ä¯Äĵ":2400,"ĠÂ·Â±Â¯Â¯":2401,"Æĵ":2402,"ÃĲÃ¯":2403,"ĠÂ¯Â¯Â¯Â¯Â°Â¯Â°Â¯":2404,"Ä¯Äµ":2405,"Â°Â¯Â·Â´Â¯Â¯":2406,"ĠÂ¯Â·Â±Â¯Â¯Â¿Â¯Â¯":2407,"ÃĵÃı":2408,"ĠÂ¯Â¯Â·Â¯Â¯Â»Â¯Â¯":2409,"ĠÂ¯Â¯Ã·Â¯Â¯Â¯Â°Â¯":2410,"Â¯Â¯Â¿Â¸Â¯":2411,"Â¯Â¯Â¸Â°Â¯Â¯":2412,"Â±Â¯Â¿Â¸Â¯Â¯":2413,"Â·Â¯Â¿Â°Â¯Â¯":2414,"ĠÂ¯Â·Â°Â¯Â¯Â¿Â¯Â¯":2415,"Ä³Ã±":2416,"ĠÂ¯Â¯Â°Â°Â¯Â°Â¯Â¯":2417,"ĠÂ¯Â¿Â¿":2418,"Ä¿Ãĵ":2419,"ĠÂ¯Â¯Â±Â¯Â¯Â°Â°Â¯":2420,"Â¸Â¯Â¯Â·Â¯":2421,"ĠÂ¯Â¯Â·Â±Â¯Â¿Â¯Â¯":2422,"Ä°Ã¿":2423,"Â·Â¯Â¸Â¯Â¯":2424,"Â¸Â¯Â¯Â¿Â¯Â¯":2425,"ĠÂ¯Â¯Â·Â¯Â¯Â°Â°Â¯":2426,"ĠÄ¯Ä¯Ã¯":2427,"ĠÂ¯Â·Â¯Â¯Â¯Â¸Â¯Â¯":2428,"Â°Â¯Â±Â°Â¯Â¯":2429,"ĠÂ¯Â¯Â°Â¯Â¯Â¿Â±Â¯":2430,"ĠÂ¯Â¯Â»Â¯Â¯Â°Â¯Â¯":2431,"Â¯Â¯Â¯Â¿Â¸Â¯":2432,"Â·Â·Â¯Â¯":2433,"ĠÂ¯Â¯Â¯Â¯Â¯Â¯Â¯Â·":2434,"Ã¹Ãı":2435,"ĠÂ¯Â¿Â±Â¯Â°Â¯Â¯Â¯":2436,"ĠÂ¯Â¯Â±Â¯ÃĹÂ°Â¯Â¯":2437,"Â¯Â»Â±Â¯Â¯":2438,"Ã¯Ã¡":2439,"ĠÂ¯Â¯Â¯Â¯Â¯Â¿Â¸Â¯":2440,"Ä¯ÄŁ":2441,"ĠÂ¯Â¯Â¿Â¯Â¯Â°Â°Â¯":2442,"Â¯Â°Â¿Â¯Â¯":2443,"ÄıÃ¯":2444,"Â¯Â¯Â¿Â¯Â¯Â¯Â¯":2445,"ĠÂ¯Â±Â±Â¯Â¯Â±Â°Â¯":2446,"ÃĹÂ¯Â·Â¯Â¯Â¯":2447,"ĠÂ¯Â±Â°Â¯Â¿":2448,"Ä¿Ä±Ãĥ":2449,"ĠÂ¯Â°Â°Â¯Â¯Â±Â¯Â¯":2450,"Â¯Â°Â¯Â±Â¯Â¯":2451,"Ã¿Âº":2452,"Ä¯Ä²":2453,"ĠÂ¯Â¯Â°Â·Â¯Â¯Â¯Â¯":2454,"Â¸Â¯Â±Â¯Â¯Â¯":2455,"ĠÂ¯Â¿Â¯Â¯Ã·":2456,"Â¯Â¿Â»Â¯Â¯":2457,"ĠÂ¯Â¯Â±Â°Â¯Â¯":2458,"ĠÂ¯Â°Â¯Â¯Â¯Â±Â°Â¯":2459,"Â¯Â¯Â¯Â·Â¸Â¯":2460,"ĠÂ¯Â¯Â¯Â¯Â¯Â¸Â°Â¯":2461,"ĠÂ¯Â¯Â¯Â±Â·Â°Â¯Â¯":2462,"ĠÂ²":2463,"Ä±Ä¯":2464,"ĠÃıÃĳ":2465,"Â¯Â¯Â¯Ã·Â±Â¯":2466,"Â¯Â¸":2467,"ÅĥÃ¹":2468,"ĠÂ¯Â±Â±Â¯Â¿Â·Â¯Â¯":2469,"Ã¿Ä±Ãģ":2470,"ĠÄ³":2471,"ÅĥÃ¯":2472,"Â¯Â¯Â¯Â±":2473,"Â·Â¯Â¯Â¯Â°Â¯Â¯":2474,"Â±Â¯Â¯ÃĹ":2475,"Ä°Ã¹":2476,"Å¯Ãĥ":2477,"ĠÃ¯Ã±":2478,"ĠÃĢ":2479,"Â¯Â¯Ã·Â±Â¯":2480,"ĠÂ¯Â¯Â¯Â¯Â¯Â±Â¿Â¯":2481,"Ã¯ÃıÃ¯":2482,"ÃĳÃĥ":2483,"Â¯Â´Â¯":2484,"Ä¯Ä´":2485,"ÅıÃķ":2486,"Â¿Â¯Ã·Â°Â¯Â¯":2487,"ĠÂ¯Â¯Â±Â¿":2488,"ÅıÃĶ":2489,"ĠÂ¯Â¯Â¿Â°Â¿Â°Â¯Â¯":2490,"Ä¯Åī":2491,"Â°Â¯Ã·":2492,"Â±Â¯ÃĹ":2493,"Ä¯Ã¯Ä¯":2494,"ĠÂ¯Â¯Â¯Â°Â¯Â¿Â·Â¯":2495,"ĠÂ¯Â¯Â¸Â¯Â±Â´Â¯Â¯":2496,"ÆıÃı":2497,"ĠÂ¯Â¯Â¸Â¯Â¯Â¸Â¯Â¯":2498,"Ã¯Åģ":2499,"ĠÂ¯Â¯Â¿Â±Â¯Â¯":2500,"Â´Â¿Â¯Â¯Â¯":2501,"ĠÂ¯Â¯Â¯Â±Â¯Â¿Â·Â¯":2502,"ÃıÃģÄ¯":2503,"Ä±Ãı":2504,"ĠÂ·Â±Â¯Â¯Â¯Â¯Â¯Â¯":2505,"Â¯ÃĹÂ¿Â¯Â¯":2506,"ĠÂ·Â¯Â¯Â¯Â¯Â±Â¯Â¯":2507,"ÃĵÃģ":2508,"Â¸Â¯Â¯ÃĹÂ°Â¯":2509,"ĠÂ¯Â°Â·Â¯":2510,"ĠÂ¯ÃĹÂ±Â¯Â¯Â¿Â¯Â¯":2511,"ĠÂ¯Â¯Â±Â°Â¯ÃĹÂ¯Â¯":2512,"Â¯Â¯Â¯Â¯Â¯Â°Â¯Â¯":2513,"Ä·Ã³":2514,"ĠÂ·Â¯Â¯Â¯Â¯Â·Â¯Â¯":2515,"ÃıÃĪ":2516,"Ã¯Ã¯Ãı":2517,"ĠÃ¯Åı":2518,"ĠÂ¯Â¿Â·Â¯Â·Â°Â¯Â¯":2519,"ĠÂ¯Â¯Â¿Â±Â·Â¯Â¯Â¯":2520,"ĠÂ¯Â°Â°Â¯Â¿Â¯Â¯Â¯":2521,"ĠÂ¿Â·Â¯Â¿Â·Â¯Â¯Â¯":2522,"ÅĨ":2523,"Â°Â¯Â·Â°Â¯":2524,"Â°Â¯Â¯Â¯Â¯Â¯Â¯Â¯":2525,"ĠÂ¯Â¯ÃĹÂ¯Â¿":2526,"ĠÂ¯Â±Â´Â¯Â¯Â¯Â¯Â¯":2527,"ĠÂ¯Â¯ÃĹÂ±Â¯Â¯Â°Â¯":2528,"ĠÃ¯Ãģ":2529,"ĠÂ¯Â¿Â·Â¯Ã·":2530,"ĠÂ¯Â¯Â¯Â¯Â±Â¯Â±Â¯":2531,"Ä¯ÂµÃ¯":2532,"ÄĤ":2533,"ĠÂ¿Â°Â¯Â¯Â¯Â¯Â¯Â¯":2534,"ĠÂ»Â¯Â¯Â¯Â¯Â¯Â¯Â¯":2535,"ĠÂ¯Â·Â¯Â±Â¯Â¯Â¯Â¯":2536,"Â±Â¯Â¯Â±Â±Â¯":2537,"ĠÂ¯Â¯Â¯Â¯Â¿Â·":2538,"ĠÂ¯Ã·Â¸Â¯":2539,"ĠÂ¯Â¯Â·Â¯Ã·Â±Â¯Â¯":2540,"Å¯ÃĶ":2541,"ĠÂ¯Â±Â¯Â¯Â¿Â°Â¯Â¯":2542,"ĠÂ¯Â¿Â°Â¯Â·Â¯Â¯Â¯":2543,"ĠÂ¯Â¯ÃĹÂ¸Â¯":2544,"Â¿Â¯Â±Â¯Â¯":2545,"Â¯Â·Â´Â¯":2546,"ĠÂ¯Â¯Â¯Â¯Â¯Â·Â¿Â¯":2547,"ÃıÅĹ":2548,"ĠÂ¯Â¯Â±Â¯Â¯Â·Â±Â¯":2549,"ĠÂ¯Â¯Â¿Â·Â¯Â±Â¯Â¯":2550,"ĠÃıÃĵ":2551,"Â¯Â¯Â¯Â¯Â¯Â±Â¯Â¯":2552,"Ã·Â¸Â¯":2553,"ĠÃ¯ÃĻ":2554,"ÂµÃı":2555,"Ã±Ãĵ":2556,"ĠÂ¯Â¿Â±Â¯Â¿Â±Â¯Â¯":2557,"Äł":2558,"Ä¯ÅĽ":2559,"ĠÂ¯Â¯Â¯Â»Â¯":2560,"ĠÂ¯ÃĹÂ°Â¯Â¯Â¯":2561,"Ã·Â±Â¯Â¯Â¯Â¯":2562,"ĠÂ¯Â¯Â±Â¯Â¯Â¯Â´Â¯":2563,"ĠÂ¯Â¯ÃĹÂ¯Â¯Â¸Â¯Â¯":2564,"ĠÂ¯Â¯Â±Â¯Â¯ÃĹÂ°Â¯":2565,"ĠÂ¯Â¯ÃĹÂ°Â¯Â¯Â±Â¯":2566,"Â±Ã·Â¯Â¯Â¯":2567,"ĠÂ¯Â¿Â¯Â°":2568,"ĠÂ¯Â¯ÃĹÂ±Â¯Â¯Â±Â¯":2569,"Â¯Â¯Â¯Â´Â¯Â¯Â¯":2570,"ĠÂ¯Â¯Â°Â¯Â±":2571,"ĠÃ¯Ä³":2572,"ĠÂ¯Â¯Â¯Â´Â¯Â±Â°Â¯":2573,"Â´Â¯Â¿Â¯Â¯Â¯":2574,"Â¿Â¯Â·Â¯Â¯":2575,"ĠÂ¯Â¯Â¯Â¯Â¶Â¯Â¯Â¯":2576,"Â±Â·Â´Â¯Â¯":2577,"ÃıÃĽ":2578,"Â°Â¯ÃĹ":2579,"ĠÂ¯Â¿Â¯Â·Â¯Â¯Â¯Â¯":2580,"ĠÂ¯Â¯ÃĹÂ¯Â·Â±Â¯Â¯":2581,"Â¿Â¯Â¿Â¯Â¯":2582,"Â»Â°Â¯":2583,"ĠÂ¿Â¯Â·Â¯Â¯Â¯Â¯Â¯":2584,"ĠÂ¯Â·Â±Â¯Â±Â¯Â¯Â¯":2585,"Ä¯Å£":2586,"Ã¯Ä¯Ã¯":2587,"Ã±ÃĲ":2588,"ĠÂ¯Â¯ÃĹÂ°Â¯Â·":2589,"ĠÂ¯Â·Â¯Â¯Â¯Â¯Â¿Â¯":2590,"Â¯ÃĹÂ°Â¯":2591,"ĠÂ¯Â¯Â¯Â¯Â¯Â°Â¿Â¯":2592,"Â¯Â¯Â·Â¯Â¯Â¯Â¯":2593,"Ã¯Å¯":2594,"ĠÂ¯Â¯Â°Â¯Â¯Â·Â±Â¯":2595,"ĠÂ¯Â¯Â»Â¯Â¯Â±Â¯Â¯":2596,"ĠÂ¯Â¯ÃĹÂ±Â¿Â°Â¯Â¯":2597,"ÃĲÃı":2598,"Ã¯Ã¤":2599,"ĠÂ¯Â¯Â¿Â¯Â°Â°Â¯Â¯":2600,"Â¯Â¿Â´Â¯Â¯Â¯":2601,"ĠÂ¯Â¯ÃĹÂ°Â¿":2602,"Â·Â·Â°Â¯Â¯":2603,"ĠÂ¯Â±Â°Â¯Ã·Â°Â¯Â¯":2604,"ĠÂ¯Â±Â¯Â°Â¯Â¯Â¯Â¯":2605,"ĠÂ¯Â¯Â¿Â±Â¯Â¯Â°Â¯":2606,"Ã·Â·Â¯":2607,"ĠÂ¯Â°Â±":2608,"Â¯Â¯ÃĹÂ´Â¯":2609,"Â·Â°Â¯Â±Â¯Â¯":2610,"ĠÂ¯Â·Â¯Â¯Â´Â¯Â¯Â¯":2611,"Â±Â¿Â´Â¯Â¯":2612,"ÅĵÃ¯":2613,"ĠÂ¯ÃĹÂ¯Â¯Â¿Â¯Â¯Â¯":2614,"Â¯Â°Â¯Â·Â¯Â¯":2615,"ĠÄ¯Ã¯Åĵ":2616,"ĠÂ¯Â¯Â¿Â±Â¿Â¯Â¯Â¯":2617,"Â¯Â¯Â°Â±Â¯":2618,"Ä³Âµ":2619,"Ã¿ÃĻ":2620,"ĠÂ¯Â¯ÃĹÂ¸Â¯Â¯Â¯Â¯":2621,"ĠÂ¯Â¯Â¯Â·Â·":2622,"Â±Â¯Ã·Â¯Â¯":2623,"ĠÂ¯Â¿Â±Â¯Â¯Ã·Â¯Â¯":2624,"ÃŁÃı":2625,"ĠÂ¯Â¯Â¯ÃĹÂ¯Â¯Â¯Â¯":2626,"Â¿Â¯Â¯ÃĹÂ¯Â¯":2627,"ĠÂ¯Â¯Â°Â¯Â¯ÃĹÂ°Â¯":2628,"ĠÂ¯Â¯Â·Â°Â¿":2629,"Ä¯Å¡":2630,"Â±Â¯Â¯ÃĹÂ°Â¯":2631,"Â·Â¯ÃĹÂ¯Â¯":2632,"ĠÂ¯Â¯Â¯Â°Â¯Â°Â°Â¯":2633,"ĠÂ¯Â¿Â¯Â¯Â·Â±Â¯Â¯":2634,"ĠÂ¯Â·Â°Â¯Â¯Â¯":2635,"ĠÂ¯Â¯Ã·Â±Â¯Â¯Â°Â¯":2636,"ĠÂ¯Â±Â°Â¯Â¯Â¸Â¯Â¯":2637,"Â¯Â¯Â¯Â°":2638,"ĠÂ¯Â±Â°Â¯Â¯ÃĹÂ¯Â¯":2639,"ĠÂ¯Â°Â¿Â¯":2640,"ĠÂ¯Â°Â°Â¯ÃĹÂ°Â¯Â¯":2641,"Â¯Â¯Â¯Â´Â°Â¯":2642,"ĠÂ¯Â¯Â¯Â¸Â¯Â¯Â°Â¯":2643,"ĠÂ¯Â¯Â·Â±Â¿Â¯Â¯Â¯":2644,"Â±Â¯Â¯Â¯Â°Â¯Â¯":2645,"Â¯Â¯Â·Â¿Â¯Â¯":2646,"ĠÂ¯Â¯Â±Â°Â·Â¯Â¯Â¯":2647,"ĠÂ¿Â·Â¯Â¯Â¯Â¿Â¯Â¯":2648,"ÃıÂºÃ¯":2649,"ĠÄ¯Ã¯Ãĵ":2650,"Ä¯Åħ":2651,"ÃıÅģ":2652,"ĠÂ¯Â¯Â±Â°Â¯Â±Â±Â¯":2653,"Â¯Â¯Â¯Â¯Â±":2654,"ĠÂ¯Â¿Â±Â¯Â¯Â¯":2655,"Ã±ÃĶ":2656,"ÃĢÃı":2657,"Â·Â¯Â¯Â´Â¯Â¯":2658,"Â±Â¯Â·Â°Â¯Â¯":2659,"Â±Â¯Â¯Â¯Â¯Â¯Â¯Â¯":2660,"ĠÄ¯Ä±":2661,"ĠÂ¯Â¯Â´Â¯Â·Â°Â¯Â¯":2662,"Ã¯Ãļ":2663,"Â¯Â¯Â¯Â¯Â¸Â¯Â¯":2664,"ĠÂ¯Â¯Â·Â¯Â·Â´Â¯Â¯":2665,"Ä¿Ã¹":2666,"ĠÂ¯Â¯Â¯Â·Â¯ÃĹÂ¯Â¯":2667,"ĠÂ¯Â¯Â°Â¯ÃĹÂ´Â¯Â¯":2668,"ĠÂ¯Â¯Ã·Â¯Â¿Â·Â¯Â¯":2669,"ĠÂ¯Â¯Â·Â°Â¿Â·Â¯Â¯":2670,"ĠÂ¯Â¯Â¯Â±Â¯Â°Â°Â¯":2671,"ĠÂ¯Â¯Â¯Â±Ã·Â¯Â¯Â¯":2672,"ĠÂ¯Â¯Â±Â¯ÃĹ":2673,"Â·Â¯Ã·Â¯Â¯Â¯":2674,"ÃĦÄ¯":2675,"ĠÂ¯Â¯Â·Â°Â¯Â±Â°Â¯":2676,"Ã¯Ãľ":2677,"Â¿Â¯Â¯Â¯Â¯Â°Â¯":2678,"ĠÂ¯Â¿Â·Â¯Â¯Ã·Â¯Â¯":2679,"ĠÂ¯Â¯Â»Â¯Â¯Â·Â¯Â¯":2680,"ÄĶ":2681,"ÄĥÃĻ":2682,"ĠÂ¯Â°Â¯Â°Â¯Â¯Â¯Â¯":2683,"ĠÂ·Â¯Â¯Â¯Â°Â¯Â¯Â¯":2684,"Ã¯ÄĹ":2685,"Â´Â¯Â¯Â·Â¯":2686,"ĠÂ¯Â¯Â±Â±Â¯Â·Â¯Â¯":2687,"ÆĦ":2688,"ĠÂ¯Â»Â¯Â¯Â¯":2689,"ĠÂ¯Â°Â¯Â¯Â´Â¯Â¯Â¯":2690,"Â·Â±Â¯Â¯Â¯Â¯":2691,"Â·Â¯Â¿Â·Â¯":2692,"Â¯ÃĹÂ·Â¯Â¯":2693,"Â±Â¯Â¯Â·Â´Â¯":2694,"ĠÂ¯Â±Â¯Â¯Â·Â´Â¯Â¯":2695,"ĠÂ¯Â¯Â¿Â°ÃĹÂ¯Â¯Â¯":2696,"Â°Â¯Â¿Â¸Â¯Â¯":2697,"Ä¿Ä¯Ãĥ":2698,"ĠÂ¯Â¯Â¿Â¯Â°":2699,"ĠÂ¯Â¯Â¿Â¯Â¯Â¿":2700,"ĠÂ¯Â¿Â¯Â¯Â¯ÃĹÂ°Â¯":2701,"ĠÂ¯Â·Â¯Â¯Â¯Â¿Â±Â¯":2702,"ÃĩÄ¯":2703,"ĠÂ¯Â¯Â¯Â·Â¯Â·":2704,"ĠÂ¯Â¯Â±Â¯Â¯Ã·Â°Â¯":2705,"Â¯Â·Â¸Â¯Â¯":2706,"ĠÃ¯ÃıÄģ":2707,"ĠÂ¯Â·Â¿":2708,"ĠÂ¯Â¯Â¯Â¯Â´Â±Â¯Â¯":2709,"Â±Â¯Â°":2710,"ĠÂ¯Â¯Â·Â°Â·Â¯Â¯Â¯":2711,"ĠÂ¯Â¯Â¯Â¯Â±Â¯Â°Â¯":2712,"Â¸Â±Â¯":2713,"ĠÂ¯Â¯ÃĹÂ±Â¯Â¯":2714,"Å¿Ãģ":2715,"Â´Â¯Â°Â¯Â¯Â¯":2716,"ĠÂ¯Â¯ÃĹÂ°Â·Â¯Â¯Â¯":2717,"ĠÂ¯Â±Â¯Â±Â¯Â¯Â¯Â¯":2718,"ĠÂ¯Â¯ÃĹÂ±Â¯Â±Â°Â¯":2719,"ÃĲÃģ":2720,"ĠÂ¯Â¯Â±Â¯Â°Â°Â¯Â¯":2721,"Â¿Â¯ÃĹÂ´Â¯Â¯":2722,"ĠÃıÃĲ":2723,"ĠÂ¯Â¯Â¯Â´Â¯Â¯Â±Â¯":2724,"ĠÅĹ":2725,"Â¯Â¯Â¯Â¸Â¯Â¯Â¯":2726,"ÃıÃĭ":2727,"Â±Â¯Â·Â´Â¯Â¯":2728,"Ä¿Ã³Ãģ":2729,"Â°Â¯Â°Â¯":2730,"ĠÂ¯Â·Â°Â¯Â·Â¯Â¯Â¯":2731,"ĠÂ¯Â¿Â°Â¯Â¯Â¯Â°Â¯":2732,"ĠÂ¯Â¯Â·Â¯Â¯Â·Â·Â¯":2733,"ĠÂ¯Â¯Â¯Â°Â¯Â±Â±Â¯":2734,"ĠÂ¯Ã·Â±Â¯":2735,"ĠÂ¯Â¯Â¯Â´Â¯Â´Â¯Â¯":2736,"ĠÂ¯Â¯Â¿Â±Â¯Â´Â¯Â¯":2737,"Â±Â±Â¯Â¯Â¯Â¯":2738,"Â¯Â¿Â¸Â¯Â¯Â¯":2739,"ĠÂ¯Â°Â°Â¯Â¯Â´Â¯Â¯":2740,"ÅıÄģ":2741,"Â´Â¿Â·Â¯Â¯":2742,"ĠÂ¯Â¯Â¿Â¯Â¯Â±Â±Â¯":2743,"ĠÂ¯Â¯Â¯Â°Â¯Â¿Â±Â¯":2744,"ĠÂ¯Â¿Â¯Â¯Â¸Â¯Â¯Â¯":2745,"Ä¯ÃĤ":2746,"ĠÂ¯Â¯Ã·Â°Â¯Â¯Â±Â¯":2747,"Â¯Â¯Â´":2748,"Ä¯Äħ":2749,"ĠÂ¯Â¯ÃĹÂ¯Â¯Â·":2750,"Å¯Ã³":2751,"ĠÂ¿Â·Â¯Â¯Â·":2752,"ĠÂ¯Â·Â°Â¯Â¿Â¯Â¯Â¯":2753,"ÃıÃ¯Ãı":2754,"ĠÂ¯Â¯Â·Â´Â¯Â·Â¯Â¯":2755,"ĠÂ¯Â¯Â¿Â¯Â°Â±Â¯Â¯":2756,"ÃĳÃĢ":2757,"Â¯Â¯Â¯ÃĹÂ±Â¯":2758,"ĠÂ¯Â¯Â±Â±Â¯Â±Â¯Â¯":2759,"ĠÂ¿Â·Â¯Â¯Â¯Â±Â¯Â¯":2760,"Â·Â¯Â¯ÃĹÂ¯Â¯":2761,"Ã·Â¯Â¯Â¯Â¯":2762,"Å¯Ä±":2763,"ĠÄ¯Ã¯Ä¯":2764,"Â°Â¯Ã·Â¯Â¯Â¯":2765,"ĠÂ¯Â¯Ã·Â¯Â±Â¯Â¯Â¯":2766,"ĠÂ¯Â°Â¯Â¯Â¯ÃĹÂ¯Â¯":2767,"ĠÂ¯Â·Â¯Â¯Â¯Â¿Â·Â¯":2768,"ĠÂ¯Â°Â°Â¯ÃĹÂ¯Â¯Â¯":2769,"ĠÂ¯Â¯Â¯Â¯Ã·Â¸Â¯Â¯":2770,"Ã¯ÂºÄ¯":2771,"Ã¯Åĳ":2772,"Â¿Â±Â¯Â¯Â¯Â¯Â¯":2773,"ÅĹÄĥ":2774,"Â±Â¯Â¿Â¿Â¯":2775,"Â°Ã·Â°Â¯Â¯":2776,"Â¿Â·Â¯Â¯Â¯Â¯":2777,"ĠÂ¯Â¿ÃĹ":2778,"ĠÂ¯Â·Â±Â¯Â¯Â°Â¯Â¯":2779,"ĠÂ¯Â¯Â¯Â·Â¯Â¯Â¿Â¯":2780,"ĠÂ¯Â¯Â¯Â¶Â¯Â¯Â¯Â¯":2781,"ĠÂ¯Â¯Â±Â¯Â»Â¯Â¯Â¯":2782,"ĠÂ¯Â¯Â¸Â°":2783,"ĠÂ¯Â¯Â¯Â¯Â´Â°Â¯Â¯":2784,"ĠÂ¯Â¯Â·Â¯Â¯Â·Â±Â¯":2785,"ĠÂ¯Â¯Â¿Â¯Â·Â¿Â¯Â¯":2786,"ĠÂ¿Â¿Â¯Â¯Â¯Â±Â¯Â¯":2787,"ĠÂ¯Â¿Â¯Â¯Ã·Â±Â¯Â¯":2788,"ĠÄ±":2789,"ĠÂ¯Â¯Â¿Â¿":2790,"Â¿Â¯Â°Â¯":2791,"ĠÂ¯Â±Â¯Â¯Â¯Â¯Â¿Â¯":2792,"ĠÂ¯Ã·Â°Â¯Â¯Â¿Â¯Â¯":2793,"ĠÂ¯Â¯Â¿Â°Â¯Â¯Â±Â¯":2794,"ĠÂ¯Â±Â±Â¯Â¯Â¯Â°Â¯":2795,"ĠÃ¯Ã¸":2796,"ĠÃıÃĥ":2797,"ĠÂ¯Â¯Â¿Â°Â·":2798,"ĠÂ¯Â¯Â±Â°Â·":2799,"ĠÂ¯Â±Â¯Â¿Â¯Â¯Â¯Â¯":2800,"Ã¯ÃĪ":2801,"Â¿Â¯Â¯Ã·":2802,"ÅĹÃĥ":2803,"ĠÂ¯Ã·Â¸Â¯Â¯":2804,"ĠÂ¯Â¯Â»Â¯Â¿Â¯Â¯Â¯":2805,"ĠÂ·Â¯Â±Â¯Â¯Â¯Â¯Â¯":2806,"Â°Â±":2807,"Â°Â¯Â¿Â±Â¯Â¯":2808,"ĠÂ¯Â¯Â¯Â·Â¿Â·Â¯Â¯":2809,"ĠÂ¯ÃĹÂ°Â¯Â¯Â¯Â¿Â¯":2810,"Â¯Â¯Â¯Â¶Â¯Â¯":2811,"Â°Â¯Â¿Â°Â¯Â¯":2812,"Ã¿Ãĺ":2813,"ĠÂ¯Â¿Â¯Â·":2814,"ÅĹÄ¯":2815,"ĠÂ¯Â·Â¯Â¯Â¿Â°Â¯Â¯":2816,"ĠÂ¿Â¿Â·Â¯Â¯Â¯Â¯Â¯":2817,"Â´Â¯Â¯Â¿Â¯":2818,"ĠÂ¯Â¯Â±Â¯Â¯Â¿":2819,"ĠÂ¯Â¯Â¯Â¯Â¯Â´Â±Â¯":2820,"ÃıÄı":2821,"ĠÂ¯Â¯Â¿Â°Â¯Â¯":2822,"ĠÄ¯ÅĹ":2823,"ĠÂ¯Â¿Â¯Â¯Â¯Â¿Â·Â¯":2824,"ĠÃ¯Ãĥ":2825,"ĠÂ¯Â¯Â¸Â¯Â¯Â¯Â°Â¯":2826,"ĠÂ¯Â¯Ã·Â°Â¸Â¯Â¯Â¯":2827,"Â·Â±Â¯Â¯Â¯":2828,"ÃıÅ¯":2829,"Â±Â¯Â·Â°Â¯":2830,"ÃĹÂ¯Â°Â¯Â¯Â¯":2831,"ĠÂ¯Â¯Â°Â¯Â¯Â¿":2832,"ĠÂ¯ÃĹÂ°Â¯Â¯Â´Â¯Â¯":2833,"Â¯Â¯Â¯Â±Â¯Â¯Â¯Â¯":2834,"Â¿Â¯Â¯Â±Â°Â¯Â¯":2835,"ĠÂ¯Â±Â¯Â¯ÃĹÂ´Â¯Â¯":2836,"ĠÂ¯Â¯Â¯Â¯Â·Â¯Â·Â¯":2837,"Ã¿Ä±Ãĵ":2838,"ĠÂ¯Â¯Â¿Â¸Â¯Â¿Â¯Â¯":2839,"ĠÂ¯Â°Â¯Â¯Â¯Â·":2840,"ĠÂ¯ÃĹÂ¯Â¯Â¯Â¯Â±Â¯":2841,"Â±Â¯Â·Â·Â¯":2842,"Ä³Ã¿":2843,"ÅĹÃı":2844,"ĠÂ¯Â·Â¯Â¯Â»Â¯Â¯Â¯":2845,"ĠÂ¯Â°Â°Â¯Â·Â°Â¯Â¯":2846,"Â¯Â¯Â¯Ã·Â°Â¯Â¯":2847,"Ä·Ã±":2848,"ĠÂ¯Â¯Â¯Â¯Â°Â¯Â±Â¯":2849,"ÃıÄ¹":2850,"ĠÂ¯Â¿Â·Â¯Ã·Â±Â¯Â¯":2851,"ĠÂ¯Â¯Â°Â±Â¯Â°Â¯Â¯":2852,"Ã¯ÅĶ":2853,"ĠÂ¯Â¯Â¯Â±Â±Â°Â¯Â¯":2854,"ĠÂ¯Ã·Â¯Â¯Â¯Â¿Â¯Â¯":2855,"ĠÂ¯Â¯Â¸Â¯Â±Â°Â¯Â¯":2856,"Â·Â¿":2857,"ÃĻÄ¯":2858,"Ä¯ÃıÄ¯":2859,"Â¯Â¯Â¸Â¯":2860,"Â´Â¯Â¯Â¯Â¯Â¯Â¯":2861,"ĠÂ¯Â°Â¯Â¯ÃĹÂ°Â¯Â¯":2862,"ĠÂ¯Â¿Â·Â¯Â¯ÃĹ":2863,"ĠÂ¯Â¯Â±Â°Â¿Â°Â¯Â¯":2864,"ĠÂ¯Â¯Â¸Â¯Â¯ÃĹÂ¯Â¯":2865,"ĠÂ¿Â¯Â¯Â¯Â¯Â¯Â±Â¯":2866,"ĠÃ¯ÃıÃ¿":2867,"ĠÂ¯Â¯Â·Â¯Â¯Â¯Â´Â¯":2868,"ĠÂ¯Ã·Â¯Â¯Â¯Â¸Â¯Â¯":2869,"ĠÂ¯Â±Â·":2870,"ĠÂ¯Â¯Â¯Â°ÃĹ":2871,"ĠÂ¯Â¯Â´Â¯Â¯Â·":2872,"ĠÂ¯Â¯Â¯Â¿Â´Â¯Â¯Â¯":2873,"Â¯Â¯Â¯Â·Â´Â¯Â¯":2874,"ĠÂ¿Â¯Â¯Â¯Â°Â¯Â¯Â¯":2875,"ĠÂ¯Â¯Â·Â¯Â±Â¿Â¯Â¯":2876,"ÅĮ":2877,"Â±Â¯Â¯Â·Â±Â¯":2878,"Â°Â¯Â±Â±Â¯":2879,"ÄıÄ¯":2880,"ĠÂ¯Â±Â°Â¯Â¿Â±Â¯Â¯":2881,"ĠÂ·Â¯Â¯Â¯Â¿Â¯Â¯Â¯":2882,"Â·Â¸Â¯":2883,"ÃıÃļ":2884,"Ã±ÃĻ":2885,"Ã³ÃĢ":2886,"ĠÂ¯ÃĹÂ¯Â¯Â·Â¯Â¯Â¯":2887,"ĠÂ¯Â¿Â±Â¯Â·Â¯Â¯Â¯":2888,"ĠÂ¯Â¯Â¿Â·Â¯Â´Â¯Â¯":2889,"ĠÂ¯Â¯Â¯Â¯Â¯Â´":2890,"ĠÂ¯Â¯Â·Â¯ÃĹÂ°Â¯Â¯":2891,"ĠÂ¯Â¯Â°Â¯Â¯Â±Â±Â¯":2892,"ĠÂ¯Â¯Â¸Â¯Â¯Ã·Â¯Â¯":2893,"ĠÂ¯Â¿Â·Â¯Â¯Â¯Â·Â¯":2894,"Â¯Â¯Â°Â±Â¯Â¯":2895,"ĠÂ¯Â¯Â¯Â¿Â¯Â¯Â±Â¯":2896,"Â±Â¯Â¯Â¯Â±Â¯Â¯":2897,"ĠÂ¯Â¯Â±Â¯Ã·Â°Â¯Â¯":2898,"ĠÂ¯Â¯Â¯Â±Â¯Â¿Â±Â¯":2899,"ĠÂ¯ÃĹÂ°Â¯Â¯Â¯Â±Â¯":2900,"Â¯Â¯Â¯Â¯Ã·Â¯Â¯":2901,"Â·Â¯ÃĹÂ¯Â¯Â¯":2902,"ĠÃ¯Ã°":2903,"ĠÂ¯Â¯Â¯Â¯Â·Â±Â°Â¯":2904,"ĠÂ¯Â·Â¯Â¯Â±":2905,"Â¯Â¯Â¿Â´Â¯":2906,"ĠÂ¿Â¯Â¯Â¯Â¯Â¯Â°Â¯":2907,"ĠÃıÃĢ":2908,"ÃŁÃ¯":2909,"ĠÂ¯Â¯Â·Â¸Â¯Â¯Â¯Â¯":2910,"ĠÂ¯Â¯Â°Â¯Â»Â¯Â¯Â¯":2911,"ĠÂ¯Â°Â¯Â¯Â±Â°Â¯Â¯":2912,"ĠÃĹÂ¯Â¯Â¯Â¯Â¯Â¯Â¯":2913,"Â±Â¯Â¯ÃĹÂ´Â¯":2914,"ĠÂ¯Â¯Â°Â¿":2915,"Ã¯ÃĳÄ¯":2916,"Â¯Â±Â¸Â¯Â¯":2917,"ĠÂ¯Â¯ÃĹÂ·Â¯Â¯Â¯Â¯":2918,"ĠÃıÃĶ":2919,"ĠÂ¯Â¿Â·Â¯Â¿Â°Â¯Â¯":2920,"Ã¨":2921,"Ä¯ÄĽ":2922,"Â·Â°Â¿Â¯Â¯Â¯":2923,"ĠÂ¯Â·Â°Â¯Â¯Â¯Â±Â¯":2924,"ĠÂ¯Â·Â¯Â¯Â¯Â¿Â°Â¯":2925,"ÄıÃĶ":2926,"ÃĩÃı":2927,"Â±Â¯Â¯Â¯Â´Â¯":2928,"ÅıÃĦ":2929,"ĠÂ¯Â·Â·Â¯Â¯Â±Â¯Â¯":2930,"Ä·Ãĳ":2931,"ĠÂ¯Â¯Â¯Â°Â¯Â¿Â°Â¯":2932,"ĠÂ¯Â¯Â¯Â±Â¯Â±Â±Â¯":2933,"ĠÂ¯Â¯Ã·Â±Â¿Â·Â¯Â¯":2934,"ĠÂ¯Â¯Â±Â¯Â±Â±Â¯Â¯":2935,"ĠÂ¯Â¯Â±Â¯Â¯Â·Â·Â¯":2936,"Â´Â¯Â´Â¯Â¯":2937,"ĠÂ¯Â¯Â¯Â·Â¯Â¸Â¯Â¯":2938,"ĠÂ¯Â¯Â´Â¯Â¯Â·Â°Â¯":2939,"Â¯Â¯Â¯Â°Â¯Â¯Â¯Â¯":2940,"Â¯Â¯Â¯Ã·Â¯Â¯Â¯":2941,"Â±Â¿Â¯Â¯Â¯Â¯":2942,"Â¯Â¯Â·Â¸Â¯":2943,"ĠÂ¯Â±Â±Â¯Â±Â¯Â¯Â¯":2944,"Ä¯Ãĺ":2945,"ÄĥÃı":2946,"Ã¿Ä°Ãĥ":2947,"ĠÂ¯Â±Â°Â¯Â¯Â¯Â·Â¯":2948,"Ã±Ãĳ":2949,"ĠÂ¯Â±Â´Â¯":2950,"ÃŁÃģ":2951,"ĠÂ¯Â¯Â¯Â´Â¯ÃĹÂ¯Â¯":2952,"Ä¿Ã±Ãģ":2953,"Ä¯ÅĦ":2954,"Ä¯Åĩ":2955,"ĠÂ¯Â·Â¯Â·Â¯Â¯Â¯Â¯":2956,"ÅĵÃı":2957,"ĠÂ¯Â±Â°Â¯Â¯Â¿Â·Â¯":2958,"ĠÂ¯Â¯Â´Â°Â¯Â¯Â¯Â¯":2959,"ĠÂ¯Â»Â°Â¯Â¯Â¯Â¯Â¯":2960,"ĠÂ¯Â¯ÃĹÂ±Â¯Â´Â¯Â¯":2961,"ĠÂ¯Â¯Â±Â±Â¿Â¯Â¯Â¯":2962,"ĠÂ¯Â¯Â¿Â°Â¯Â±Â°Â¯":2963,"ĠÂ·Â¯Â¯Â¯Â·Â¯Â¯Â¯":2964,"Â°Â¯Â¯ÃĹ":2965,"ĠÂ¯Â¯ÃĹÂ·":2966,"ĠÄ¯Ä¯Ãı":2967,"ĠÂ¯Â¯Â¯Â±Â¯Ã·Â¯Â¯":2968,"ĠÂ¯Â¯Â±Â°Â¯Â¯Â±Â¯":2969,"ĠÂ¯Â¯Â¯Â¿Â¸Â¯Â¯Â¯":2970,"ĠÂ¯Â¯Â´Â¯Â¿Â·Â¯Â¯":2971,"ĠÂ¿Â·Â¯Â¯Â±Â¯Â¯Â¯":2972,"ĠÂ¿Â¯Â¿Â¯Â¯Â¯Â¯Â¯":2973,"Æĳ":2974,"Â¯Â¯Â¯Â¸Â°Â¯":2975,"Ã¯Åĺ":2976,"ĠÂ¯Â·Â¯Â°":2977,"ĠÂ¿Â·Â¯Â¯Â¯Â·Â¯Â¯":2978,"ĠÂ¯Â·Â°Â¯Â¯Â¸Â¯Â¯":2979,"ĠÂ¿Â¿Â¯Â¯Â¯Â°Â¯Â¯":2980,"ĠÂ¯ÃĹÂ±Â¯Â¯Â°Â¯Â¯":2981,"Â¯Â±Â¯Â°Â¯Â¯":2982,"Â¿Â¯Â¯Â°Â¯Â¯Â¯":2983,"ĠÂ¯Â·Â±Â¯Â¯Â·Â¯Â¯":2984,"ĠÂ·Â±Â¯Â¯Â¯":2985,"ĠÂ¯Â¯Â¿Â·Â¯Â·Â¯Â¯":2986,"ĠÂ¯Â¯Â·Â¯Â°Â±Â¯Â¯":2987,"ĠÂ¯Â¯Â±Â¯Â¿Â´Â¯Â¯":2988,"ÃıÃ¯Ã¯":2989,"ĠÂ¯Â¯Â¯Â¸Â¯Â¯":2990,"Â°Â¯ÃĹÂ´Â¯Â¯":2991,"ĠÂ¯Â¯Â·Â¯Â¿Â¸Â¯Â¯":2992,"ĠÂ¯Â¯Â·Â¯Â¯Â¿Â±Â¯":2993,"Ã¹ÃĶ":2994,"ĠÂ¯Â¿Â±Â¯Â±Â¯Â¯Â¯":2995,"ĠÂ¯Â¯Â¯Â¯Â¯Â»Â±Â¯":2996,"Ä¯Å±":2997,"Â·Â°Â¿":2998,"ÅıÃ¯Ã¯":2999,"ĠÄ¯Ã¯Ã¯":3000,"ĠÂ¯Â¯Â¿Â°Â¿Â·Â¯Â¯":3001,"Â¯ÃĹÂ¯":3002,"ĠÂ¯Â¿Â°Â¯Â°Â¯Â¯Â¯":3003,"ĠÂ·Â¯Â¯Â¯Â¯Â¿Â¯Â¯":3004,"ĠÂ¯Â·Â·Â¯Â¿Â·Â¯Â¯":3005,"Ä¿Ä±Ãĵ":3006,"ÃıÃĬ":3007,"ÃĹÂ¯Â¯Â¯Â¯":3008,"ĠÂ¯Â·Â·Â¯Â¯Â°Â¯Â¯":3009,"Â¸Â¯Â·Â¯Â¯Â¯":3010,"Å¯Ã°":3011,"ĠÂ¯Â°Â°Â¯Â¯Â¯":3012,"ĠÂ¿Â±Â¯Â¯Â¯Â¯Â¯Â¯":3013,"ÃıÄ°Ãĵ":3014,"Â±Â¯Â¿Â°Â¯":3015,"ĠÂ¯Â¯Â°Â¯Â¯Â¿Â°Â¯":3016,"Â¶Â¯Â¯Â¯Â¯Â¯":3017,"Â¿Â¯Â¯Â¯Â¿Â¯":3018,"ĠÂ¯Â¯Â¿Â¯Â¯Â»Â¯Â¯":3019,"ÅĵÄģ":3020,"ÅĹÃģ":3021,"ĠÂ¯ÃĹÂ¿Â¯Â¯Â¯Â¯Â¯":3022,"ĠÂ¯Â¯Â¿Â¸Â¯Â±Â¯Â¯":3023,"ĠÂ±Â±Â¯Â¯Â¯":3024,"ĠÂ¯Â¯Ã·Â±Â¯Â±Â°Â¯":3025,"ÆĲ":3026,"Ã¯ÅŁ":3027,"ĠÂ¯Â¯Ã·Â¯Â¯Â±Â°Â¯":3028,"ĠÂ¯Â¿Â¯Â¯Â¯ÃĹ":3029,"Â¸Â¯ÃĹÂ¯Â¯":3030,"ĠÂ¯Â¿Â·Â¯Â¯Â±Â±Â¯":3031,"Ã¯ÃĥÄ¯":3032,"ĠÂ¯Â¯Â¿Â±Â±Â¯Â¯Â¯":3033,"ĠÂ¯Â°Â¯Â±Â¯Â¯Â¯Â¯":3034,"Â¯Â¸Â¯":3035,"Ã¯Ãĭ":3036,"Â¿Â¿":3037,"Â±Â¯Â±":3038,"ĠÂ¯Â¿Â°Â¯Â¯Â¯":3039,"ĠÂ¯Â¯Â±Â¯Â¿Â¸Â¯Â¯":3040,"Â¯Â¯Â±Â¯Â¯Â¯Â¯Â¯":3041,"Â¿Â¯Â¯Ã·Â¯Â¯":3042,"ĠÂ¯Â¯Â¿Â¸Â¯Â·Â¯Â¯":3043,"ĠÂ¯Â°Â¯Â¯Ã·Â¯Â¯Â¯":3044,"ÅıÂµÃ¯":3045,"Â¯Â·Â¯Â¿Â¯Â¯Â¯":3046,"ĠÂ¯Â·Â°Â¯Â¯Â¯Â°Â¯":3047,"ĠÂ¯Â¯Ã·Â¯Â¯Â¯":3048,"ĠÂ¯Â¯Â¶Â¯Â¯":3049,"Â·Â¯Â¯Â¿Â¯":3050,"ÃĲÃĥ":3051,"ĠÂ¯Â·Â¯Â¯Â¯Ã·Â¯Â¯":3052,"ĠÂ¯Â¸Â¯":3053,"ÃıÅĢ":3054,"Â·Â¯Â¯Â¯Â·Â¯":3055,"ĠÂ¯Â·Â¯Â·":3056,"ĠÃ¯Ã¿":3057,"ĠÂ¯Â¯Â¯Â¯Â·ÃĹÂ¯Â¯":3058,"Ä¯Å·":3059,"ĠÂ¯Â¯Â¿Â´Â¯Â¯Â°Â¯":3060,"ĠÂ¯Â¯Â¿Â¯Â¯Â¿Â¿Â¯":3061,"ĠÂ¯ÃĹÂ°Â¯Â¯Â±Â¯Â¯":3062,"Â´Â¿":3063,"ÃĹÂ·Â¯Â¯":3064,"ĠÂ¯Â¯Â°Â¯ÃĹÂ±Â¯Â¯":3065,"ĠÄ¯Åħ":3066,"ĠÃ¯ÃıÃ³":3067,"Ã¯Ä¯Ä¯":3068,"Â·Â¿Â±Â¯Â¯":3069,"Ã·Â¯Â·Â¯Â¯Â¯":3070,"ĠÄ¯ÃĻ":3071,"ÅĵÄ¯":3072,"ĠÂ¯Â¯Â¯Â´Â¯Â·Â´Â¯":3073,"ĠÂ¯Â±Â±Â¯Â¿Â±Â¯Â¯":3074,"ĠÂ¯Â¯Â¯Â¯Â¯Â¯Â¯Â¿":3075,"ĠÅıÃĵ":3076,"ĠÄ¯Ãĩ":3077,"ĠÂ¯Â¿Â¯Â¯Â¯Â±Â±Â¯":3078,"ĠÂ¯Â¯Â±Â±Â¯Â°Â¯Â¯":3079,"Â·Â¿Â·Â¯Â¯":3080,"Â´Â¯Â·Â°Â¯":3081,"ĠÂ¯Â¿Â·Â°Â¯Â¯Â¯Â¯":3082,"ĠÂ¿Â·Â¯Â¯Â¿Â¯Â¯Â¯":3083,"Â¿Â¯Â¯Â¯ÃĹÂ¯Â¯":3084,"Ä°Ã³":3085,"Ã¯ÃıÄ¯Ã¯":3086,"Ã±ÃĢ":3087,"ĠÂ¯Â¿Â·Â¯Â¯Â¿Â·Â¯":3088,"Ã¯Ã¯Ä¯":3089,"ĠÂ¯Â¯Â»Â¯Â·Â¯Â¯Â¯":3090,"ÃıÃ±Ãģ":3091,"Ã¯Äĳ":3092,"ÅıÄ¿":3093,"ĠÂ¯Â±ÃĹÂ¯Â¯Â¯Â¯Â¯":3094,"ĠÂ¯Â±Â¯Â¯Â´Â¯Â¯Â¯":3095,"ÅĶÃģ":3096,"ĠÂ¯Â¯Â±Â¯Â¿Â¿Â¯Â¯":3097,"ĠÂ¯Â¯Â¯Â°Â¯Â¯Â´Â¯":3098,"ĠÂ¯Â¸Â°Â¯Â¯":3099,"Â¿Â¯Â¯Â¿Â±Â¯Â¯":3100,"Â±Â¯Â»Â¯Â¯":3101,"ÅıÃĺ":3102,"ÃĹÂ±Â¯Â¯Â¯Â¯":3103,"ĠÂ¯Â¯Â¿Â¯Ã·":3104,"ÅĵÃģ":3105,"Ä¯ÂµÄ¯":3106,"ĠÂ¯ÃĹÂ¯Â¯ÃĹÂ¯Â¯Â¯":3107,"Ã¯Ãĸ":3108,"Â´Â°Â¯Â¯":3109,"ĠÂ¯Â¯Â±Â¯Â±":3110,"ÄģÃı":3111,"ĠÂ¯Â·Â°Â¯Â·Â°Â¯Â¯":3112,"ĠÂ¿Â¯Â±Â¯Â¯Â¯Â¯Â¯":3113,"ĠÂ¯Â¿Â¯Â±":3114,"ĠÃ·Â¯Â¯Â¯Â¯Â¯Â¯Â¯":3115,"ÃıÄ¸":3116,"Â¸Â¯Â¿Â·Â¯":3117,"ĠÂ¯Â¯Â·Â¯Â¯Â¿Â°Â¯":3118,"ĠÂ¯Â°Â¯Â¯Â¯Â¸Â¯Â¯":3119,"Ä¯ÅĲ":3120,"Ä¿Ä¯Ãĵ":3121,"ĠÂ¯Â¿Â·Â¯Ã·Â´Â¯Â¯":3122,"Ä¹Ã¯":3123,"ĠÂ¯Â¯Â·Â°Â¯ÃĹÂ¯Â¯":3124,"ĠÂ¿Â¯Â°Â¯Â¯Â¯Â¯Â¯":3125,"Åĸ":3126,"Â·Â°Â¯Â·Â¯Â¯":3127,"ĠÂ¯Â±Â±Â¯Â¯Â¯":3128,"ĠÂ¯Â¯Â¯Â´Â¿Â¯Â¯Â¯":3129,"ĠÂ±Â°Â¯":3130,"Â¯Â¯Â±Â´Â¯Â¯":3131,"ÃıÅĦ":3132,"Â±Â¯Â¯Â°Â°Â¯":3133,"Â±Â¯Â¯Â¯Â·Â¯Â¯":3134,"Ä±Ãĳ":3135,"Â±Â±Â¯Â¯Â¯Â¯Â¯":3136,"ÃıÄ¯Ãģ":3137,"ÃĥÄ¯Ã¯":3138,"Ã·Â¯Â¿Â±Â¯Â¯":3139,"Ã³ÃĲ":3140,"Ä·Ãĵ":3141,"ĠÂ¯Â¯Â°Â·":3142,"ĠÂ¯Â°Â¯Â¯Â¯Ã·Â¯Â¯":3143,"ĠÂ¯Â¯ÃĹÂ¯Â¯Ã·Â¯Â¯":3144,"ĠÃ±":3145,"Â¯Â¯Â¿Â¯Â¯Â¯Â¯Â¯":3146,"ĠÂ¯Â¯Ã·Â·":3147,"ĠÂ¯Â¯Ã·Â´Â¯Â±Â¯Â¯":3148,"ÃĦÃ¯":3149,"Â³Â³Â³":3150,"ĠÂ¯Â°Â¯Â¿Â¯Â¯Â¯Â¯":3151,"ĠÃĲ":3152,"Â±Â¯Â¯Â·Â¯Â¯Â¯":3153,"Â¸Â¯Â¿Â·Â¯Â¯":3154,"Ä¯Å³":3155,"Ä¯Ã¡":3156,"ĠÂ¯Â¯Â¯Â°ÃĹÂ°Â¯Â¯":3157,"Â¯Â°Â¯Â°Â¯Â¯":3158,"ĠÂ¯Â¯Â·Â´Â¯Â±Â¯Â¯":3159,"ÃĥÃĲ":3160,"Â·Â¯Â°Â°Â¯":3161,"ĠÂ¯Â±Â¯Â¯Ã·Â°Â¯Â¯":3162,"ÅĢÃ¹":3163,"ĠÂ¯Ã·Â¿Â¯":3164,"ĠÂ¯Â¯Â¯Â°Â¿Â¿Â¯Â¯":3165,"Â¯Â¯Â¯Â¿Â°Â¯Â¯":3166,"ÃıÃ£":3167,"Â±Â¯Â·Â±Â¯":3168,"ĠÂ¯Â¿Â´Â¯Â¯Â±Â¯Â¯":3169,"Â¯Â¯Â»":3170,"ÅĥÃı":3171,"ĠÂ¯Â¯Â¿Â°Â¿Â±Â¯Â¯":3172,"ĠÂ¯Â¯Â´Â¯Â·Â´Â¯Â¯":3173,"ĠÂ¯Â¯Â¯Â´Â¯Â·":3174,"Â¯Â¯Â¯ÃĹÂ°Â¯Â¯":3175,"Â°Â°Â¯Â¯Â¯Â¯":3176,"Â·Â°Â¯Â¯Â¯Â¯Â¯":3177,"Ã¿Ãĵ":3178,"ĠÂ¯Â¯Â¿Â¯ÃĹÂ±Â¯Â¯":3179,"ÃıÄ¯Ãĥ":3180,"Â·Â¯Â¯Â·Â¯Â¯Â¯":3181,"Â·Â¯Â¯Â¯Â·Â¯Â¯":3182,"ÃĵÄ°Ãĵ":3183,"ĠÂ¯Â¯Â°Â±Â¯Â¿Â¯Â¯":3184,"Â¯Â¯Â¯Ã·Â¸Â¯":3185,"Â·Â¿Â¯Â¯":3186,"Â±Â¯Â¯Â¿Â¯Â¯Â¯":3187,"ÅıÄĥ":3188,"Â¿Â¯Â¿Â°Â¯Â¯":3189,"ĠÂ¯Â·Â¯Â¯Â·Â´Â¯Â¯":3190,"ĠÂ¯Â¿Â·Â¯ÃĹÂ¯Â¯Â¯":3191,"ĠÂ¯Â¯Â°Â°Â¯Â·Â¯Â¯":3192,"ĠÂ¯Â¯Â±Â°Â¯Ã·Â¯Â¯":3193,"ĠÂ¯Â¯Â¯Â¯Ã·Â¿Â¯Â¯":3194,"Ã¯Ä²":3195,"ĠÂ¯Â¿Â±Â¯Â¯Â¯Â±Â¯":3196,"ĠÂ¯Â±Â¸Â¯Â¯Â¯Â¯Â¯":3197,"ĠÂ¯Â¯ÃĹÂ¯Â¯Â¯Â·Â¯":3198,"Â¸Â¯Â¯Â¯Â±Â¯":3199,"ĠÂ¯Â±Â¯Â¯Â¯Â·Â°Â¯":3200,"ĠÂ¯Â¯ÃĹÂ¯Â¸Â¯Â¯Â¯":3201,"ĠÂ¯Â¯Â°Â°Â·Â¯Â¯Â¯":3202,"ÆıÃ¯":3203,"ĠÂ¯Â°Â¯Â¯Â¯Â¯Â¿Â¯":3204,"ĠÂ¯Â·Â¿Â¯Â±Â¯Â¯Â¯":3205,"ĠÂ¯Â¯Â·Â·Â¯Â·Â¯Â¯":3206,"ĠÂ¯Â¯Â·Â¯Â»Â¯Â¯Â¯":3207,"ÃŁÄ¯":3208,"ĠÂ¯Â¯Â¯Â¶Â¯":3209,"ĠÂ¯Â¯Â°Â¯Â¿Â¸Â¯Â¯":3210,"ÃŁÃĥ":3211,"ĠÂ¯Â¯ÃĹÂ°Â·":3212,"ĠÂ¯Â°Â°Â¯Â¿Â·Â¯Â¯":3213,"ĠÂ¯Â¯Â¯Â¯Â¸Â±Â¯Â¯":3214,"Â¹Â²":3215,"ĠÃ¯ÃıÃı":3216,"Â±ÃĹÂ°Â¯Â¯":3217,"Â·Â¯Â¯Â¿Â°Â¯":3218,"Â°Â¯ÃĹÂ°Â¯Â¯":3219,"Ä·ÃĢ":3220,"ĠÂ¯Â¯Ã·Â´Â¯Â·Â¯Â¯":3221,"ĠÂ¯ÃĹÂ¯Â¯Â¯Â¯Â°Â¯":3222,"ĠÂ¯Â¯Â±Â°Â¯Â·Â°Â¯":3223,"ĠÂ¿Â·Â¯Â¿Â¯Â¯Â¯Â¯":3224,"Ã¿Ä³":3225,"ĠÂ¯Â¯Â¿Â¯Â¯Â·Â±Â¯":3226,"ĠÂ¯Â±Â¯Â¯Ã·":3227,"ĠÂ¯Â¯Â±Â°Â¯Â¸Â¯Â¯":3228,"ĠÂ·Â¯Â·Â¯Â¯Â¯Â¯Â¯":3229,"ĠÂ¯Â¯Â·Â¿":3230,"ĠÂ¯Â·Â·Â¯Â¯Â·Â¯Â¯":3231,"ÃĵÃĥ":3232,"Ã±Ãĥ":3233,"ĠÂ¯Â¯Â±Â¯Â¯Ã·":3234,"ĠÂ¯Â¯Â¯Â°Â±Â°Â¯Â¯":3235,"ÄıÃĵ":3236,"ĠÂ¯Â°Â¯Â¯Â¸Â¯Â¯Â¯":3237,"Â¯Â°Â¿":3238,"Ã¿Ã±Ãģ":3239,"ĠÂ¯Â´Â¯":3240,"Â±Â°Â°Â¯Â¯":3241,"Â±Â¯Ã·":3242,"ĠÂ¯Â¯Â¯Â±Â¯Â·Â°Â¯":3243,"ĠÂ¯Â¯Â¯Â±Â°":3244,"ĠÂ¯Â¯Â¿Â°Â·Â°Â¯Â¯":3245,"ĠÄ¯Ã¯Ãĥ":3246,"ĠÂ±Â°":3247,"ĠÂ¯Â¿Â±Â°Â¯Â¯Â¯Â¯":3248,"ĠÂ¯Â¯Â·Â¯Â¿Â´Â¯Â¯":3249,"Â±Â¯Â¯Ã·Â°Â¯":3250,"Â°Â¯Â·Â´Â¯":3251,"Â±Â¯Ã·Â¯Â¯Â¯":3252,"ĠÄ¯Âµ":3253,"ĠÂ¯Â°Â°Â¯Â¯Â¯Â°Â¯":3254,"ÃĩÃ¯":3255,"Ä¯ÃıÃ¯":3256,"ĠÂ¿Â°Â¯Â¯":3257,"ĠÂ¯Â¯Ã·Â°Â¯Â·Â°Â¯":3258,"Â¯Â¯Â°Â¯Â¯Â¯Â¯Â¯":3259,"Â·Â¯Â¯Â¸Â¯Â¯":3260,"ĠÂ¯Â¯Â·Â¯Â¯ÃĹ":3261,"ĠÂ¯Â¿Â¯Â¯ÃĹÂ°Â¯Â¯":3262,"ÄģÃĺ":3263,"ĠÂ¯Â±Â¯Â¯ÃĹ":3264,"ÃıÃģÄ¯Ãı":3265,"ĠÂ¯Â¯Â¯Â¯Â¯ÃĹÂ·Â¯":3266,"ÃıÃĴ":3267,"Â°Â¯Â¯Â¿Â·Â¯":3268,"ĠÂ¯Â¯Â¯Â°Â·Â±Â¯Â¯":3269,"ĠÂ¯Â¯Â°Â°Â¿Â¯Â¯Â¯":3270,"ĠÂ¯Â¿Â·Â¯Â¯Â·Â°Â¯":3271,"ĠÂ¯Â¯Â°Â¯Â¯Â¯Â´Â¯":3272,"ĠÂ¿Â¿Â¯Â¯Â¿Â¯Â¯Â¯":3273,"Â°Â¯Â¯Â»Â¯Â¯":3274,"Â¿Â¯Â±Â¯":3275,"ĠÂ¯Â¯Â¯Â°Â¯Â»Â¯Â¯":3276,"ĠÂ¯Â¯Â¿Â°Ã·Â¯Â¯Â¯":3277,"ĠÂ¯Â¿Â·Â¯Â¯ÃĹÂ°Â¯":3278,"Â¯Ã·Â¸Â¯Â¯":3279,"ĠÂ¯Â¯Â»Â¯Â°Â¯Â¯Â¯":3280,"ĠÂ¿Â·Â¯Â¯Â±Â°Â¯Â¯":3281,"Â¯Â´Â¯Â¯Â¯Â¯Â¯":3282,"Â±Ã·":3283,"Â·Â¯Â¯Â¯Â±Â¯Â¯":3284,"Ã¿Ã¿":3285,"Ä°Ãĳ":3286,"Ä¯ÃĥÄ¯":3287,"ĠÂ°Â°Â¯Â¯Â¯Â¯Â¯Â¯":3288,"ÃĳÅĦ":3289,"Â´Â¯Ã·Â¯Â¯":3290,"ĠÂ¯Â¯Â¯Â·Â¯Â¿Â°Â¯":3291,"Â±Â·Â¯Â¯Â¯Â¯":3292,"ĠÂ¯Â·Â±Â¯Â¿Â¯Â¯Â¯":3293,"Ã³Ãģ":3294,"ĠÂ¯Â¯Â¯Â°Ã·":3295,"Â¯Â¯Â·Â¯Â¯Â±Â¯Â¯":3296,"ĠÂ¯Â¯Â°Â°Â¯Â±Â¯Â¯":3297,"ĠÂ¯Â¯Â¿Â¯Â·Â·Â¯Â¯":3298,"Â°Â¯Â¯Â´Â¯":3299,"Â¿Â¯Â¯Â¯ÃĹ":3300,"ĠÂ¯Â¯Â¿Â¿Â¯":3301,"ÅıÅı":3302,"ĠÂ¯Â·Â¯Â¯Â±Â±Â¯Â¯":3303,"ĠÂ¯Â±Â°Â¯Â¯Â°Â°Â¯":3304,"ĠÂ¯Â¯Â¸Â¯Â±":3305,"Â°Â±Â°Â¯Â¯":3306,"Â·Â°Â¯Â¯Â¯":3307,"Â¯Â¯Â¯Â¯Â¯Â°":3308,"Â¹Â¹":3309,"ÃĥÄ¯Ãı":3310,"ĠÂ¯Â¯Ã·Â¯Â¯Â¯Â±Â¯":3311,"ĠÂ¯Â¿Â¯Â¯Â·Â´Â¯Â¯":3312,"Ä´Ã¯":3313,"ĠÂ°Â°Â¯Â¯":3314,"Â¯Â°Â¯Â¿Â¯Â¯":3315,"Ã¯ÅĢ":3316,"Ä¯ÅĢ":3317,"Ä¯Åķ":3318,"ĠÂ¯Â¯Â·Â¸Â¯":3319,"Â¸Â±Â¯Â¯":3320,"Ä·Ä¯Ãĵ":3321,"ĠÂ¯Â·Â¯Â¯Â¯Â°Â°Â¯":3322,"ĠÄ¯Ã¯Ä·":3323,"ĠÂ¯Â¯Â¯Â¯ÃĹÂ¯Â°Â¯":3324,"ĠÂ¯Â¯Â´Â±Â¯Â¯Â¯Â¯":3325,"Â°Â¯Â·Â·Â¯":3326,"ÃĥÄ°":3327,"ĠÃ¯ÃĢ":3328,"ĠÂ¯Â°Â°Â¯Ã·Â¯Â¯Â¯":3329,"Â¯Â¯Â¯Â¯Â·Â°Â¯":3330,"Â°Â¯Â°":3331,"Â±Â¯ÃĹÂ°Â¯Â¯":3332,"ĠÂ¯Â¯Â±Â¯Â¯ÃĹ":3333,"ĠÂ¯Â¯Â¯Â°ÃĹÂ±Â¯Â¯":3334,"ĠÂ¯Â¿Â¯Â¯Â¯Â°Â°Â¯":3335,"ĠÂ¯Â¯Â¯Â¯Â¯Ã·Â¸Â¯":3336,"Â°Â·Â´Â¯Â¯":3337,"Â°Â¯Â¿Â°Â¯":3338,"ĠÂ¯Â¯Â¿Â´Â¯Â¯":3339,"ÃĳÃģ":3340,"ĠÄ¯Ãħ":3341,"ĠÂ¯Â¯Ã·Â¯Â·":3342,"ĠÂ¯Â¯Â¯Â±Â¯Â¿Â°Â¯":3343,"ĠÂ¯Â¿Â¯Â¯Â¯Â»Â¯Â¯":3344,"Å¯Ãĺ":3345,"ĠÂ¯Â¯Â¯Â¯Â·Â»Â¯Â¯":3346,"Â°Â¯Â¯Â°Â°Â¯":3347,"ÃĹÂ¯Â¯Â¿Â¯Â¯":3348,"ĠÂ¯Â±Â·Â¯Â¯":3349,"ĠÂ¯Â±Â±Â¯Â·Â¯Â¯Â¯":3350,"ĠÂ·Â¯Â¯Â¯Â±Â¯Â¯Â¯":3351,"ÃıÄ¯Ä¯":3352,"Â¯Â¯Â¯Â¯Â°Â¯Â¯Â¯":3353,"Â¯Â¯Â¯Â¯Â¿Â·Â¯":3354,"Â¿Â¯Â¯Â°Â°Â¯":3355,"Â·Â¯Â¿Â¸Â¯Â¯":3356,"ĠÂ¯Â±Â´Â¯Â±Â¯Â¯Â¯":3357,"ĠÂ¯Â¯Â¯Â¯Â¿Ã·Â¯Â¯":3358,"Ä±Âµ":3359,"ĠÂ¯Ã·Â°":3360,"Â¯Â¿Â¯Â°Â¯":3361,"Ã¯Ä¯Ãı":3362,"ĠÂ¯Â¯Â¯Â¸Â¯Â¯Â±Â¯":3363,"Ã±Ã´":3364,"ĠÂ¯Â¯Â¸Â¯Â¿Â°Â¯Â¯":3365,"ĠÂ¯Ã·Â¯Â¯Â¿Â¯Â¯Â¯":3366,"ĠÂ¯Â°Â°Â¯Â¸Â¯Â¯Â¯":3367,"Â¯Â¯ÃĹÂ·Â¯":3368,"ĠÂ¯Â¿Â·Â¯Â¯Â¯Â¿Â¯":3369,"ĠÅıÃĥ":3370,"Â±Â¯Â¯Â±Â¯Â¯Â¯":3371,"Â¿Â¯Â¯Â·Â°Â¯":3372,"Â¿Â¯Â¯Â¿Â°Â¯":3373,"ĠÂ¯Â¿Â»Â¯Â¯Â¯Â¯Â¯":3374,"ĠÂ¯Â·Â¸":3375,"ĠÂ¯Â¿Â¯Â¯Â¯Â¿Â°Â¯":3376,"Â¸Â¯Â¯Â±Â°Â¯":3377,"ĠÂ¯Â·Â¯Â¯Â¯Â¿":3378,"Ã´Ãı":3379,"ĠÂ¯Â¯Â¸Â°Â¯Â¯Â¯Â¯":3380,"ĠÂ¯Ã·Â°Â¯Â¯Â¯Â°Â¯":3381,"Ã¯Ã±Ä¯":3382,"ÃıÃ°Ãģ":3383,"ĠÂ¯Â¯Â¯Â¯Â¿Â¯Â·Â¯":3384,"ÅıÄ³Ãģ":3385,"Â±Ã·Â´Â¯Â¯":3386,"ÃıÃ²":3387,"ÃıÃĨ":3388,"ÃĹÂ¯Â·Â°Â¯Â¯":3389,"ĠÂ¯Â¯Â°Â¯Ã·Â´Â¯Â¯":3390,"Ã¹Ä¯":3391,"ĠÂ¯Â°Â°Â¯Â¯Â¯Â±Â¯":3392,"ĠÂ¯Â±Â¯Â¯Â·Â±Â¯Â¯":3393,"ĠÂ¯Â¿Â·Â¯Â¯Â¸Â¯Â¯":3394,"ĠÂ¯Â¯Â´Â¯Â¯Â¸Â¯Â¯":3395,"ĠÂ¯Â¯Â±Â°Â¯Â´Â¯Â¯":3396,"ĠÂ¯Â¯Â¿Â±Â¯Â±Â°Â¯":3397,"ĠÂ¯Â·Â·Â¯Â±Â¯Â¯Â¯":3398,"Â°Ã·Â±Â¯Â¯":3399,"Ä¯Ä¯Ãı":3400,"Â¿Â¯Â¯Â¯Â´Â¯Â¯":3401,"ĠÂ¯Â¯Â¯Â¯Â¯Â¯Ã·Â¯":3402,"ĠÂ¯Â¯Â¯Â±Â¯Â¿":3403,"ĠÂ¯Â±Â¯Â¯Â¯Â¿Â±Â¯":3404,"ĠÂ¯Ã·Â·Â¯":3405,"ĠÄ¿Ãģ":3406,"Ã¯Äĩ":3407,"ĠÂ¯Â¯Ã·Â¯Â°Â¯Â¯Â¯":3408,"ĠÂ¯Â·Â¯Â¯Â·Â±Â¯Â¯":3409,"Â¯ÃĹÂ¯Â¯Â¯Â¯Â¯":3410,"Â¯Â¯Ã·Â¸Â¯":3411,"ĠÂ¿Â¿Â¯Â¯Â¯Â·Â¯Â¯":3412,"ĠÂ¯Â¿Ã·Â¯Â¯Â¯Â¯Â¯":3413,"Ä¿Ä¯Ãģ":3414,"ĠÂ¯Â¯Â±Â¯Â·Â´Â¯Â¯":3415,"Â¯Â¿Â¸Â¯":3416,"ĠÂ¯Â¯Â·Â°Ã·Â¯Â¯Â¯":3417,"Â¯Ã·Â¿Â¯Â¯":3418,"Ä¿Ä³Ãĵ":3419,"ÃıÅĳ":3420,"Â±Â¯Â¯Â´Â¯":3421,"ĠÂ¯Â±Â´":3422,"Â¿Â¯Â¿Â¿Â¯Â¯Â¯":3423,"ĠÂ¯Â¯Ã·Â±Â¯Â¯Â±Â¯":3424,"ĠÃıÃ¿":3425,"ÂºÃı":3426,"ĠÂ¯Â¿Â°Â¯Â¯Ã·Â¯Â¯":3427,"Â¯Â°Â·Â¯Â¯Â¯":3428,"ÆıÃģ":3429,"Â¸Â¿Â¯Â¯Â¯":3430,"Ã³Ã±":3431,"ĠÂ¯Â±Â´Â¯Â·Â¯Â¯Â¯":3432,"Â±Â·Â±Â¯Â¯":3433,"Â°Â¯Â±":3434,"Â´Â±Â¯Â¯":3435,"ĠÂ¯Â·Â¸Â¯Â¯":3436,"ĠÂ¯Â·Â¯Â¿Â·Â¯Â¯Â¯":3437,"ĠÂ¯Â¯Â±Â¯Ã·":3438,"ÃĳÄ³":3439,"Â¯Â·Â¿Â¯Â¯Â¯":3440,"Ã°Ãĵ":3441,"ĠÂ¯Â¯Â¿Â°Â¿":3442,"ĠÂ¯Â¯Â¯Â·Â·Â°Â¯Â¯":3443,"ÃıÄ±Ãĵ":3444,"ĠÂ¯Â¯Â¿Â·Â¯Â¯Â·Â¯":3445,"ĠÂ¯Â¯Ã·Â¯Â¿":3446,"ÅĥÄ¯":3447,"ĠÂ¯Â·Â¯Â¯Â¯Â·Â°Â¯":3448,"ĠÂ¯Â¯Â·Â°Â¿Â°Â¯Â¯":3449,"ĠÂ¯Â±Â°Â¿":3450,"ĠÂ¯Â¯ÃĹÂ±Â¿":3451,"ĠÂ¯Â¯Â·Â°Â¯Â·Â°Â¯":3452,"ĠÂ¯Â¯Â·Â¯Â¿Â¿Â¯Â¯":3453,"ĠÂ¯Â¯Â¯Â¯Â·Â¯Â¿Â¯":3454,"Â±Â¯Â°Â¯":3455,"Â¿Â¯Â±":3456,"ĠÄ¯Åī":3457,"ĠÂ¯Â¯Â±Â±Â¯Â±Â°Â¯":3458,"Â»Â¯Â±Â¯Â¯Â¯":3459,"ĠÂ¯Â¯Â´Â¯Â¯Â»Â¯Â¯":3460,"ĠÂ¯Ã·Â·Â¯Â¯Â¯Â¯Â¯":3461,"Â·Â¿Â¯":3462,"Â¿Â¯Â¯Â¸Â¯Â¯":3463,"Â±Â¯Â¯Â¯Â¿Â¯Â¯":3464,"ĠÄ¯Ã¯ÃĶ":3465,"ĠÂ¯Â¿Â·Â¯Â·Â´Â¯Â¯":3466,"Â±Â¯Â¿Â´Â¯Â¯":3467,"ĠÂ¯Â±Â°Â¯Â¯Â¯Â¿Â¯":3468,"Â¯Â´Â°Â¯":3469,"Â·Â¯Â°Â¯":3470,"ĠÂ¯Â¯Â¯Â°Â¿Â¸Â¯Â¯":3471,"ĠÂ¯Â¯Â¯Â°Â¯Â·Â±Â¯":3472,"ĠÂ¯Â¯Â¯Â¯Â¿Â·Â°Â¯":3473,"Å¯Ã¿":3474,"ĠÂ¯Â¯Â»Â°Â¯Â¯Â¯Â¯":3475,"ĠÂ·Â¯Â°Â¯Â¯Â¯Â¯Â¯":3476,"ĠÂ¯Â¯Â¯Â¯Â¿Â¯Â¿Â¯":3477,"Â¿Â°Â¯Â¯Â¯Â¯Â¯":3478,"ĠÂ¯Â¿Ã·Â¯":3479,"ĠÂ¯Â¯ÃĹÂ·Â¯":3480,"ÃĻÃĦ":3481,"ĠÂ¯Â°Â°Â¯ÃĹÂ´Â¯Â¯":3482,"ĠÂ¯Â¯Â·Â¯Â·Â·Â¯Â¯":3483,"ĠÂ¯Â·Â´Â¯Â±Â¯Â¯Â¯":3484,"ĠÂ¯Â¯Â¯Â¿Â¯Â¯Â°Â¯":3485,"Â¯Â±Â¿Â¯Â¯Â¯":3486,"ÃıÃł":3487,"Â¿Â¯Â¯Â¯Â¯Â±Â¯":3488,"Â±Â¯Â¯Â·Â·Â¯":3489,"Ä³Ãĳ":3490,"Ä³Ã¹":3491,"Â¿Â¯Ã·":3492,"ĠÃ¯Ãĺ":3493,"ĠÂ¿Â¸Â¯Â¯":3494,"ĠÂ¯Â°Â¯Â¯Â¯Â·Â°Â¯":3495,"ĠÂ¯Â¿Â·Â¯Â¯Â·Â·Â¯":3496,"ĠÂ¯Ã·Â¯Â¯Â¯Â¯Â°Â¯":3497,"ĠÂ¯Â¿Â±Â¯Â¯Â·Â°Â¯":3498,"ĠÂ¿Â·Â¯Â¯Â¯Â¯Â±Â¯":3499,"Â¯Â¯Ã·Â¯":3500,"ĠÂ¯Â¯Â¿Â¸Â¯Â°Â¯Â¯":3501,"ÅıÄ¯Ã¯":3502,"ĠÄ¯ÃĢ":3503,"ĠÂ¯Â·Â¯Â±":3504,"ĠÂ¯Â¯ÃĹÂ±Â¯Â·":3505,"ĠÂ¯Â¿Â¸Â¯Â¿Â¯Â¯Â¯":3506,"Ä¯Ä£":3507,"ĠÂ¯Â¯Â¿Â¯Â±Â±Â¯Â¯":3508,"Ã·Â¯Â¯Â°Â¯Â¯":3509,"ĠÂ¯Â¯Â°Â¯Â¯Â·Â·Â¯":3510,"ĠÂ¯Â¯Â¯Â±Â¯Â»Â¯Â¯":3511,"ĠÂ¯Â°ÃĹÂ¯Â¯Â¯Â¯Â¯":3512,"Ã¯ÃĵÄ¯":3513,"ĠÂ¯Â¯Â´Â¯Â¯Â±Â°Â¯":3514,"ĠÂ¯Â¿Â¿Â¯Â¯Â°Â¯Â¯":3515,"ĠÂ¯Â¿Â¯Â¿Â¿Â¯Â¯Â¯":3516,"Ã·Â±Â¯Â¯Â¯":3517,"Ã³Ãĥ":3518,"ĠÂ¯Â¯Â±Â¯Â¯Â¯Â¸Â¯":3519,"Â¯Â¯Ã·Â¯Â¯Â¯Â¯Â¯":3520,"Ä¯Ã§":3521,"Ã¿Ä°Ãģ":3522,"ÃĥÃĳ":3523,"Â·Â¯Ã·Â°Â¯Â¯":3524,"ÃĵÄ°":3525,"ĠÃ¯Ä·":3526,"ĠÂ¯Â¯Â¯Â·Â¯Ã·Â¯Â¯":3527,"ĠÂ¯Â±Â°Â¯Â¯Â¿":3528,"ĠÂ¯Â±Â±Â¯Â°Â¯Â¯Â¯":3529,"ĠÂ¯Â·Â°Â¯Â¯Â´Â¯Â¯":3530,"ĠÂ¯Â¯Â°Â°Â¯Â°Â°Â¯":3531,"ĠÂ¯Â¯Â¿Â¯Â¿Â¸Â¯Â¯":3532,"ÃĢÃ±":3533,"ĠÂ¯Â¿Â¯Â¯Â¯Â·Â±Â¯":3534,"ĠÂ¯Â¿Â¯Â¯Â¯Â·Â·Â¯":3535,"ĠÂ¯Â¯Â´Â¯Â¯Â¯Â·Â¯":3536,"ĠÂ¯Â¯Â¿Â¯Â¿Â¿Â¯Â¯":3537,"Â°Â¯Â¯Â·Â±Â¯":3538,"Â·Â¯Â¯Â¯Â¿Â¯Â¯":3539,"Â´Â¯Â¯Â·":3540,"ĠÂ¯Â¿Â¯Â¯Â°Â°Â¯Â¯":3541,"ĠÂ¯Â·Â¯Â¯Â°Â°Â¯Â¯":3542,"Ä¯ÃģÃ¯":3543,"Â¯Â¯Â¯Â¿Â´Â¯":3544,"Ã·Â¯Â¿":3545,"Â¯Â°Â¯Â¯Â°Â¯Â¯":3546,"Â¯ÃĹÂ±Â¯":3547,"ĠÂ¯Â¯Ã·Â±Â¸Â¯Â¯Â¯":3548,"ĠÂ¯Â¯Â¿Â·Â·Â¯Â¯Â¯":3549,"ĠÂ¯Â¯Â¯Â°Â¯Â¿":3550,"Ã¹Ã¯":3551,"ĠÂ¯Â¯ÃĹÂ¯Ã·":3552,"ĠÂ¯Â¿Â·Â°":3553,"ĠÂ¯Â¯Ã·Â´Â¯Â±Â°Â¯":3554,"ÃıÅĲ":3555,"Â°Â¯Â·Â±Â¯":3556,"Ã·Â±":3557,"ĠÂ¯Â¯Â·Â¯Â¯Â¿":3558,"ĠÂ¯Â¯ÃĹÂ¯Â¿Â¸Â¯Â¯":3559,"Â´Â¯Â·Â´Â¯":3560,"Ã¯Ã°Ä¯":3561,"ĠÂ·Â¯Â¿Â¯Â¯Â¯Â¯Â¯":3562,"ĠÂ¯Â¯Â¯Â¯Â±Â¯Â·Â¯":3563,"Â±Â¯Â±Â¯":3564,"ÅıÃ¹":3565,"ĠÂ¯Â·Â¿Â¯Â·":3566,"ÃĹÂ¯Â¯Â¯Â°Â¯":3567,"Å¿Ã±":3568,"ĠÂ¯Â°Â°Â¯ÃĹ":3569,"ĠÂ¯Â¿Â¸Â¯Â¯ÃĹ":3570,"ĠÂ¯Â¯Ã·Â±Â¯Â¯":3571,"ĠÃıÃ±":3572,"ĠÂ¯Â°Â¯Â¯Â¯Â¿Â·Â¯":3573,"Ã¯ÃĲÄ¯":3574,"ĠÂ¯Ã·Â¸Â¯Â¯Â¯Â¯Â¯":3575,"ĠÂ¯Â¯Â»Â¯Â¯Â¿Â¯Â¯":3576,"ĠÂ¯Â¯Ã·Â°Â¯Ã·Â¯Â¯":3577,"ĠÂ¯Ã·Â°Â¯Â¯ÃĹÂ¯Â¯":3578,"ĠÂ¯Â¯Â·Â¯Â±Â·Â¯Â¯":3579,"Â¯Â¸Â°Â¯":3580,"Ã¯Ãµ":3581,"Ã¯Ã»":3582,"Ã¿Åĺ":3583,"ĠÂ¯Â¿Â»":3584,"ĠÂ¯Â¿Â¿Â¯Â¯Â±Â¯Â¯":3585,"Â·Â¯Â±Â¯":3586,"Ä³Äĥ":3587,"Â´Â¯Â¸Â¯Â¯":3588,"ĠÂ¯Â¯Â°Â°Â¯Â¿Â¯Â¯":3589,"ÃıÃģÄ¯Ãĵ":3590,"Â¯ÃĹÂ´Â¯":3591,"ĠÂ¯Â¯Â¯Â¯Â¯ÃĹÂ¸Â¯":3592,"Â±Â¿Â¿Â¯Â¯":3593,"Â¯Â¯Â±Â·Â¯Â¯":3594,"Â¯Â¯Â¯Â¿Â¸Â¯Â¯":3595,"ÃıÄ¯Ãı":3596,"ĠÂ¯Â¯Â°Â¯Â¸Â°Â¯Â¯":3597,"ÃĶÃ¯":3598,"ÃĺÄ¯":3599,"ÅŁÃĥ":3600,"ĠÂ¯Â±Â±Â¯Â¿":3601,"ĠÂ¯Â¿Â°Â¯Â±Â°Â¯Â¯":3602,"ÃıÄ±Ãģ":3603,"ĠÂ¯Â¯Â°Â°Â·":3604,"Â¯Â¯Â¯Â¯Â¿":3605,"ĠÂ¯Â¯Â·Â¯ÃĹ":3606,"ĠÄ¯Å¯":3607,"ĠÂ¯Â¯ÃĹÂ°Â¯ÃĹÂ°Â¯":3608,"ĠÂ¯Â¸Â°Â¯Â¯Â¯Â¯Â¯":3609,"ĠÂ¯Â¯Â±Â¯Â·Â·Â¯Â¯":3610,"ÅıÄ±Ãģ":3611,"Â¯Â¯Â¯ÃĹÂ¸Â¯":3612,"Ä¿Ä³Ãģ":3613,"Åµ":3614,"ĠÂ±Â¯Â¯Â¯Â¯Â¯":3615,"ĠÂº":3616,"ÅıÃŁ":3617,"ÅıÃıÃ¯":3618,"Ä°Ã±":3619,"Ã³Âµ":3620,"ĠÂ¯Â¯ÃĹÂ°Â¯Â¯Â·Â¯":3621,"ĠÄ¯Ã¯Åı":3622,"ÃıÃıÃ¯":3623,"ĠÂ¯Â°Â°Â¯Â·Â´Â¯Â¯":3624,"ĠÂ¯Â¯Ã·Â°Â¯Â´Â¯Â¯":3625,"ĠÂ¯Â¯Ã·Â¯Â¿Â°Â¯Â¯":3626,"Â±Â°Â¯Â±Â¯Â¯Â¯":3627,"ĠÂ¯Â·Â¯Â¯Â¯Â»Â¯Â¯":3628,"ĠÂ¯Â¯Â¯Â¿Â·":3629,"Ä¸Ä¯":3630,"ĠÂ±Â¯Â¯Â¯Â¯Â°Â¯Â¯":3631,"ĠÂ¯Â¯Â°Â¯Â·Â·Â¯Â¯":3632,"ĠÂ¯Â¯Â°Â°Â·Â°Â¯Â¯":3633,"ĠÂ·Â¯Â¯Â¯Â¯Â¯Â°Â¯":3634,"ĠÂ¼":3635,"Ã¯Ã§":3636,"ĠÂ¯Â¯Â¿Â¶":3637,"ĠÂ¯Â¯Ã·Â¯Â·Â°Â¯Â¯":3638,"Â¯Â·Â¯Â¯Â¯Â¯Â¯Â¯":3639,"Ä¯Ä¯Ä¯":3640,"ĠÂ¯Â¯Â¸Â±":3641,"ĠÂ¯Â¿Â°Â¯Â¯Â·":3642,"ĠÂ¯Â¯ÃĹÂ°Â¯Â´Â¯Â¯":3643,"ĠÂ¯Â¿Â±Â¯Â¯Â¿Â°Â¯":3644,"ĠÂ¯Ã·Â¯Â¯Â±Â¯Â¯Â¯":3645,"ĠÂ¯Â·ÃĹÂ¯Â¯Â¯Â¯Â¯":3646,"ĠÂ¯Â±Â±Â¯Â¯Â¯Â±Â¯":3647,"ĠÂ¯Â¯Â±Â·Â¯":3648,"ĠÂ¯Â¿Â·Â¯Â¿Â¸Â¯Â¯":3649,"ĠÂ¯Â¯Â·Â°Â°Â¯Â¯Â¯":3650,"ĠÂ¯Â°Â°Â¯Â¯Â°Â°Â¯":3651,"ĠÂ¯Â·Â±Â¯Â°Â¯Â¯Â¯":3652,"Â¯Â´Â¯Â¯Â¯Â¯":3653,"Â±ÃĹÂ±Â¯Â¯":3654,"Â´Â·":3655,"Â´Â¯Â¯ÃĹÂ¯Â¯":3656,"ĠÂ¯Â¯Â±Â¯Â°":3657,"Â·Â¯Â·Â±Â¯Â¯":3658,"ÃĹÂ¯Â¯ÃĹÂ¯Â¯":3659,"ĠÃıÃĦ":3660,"Â¯Â°Â¿Â±Â¯Â¯":3661,"ĠÂ¯Â±Â¯Â¿":3662,"Â°Â¿Â¿Â¯Â¯":3663,"ĠÂ¯Â´Â¯Â¯Â¯Â±Â¯Â¯":3664,"Â¯Â¯Â¸":3665,"Â±Â¯Â¯Â»Â¯Â¯":3666,"ĠÂ¯Â·Â¿Â¯Â¯Â°Â¯Â¯":3667,"ĠÂ¯Â¯Â°Â¯Â¯ÃĹ":3668,"ĠÂ¯Â±Â¿Â¯Â¯":3669,"ÃĲÃĦ":3670,"Ã°Ãĳ":3671,"ĠÂ¯Â°Â¯Â¯Â·Â´Â¯Â¯":3672,"ĠÂ¯ÃĹÂ·Â¯Â¯Â¯Â¯Â¯":3673,"Â¯Â°Â¿Â·Â¯Â¯":3674,"ĠÂ¯Â¯Â¯Â¸Â¯Â±Â°Â¯":3675,"Â¯Â¯ÃĹÂ¸Â¯":3676,"ĠÂ¯Â¯Â¸Â¯Â¯Â¯Â±Â¯":3677,"Â¯Â¯Â¯Â·Â¯Â¯Â¯Â¯":3678,"Â¯Â¯Â¯Â¿Â¯Â¯Â¯Â¯":3679,"Â°Â¯ÃĹÂ´Â¯":3680,"ĠÂ¯Â¯Â·Â·Â¯Â±Â¯Â¯":3681,"Ã·Â¸Â¯Â¯":3682,"ÃĵÃĢ":3683,"ÃĻÃ¯":3684,"ÄĥÃ¯":3685,"ĠÂ¯Â°Â¯Â¯ÃĹ":3686,"ĠÂ¯Ã·Â±Â¯Â¯Â±Â¯Â¯":3687,"ĠÂ¯Â¿Â±Â¯Â¿Â·Â¯Â¯":3688,"Â¯Â¯Â·Â¯Â°Â¯Â¯Â¯":3689,"ĠÂ¯Â¿Â¯Â¯Â¯Â¯Â´Â¯":3690,"ĠÂ¯Â¯Ã·Â´Â¯Ã·Â´Â¯":3691,"ĠÂ¸Â¯":3692,"Ã¯ÅĻ":3693,"ÃıÃ¡":3694,"Â±Â¯Â¯Â¯Â¸Â¯":3695,"Â¯Â·Â¸Â¯":3696,"ĠÂ¯Â¯Â¿Â¯Â¯Â¯Â´Â¯":3697,"Â¯Ã·Â¯Â¯Â¯Â¯Â¯":3698,"ĠÂ¯Â¿Â°Â¯Â¯Â´Â¯Â¯":3699,"ĠÂ¯Â¯Â·Â±Â¿Â·Â¯Â¯":3700,"Â¯Â¯Â·Â¯Â±Â´Â¯Â¯":3701,"ĠÂ¯Â¯Â¯Â¯Â¯Ã·Â·Â¯":3702,"Â¯Â¯Â¯ÃĹÂ¯":3703,"ÃıÄĢ":3704,"ÃĥÂµ":3705,"Â´Â¯Â¯Â±Â°Â¯":3706,"ĠÂ¯Â¯Ã·Â·Â¯Â¯Â¯Â¯":3707,"ÅĵÂµ":3708,"Å¯Äı":3709,"Â»Â¯Â±Â¯Â¯":3710,"Â»Â¯Â°Â¯Â¯":3711,"ĠÂ¯Â¿Â·Â¯Â¯Â°Â°Â¯":3712,"ĠÂ¯ÃĹÂ¯Â¯Â¯Â¯":3713,"ĠÂ¿Â·Â¯Â¯Â°Â¯Â¯Â¯":3714,"Ã¯Ä±Ãģ":3715,"Ã¯Ä¯Ãĥ":3716,"ĠÂ¯Â¯Â¯Â¯Â¯Â·Â¯":3717,"Ä¯Ä¡":3718,"ÃĥÃĥ":3719,"ĠÂ¯Â¯Â±Â¯Â¯Â·Â´Â¯":3720,"Â¿Â¯Ã·Â´Â¯Â¯":3721,"ĠÄ¯Ä°":3722,"ÄıÂµ":3723,"ĠÂ¯Â±Â¯Â¯Â¯Â¿Â·Â¯":3724,"ĠÂ¿Â±Â¯Â¯":3725,"ĠÂ¯Â¯Ã·Â°Â·":3726,"ĠÂ¯Â¯Â¸Â¯Â°Â´Â¯Â¯":3727,"ĠÂ¯Â¯Â»Â±Â¯Â¯Â¯Â¯":3728,"ĠÂ¯Â¿Â°Â¯ÃĹÂ¯Â¯Â¯":3729,"ĠÂ¯Â¯Â¿Â°Â¯Â´Â¯Â¯":3730,"ĠÂ¯Â¿Â±Â¯Â¯ÃĹÂ¯Â¯":3731,"Ã¯Ãº":3732,"Â·Ã·Â¯Â¯Â¯":3733,"Â°Â¯Â¿Â±Â¯":3734,"ĠÂ¯Â¯Â¿Â·Â¯Â¯Â°Â¯":3735,"ĠÂ¯Â¯Â¯Â¯Â¯Â¯Â¶Â¯":3736,"Ä°Åı":3737,"ÃģÄ¯Ãı":3738,"ĠÄ¯Ä¹":3739,"Â·Â¯Â¯Â¯Â¯Â±Â¯":3740,"ĠÂ¯Â¯Â¯Â·Â¿":3741,"ĠÂ¯Â¯Â±Â°ÃĹÂ¯Â¯Â¯":3742,"Â¯Â¯Â¿Â»Â¯Â¯":3743,"ĠÂ¯Â¿Â°Â¯Â¿Â±Â¯Â¯":3744,"ĠÂ¿Â·Â¯Â¯ÃĹÂ¯Â¯Â¯":3745,"ĠÂ¯Â¯Â°Â¯Â·Â¿Â¯Â¯":3746,"Â±Â¿Â¿Â¯Â¯Â¯":3747,"Ã¯Äī":3748,"ĠÂ¯Â¯Â·Â±Â¯Â¯Â°Â¯":3749,"Ã±Ãĺ":3750,"ĠÂ¯Â¯ÃĹÂ¯Â¯Â¯Â´Â¯":3751,"Â¿Â¯Â°Â°Â¯Â¯":3752,"ÄĥÃĳ":3753,"Â´Â¯Â¯Â¯Â·Â¯":3754,"ĠÂ¯Â¯Â±Â°Â¿Â¸Â¯Â¯":3755,"Ã¯ÃĢÄ¯":3756,"ĠÂ¯Â¯Â·Â±Â¿":3757,"ĠÂ¯Â¯Ã·Â¯Â¯Ã·Â¯Â¯":3758,"Â¯Â¯Â¯Â°Â±Â¯":3759,"Ä¯Äĭ":3760,"Â±Â¯Â´Â°Â¯":3761,"Ä°Ä¿":3762,"Â·Â¯Â±Â±Â¯":3763,"ÃĵÃĲ":3764,"ĠÄ¯ÃĲ":3765,"Â¸Â¯Â¯Â¿Â¯":3766,"Ã°ÃĶ":3767,"ĠÂ¯Â¯Â¸Â¯Â¿Â·Â¯Â¯":3768,"ĠÂ¯Â¯ÃĹÂ°Â¸Â¯Â¯Â¯":3769,"ĠÂ¯ÃĹÂ¯Â¯Â±Â¯Â¯Â¯":3770,"ĠÂ¯Â¯Â¿Â·Â¯Â±Â°Â¯":3771,"ĠÂ¯Â¯Â¿Â·Â·":3772,"ÅıÃ³Ãģ":3773,"ĠÂ¯Â¯Â¯Â¯Â¸Â¿Â¯Â¯":3774,"Ã¯ÄĻ":3775,"Â°Â¯Â·Â¯":3776,"ÃĥÃ±":3777,"ĠÂ¯Â¿ÃĹÂ°Â¯Â¯Â¯Â¯":3778,"ĠÂ¯Â¯Â¿Â¯ÃĹÂ´Â¯Â¯":3779,"ĠÂ¯Â¯Â·Â¯Â¯Ã·":3780,"Ä³Ãĵ":3781,"Â¿Â¯Â°":3782,"ÅĹÃ³":3783,"ĠÂ¿Â·Â¯Â¯Â¯Â±Â°Â¯":3784,"ĠÂ¯Â¸Â¯Â¯Â¯Â·Â¯Â¯":3785,"Â¯Â¯Â¯Â¯Â¯Â´Â¯Â¯":3786,"ÄıÃŁ":3787,"Â»Â¯Â¿Â¯Â¯Â¯":3788,"ĠÂ¯Â¯Â´Â¯Â¯Â¿Â±Â¯":3789,"ĠÂ¯ÃĹÂ°":3790,"ĠÂ¯Â¯Â¸Â¯Â´Â¯Â¯Â¯":3791,"ĠÂ¯Â±Â¯Â±":3792,"Å»":3793,"Â±Ã·Â°Â¯Â¯":3794,"ÃĳÃ³":3795,"ĠÃ¯Äģ":3796,"Â´Â¯Ã·Â´Â¯Â¯":3797,"ÃĺÃ¯":3798,"ĠÂ¯Â±Â¯Â¯Â¯Ã·Â¯Â¯":3799,"ĠÂ±Â¯Â¯Â¯Â¯Â±Â¯Â¯":3800,"ĠÂ¯Â¿Â¸Â¯Â¿Â¸Â¯Â¯":3801,"ĠÂ¿Â·Â¿Â¯Â¯Â¯Â¯Â¯":3802,"Â°Â¯ÃĹÂ°Â¯":3803,"Â¸Â¿Â·Â¯Â¯":3804,"ĠÂ¯Â¯Â·Â¯Â¯Ã·Â°Â¯":3805,"ĠÂ¯Â¯Â±Â±Â¯Â¿Â¯Â¯":3806,"Â´Â¯Â¯Â¯Â¿Â¯":3807,"Ã¯Ã¯Ã¯":3808,"Å±Ãĵ":3809,"Â¯Â·Â¯Â°Â¯":3810,"ĠÂ¯Â¯Ã·Â±Â¯Â·":3811,"ÃıÄĩ":3812,"ĠÂ¯Â¯Â¿Â·Â¯Â¯Â±Â¯":3813,"ĠÂ¯Â¯ÃĹÂ¯Â¯Â·Â°Â¯":3814,"Â¯Â·Â·Â¯Â¯Â¯":3815,"Ã°ÃĲ":3816,"ÃıÃģÄ¯Ä³":3817,"ÅĺÃĥ":3818,"Ã²Ãı":3819,"ĠÂ¯Â¯Â¯Â¯Â´Â·Â¯Â¯":3820,"ĠÂ¯Â¯Â¿Â¯Â°Â´Â¯Â¯":3821,"Ä°Ä¯Ã¯":3822,"ĠÂ¯Â¯ÃĹÂ¯Â¯Â¯Â¿Â¯":3823,"ĠÃıÃıÃ¯":3824,"ĠÂ¯Â¿Â´Â¯Â¯Â¿Â¯Â¯":3825,"Â°Ã·Â´Â¯Â¯":3826,"Â´Â¯Â¿Â·Â¯":3827,"ÃĹÂ±":3828,"Ä¿Ã¿":3829,"ĠÂ¯Â¯Â¯Â°Â¸Â¯Â¯Â¯":3830,"ĠÂ·Â¿Â¯Â¯Â¯Â¯Â¯Â¯":3831,"ĠÂ·Â°Â¯Â¯Â¯Â¯Â¯Â¯":3832,"Ã¯ÃĳÃı":3833,"ĠÂ¯Â¯Â·Â±Â¿Â°Â¯Â¯":3834,"ĠÂ¯Â¿Â±Â¯Â¯Â±Â°Â¯":3835,"Â¯Â¯Â±Â·Â¯":3836,"ĠÃ¿Ãģ":3837,"ĠÂ¯Â¯ÃĹÂ´Â¯ÃĹÂ´Â¯":3838,"ĠÂ´Â¯Â¯Â¯Â¯":3839,"Â´Â¯Â¯Â´Â¯":3840,"Â·Â¯Ã·":3841,"ĠÂ¯Â¯Â°Â¯Â°":3842,"ĠÂ¯Â¯Â±Â±Â¯Â±Â±Â¯":3843,"ĠÂ¯Â¯Â¯Â¯Â¯Â»Â°Â¯":3844,"Â·Â·Â´Â¯Â¯":3845,"Â¿Â°Â·Â¯Â¯Â¯":3846,"Â¿Â¯Â¯Ã·Â°Â¯Â¯":3847,"Â¿Â¯Â¯Â±Â±Â¯":3848,"Â¿Â¯Â¿Â¯Â¯Â¯Â¯":3849,"ĠÄ¯Äı":3850,"ĠÂ¯Â¯Â¯Â°Â¯ÃĹÂ°Â¯":3851,"ĠÂ¯Â·Â¯Â¯Ã·Â´Â¯Â¯":3852,"ĠÂ¯Â¯Â¯Â´Â¯Ã·Â¯Â¯":3853,"ĠÂ¯Â¯Â¿Â±Â¿Â±Â¯Â¯":3854,"ĠÂ¯Â¯Â´Â°":3855,"ĠÂ¯Â¿Â°Â¯Â¿Â°Â¯Â¯":3856,"ĠÂ¯Ã·Â¯Â¯Â·Â¯Â¯Â¯":3857,"ĠÂ¯Â·Â±Â¯Â·Â¯Â¯Â¯":3858,"Â¯Â¯Â°Â´Â¯Â¯":3859,"ĠÂ¿Â¿Â¯Â¿Â¿Â¯Â¯Â¯":3860,"ĠÅĵ":3861,"Â¯Â±Â¯Â±Â¯Â¯":3862,"Â¯Â¯Â»Â±Â¯":3863,"Â´Â¯Â¿Â·Â¯Â¯":3864,"Â·Â¯Â¿Â±Â¯":3865,"ÃĵÂµ":3866,"ĠÂ¯Â¯Â±Â¯Â¯Â¿Â¿Â¯":3867,"Ä¯ÃıÃı":3868,"ĠÂ¯Â±Â°Â¯Ã·Â´Â¯Â¯":3869,"ĠÂ¯ÃĹÂ°Â¯Â¯Â¯Â°Â¯":3870,"ĠÂ¿Â·Â¯Â¯Â¿Â·Â¯Â¯":3871,"ĠÂ¯Â·Â°Â¯Â°Â¯Â¯Â¯":3872,"ĠÂ¿Â¯Â·Â¯":3873,"Â±Â¿Â»Â¯Â¯":3874,"ĠÂ¯Â¿Â¸Â¯Â¯ÃĹÂ¯Â¯":3875,"ĠÂ·Â¯Â¯Â¯Â¯Â¯Â±Â¯":3876,"Ä¯ÅĶ":3877,"ĠÂ¯Â¯Â·Â¯Â¯Â·Â´Â¯":3878,"Â¿Â¯Â¿Â¯":3879,"Â¸Â¯Â¯Â·":3880,"ĠÂ¿Â¸Â¯Â¯Â¯":3881,"ĠÂ¯Â±Â°Â¯Â¯Â¿Â±Â¯":3882,"ĠÂ¯Â¯ÃĹÂ°Â¯Â·Â°Â¯":3883,"ÆıÃ¿":3884,"ĠÂ¯Â¿Â±Â¯Â¯Â·":3885,"ĠÂ·Â·Â¯Â¯Â·Â¯Â¯Â¯":3886,"ĠÂ¯Â¯Â±Â¯Â°Â±Â¯Â¯":3887,"Â¸Â¯Â¯ÃĹÂ´Â¯":3888,"ĠÂ¯Â¯Â¯Â¯Â·Â°Â°Â¯":3889,"ĠÃ¯ÃıÄ¯":3890,"Ä¯ÃģÄ¯":3891,"Â¯Â±Â¯Â¯Â·Â¯Â¯":3892,"ĠÂ¯Â¯Â´Â¯Ã·":3893,"Â°Â¿Â´Â¯Â¯":3894,"ĠÂ¯Â»Â±Â¯":3895,"ĠÂ¯Â¯Â·Â·Â¯Â·Â·Â¯":3896,"Ä¿Ä³Ãĥ":3897,"Ã¢":3898,"Â°Â¯Â¯Â±Â±Â¯":3899,"ÃĹÂ±Â¯Â¯Â¯":3900,"ĠÂ¯Â¿Â¿Â¯Â·Â¯Â¯Â¯":3901,"ĠÂ¯Â¿ÃĹÂ¯Â¿Â¯Â¯Â¯":3902,"ĠÂ¯Â·Â»Â¯Â¯Â¯Â¯Â¯":3903,"Ä¿Ãĩ":3904,"ĠÄ¯ÄĹ":3905,"ĠÃ¯Äĥ":3906,"ĠÂ¯Â°Â·Â¯Â¯":3907,"ĠÂ¿Â°Â¯Â¯Â¯":3908,"ĠÂ¯Â¯Â¿Â°Â¯Ã·Â¯Â¯":3909,"ĠÂ¯Â±Â±Â¯Â¯Â·":3910,"Â¯Â¯Â°Â·Â¯":3911,"ĠÂ¿Â¯Â¯Â°Â¯Â¯Â¯Â¯":3912,"ĠÂ¯Â¯Â°Â¯Â¿Â´Â¯Â¯":3913,"Â¯Â¯Â¯Â¯Â·Â¯Â¯Â¯":3914,"Â°Â¯Â±Â¯":3915,"ĠÂ¯Â·Â¯Â¿":3916,"Â´Â¯Â¯Â´Â¯Â¯":3917,"ÃģÃĵ":3918,"ĠÂ¯Â¯Â°Â¯Â¯Â´Â°Â¯":3919,"ĠÂ¯Â¯Â±Â¯Â¯Ã·Â±Â¯":3920,"ĠÂ¯Â¯Â¿Â¯Â¯Â·Â·Â¯":3921,"ĠÄ¯Ãķ":3922,"ĠÂ¯Â·Â¯Â¯ÃĹÂ±Â¯Â¯":3923,"ÄĥÄ¯":3924,"Â»Â¯Â·Â¯Â¯":3925,"ĠÂ¯Â¯ÃĹÂ±Â¿Â±Â¯Â¯":3926,"ĠÂ¯Â¯ÃĹÂ±Â¯Â¸Â¯Â¯":3927,"ĠÂ´Â¯":3928,"Â¯Â¯Â¯Ã·Â´Â¯Â¯":3929,"ÃĲÃĢ":3930,"ĠÂ¯Â¯Â¯Â°Â¯Â·Â·Â¯":3931,"ĠÂ¯Â¿Â¯Â¯Â¯Â¿Â±Â¯":3932,"ÅĲÃģ":3933,"ĠÂ¯Â¯Â¯Â·ÃĹÂ¯Â¯Â¯":3934,"ĠÂ¯Â¯Ã·Â°Â¿Â°Â¯Â¯":3935,"ĠÂ¯Â¯Â¿Â±Â°Â¯Â¯Â¯":3936,"Â¯Ã·Â°Â¯":3937,"ĠÂ¯Â¯ÃĹÂ±Â·Â¯Â¯Â¯":3938,"ĠÂ±Â±":3939,"ĠÂ¿Â¿Â¯Â¯Â¿Â·Â¯Â¯":3940,"ĠÂ¯Â¸Â°Â¯":3941,"ĠÂ¯Â·Â¿Â¯Â°Â¯Â¯Â¯":3942,"ĠÂ·Â·Â¯Â¯Â¯Â°Â¯Â¯":3943,"ĠÂ¯Â¯Â·Â·Â¯Â·":3944,"Ã¯ÄĲ":3945,"ĠÂ¯Â¯Â¯Â¯Â¯Â»":3946,"Â°Â¯Â¯Â¿":3947,"Â¿Â¯Â¯Â¿Â¿Â¯":3948,"ĠÂ¯Â¿Â¿Â¯Â¯Â·Â¯Â¯":3949,"Ã·Â¯Â¯Â·Â¯Â¯":3950,"ÄıÃĺ":3951,"Â¸Â¯Â°Â¯Â¯Â¯":3952,"ĠÂ·Â¯Â·Â¯":3953,"ĠÂ¯Â¯Â±Â¯Â·Â¿Â¯Â¯":3954,"ĠÂ¯Â¯Â¯Ã·Â¯":3955,"Ä¿Ãħ":3956,"ĠÂ¯Â¯ÃĹÂ´Â¯Â·Â¯Â¯":3957,"ĠÂ¯Â¯Ã·Â·Â¯":3958,"ĠÂ¯Â¿Â·Â¯Â¸Â¯Â¯Â¯":3959,"ĠÂ¯Â°Â¯Â¯Â¿Â°Â¯Â¯":3960,"Â¯Â±Â¯Â¯Â±Â¯Â¯":3961,"Â¯Â¯Â¿Â°Â¯Â¯Â¯Â¯":3962,"Â¯ÃĹÂ°Â¯Â¯Â¯Â¯":3963,"ĠÂ¯Â¯Â¯Â¯ÃĹÂ¯Â±Â¯":3964,"Â¯Ã·Â¯":3965,"ÃıÃ´Ãģ":3966,"ĠÄĥ":3967,"ĠÅıÃı":3968,"ĠÂ¯Â»Â¯":3969,"Ã¯Äĵ":3970,"Ä¯Ãº":3971,"Â¯Â¯Â¯Â¯Â¯Â±":3972,"Â·Â¯Â¯Â¿Â±Â¯":3973,"Ã¿Ãĩ":3974,"Â´Â¿Â±Â¯Â¯":3975,"Ã³Ãĵ":3976,"ÃĢÃĳ":3977,"Â´Â¯Ã·Â´Â¯":3978,"ĠÂ¯Â±Â°Â¯Â¿Â°Â¯Â¯":3979,"ĠÂ¯Â¯Â¿Â°Â°Â¯Â¯Â¯":3980,"ĠÂ¯Â¯Â¯Â¯Â±ÃĹÂ¯Â¯":3981,"Â¯Â°Â¯Â±Â¯Â¯Â¯":3982,"ĠÂ±Â¯Â¿Â¯Â¯Â¯Â¯Â¯":3983,"ĠÂ¯Â·Â´Â¯Â¯Â±Â¯Â¯":3984,"Ã¯Å¿":3985,"Â¯Â¯Â¯Â¯Â¿Â¯Â¯Â¯":3986,"Â·Â¯Â¯Â¿":3987,"Â°Â¯Â¿Â¿Â¯":3988,"ĠÂ¯Â¯Â·Â´Â¯Â°Â¯Â¯":3989,"ÅıÃĭ":3990,"ÃĹÂ¿Â¯Â¯":3991,"ĠÂ¯Â¯Â¯Â°Â°":3992,"ĠÃ¯Ä¿":3993,"ĠÂ¯Â°Â¿":3994,"ĠÄ¯Ã¯Ä¿":3995,"ĠÂ·Â±":3996,"ĠÂ¯Ã·Â°Â¯Â¯Â¯":3997,"ĠÂ¯Â¯Â¯Â´Â¯Â·Â°Â¯":3998,"ĠÂ¯Â¯Â¯Â°Â¯Â¯Â¸Â¯":3999,"ĠÂ¯Â¯Â·Â°Â¯Â·":4000,"Â¯Â¯Ã·Â·Â¯":4001,"ĠÂ¯Â¯Â¯Â´Â¯Â¯Â·Â¯":4002,"Â¯Â¯Â»Â±Â¯Â¯":4003,"Ã¿ÃĶ":4004,"ĠÂ¯Â¯Â¯Â°Â±":4005,"ĠÂ¯Â¯Â¯Â±Â¯Â·Â±Â¯":4006,"ĠÂ¯Ã·Â´":4007,"ĠÂ¯Â¯Ã·Â±Â·Â¯Â¯Â¯":4008,"ĠÂ¯Â±Â±Â¯Â¯Â±Â±Â¯":4009,"ĠÂ¯Â¯Â¯Â¯Â´Â¿Â¯Â¯":4010,"Â±Â¯Â¯Ã·Â´Â¯":4011,"Â±Â¯Â±Â±Â¯Â¯":4012,"ĠÂ¯Â¿Â±Â¯Â¯Â¯Â·Â¯":4013,"Ä³Ã³":4014,"ÃĳÄ´":4015,"ĠÂ¯Â°Â±Â¯Â¯Â±Â¯Â¯":4016,"ĠÂ¯Â±Â°Â¯Â¯ÃĹ":4017,"ĠÂ¯Â±Â¯Â·Â¯Â¯Â¯Â¯":4018,"Â¯Â±Â·Â¯Â¯Â¯":4019,"ĠÂ¯Â¯ÃĹÂ±Â·":4020,"ĠÂ¿Â¯Â±Â¯":4021,"ĠÂ¯Â¿Â¸Â¯Â¯Â·Â¯Â¯":4022,"ĠÂ±Â±Â¯":4023,"Â±ÃĹÂ´Â¯Â¯":4024,"ÃıÃľ":4025,"Ã¿Ã³":4026,"Ä¿Ãī":4027,"ĠÃıÄ¿":4028,"ĠÂ¯Â·Â¯Â¯Ã·":4029,"Â¯Â¿ÃĹÂ¯Â¯":4030,"ĠÂ¯Â¯Â¯Â±Â´Â¯Â¯Â¯":4031,"ĠÂ¯Â¯Â±Â¿Â¿Â¯Â¯Â¯":4032,"ĠÂ¯Â¯Â°Â·Â¯":4033,"Â¶Â¯Â·Â¯Â¯":4034,"ĠÂ¯Â·Â±Â¯Â±Â°Â¯Â¯":4035,"ĠÂ¯Â´Â¯Â¯Â·Â¯Â¯Â¯":4036,"ÃıÅ³":4037,"ĠÂ¯Â¿Ã·":4038,"ĠÂ¯Â¿Â¿Â¯Â¯Â¿Â¯Â¯":4039,"ĠÂ¯Â·Â¸Â¯Â±Â¯Â¯Â¯":4040,"ĠÂ¯Â¯Â°Â¯Â±Â±Â¯Â¯":4041,"Ã³Ä·":4042,"ĠÂ¯Â±Â¸Â¯":4043,"Â¸Â¯Â¯ÃĹ":4044,"ĠÂ¯Â°Â´Â¯Â¯Â¯Â¯Â¯":4045,"ĠÄ¯Ä¯Ã¹":4046,"Ä¯ÃĳÄ¯":4047,"ĠÂ¯Â¯ÃĹÂ°Â¯Ã·Â¯Â¯":4048,"ĠÂ¯Â·Â°Â¯Â¯ÃĹÂ¯Â¯":4049,"ÄµÃ¯":4050,"ĠÂ¯Ã·Â´Â¯Ã·Â´Â¯Â¯":4051,"Â¯Â±Â¯Â¿Â¯Â¯":4052,"Â°Â±Â¯Â¯Â¯Â¯":4053,"Â·Â°Â¿Â±Â¯Â¯":4054,"ĠÂ¯Â¯Â¿Â±Â¯Â¯Â·Â¯":4055,"Â·Â¯Â·Â¯":4056,"ĠÄ¯ÃŁ":4057,"Å¯Ä°":4058,"ÃĻÅĦ":4059,"ĠÂ¯Â¯Â¯Â±Ã·Â°Â¯Â¯":4060,"ÅģÃ¯":4061,"ĠÂ¯Â¯Â¸Â¯Â·":4062,"Â¯Â¯Â¿Â°":4063,"Â¯Ã·Â´Â¯":4064,"ĠÂ¯Â¯Â¿Â·Â¯Â¿Â¿Â¯":4065,"ĠÂ¿Â¿Â¯Â¯Â±Â¯Â¯Â¯":4066,"Â·Â°Â¿Â·Â¯Â¯":4067,"ĠÂ¯Â¯Â¿Â´Â¯Â¯Â±Â¯":4068,"Â·Â¯Â¯Â¯Â¿Â¯":4069,"ĠÂ¯Â¯Â¿Â¯Â¸Â°Â¯Â¯":4070,"Â¯Â¯Â·Â¯Â¯Â´Â¯Â¯":4071,"ĠÂ¿Â¿Â·Â¯Â¿Â¯Â¯Â¯":4072,"ÂºÄ¯Ã¯":4073,"ÃıÃ¯Ä¯":4074,"ĠÂ¯Â°Â°Â¯Ã·":4075,"ĠÂ¯Â¯Â¯Â´Â·Â¯Â¯Â¯":4076,"ĠÂ¯Â¿Â·Â±":4077,"ĠÂ¯Â¿Â±Â¯Â´Â¯Â¯Â¯":4078,"ĠÂ¿Â¯Â¯Â¯ÃĹÂ¯Â¯Â¯":4079,"ĠÂ¯Â¸Â¯Â¯Â¯Â±Â¯Â¯":4080,"ĠÂ¯Â¿Â¸Â¯Â¯Â·Â°Â¯":4081,"ĠÂ¯Â¯Â¯Â¯Â°Â¯Â·Â¯":4082,"ĠÃĦ":4083,"ĠÂ¯Â¯Â±Â¯Â¯Â¯Â¯":4084,"Ã¯ÅĦ":4085,"Â¿Â°Â¯Â¿Â¯Â¯":4086,"Â·Â¯Â¯Ã·":4087,"Å¯Äģ":4088,"ĠÂ¿Â¸Â¯Â¯Â¯Â¯Â¯Â¯":4089,"ĠÂ¯Â¯ÃĹÂ¯Â°Â°Â¯Â¯":4090,"ĠÂ¯Â¯Â¿Â±Â·Â°Â¯Â¯":4091,"ĠÂ¿Â·Â¯Â¯ÃĹ":4092,"ĠÂ¯Â¯Ã·Â±Â¿":4093,"ĠÂ¿Â·Â¯Â¯Â¯Â¿Â·Â¯":4094,"ÃıÂºÄ¯":4095,"ĠÂ¯Â·Â¿Â¯Â¸Â¯Â¯Â¯":4096,"ĠÂ¯Â¯Â¯Â¯Â¶":4097,"Â±Â¯Â¯Â¸Â¯":4098,"ĠÂ¯Â·Â»":4099,"ĠÂ¯Â±Â·Â¯Â¿Â¯Â¯Â¯":4100,"ĠÂ¯Â¯ÃĹÂ°Â¯Â¯Â¿Â¯":4101,"Â´Â¯Â±Â°Â¯Â¯":4102,"ĠÂ¯Â¯Â°Â¿Â·Â¯Â¯Â¯":4103,"ĠÂ¯Â¯Ã·Â¯Â´Â¯Â¯Â¯":4104,"ĠÂ¯Â¯Â¯Â¯Â°Â¸Â¯Â¯":4105,"ÃĹÂ¯Â´Â¯Â¯Â¯":4106,"ĠÂ¯Â°Â¯Â°":4107,"Â¯Â·Â¯Â±Â¯":4108,"ĠÂ¯Â¸Â¯Â¯Â¯Â°Â¯Â¯":4109,"ĠÂ¯Â¯Â¯Â¯Â¿Â¯Â¯":4110,"Â°Â¿Â¯Â¯Â¯Â¯":4111,"Â·Â¯Â¯Â±Â¯Â¯Â¯":4112,"ĠÂ¯Â¯Â¯ÃĹÂ¯":4113,"ÃĥÃĢ":4114,"ĠÂ¯Â¯Â¿Â¯Ã·Â±Â¯Â¯":4115,"ÃĵÄģ":4116,"ĠÂ¯Â¯Ã·Â°Â¯Â¯Â·Â¯":4117,"ĠÃ¯Ã¯Ãĵ":4118,"ÄģÄ¯":4119,"Â¯Â·Â°Â¯Â¯Â¯":4120,"Ä¯ÃģÃı":4121,"Ä¹Ä¯":4122,"ĠÂ¯Â¯Â±Â°Â±Â¯Â¯Â¯":4123,"ĠÂ¯Â¿Â°Â¯Ã·Â¯Â¯Â¯":4124,"ĠÂ¯Â¯Â¯Â¿Â¯Â´Â¯Â¯":4125,"Â°Â¿Â±Â¯Â¯Â¯":4126,"ĠÂ±Â¯Â¯Â¯Â¿Â¯Â¯Â¯":4127,"Â¯Â¯Â¯Â°Â°Â¯Â¯":4128,"Â¯Â¯Â¯Â»Â¯":4129,"ĠÂ¯Â¯Â¯Â¯Â·Â¯Â¯":4130,"ÃĹÂ°Â¯Â±Â¯Â¯":4131,"ĠÂ¯Â¿Â°Â¯Â¯Â¯Â±Â¯":4132,"ĠÂ¯Â·Â´Â¯Â¯Â·Â¯Â¯":4133,"Ä¿Âº":4134,"ĠÂ¯Â¿Â¯Â¯Â¿Â¸Â¯Â¯":4135,"ÄıÃĦ":4136,"ĠÂ¯Â¿Â·Â¯Â·Â±Â¯Â¯":4137,"Â¯Â·Â¯Â¯Â·Â¯Â¯":4138,"Â¯Â°Â¯Â¯Â·Â¯Â¯":4139,"ĠÂ¯Â¯Â¸Â¯Â°":4140,"ĠÂ¯Â¯Â»Â¯Â¯Â´Â¯Â¯":4141,"ĠÂ¿Â¯Â¿Â¯":4142,"ĠÂ¯Ã·Â°Â¯Â¯Â¸Â¯Â¯":4143,"Â½Â³":4144,"ĠÂ¿Â·Â·Â¯Â¯Â¯Â¯Â¯":4145,"Â±Â¿Â°Â¯Â¯Â¯":4146,"Â¿Â¯Â¯Â·Â´Â¯":4147,"ÃĹÂ¯Â¿Â·Â¯Â¯":4148,"ĠÂ¯Â±Â¿Â¯Â·Â¯Â¯Â¯":4149,"ÃĳÃĵ":4150,"ĠÄ¯Åĳ":4151,"Ä±Ã±":4152,"ĠÃıÃĩ":4153,"ĠÃ¯Åĵ":4154,"ĠÂ¯Â±Â°Â¯Â·Â±Â¯Â¯":4155,"ĠÂ¯Â¯Â¯Â·Â¯Â¿":4156,"ĠÂ¯Â¯Â¯Â·Â´Â¯Â¯Â¯":4157,"ĠÂ¯Â¯Â»Â°":4158,"ÃıÄ±Ãĥ":4159,"ĠÂ¯Â¸Â¯Â¯Â¯Â¿Â¯Â¯":4160,"ÅıÄ±Ãĥ":4161,"Â¯Â´Â°Â¯Â¯":4162,"Â¯Â¯Â»Â°Â¯Â¯":4163,"Â±Â·Â¯Â¯Â¯Â¯Â¯":4164,"ÃıÅĶ":4165,"ĠÂ¯Â¯Â¯Â°Â¯Â¯Â¯":4166,"ĠÂ¯Â¯Â¿Â·Â¯Â¯":4167,"ÅıÃ°":4168,"ÃĹÂ¯Â·":4169,"ĠÂ¯Â¿Â´Â¯Â¯Â¯Â°Â¯":4170,"Ã·Â¯Â¯Â¯Â°Â¯Â¯":4171,"ĠÂ¯Â¯Â±Â¯Â°Â´Â¯Â¯":4172,"ĠÂ¯Â¯Â·Â¯Â¯Â¶Â¯Â¯":4173,"ĠÂ¯Â¯Ã·Â¯Â¯Â´Â¯Â¯":4174,"ĠÃıÅı":4175,"Â´Â¯ÃĹ":4176,"ĠÂ¯Â·Â¯Â¯Â¯Â±Â±Â¯":4177,"ĠÂ¯Â¯Â¯Â±Â¿Â¸Â¯Â¯":4178,"ÄıÃ°":4179,"ĠÂ¯Â¯Â¯Â·Â¯Â¿Â±Â¯":4180,"ĠÂ¯Â±Â¯Â°":4181,"ĠÂ±Â¯Â¯Â¯Â¯Â¿Â¯Â¯":4182,"ĠÂ±Â¯Â¯Â±Â¯Â¯Â¯Â¯":4183,"Äķ":4184,"ĠÂ¯Â¯Â°Â¯Â¯Â¯Â¯":4185,"Ä¯Ä»":4186,"Â¯Â¯Â¯Â¯Â¿Â±Â¯":4187,"ÃĵÃ°":4188,"ĠÄ¯Äµ":4189,"ÃĻÃı":4190,"ĠÂ¯Â¯ÃĹÂ¯Ã·Â°Â¯Â¯":4191,"ÅŁÃı":4192,"Ä¯Ã±Ãı":4193,"ĠÂ¯Â¯Â¯Â·Â¿Â±Â¯Â¯":4194,"ĠÂ¯Â¯Â¸Â°Â¯":4195,"ĠÂ¯Â¿Â·Â±Â¯Â¯Â¯Â¯":4196,"ĠÂ¯Â±Â±Â¯Â¯ÃĹÂ¯Â¯":4197,"ĠÂ¯Â¯Â¿Â´Â¯Â´Â¯Â¯":4198,"ĠÂ¯Â¯Â·Â¯Â°Â¸Â¯Â¯":4199,"Â¯Â¯Â±Â¿Â¯Â¯":4200,"ĠÂ¯Â¯Â´Â¯Â¯Â¯Â¿Â¯":4201,"ĠÂ¯Â¯Â¯Â¯Â¸Â¯":4202,"Â·Â´Â¯Â¯Â¯Â¯":4203,"ÃıÅŁ":4204,"ÃıÅ¿":4205,"Â¿Â¯Â¯Â±Â¯":4206,"Â±Â¯Â·Â¯":4207,"Â±Â¯Â·Â±Â¯Â¯":4208,"ĠÂ¯Â¯Â·Â±Â¯Â¯Â±Â¯":4209,"Ã¿Ä·":4210,"Â·Â¯Â·Â·Â¯":4211,"ĠÂ¯Â¯Â¯Â±Â¯Â·Â·Â¯":4212,"Â´Â¯Ã·":4213,"Â¯Â°Â¯Â¯Â±Â¯Â¯":4214,"ĠÂ¯ÃĹÂ±Â¯Â¯Â·Â¯Â¯":4215,"Â¯Â°ÃĹÂ¯Â¯Â¯":4216,"ĠÂ¯Â¿Â±Â¯Â·Â°Â¯Â¯":4217,"ĠÂ±Â¯Â¯Â¯Â¯Â·Â¯Â¯":4218,"ĠÂ¯Â¯Â·Â¯Â¯Â¯Â¸Â¯":4219,"ĠÂ¯Ã·Â°Â¯Â¯Â±Â°Â¯":4220,"ĠÂ¯Ã·Â¯Â¯Ã·Â¯Â¯Â¯":4221,"ĠÂ¿Â¿Â¯Â¯Â¯Â·":4222,"ĠÅĥ":4223,"Â¯Â¶Â¯Â¯Â¯":4224,"Â¯Â¯Â¯Â¯Â¯Â·Â¯Â¯":4225,"Â·Â¯Â¯ÃĹ":4226,"Â¿Â¯Â¯Ã·Â¯Â¯Â¯":4227,"ĠÂ¯Â¯Â·Â±Â¯Â±Â°Â¯":4228,"Â°Â¯Â¯Â¯Â°Â¯Â¯":4229,"Â·Â¯Ã·Â¯Â¯":4230,"ÅĵÃ±":4231,"Â¸Â¯Â¯Â¯Â·Â¯":4232,"ĠÂ¯Â¿Â·Â¯Â°Â°Â¯Â¯":4233,"Ä´Ä¯":4234,"Ã¯ÃģÄ¯":4235,"ĠÂ¯Â°Â°Â¯Â¯Â·":4236,"ĠÂ¯Â¯Â¯Â¸Â¿Â¯Â¯Â¯":4237,"ĠÂ¯Â»Â±Â¯Â¯Â¯Â¯Â¯":4238,"ĠÂ¿Â¯Â¯Â¿Â¯Â¯Â¯Â¯":4239,"ĠÂ¯Â¯Â¯Â¯Â»Â·Â¯Â¯":4240,"ĠÂ¯Â¯Â°Â¯Â¿Â¿Â¯Â¯":4241,"ĠÂ¯Â¯ÃĹÂ´Â¯Â±Â°Â¯":4242,"Ä¯Æĥ":4243,"ÃıÅĺ":4244,"ĠÂ¯Â¿Â¯Â¿":4245,"ĠÂ¯Â·Â°Â¯Â¯Â¯Â¿Â¯":4246,"ÃĵÃĵ":4247,"ĠÂ¯Â¿Â¯Â¯Ã·Â´Â¯Â¯":4248,"ĠÃ¯Äı":4249,"ĠÂ¯Â°Â¿Â¯Â¯":4250,"ĠÂ¯Â¯Â¯Â±Â·Â±Â¯Â¯":4251,"ÃĶÄ¯":4252,"ĠÂ¯Â±Â°Â¯Â¸Â°Â¯Â¯":4253,"ĠÂ¯Â¯Â¯Â·Â¯Â±Â±Â¯":4254,"ĠÂ¯ÃĹÂ±Â¯Â¯Â±Â¯Â¯":4255,"Ã¸Ãı":4256,"Ä¸Ä¯Ã¿":4257,"ĠÂ¯Â·Â¯Â°Â¯":4258,"ĠÂ¯Â¯Â¯Â¯ÃĹÂ¯":4259,"ĠÂ¯Â±Â±Â¯Â±Â±Â¯Â¯":4260,"Å±Ãģ":4261,"ĠÂ¯Â°Â¯Â·Â¯Â¯Â¯Â¯":4262,"ĠÂ¯Â¯Â·Â±Â¿Â±Â¯Â¯":4263,"ĠÂ¯Â¯ÃĹÂ±Â¿Â¸Â¯Â¯":4264,"ĠÂ¿Â·Â¯Â¯Â¯Â´Â¯Â¯":4265,"ĠÂ¿Â¿Â¯Â¯Â·Â¯Â¯Â¯":4266,"ĠÂ±Â¯Â·Â¯Â¯Â¯Â¯Â¯":4267,"Å¯ÂµÄ¯":4268,"ĠÂ¯Â¸Â¯Â¯Â¿Â¯Â¯Â¯":4269,"ĠÅ¯Ãı":4270,"Â·Â¯Â¯Â¿Â·Â¯":4271,"Â´Â·Â¯Â¯":4272,"ĠÂ¯Â¯Â¯Â¯Â¯Â¯Â±Â°":4273,"ĠÂ¯Â¿Â¿Â¯Â°Â¯Â¯Â¯":4274,"Ã³Ã°":4275,"ĠÂ¯Â¯Â¯Â±Â±":4276,"ÃĩÃĥ":4277,"ĠÂ¯Â¯Â¿Â±Â·":4278,"ĠÂ¯Â±Â±Â¯Â·":4279,"ĠÂ¯Â·Â°Â¯Â¿Â±Â¯Â¯":4280,"Â·Â¯Â¯Â¯Â¯Â¯Â¯Â¯":4281,"ÃıÃĮ":4282,"ĠÂ¯Â¯Â·Â°Â¯Â¯Â·Â¯":4283,"ĠÂ¯Â¿Â±Â¯Â¯Â¯Â¿Â¯":4284,"ÃĳÄ¿":4285,"ĠÂ¯Â¿Â¯Â¯Â¯Ã·Â°Â¯":4286,"ĠÂ¯Â°Â·":4287,"ĠÂ¯Â¯Â¯Â±Â¸Â¯Â¯Â¯":4288,"Â¯Â·Â±Â¯Â¯Â¯":4289,"Â¯Â·Â¯Â¯Â±Â¯Â¯":4290,"ĠÂ·Â°Â¯Â¯":4291,"Ã´Ä¯":4292,"ĠÂ¯Â¯Â¿Â±Â¯Â¸Â¯Â¯":4293,"ĠÂ¯Â°Â¯Â¿":4294,"ĠÂ¯Â¯Ã·Â´Â¿Â·Â¯Â¯":4295,"ĠÂ±Â¯Â¯Â¯Â·Â¯Â¯Â¯":4296,"ĠÃĻ":4297,"ĠÃĺ":4298,"ĠÂ¯Â¯Â¯Â¯Ã·Â¯":4299,"ĠÂ¯Â¯Â¯Â¯Â¯Â¸":4300,"Â¯Â¯Â¯Â¯ÃĹÂ¯":4301,"Â°Â¯Â¯ÃĹÂ°Â¯":4302,"Â´Â·Â¯Â¯Â¯":4303,"ĠÂ¯Â¯Â±Â¯Â¯ÃĹÂ±Â¯":4304,"ĠÂ¯Â¯Â¯Â°Â¯Ã·Â°Â¯":4305,"ĠÃ¯Åĥ":4306,"ĠÂ¯Â¯Â¯Â±Â¿Â¿Â¯Â¯":4307,"ĠÂ¯Â±Â¯Â¯Â¯Â¿":4308,"ĠÂ¯Â¯Â¿Â°Â±Â¯Â¯Â¯":4309,"ĠÂ¯Â¯Â´Â¯Â°Â°Â¯Â¯":4310,"ÃıÃıÄ¯":4311,"ÃıÂµÃ¯":4312,"ĠÂ¯Â°Â°Â¯Â¯Â±Â°Â¯":4313,"Ã¯Ä±Ãĥ":4314,"Â¯Â¿Â¯Â±Â¯":4315,"ĠÂ¯Â¯Â°Â°ÃĹÂ¯Â¯Â¯":4316,"ĠÂ¯Â¯Ã·Â´Â¯Â·":4317,"ĠÂ¯Â¯Â¯Â¶Â¯Â±Â¯Â¯":4318,"ĠÃ¹":4319,"Â°Â°Â¯Â¯Â¯Â¯Â¯":4320,"Â°Â¯Â¯Â¸Â¯":4321,"ÅıÃĤ":4322,"ÃĵÃ±":4323,"ĠÂ¯Â¯Â¯Â°Â¯Â¿Â¿Â¯":4324,"ĠÂ¯Â¯Ã·Â¸Â¯Â±Â¯Â¯":4325,"Ä±Ã¿":4326,"ĠÂ¿Â±Â¯Â¯Â¯":4327,"ĠÂ¯Â¯Â¯Â·Â¯Â·Â°Â¯":4328,"ÅŁÄ¯":4329,"Å¿Ãı":4330,"ĠÂ¯Â±Â±Â°Â¯Â¯Â¯Â¯":4331,"ĠÂ¿Â¯Â¯Â¯Â¯Â¯Â·Â¯":4332,"ĠÄģ":4333,"Â¯Â¿Â¯Â·Â¯Â¯Â¯":4334,"ĠÂ¯Â¯Â¯Â¯Â°Â¯Â¯":4335,"ĠÂ¯Â´Â¯Â¯Â¯Â¯":4336,"Â°ÃĹÂ´Â¯Â¯":4337,"Â¯Â¯Â¯Â¯Â¿Â°Â¯":4338,"Â¿Â´Â¯Â¯Â¯Â¯":4339,"Â·Â¯Â¯Â¿Â¯Â¯Â¯":4340,"Â¿Â¯Â¯Â¯Â¿Â·Â¯":4341,"ÃĹÂ¯Â¿Â°Â¯Â¯":4342,"Ä¯Ã¯Ã¯Ãı":4343,"ĠÂ¯Â¯Â±Â¯Â°Â·Â¯Â¯":4344,"Ã³Ä°":4345,"Â¿Â¯Â¿Â¿Â¯Â¯":4346,"ĠÄ¯Ãī":4347,"ĠÂ¯Â¿Â¯Â¯ÃĹ":4348,"ÄģÃĻ":4349,"Â¸Â¯Ã·Â¯Â¯":4350,"ĠÂ¯Â¯Â¯Â·Â¯Â¿Â¿Â¯":4351,"ĠÂ¯Â°Â¯Â¯Â¯Â¿Â±Â¯":4352,"ĠÂ¯Â¯Â¸Â±Â¯Â¯Â¯Â¯":4353,"ĠÂ¯Â¯Â¿Â±Â±Â°Â¯Â¯":4354,"ĠÂ¯Â¯Ã·Â±Â¿Â±Â¯Â¯":4355,"ĠÂ±Â¯Â±Â¯Â¯Â¯Â¯Â¯":4356,"ĠÂ¯Â¯Â¯Â¿Â¯Â¯Â·Â¯":4357,"Â¯Â±Â¯Â·Â¯Â¯":4358,"Â±Â¸Â¯Â¯":4359,"Â¿Â¿Â¯Â¯Â¯Â¯Â¯":4360,"ĠÂ¯Â¯Â±Â¯Â¯Â±":4361,"ĠÂ¯Â¯Â¯Â°Â¯Â·Â´Â¯":4362,"Ã¹Ãĵ":4363,"ÄģÃ¯":4364,"ĠÂ¯Â¯Â±Â¿Â°Â¯Â¯Â¯":4365,"ĠÃ¯ÃıÃ±":4366,"ĠÂ¯Â°Â¯Â¯Ã·Â°Â¯Â¯":4367,"Â¯Â¯Â·Â¿Â¯":4368,"ĠÂ·Â±Â¯":4369,"Ä¯Ã±Ä¯":4370,"ĠÂ¯Â¯Â¿Â±Â¿Â°Â¯Â¯":4371,"ĠÂ¯Â°Â°Â¯Ã·Â°Â¯Â¯":4372,"Ã¯ÂµÄ¯":4373,"ĠÂ¿Â¯Â¯Â¯Â¯Â´Â¯Â¯":4374,"ĠÂ¯Â·Â·Â¯Â·Â¯Â¯Â¯":4375,"Å¨":4376,"Â¿Â¸":4377,"Ã¿Åı":4378,"ÃĥÃģ":4379,"ĠÂ¯Â¯Â·Â¯ÃĹÂ±Â¯Â¯":4380,"Â°Â¯Â¯Â¯Â¿Â¯Â¯":4381,"ÃĹÂ¯Â¯Â±Â°Â¯":4382,"Ã¹ÃĲ":4383,"ĠÂ¯Â¯Â±Â±Â¿Â·Â¯Â¯":4384,"Ã·Â¯Â¯Â±Â°Â¯":4385,"ĠÂ·Â¿Â¯Â¯":4386,"Ã¯Ã±Ãģ":4387,"ĠÂ¯Â¿Â¸Â¯Â¯Â°Â¯Â¯":4388,"ĠÂ¯Â·Â·Â¯Â±Â±Â¯Â¯":4389,"ĠÂ¯Â·Â¯Â¯Â¯Â¯Â´Â¯":4390,"ĠÂ¯Â¯Â¿Â¯Â¿Â´Â¯Â¯":4391,"Â¯Â¯Â¯Â¯Â±Â´Â¯Â¯":4392,"Â¿Â¯Â¯Â¯Ã·Â¯Â¯":4393,"Â°Â¯Â¯Â¯Â´Â¯":4394,"Ã³Ä±":4395,"ĠÂ¯Â¿Â¯Â¯Â¯ÃĹÂ±Â¯":4396,"ĠÂ¯Â¯Â¯Â·Â¸Â¯Â¯Â¯":4397,"Â¯Â¿Â¯Â¯Â°Â¯Â¯":4398,"Â¶Â¯Â±Â¯Â¯":4399,"ĠÂ¯Â¯Â¿Â±Â¯Â¿Â±Â¯":4400,"ĠÂ¯Â¿Â´Â¯Â¯Â°Â¯Â¯":4401,"ĠÂ¯Â¯Â¯Â°Â·Â·Â¯Â¯":4402,"ĠÂ¯Â·Â´Â¯Â¯Â°Â¯Â¯":4403,"ĠÂ¯Â¯Â·Â·Â¯Â°Â¯Â¯":4404,"ÃĹÂ°Â¯Â¯Â¯Â¯Â¯":4405,"ĠÂ¯Â¯Â·Â¯Ã·Â´Â¯Â¯":4406,"ĠÂ¯Â¯ÃĹÂ´Â¯Â±Â¯Â¯":4407,"ĠÃıÃ³":4408,"ĠÃ¯ÅĲ":4409,"ÃĻÃĢ":4410,"ĠÃ¯ÃıÃĥ":4411,"Â¸Â¯Â°Â°Â¯":4412,"ĠÂ¯Â±Â¯Â¯Â¯Â¿Â°Â¯":4413,"ÅŁÃ¯":4414,"ĠÂ¯Â°Â¯Â¯Â¯Â¿Â°Â¯":4415,"Â¯Â¯Â¯Â·Â±Â¯Â¯":4416,"Ä»Ã¯":4417,"ĠÂ¯Â°Â¯Â±":4418,"ÆıÄ¯":4419,"ĠÂ¯Â¯Â¸Â¯Â¯Â·":4420,"Â¯Â¯Ã·Â¸Â¯Â¯":4421,"ĠÂ°Â¯Â¯Â¯Â¯Â·Â¯Â¯":4422,"ĠÂ¯Â¯Â¯Â´Â¯Â¯Â¿Â¯":4423,"Å²":4424,"Â±Â¯Â¯Â¿Â¿Â¯":4425,"Â±Â¯Â¯Â¿Â¸Â¯":4426,"Â¿Â¯Â¯Â´Â¯Â¯Â¯":4427,"Â¿Â¯Â¯Â¯Â¸Â¯Â¯":4428,"Â¿Â¯Â¯Â¯Â·Â°Â¯":4429,"ĠÂ¯Â¯Â·Â±Â¯Â·":4430,"ÅıÄ·":4431,"ÅıÃıÄ¯":4432,"ĠÂ¯Â·ÃĹÂ¯":4433,"Â¸Â·":4434,"ĠÂ¯Â¯Â·Â¯Â¯ÃĹÂ±Â¯":4435,"Ã±Ã°":4436,"ĠÂ¯Â¯Â°Â¯Â¯Â¶Â¯Â¯":4437,"ĠÂ¯Â±Â±Â¿":4438,"Ä³Äģ":4439,"ĠÄ¯Ã£":4440,"ĠÂ¯Â¯Ã·Â¯Â¯Â·":4441,"ÅĹÃ±":4442,"ÄıÃ¿":4443,"ĠÂ¯Â¯Â¸Â¯Â¸Â¯Â¯Â¯":4444,"ĠÂ¯Â¯Â´Â¯Â¿":4445,"ĠÂ¯Â·Â°Â¯Â¯Â·":4446,"Â¯Â¯Ã·Â·Â¯Â¯":4447,"ĠÂ¯Â¿Â±Â°":4448,"ĠÂ¯Â´Â¯Â¯Â¯Â°Â¯Â¯":4449,"Â¯Â¯Â°Â·Â¯Â¯":4450,"ĠÂ±Â¯Â°Â¯Â¯Â¯Â¯Â¯":4451,"ĠÂ±Â¯Â·Â¯":4452,"ĠÂ¯Â¯Â¯Â¯Â¸Â´Â¯Â¯":4453,"ĠÂ¯Â¯Â¯Â¯Â¯Â±Â¯Â°":4454,"ĠÂ¯Â¯Â¿Â°Â¯Â¯Â·Â¯":4455,"ĠÂ¯Â¯Â±Â¯Ã·Â±Â¯Â¯":4456,"Ä·Ä¿":4457,"ĠÂ¯Â¯ÃĹÂ´Â¯Â°Â¯Â¯":4458,"ÃĢÄ¯Ã¯":4459,"ĠÂ¯Â¯Â¯Â¯Â·Â·":4460,"ĠÄ¯Ã¯Ä³":4461,"Â»Â¯Â¿Â¯Â¯":4462,"ĠÂ¿Â¿Â¯Â¯Â¯Â¯":4463,"ÄĢÃı":4464,"ÂºÅı":4465,"ĠÂ¯Ã·Â¯Â¯Â¯Â¯Â±Â¯":4466,"ĠÂ¯Â¯ÃĹÂ¯Â¯Â»Â¯Â¯":4467,"ĠÂ¯Â°Â°Â¯Â¿":4468,"ÃıÃ°Ã¯":4469,"ĠÂ¯Â´Â¯Â¯Â¯Â·Â¯Â¯":4470,"Â¯Â¸Â¯Â¯Â¯Â¯Â¯":4471,"Â¯Â¯Â¯Â¯Â¯Â´Â¯":4472,"ĠÂ¯Â¯Â¯Â±Â¯Â¯Â¯":4473,"ÃĹÂ¯Â±Â°Â¯Â¯":4474,"ĠÂ¯Â·Â¸Â¯Â¯Â±Â¯Â¯":4475,"Â·Â¯Â·Â°Â¯":4476,"Â¸Â¯Â¿":4477,"ÄıÃĳ":4478,"ĠÂ¯Â±Â¯Â¯Â¯Â»Â¯Â¯":4479,"ĠÂ¯Â±Â°Â¯Â´Â¯Â¯Â¯":4480,"ĠÂ¯Â°Â¯Â¯Ã·":4481,"ĠÂ¯Â¿Â·Â¯Â¯Ã·Â°Â¯":4482,"Å±Ã³":4483,"ĠÂ¿Â¯Â¯Â¯Â·":4484,"ĠÂ¿Â¯Â¯Â±Â¯Â¯Â¯Â¯":4485,"Â¯Â¯Â¯ÃĹÂ·Â¯":4486,"ĠÂ¿Â·Â¯Â¯Â¯Â¯Â°Â¯":4487,"ĠÃĶ":4488,"Â±Â¯Â¯Ã·Â±Â¯":4489,"Â°Â¯Â´Â¯Â¯Â¯":4490,"Â°Â¯Â·Â±Â¯Â¯":4491,"ĠÂ¯Â¿ÃĹÂ¯Â¯":4492,"ĠÄ¯Ãµ":4493,"ĠÂ¯Â·Â¯Â¯Â¯Â·Â·Â¯":4494,"ĠÂ¯Â¯Â¯Â±ÃĹ":4495,"ĠÂ¯Â¯Â¯Â±ÃĹÂ°Â¯Â¯":4496,"Â¯Â·Â´Â¯Â¯Â¯":4497,"ĠÂ¯Â¯Â¯Â·Â¯Â·Â·Â¯":4498,"Ã¯Ã¯Ãĵ":4499,"ĠÂ¯Â¯Â±Â°Â°Â¯Â¯Â¯":4500,"ĠÂ¯Ã·Â·Â¯Â¯":4501,"ĠÂ¯Â¯Â¸Â¯ÃĹÂ¯Â¯Â¯":4502,"ĠÂ¯Â±Â°Â°Â¯Â¯Â¯Â¯":4503,"Â¯Â°Â¯Â±Â¯":4504,"ĠÂ¿Â·Â¯Â¯Â¯Â·":4505,"ĠÂ¯Â¯Â¯Â¯Â¯Â±Â´Â¯":4506,"ĠÂ¯Â´Â¯Â¯Â¯Â¿Â¯Â¯":4507,"Â¯Â¶Â¯Â¯":4508,"Â¯Â¯Â¶Â¯Â¯Â¯":4509,"ĠÂ¯Â¯Â¯Â¯Â´Â¯":4510,"Â±Â¯Â°Â°Â¯Â¯":4511,"Ã¿ÃĤ":4512,"ĠÂ¯Â¿Â»Â¯":4513,"ĠÂ¯Â¯Â¿Â¯Â°Â¿Â¯Â¯":4514,"Ã·Â¯Â±Â¯Â¯Â¯":4515,"Â¿Â¯Â´Â¯Â¯":4516,"Â¿Â¯ÃĹÂ±Â¯Â¯":4517,"ĠÂ¯Â¯Ã·Â¯Â·Â±Â¯Â¯":4518,"ĠÂ¯Â°ÃĹÂ¯":4519,"ĠÂ¯Â¿Â·Â¯Â¯Â·Â±Â¯":4520,"ÅģÃı":4521,"ĠÂ¯Â¯Â¯Â¯ÃĹÂ¸Â¯Â¯":4522,"ĠÂ¯Â¯Â¸Â¯Â¯Â·Â°Â¯":4523,"ĠÂ¯Â°Â¯Â¯Â¯Â¯Â´Â¯":4524,"Ä·ÂµÃ¯":4525,"Â±Â¯Â·Â´Â¯":4526,"ĠÂ¯Â¿Â¸Â¯Ã·Â¯Â¯Â¯":4527,"ĠÂ°Â°Â¯Â¯Â¯":4528,"ĠÂ¸Â¯Â¯Â¯":4529,"ĠÆı":4530,"Â·Â°Â¯Â°Â¯Â¯":4531,"Â°Â¯Â¯Â¿Â±Â¯":4532,"Â¿Â¯Â¯Ã·Â´Â¯Â¯":4533,"Â°Â¯Â»Â¯Â¯":4534,"ĠÂ¯Â¯Â·Â´Â¯Â±Â°Â¯":4535,"ĠÂ¯Â¯ÃĹÂ±Â¯Â¯Â·Â¯":4536,"Â¿Â¯Â·Â¯":4537,"Å¯Åı":4538,"ĠÃıÄ³":4539,"Â¯Â¿Â±Â°Â¯":4540,"ÃĶÃı":4541,"Â¸Â¯Â±Â±Â¯":4542,"Ã§Ãĥ":4543,"ĠÂ°Â¯Â¯Â¯Â¯Â±Â¯Â¯":4544,"ĠÂ¯Â¯Â¿Â´Â¯Â·":4545,"ĠÂ¯Â´Â°Â¯Â¯Â¯Â¯Â¯":4546,"ĠÂ¯Â¿Â¯Â¯Â·Â·Â¯Â¯":4547,"ĠÃ°":4548,"ĠÅģ":4549,"ĠÃĹÂ¯":4550,"ĠÂ¯Â¶":4551,"Â¯Â¯Â¯Â¯ÃĹÂ°Â¯":4552,"Â´Â¸Â¯Â¯Â¯":4553,"ÃĹÂ¯Ã·Â¯Â¯Â¯":4554,"ĠÂ¯Â¿ÃĹÂ¯Â±Â¯Â¯Â¯":4555,"Ä°Ãĩ":4556,"Ä·Ä±":4557,"ĠÂ¯Â°Ã·Â¯":4558,"ÃĶÃģ":4559,"ĠÃ¯ÃıÃģ":4560,"Ä¯ÃĥÃ¯":4561,"Â¯ÃĹÂ¸Â¯Â¯":4562,"ĠÂ¯Â¯ÃĹÂ¯Â¯Â°Â°Â¯":4563,"Ä¯ÄĥÃĻ":4564,"ĠÂ¯Â¯Â»Â¯Â±Â´Â¯Â¯":4565,"ĠÂ¯Â¿Â°Â¯Â¿Â·Â¯Â¯":4566,"ĠÂ¯Â¯ÃĹÂ±Â¯ÃĹÂ¯Â¯":4567,"ĠÂ¿Â¯Â°Â¯Â¯":4568,"Â¯Â·Â¯Â±Â¯Â¯":4569,"ĠÂ¯Â¯Â±Â±Â¿Â±Â¯Â¯":4570,"ĠÂ±Â¯Â¯Â°Â¯Â¯Â¯Â¯":4571,"Â·Â¸Â¯Â¯":4572,"Â¯Â¯Â¯Â¯Â°Â°Â¯":4573,"ÅıÄ°":4574,"ÅıÃĽ":4575,"Â´Â¯Â¯Â¯Â¯Â¯Â¯Â¯":4576,"ĠÂ¯Â¯Â°Â¯Â¯Â¿Â¿Â¯":4577,"Ä·Åĥ":4578,"ĠÂ¯Â±Â¿":4579,"ĠÂ¯Â¯Ã·Â´Â¯Â¯Â°Â¯":4580,"ĠÂ¯Â°Â±Â¯Â¿Â¯Â¯Â¯":4581,"ÃĺÃı":4582,"ĠÂ¯Â°Â¯Â¯ÃĹÂ´Â¯Â¯":4583,"ĠÂ¯Â¯Â°Â°Â¿Â±Â¯Â¯":4584,"Ä¸Ã¯":4585,"ĠÂ¯Â¿Â¯Â°Â¯":4586,"ĠÂ¯Ã·Â¯Â¯Â¯Â¯":4587,"ĠÂ¯Â±Â°Â¿Â¯Â¯Â¯Â¯":4588,"ĠÂ¯Â±Â°Â¿Â·Â¯Â¯Â¯":4589,"Â¯Â°Â¯Â°Â¯":4590,"ĠÂ¯Â±Â¯Â·":4591,"ĠÂ¯Â¯Ã·Â°Â¯Â¿Â·Â¯":4592,"Äļ":4593,"Â¯Â¯Â¯Â¯Â·Â·Â¯":4594,"Â·Â¯Â¯Â·Â´Â¯":4595,"Â¿Â¯Â¯ÃĹ":4596,"ÅıÅĥ":4597,"Ã¿Ä°Ãĵ":4598,"ĠÂ¯Â¯Â¿Â¯Â»Â°Â¯Â¯":4599,"Â±Â¯Â¯Â¯Â¯Â°Â¯":4600,"ĠÂ¯Â¯Â°Â¯Â¯Ã·Â°Â¯":4601,"ĠÂ¯Â¯Â¯Â°Â´Â¯Â¯Â¯":4602,"Ã°Ãĥ":4603,"Ã¯ÃĲÃ¯":4604,"ĠÂ¯Â¯Â¯Â¯Â°ÃĹÂ¯Â¯":4605,"ĠÂ¯ÃĹÂ¯Â¯Â¯ÃĹÂ¯Â¯":4606,"ÄŁÃı":4607,"ĠÂ·Â¯Â±Â¯":4608,"ĠÂ¿Â¯Â¯Â¯Â¯Â±Â°Â¯":4609,"Â°Â·Â·Â¯Â¯":4610,"ĠÂ¯Â¯Â¯Â¯Â»Â¿Â¯Â¯":4611,"ĠÂ¯Â·Â¯Â·Â·Â¯Â¯Â¯":4612,"Â¯Â¯Â¯ÃĹÂ´Â¯Â¯":4613,"Ã¯Åī":4614,"Â·Â±Â¯Â¯Â¯Â¯Â¯":4615,"ÃıÃķ":4616,"Â¯Â¯Â¯Â¯Ã·":4617,"Â¯Â¯Â¯Â¯Â¸Â¯Â¯Â¯":4618,"Â¯Â¯Â¯Â¯Â»Â¯Â¯":4619,"Â¿Â¸Â¯Â¯Â¯":4620,"ÃĥÃ°":4621,"Ä°Äĥ":4622,"ĠÂ¯Â¿Â¯Â¯Â±":4623,"ĠÃ¯Ä¯Ã¯":4624,"Â´Â¯Ã·Â°Â¯Â¯":4625,"ĠÂ¯Â¯Â°Â¿Â±Â¯Â¯Â¯":4626,"ĠÂ¯Â¯Â¿Â°ÃĹÂ°Â¯Â¯":4627,"ÅĲÃĥ":4628,"Â·Â°Â¯Â±Â°Â¯":4629,"Â¯Â°Â±Â¯":4630,"ĠÂ¯Â±Â¯Â¿Â±Â¯Â¯Â¯":4631,"ĠÂ¯ÃĹÂ¯Â¯Â°Â¯Â¯Â¯":4632,"ĠÂ¯Â·Â°Â¯Â±Â°Â¯Â¯":4633,"ĠÂ¸Â¯Â¯":4634,"ĠÃī":4635,"Â¯Â¯Â¯Â»Â¯Â¯Â¯":4636,"Â±Â¯Â¯Â±":4637,"Â·Â¯Â¯Â¯Â´Â¯Â¯":4638,"ĠÂ¯Â¯Â·Â¯Ã·Â·Â¯Â¯":4639,"Ä°Ã¯Ãı":4640,"ĠÂ¯Â¯Â±Â¯ÃĹÂ±Â¯Â¯":4641,"Â¸Â¯Â·Â°Â¯":4642,"ÃĳÃĲ":4643,"ĠÄ¯Å¿":4644,"ĠÂ¯Â¯Ã·Â¯Â¯Â¸Â¯Â¯":4645,"Â¸Â¯Â¯ÃĹÂ¯Â¯":4646,"ĠÂ¯Â±Â¯Â¯Â¯Â°Â°Â¯":4647,"ĠÂ¯Â¿Â°Â¯Â¿":4648,"ĠÂ¿Â¯Â¯Â¯Â¿":4649,"ĠÂ¯Â°Â°Â¯Â¯Â¸Â¯Â¯":4650,"ĠÂ¯Â·Â°Â¯Â·":4651,"Ã¯Ä±Ä¯":4652,"ĠÂ°Â¯Â¯Â¯Â¯Â°Â¯Â¯":4653,"Â¯Â¯Â°Â¿Â¯":4654,"ĠÂ¿Â¯Â¯Â·Â¯Â¯Â¯Â¯":4655,"ĠÂ¯Â¯Â·Â·Â¿Â·Â¯Â¯":4656,"ĠÂ¯Â¯Â¯Â¯Â±Â¯Â¿Â¯":4657,"ĠÂ¸Â¯Â¯Â¯Â¯":4658,"Ã¯ÄŁ":4659,"Â¿Â¯Â¯Â¯Â´Â¯":4660,"ĠÂ¯Â¯Â·Â±Â¯Â¯":4661,"ĠÂ¯Â¿Ã·Â°Â¯Â¯Â¯Â¯":4662,"Ã³Ä¿":4663,"Ä³Ä±":4664,"Â»Â¯Â°Â¯Â¯Â¯":4665,"Ã´Ã¯":4666,"ĠÂ¯Ã·Â¿Â¯Â¯":4667,"ĠÂ¯Ã·Â°Â¯Â¯Â¯Â±Â¯":4668,"ĠÂ¯Ã·Â°Â¯Â¿Â¯Â¯Â¯":4669,"ĠÂ¯Â¯ÃĹÂ°Â¿Â°Â¯Â¯":4670,"ÃµÃı":4671,"ĠÂ¿Â¯Â¯Â¯Â¿Â·Â¯Â¯":4672,"Â¯Â·Â¯Â°Â¯Â¯":4673,"ĠÄ·Ã¯":4674,"Â·Â¿Â°Â¯Â¯":4675,"ĠÂ¯Â¯Â¯Â»Â¯Â¯":4676,"ÅıÃıÃı":4677,"ÃĹÂ¯Â¿Â±Â¯Â¯":4678,"ĠÂ¯Â¯Â°Â¯Ã·Â±Â¯Â¯":4679,"Ã³Ã¯Ãı":4680,"ĠÂ¯Â¯Ã·Â±Â¯Â¯Â·Â¯":4681,"ĠÂ¯Â¿Â¯Â¯Â±Â±Â¯Â¯":4682,"Ä±ÃĻ":4683,"ĠÂ¯Â°Â±Â¯Â¯Â·Â¯Â¯":4684,"ĠÂ¯Â¯Â±Â±Â¯Â¯Â°Â¯":4685,"ĠÂ¯Â¯Â¿Â°Â·Â±Â¯Â¯":4686,"ÅĢÃ±":4687,"ĠÂ¯Ã·Â±Â¯Â¯Â·Â¯Â¯":4688,"Â¯Â°Â°Â¯Â¯Â¯":4689,"ĠÂ¯Â¯Ã·Â°Â¯ÃĹÂ¯Â¯":4690,"ĠÂ¯Â¯Â¿Â´Â¯Â±Â°Â¯":4691,"ĠÂ¯Â¯Â¯Â¯Â¯Â¯Â¯Â´":4692,"ĠÂ¯Ã·Â¯Â¯Â¯ÃĹÂ¯Â¯":4693,"ĠÂ¯Â¯Â¯Â¯Â°Â¯Â¿Â¯":4694,"ÃıÅĪ":4695,"Â¿Â¯Â¯Â·Â·Â¯":4696,"Â±Â¯Â¶Â¯Â¯":4697,"ÃĹÂ°Â¯Â¯Â¯":4698,"ĠÂ¯Â¯Â¯Â¯Â¯Â¯Â°Â°":4699,"Ä¿Ä¿":4700,"ĠÂ¯Â¯Â°Â¯Â¯Â°":4701,"ĠÂ¯Â¯Â¯Â°Â·Â´Â¯Â¯":4702,"ĠÄ¯Ä´":4703,"Â´Â¯Â°Â°Â¯":4704,"Â¯Â·Â¶Â¯Â¯":4705,"Â¯Â¯Â·Â¸Â¯Â¯":4706,"Ä¯Ä¯Ã¿":4707,"Â¯Â¿Â¯Â¯Â¿Â¯Â¯":4708,"ĠÂ¯Â¯Â±Â°ÃĹ":4709,"Ã¯ÂºÃı":4710,"ĠÂ¯Â¿Â¸Â¯Â±Â¯Â¯Â¯":4711,"ĠÂ¯Â¯Â°Â°ÃĹÂ°Â¯Â¯":4712,"ĠÅıÃĳ":4713,"ĠÂ¯Â¸Â¯Â¯Â·Â¯Â¯Â¯":4714,"ĠÂ¯Â¯Â°Â¯ÃĹÂ¿Â¯Â¯":4715,"ÄĴ":4716,"Æĺ":4717,"ĠÄŁ":4718,"ĠÂ¯Â´Â°Â¯":4719,"Ä¯ÄĦ":4720,"ÃıÄ¯Ã¿":4721,"Â¿Â±Â¯Â±Â¯Â¯":4722,"Â°Â¯Â¯Â¸Â°Â¯":4723,"Â¿Â¯Â¯Ã·Â±Â¯Â¯":4724,"ĠÂ¯Â¿Â´Â¯Â¯Â¯Â±Â¯":4725,"ÃĳÄ°":4726,"ĠÄ¯Äĩ":4727,"ĠÂ¯Â¯Ã·Â¯Â¯ÃĹÂ¯Â¯":4728,"Ä±Ã¹":4729,"ĠÃıÃĻ":4730,"ĠÃ¯Ã´":4731,"ÄıÄ°":4732,"ĠÂ¯Â¯Â±Â°Â¯Â¯Â·Â¯":4733,"Â¸Â¯Â¸Â¯Â¯":4734,"ĠÂ¯Â¿Â·Â¯Â¯Â·Â´Â¯":4735,"Ã¯ÃĵÃ¯":4736,"ĠÂ¯Â¯Â´Â¯Â¯Ã·Â¯Â¯":4737,"ĠÂ¯ÃĹÂ¯Â¯Â¯Â¯Â·Â¯":4738,"ĠÂ¯Â¯Â±Â°Â±Â°Â¯Â¯":4739,"ĠÂ¯Â¯Â¯Â´Â°Â¯Â¯Â¯":4740,"ĠÂ¯Â¯ÃĹÂ°Â¯Â¿Â·Â¯":4741,"ĠÂ¯Â¯ÃĹÂ°Â¯Â±Â±Â¯":4742,"ÃıÃ±Ã¯":4743,"ĠÂ¯Â¯Â´Â¯Â¿Â±Â¯Â¯":4744,"Â¯Â±Â¯Â¯Â¯Â¯Â¯Â¯":4745,"Â¯Â±Â°Â¯Â¯Â¯Â¯":4746,"ĠÂ¯Â¯Â·Â°Â¯Ã·Â¯Â¯":4747,"Â¯Â¯ÃĹÂ·Â¯Â¯":4748,"ĠÂ¯Â¯Â¯Â¸Â¯Â·":4749,"ĠÂ¯Ã·Â¯Â¯Â¯Â´Â¯Â¯":4750,"ĠÂ¯Â¯Â°Â°Ã·Â¯Â¯Â¯":4751,"ĠÂ¯Â°Â·Â¯Â¿Â¯Â¯Â¯":4752,"ĠÂ¯Â°Â°Â¿":4753,"ĠÄ¯Ã¯ÃĲ":4754,"ĠÂ¯Â¯Â°Â±Â·Â¯Â¯Â¯":4755,"ÅĢÃ¯":4756,"ÅĳÃģ":4757,"Å¿Ãĳ":4758,"ĠÃ¯Ã¯Ä¯":4759,"ĠÂ¯ÃĹÂ´Â¯Â·":4760,"ĠÂ¯Ã·Â¿Â¯Â¯Â¯Â¯Â¯":4761,"ÃıÃĢÄ¯":4762,"Ã¯ÃĥÃ¯":4763,"Â¯ÃĹÂ¸Â¯":4764,"ĠÂ¯Â¯Â¯Â¯Â°Â±Â°Â¯":4765,"ĠÂ¯Â¯Â¯Â´Â¯Â¸Â¯Â¯":4766,"Â¯Â±Â°Â¯Â¯Â¯":4767,"ĠÂ¯Â¯Â·Â¯Â°Â·Â¯Â¯":4768,"ĠÂ¯Â¯Ã·Â±Â¯Â±Â±Â¯":4769,"ĠÂ¯Â¯Â¯Â»Â¯Â°Â¯Â¯":4770,"ĠÄ³Ã¯":4771,"Ä¯Ã½":4772,"Â·Ã·":4773,"ÅıÅģ":4774,"Â´Â·Â¯":4775,"Ã·Â¯Â°Â¯Â¯Â¯":4776,"Ä¿Ä·":4777,"Â·Â¯Ã·Â±Â¯Â¯":4778,"ĠÂ¯Â±ÃĹÂ¯":4779,"ĠÃ¯Ä°":4780,"Â´Â¯Â±Â±Â¯":4781,"ĠÂ¯Â¯Â±Â´":4782,"ĠÂ¯Â±Â°Â¯Â¯Â·Â°Â¯":4783,"ĠÂ¯Â¯Â¯Â´Â¿Â·Â¯Â¯":4784,"Â¯Â¯Â¯Â·Â¿Â¯":4785,"Â¯Â±Â¯Â¿Â¯Â¯Â¯":4786,"ĠÅıÃĶ":4787,"ĠÂ¯Â»Â°Â¯Â¯":4788,"ĠÂ±Â¯Â¯Â¯Â°Â¯Â¯Â¯":4789,"ĠÂ·Â¯Â¯Â°Â¯Â¯Â¯Â¯":4790,"ÅıÄ³Ãĥ":4791,"ÃıÄ´Ãģ":4792,"ĠÅŁ":4793,"ĠÅ¿":4794,"ĠÂ¯Â¯Â»Â¯Â¯Â¯":4795,"Ä¯ÆĢ":4796,"Â°Â¯Â¯Â·Â¯Â¯Â¯":4797,"Â°Â¯Â¯ÃĹÂ´Â¯":4798,"ÃĹÂ¯Â¿":4799,"Ä°ÃĻ":4800,"Â·Â¯ÃĹ":4801,"Ä·Ä³":4802,"ĠÃıÃ¯Ãı":4803,"Ã·Â¯Â¯Â¯Â°Â¯":4804,"ĠÂ¯Â±Â°Â¯ÃĹÂ±Â¯Â¯":4805,"ĠÂ¯Â¯Ã·Â¯Â±Â°Â¯Â¯":4806,"Â¯Â¿Â¯Â¯Â±Â¯Â¯":4807,"ĠÂ¯Ã·Â¸":4808,"ĠÂ¯Â¯Â»Â±":4809,"ÃıÂµÄ¯":4810,"Ä¿ÂµÄ¯":4811,"ĠÂ°Â¯Â¯Â¯Â¯Â¯":4812,"ĠÂ´Â¯Â¯Â¯":4813,"ĠÄĹ":4814,"Ä¯Æģ":4815,"Ä¯ÅĴ":4816,"Â¿Â¯Â¯ÃĹÂ¯Â¯Â¯":4817,"Â±Â¯Â¯Â¯Â´Â¯Â¯":4818,"ÅıÃ¯Ä¯":4819,"ÃĥÄ±":4820,"ĠÂ¯Â·Â»Â¯":4821,"Ã·Â°Â¯Â±Â¯Â¯":4822,"Â¸Â¯Â¿Â¸Â¯Â¯":4823,"ĠÂ¯Â¯Â°Â¯Â±Â·Â¯Â¯":4824,"ĠÂ¯Â¯Â¿Â¯Â¯ÃĹÂ°Â¯":4825,"ĠÂ¯Â±Â¸":4826,"ÃĳÃ°":4827,"ĠÂ¯Â¯Â¯Â°Â¯ÃĹ":4828,"ĠÃıÄ°":4829,"ĠÃıÃĺ":4830,"ĠÃ¯ÅıÃģ":4831,"ÃĻÃĥ":4832,"Â¯Â¿Â¯Â¯Â¯Â¯Â¯Â¯":4833,"ĠÂ¯Â°Â´Â¯":4834,"ĠÂ¯Â¯Â¯Â±Â°Â°Â¯Â¯":4835,"ÂµÅı":4836,"ÃŁÄ³":4837,"ÃŁÃĩ":4838,"ĠÂ¿Â±":4839,"Â¯Â·Â¯Â¯Â°Â¯Â¯":4840,"ĠÂ¯ÃĹÂ·Â¯":4841,"Â¯Â°Â¯Â·Â¯Â¯Â¯":4842,"ĠÂ¿Â·Â¯Â¯Â¿":4843,"ĠÂ¿Â·Â¿Â¯":4844,"ĠÂ¯Â·Â¿Â¯ÃĹÂ¯Â¯Â¯":4845,"ĠÂ¯Â¯Â¯Â°Â¿Â´Â¯Â¯":4846,"ĠÂ¯Â¯Â¯Â¯Â¸Â·Â¯Â¯":4847,"ĠÂ¯Â¯Â¯Â»Â¯Â±Â¯Â¯":4848,"Â¯Â¯Â´Â°Â¯Â¯":4849,"Â·Â·Â¯Â¯Â¯Â¯":4850,"Â·Â·Â¯Â¯Â¯Â¯Â¯":4851,"Â·Â¿Â¯Â¯Â¯Â¯":4852,"ÃıÅĽ":4853,"Â±Â¯Â»Â¯Â¯Â¯":4854,"ĠÂ¯Â¯Â·Â´Â¯Â¿Â¯Â¯":4855,"ĠÂ¯Â¯Â·Â¯Â¯Â¯Â¯Â°":4856,"ÃĥÄ¯Ä¯":4857,"ĠÂ¯Â·Â±Â¯Â¯Â¯Â°Â¯":4858,"Â·Â¯Â°":4859,"ĠÂ¯Â¯Â°Â¯Â±Â´Â¯Â¯":4860,"Ã³Ä³":4861,"ÃĹÂ¯Â¯Â¯Â°Â¯Â¯":4862,"ĠÂ¯Â¿Â¯Â¯Â¯Â¿":4863,"Â¯Â¿Â·":4864,"ĠÂ¯Â±Â¯Â¯Â¸Â°Â¯Â¯":4865,"Ä¯ÃıÃģ":4866,"ĠÂ¯Â°Â¯Â¯Â·Â±Â¯Â¯":4867,"Â·Â°Â¯Â¯Â·Â¯Â¯":4868,"ĠÃ¯Ã¯Åĵ":4869,"ĠÂ¯Â¯Â·Â°Â·":4870,"ÅĺÃ¯":4871,"ĠÂ¯Â¯Â´Â±":4872,"ĠÂ¯Â¯Â´Â°Â¯":4873,"ĠÂ¯Â¯Â·Â°Â¯Â¸Â¯Â¯":4874,"ĠÂ¯Â·Â°Â¯Â¯Â·Â°Â¯":4875,"Ã¯ÂºÄ¯Ã¯":4876,"Â¯Â¯Â°Â¿Â¯Â¯":4877,"Â¯Â¸Â±Â¯Â¯":4878,"Ã¾":4879,"Ä¯Ä¯Ãĥ":4880,"Â¯Â¯Â¯Â¯Ã·Â°Â¯":4881,"Â¿ÃĹÂ¯":4882,"Ã¿Ä¸":4883,"Ä°Âµ":4884,"ĠÂ¯Â·Â¿Â¯Â¯Â¿Â¯Â¯":4885,"Â·Â¯Â±":4886,"ĠÄ¯Ä¯Ã¿":4887,"ĠÂ¯Â¿Â¯Â¯Â¯Â·Â´Â¯":4888,"Å¯Äĳ":4889,"ÃŁÃĢ":4890,"Â»Â¯Â¯Â°Â¯Â¯":4891,"ĠÂ¯Â±Â¯Â¯Â¯ÃĹ":4892,"ĠÂ¯Â°Â¯Â¯Â°Â°Â¯Â¯":4893,"ĠÂ¯Â°Â¯Â¯ÃĹÂ±Â¯Â¯":4894,"ĠÂ¯Â¯Â°Â°Â¯Â¯Â°Â¯":4895,"ĠÂ¯ÃĹÂ´":4896,"ÃıÃıÃı":4897,"ĠÂ¯Â¯Â¿Â¯Â¯Â¯Â¸Â¯":4898,"ĠÂ¯Â¯Â·Â°ÃĹÂ¯Â¯Â¯":4899,"ĠÂ¿Â·Â¯Â¯Â·Â´Â¯Â¯":4900,"ĠÂ¿Â¯Â¯Â¯Â±Â°Â¯Â¯":4901,"ĠÂ¯Â¯Â¿Â°Â¯Â¸Â¯Â¯":4902,"ĠÂ¿Â¿Â¯Â¯Â¯Â¿Â¯Â¯":4903,"Â¯Â¯Â¯Ã·Â·Â¯":4904,"ĠÂ¯Â·Â¯Â¯Â·Â¿Â¯Â¯":4905,"ĠÂ¯Â¸Â¯Â¯Ã·Â¯Â¯Â¯":4906,"Ä¾":4907,"Å¥":4908,"ÅĿ":4909,"Â¯Â¸Â¯Â¯Â¯Â¯":4910,"Â¯Â¯ÃĹÂ¯":4911,"Ã¯Å·":4912,"ĠÂ¯Â·Â·Â¯Â¯Â¿Â¯Â¯":4913,"Â·Â¯Â¿Â¿Â¯":4914,"Ä·Ä¯Ã¯":4915,"ĠÂ¯Â¯Â¯Â°Ã·Â°Â¯Â¯":4916,"ĠÄ¯ÅĻ":4917,"ĠÂ¯Â¯Â¯Â±Â·Â´Â¯Â¯":4918,"ĠÄ¯Ã¯Ã¿":4919,"Â¸Â¯Â¯Â¯Â¿Â¯":4920,"ĠÂ¯Â±Â¯Â¯Â¯ÃĹÂ°Â¯":4921,"Â¯Â±Â¯Â¯Â°Â¯Â¯":4922,"Â·Â°Â¯Â¯Â°Â¯":4923,"ĠÂ¯Â¯Â¯Â¯Â±Â»Â¯Â¯":4924,"Â¯ÃĹÂ·Â¯":4925,"ĠÂ¯Â¯ÃĹÂ°Â¯Â°Â°Â¯":4926,"ÄŁÃ¯":4927,"ĠÂ¿Â·Â¯Â¯Â¯Â¿":4928,"ĠÂ¯Ã·Â°Â¯Â¯Â·":4929,"ĠÂ·Â¯Â¯Â¯Â¿Â·Â¯Â¯":4930,"Ã¯ÂµÃ¯":4931,"ĠÂ¯Â¿Â¯Â¯Â¿Â´Â¯Â¯":4932,"Åį":4933,"Â·Â¸Â¯Â¯Â¯":4934,"Â°Â¯Â¯Â·Â·Â¯":4935,"Â±Â¯Â¯Â·Â°Â¯Â¯":4936,"Â°Â¯Â°Â°Â¯Â¯":4937,"Â°Â¯Â¿Â¸Â¯":4938,"Ã¿Ã´":4939,"Ã·Â¯Â¯Â¿Â¯Â¯":4940,"ÃĵÄ°Ãĥ":4941,"ĠÂ¯Â¯Â¿Â¯Â¯Ã·Â°Â¯":4942,"ĠÂ¯Â¯Â¯Â¯Â¿Â±Â±Â¯":4943,"Â±Â°Â¯Â±Â¯Â¯":4944,"ĠÃıÄģ":4945,"ÃĻÄ°":4946,"ĠÂ¯Â°ÃĹ":4947,"ĠÂ¯Â°Â¿Â¯Â·Â¯Â¯Â¯":4948,"Ã°ÃĢ":4949,"ĠÂ¯Â±Â¯Â¯ÃĹÂ±Â¯Â¯":4950,"ĠÂ¯Â¯Â¯Â·Â¯Â°Â°Â¯":4951,"ĠÂ¯Â¯Â´Â¯Â¯Â·Â±Â¯":4952,"ÃıÃģÃ¯":4953,"ĠÂ¯ÃĹÂ°Â¯Â¿Â¯Â¯Â¯":4954,"Ä¸Ãı":4955,"ĠÂ¯Â·Â¯Â±Â¯":4956,"ĠÂ¯Â¯Â»Â¯Â±Â°Â¯Â¯":4957,"ĠÂ¯Â¿Â°Â¯Â¸Â¯Â¯Â¯":4958,"ĠÂ¯Â¿Â°Â¯Â·Â°Â¯Â¯":4959,"Â¯Â±Â¯Â±Â¯":4960,"ĠÂ¯Â·Â°Â¯Â¯Â¿Â±Â¯":4961,"ĠÂ¯Â¯Â¿Â´Â¿Â¯Â¯Â¯":4962,"ĠÂ±Â±Â°Â¯Â¯Â¯Â¯Â¯":4963,"ĠÂ¯Â¸Â±Â¯Â¯":4964,"Â¿Â¯Â·Â¿Â¯Â¯Â¯":4965,"ĠÂ¿Â¿Â¯Â¯Â¯Â±Â°Â¯":4966,"ĠÂ°Â¯Â°Â¯Â¯Â¯Â¯Â¯":4967,"ĠÂ¯ÃĹÂ´Â¯ÃĹÂ´Â¯Â¯":4968,"ĠÃ¸":4969,"Â¿Â´":4970,"Â¿Â¿Â¯Â¯Â¯Â¯":4971,"ÃĥÅı":4972,"ĠÂ¯Â¿Â¿Â¯Â¿Â¯Â¯Â¯":4973,"Ä°Äı":4974,"Ã³Ãĺ":4975,"ĠÂ¯Â¯Â¯Â°Â°Â±Â¯Â¯":4976,"ĠÄ¯ÃĶ":4977,"ĠÂ¯Â¿Â¯Â¯Â»Â¯Â¯Â¯":4978,"ĠÂ¯Â·Â¯Â¯Â¿Â¸Â¯Â¯":4979,"ĠÂ¯Â¿Â·Â¯ÃĹÂ°Â¯Â¯":4980,"ĠÂ¯Â±Â¯Â¯Â°Â°Â¯Â¯":4981,"Â¸Â¯Â±Â°Â¯Â¯":4982,"ĠÂ¯Â¯Â°Â±Â¿Â¯Â¯Â¯":4983,"ĠÂ¯Â¯Â¯Â¯Â¯Â·Â»Â¯":4984,"Ä¹Ãı":4985,"ĠÂ¯Â¯Â±Â°Â¯Ã·":4986,"ĠÃıÃıÄģ":4987,"ĠÂ¯Â¯Â¯Â´Â¿":4988,"Â¯Â°Â¯Â±Â°Â¯":4989,"ĠÂ¯Â¿Â±Â¯Â¿":4990,"Â¯Â±Â±Â¯Â¯Â¯":4991,"ĠÂ¯Â¯Â·Â°Â¯Â´Â¯Â¯":4992,"ĠÂ¿Â¿Â¯Â¯Â±Â°Â¯Â¯":4993,"ĠÂ¯Â·Â·Â¯Â°Â¯Â¯Â¯":4994,"ĠÂ¯Â¯Â·Â±Â¯Â¸Â¯Â¯":4995,"ĠÂ¯Â¿Â´Â¯Â¯ÃĹÂ¯Â¯":4996,"ĠÂ¯Â¿Â¯Â¯Â¿Â¿Â¯Â¯":4997,"ĠÃĪ":4998,"Ä¯Å°":4999,"Â·ÃĹÂ¯Â¯Â¯":5000,"Â·Â·Â±Â¯Â¯":5001,"Â¿Â°Â¯Â±Â¯Â¯":5002,"Â°Â¯Â´Â°Â¯":5003,"Â°Â¯Ã·Â´Â¯Â¯":5004,"Â±Â¯Ã·Â°Â¯Â¯":5005,"ĠÂ¯Â¯Â·Â¿Â¯":5006,"Â¸Â¯Â·Â·Â¯":5007,"ÃģÄ¯Ã¯":5008,"ĠÂ¯Â¯Â°Â¯Â¯ÃĹÂ±Â¯":5009,"ĠÂ¯Â±Â±Â¯Â¯Â¯Â·Â¯":5010,"Â¿Â¯Ã·Â±Â¯Â¯":5011,"ĠÂ¯Â¯Ã·Â¸Â¯Â·Â¯Â¯":5012,"ÅĥÃ±":5013,"ÂµÄ¯Ã¯":5014,"ÃŁÃ±":5015,"ĠÂ¯Â°Â¯Â¯Â¯Â°Â°Â¯":5016,"ĠÂ¯Â±Â°Â¯Â¯ÃĹÂ°Â¯":5017,"ĠÂ¯Â¯Â¯Â·Â±Â°Â¯Â¯":5018,"ĠÂ¯Â¯Â¯Â·Â·Â±Â¯Â¯":5019,"ĠÂ¯Â¯Â¸Â¯Â¿":5020,"Ã¸Ä¯":5021,"Ä¯Ã³Ã¯":5022,"ĠÂ¯Â°Â°Â¯Â¸Â°Â¯Â¯":5023,"ĠÂ¯Â¯Â¿Â°Â¯Â·":5024,"ĠÂ¯Â¯Â¯Â¿Â¯Â±Â°Â¯":5025,"ĠÂ¯Â¯Â·Â¯Â·Â¿Â¯Â¯":5026,"Â¯Â¯Â¿Â¯Â°Â¯":5027,"ĠÂ¯Â¯Â°Â°Â¯Â´Â¯Â¯":5028,"ĠÂ¯Â´Â¯Â¯Â¿Â¯Â¯Â¯":5029,"ĠÂ¯Â¯Â¯Â»Â¯Â·Â¯Â¯":5030,"ĠÃķ":5031,"Ã¯Å°":5032,"Â°Â·Â¯Â¯Â¯Â¯":5033,"Â±Â¯Â¯ÃĹÂ±Â¯":5034,"Â±Â¯Â¯ÃĹÂ¸Â¯":5035,"Â¿Â¯Â¯Â°Â¯":5036,"Â¿Â¯Â¯Â·Â°Â¯Â¯":5037,"ĠÂ¯Â¯Â¿Â¸Â¯Â¯":5038,"ÅıÅĵ":5039,"ÅıÂº":5040,"ÃĹÂ°Â¯Â·Â¯Â¯":5041,"ÃĹÂ¯Â¿Â¸Â¯Â¯":5042,"ĠÂ¯Â¯Â¿Â¯Â»":5043,"Â·Â¯Â°Â°Â¯Â¯":5044,"ÃģÄ¿":5045,"ĠÂ¯Â¯Â°Â¯Â¯Â°Â±Â¯":5046,"ÃĳÅĥ":5047,"ĠÂ¯Â¿Â¯Â¯Â¯Ã·":5048,"Â¸Â¯Â¯Â¸Â¯Â¯":5049,"ĠÃ¯Ã¯Ã¯":5050,"ĠÂ¯Â·Â¯Â¯Â°Â´Â¯Â¯":5051,"Â»Â¯Â¯Â±Â¯Â¯":5052,"ĠÂ¯Ã·Â·":5053,"ĠÂ¯Â¯Â±Â°Â¯ÃĹ":5054,"ĠÃıÃıÃ¿":5055,"Ä¯ÂµÃı":5056,"Â¯Ã·Â°Â¯Â¯Â¯Â¯":5057,"ĠÂ¯Â¯Â¿Â±Â¯Â¿Â·Â¯":5058,"ĠÂ¯Â¯Â¿Â´Â¯Â¿":5059,"Â¯Â·Â¯Â·Â¯":5060,"Ã¯Ä°Ä¯":5061,"ÂµÃ¯Ãķ":5062,"ĠÃ·Â¯":5063,"Ã¯ÅĽ":5064,"ĠÂ¯Â¯Â¯Â¯Â¯Â°Â¯":5065,"Ä¯Æı":5066,"Â¯Â¯Â¯Â¯Â·Â±Â¯":5067,"Â¿Â°Â¯Â·Â¯Â¯":5068,"Â¿Â¯Â¯Â¯Â¯Â·Â¯":5069,"Â°Â¯Â¯Â¯Â±Â¯Â¯":5070,"Ã·Â¯ÃĹÂ¯Â¯Â¯":5071,"Ä¿ÃĻ":5072,"Â´Â¯Â¯Â¿Â·Â¯":5073,"Â¸Â·Â¯Â¯Â¯":5074,"ĠÂ¯Â¯Â·Â¯Â¯Â¿Â¿Â¯":5075,"Ã±ÃĦ":5076,"Ã±Ã¸":5077,"ĠÂ¯Â¯ÃĹÂ¯Â·Â´Â¯Â¯":5078,"ÃĻÃĲ":5079,"ĠÂ¯Â·Â¯Â¯Â¯ÃĹÂ°Â¯":5080,"ĠÂ¯Â±Â¯Â¯Ã·Â´Â¯Â¯":5081,"ĠÂ¯Â±Â¯Â¯Â¯Â·Â±Â¯":5082,"ĠÂ¯Â±Â°Â¯Â±":5083,"ĠÂ¯Â¯Â°Â°Â¿Â·Â¯Â¯":5084,"Å¿Ã¯":5085,"ÅĦÃ¹":5086,"Â¯Ã·Â±Â¯":5087,"Â¯Â·Â¯Â±Â¯Â¯Â¯":5088,"ĠÂ¯Ã·Â¯Â¯Â°Â¯Â¯Â¯":5089,"ĠÂ¯Â·Â´Â¯Â±Â°Â¯Â¯":5090,"ĠÂ¯Â¯Â·Â´Â¿":5091,"ĠÂ¯Â¿Â¸Â¯Â¯ÃĹÂ°Â¯":5092,"ĠÂ¯Â¯Â¯Â´Â¯Â¯Â´Â¯":5093,"ĠÂ¯Â¯Â¯Ã·Â±Â¯Â¯Â¯":5094,"ÄĬ":5095,"ÆĤ":5096,"Â¯Â»Â¯Â¯Â¯Â¯Â¯":5097,"Ã¯Ä¯Ãģ":5098,"ÃıÄĹ":5099,"ÃıÄ¯Ã³":5100,"ÃıÄī":5101,"Â¯Â¯Â¯Â¯ÃĹ":5102,"Â¿Â¯Â¯Â¯Â¯Â¯Â¯Â¯":5103,"Â°Â¯Â¯Â·Â´Â¯":5104,"Â¿Â¯Â¯Â¿Â°Â¯Â¯":5105,"Â¸Â¿Â±Â¯Â¯":5106,"Ã³Ã¿":5107,"ĠÄ¯Å£":5108,"ĠÂ¯Â¯Ã·Â¯Â¯Â¯Â·Â¯":5109,"ĠÂ¯Â·Â¯Â¯Â°":5110,"ĠÂ¯Â°Â´":5111,"ÄģÅĺ":5112,"Â´Â¯Â·Â°Â¯Â¯":5113,"ĠÄ¯Ã¯Ä°":5114,"Â·Â¯Â¯Â¯Â¯Â°Â¯":5115,"ĠÂ¯Â°Â¯Â¯Â¯Â¿":5116,"ĠÂ¯Â°Â¯Â¯Â¯Â»Â¯Â¯":5117,"ĠÂ¯Â¿Â·Â¯Â¯ÃĹÂ±Â¯":5118,"Ä¯Ã±Ã¯":5119,"ĠÂ¯Â¯Â¯Â·Â·Â´Â¯Â¯":5120,"Ã¸Ã¯":5121,"ĠÂ¯Â¯Â·Â°Â±Â¯Â¯Â¯":5122,"ĠÂ¯Â¯ÃĹÂ°Ã·":5123,"ĠÂ¯Â±Â°Â¿Â±Â¯Â¯Â¯":5124,"ĠÂ¯Â±Â±Â¯Â¯Ã·Â¯Â¯":5125,"ĠÂ¯Â¯Â°Â°ÃĹ":5126,"ĠÅıÃķ":5127,"ĠÂ¯Â»Â°Â¯Â¯Â¯Â±Â¯":5128,"ĠÂ¯Â¯Â·Â´Â¿Â¯Â¯Â¯":5129,"Â¯Â´Â±Â¯Â¯":5130,"Â¯Â¯Â¯Ã·Â¯":5131,"Â°Â°Â±Â¯Â¯":5132,"Â°Â¯Â¸Â°Â¯":5133,"ÅıÃµ":5134,"Ã·Â¿Â¯Â¯":5135,"ĠÂ¯Â¯Â±Â¯Â±Â·Â¯Â¯":5136,"ĠÂ¯Â¯Â·Â¯Â¯Ã·Â±Â¯":5137,"ĠÂ¯Â¯Â¿Â¯Â¯Ã·":5138,"ĠÂ¯Â¯ÃĹÂ¸Â¯Â·Â¯Â¯":5139,"Â¿Â¯Â¸Â°Â¯Â¯":5140,"ÄıÃĤ":5141,"Ä¯ÃıÄ¯Ãĥ":5142,"ÅŁÂµ":5143,"ĠÂ¯Â¯Â¸Â¯Â·Â°Â¯Â¯":5144,"ÃĭÄ¯":5145,"ĠÂ¯Â°Â¯Â°Â¯":5146,"Â¯Â±Â¯Â°Â¯":5147,"ĠÂ¯Â¯Â¿Â·Â·Â°Â¯Â¯":5148,"ĠÂ¯Â¯Â¯Â¸Â¯Â·Â°Â¯":5149,"ĠÂ¯Â¯Â¯Â±Â¯Â¯Â´Â¯":5150,"ĠÂ¯Â·Â¿Â¯Â¿Â¯Â¯Â¯":5151,"ĠÂ¯Â·Â¿Â¯Â·Â°Â¯Â¯":5152,"ĠÂ¯Â´Â±Â¯Â¯Â¯Â¯Â¯":5153,"ĠÂ¿Â¯Â¯Â¿Â·Â¯Â¯Â¯":5154,"ĠÂ·Â¯Â¯Â±Â¯Â¯Â¯Â¯":5155,"ĠÂ¯Â¯ÃĹÂ´Â¯Â·":5156,"Â¯Â¯Â¯Â±Â·Â¯":5157,"Â¯Â¯Â¯Â»Â±Â¯":5158,"Â±Â¯Â¯Â°Â¯Â¯Â¯":5159,"ĠÂ¯Â¯Â¯Â¸Â¯Â¯Â·Â¯":5160,"ĠÂ¯Â¯Â¿Â´Â¯Â¯Â·Â¯":5161,"ÅıÃ¯Ãı":5162,"ÃĥÄ¯Ä·":5163,"ĠÂ¯Â¿Â´Â¯Â¯Â¯":5164,"Â·Â¯Â»Â¯Â¯Â¯":5165,"ĠÂ¯Â¯Â°Â¯Â¯Â·Â´Â¯":5166,"ĠÂ¯Â¯Â¯Â±Â¯ÃĹ":5167,"ĠÃıÄ±":5168,"Â´Â¯ÃĹÂ´Â¯":5169,"ÄıÄ·":5170,"Â¯Â°Â¯Â¯Â¿Â¯Â¯":5171,"ĠÂ¯Â°Â¯Â¯Â¯Ã·Â°Â¯":5172,"ÅıÃģÄ¯":5173,"ĠÂ¯Â¯Â¿Â±Â¿":5174,"Â¯Â°Â¸Â¯Â¯":5175,"ĠÂ¯Â¯Ã·Â°Â¯Â±Â±Â¯":5176,"ĠÂ¯Â¯Â·Â°Â¯Â·Â±Â¯":5177,"Ã¯Ã³Ãģ":5178,"ĠÂ¯Â¯ÃĹÂ±Â¯Â¿Â·Â¯":5179,"Ã¯ÂºÃ¯":5180,"ĠÂ°Â¯Â¯Â¯Â¿Â¯Â¯Â¯":5181,"Â±Â´Â¯":5182,"Â³Â¼":5183,"Â¯Â¯Â¯Â¯Â±Â±Â¯":5184,"Â¯Â¯Â¯Â¯Â¯Â¿Â¯Â¯":5185,"Ã¿ÃŁ":5186,"Ã³ÃĶ":5187,"Ä³Ãĩ":5188,"ÃĲÃ±":5189,"ÃĹÂ¯Â¯Â´Â¯Â¯":5190,"ĠÃ¯Åģ":5191,"ĠÃ¯Ã£":5192,"Ã¹Åĵ":5193,"ÄģÄ°":5194,"ĠÄ¯Ã¯ÃŁ":5195,"Ã·Â¯Â¯Â¯Â±Â¯":5196,"Â»Â¯Â¯Â·Â¯Â¯":5197,"ĠÂ¯Â±Â°Â¯Â¿Â¸Â¯Â¯":5198,"ÅĳÃ¯":5199,"ĠÂ¯Â¿Â¯Â°Â¿Â¯Â¯Â¯":5200,"Ä¯ÃĵÃ¯":5201,"ĠÂ¯Â¿Â±Â¯Â¸Â¯Â¯Â¯":5202,"ĠÂ¿Â¯Â°Â¯":5203,"Â¯Â¯Â±Â¿Â¯":5204,"ĠÂ¯Â¯Â»Â¯Â¯ÃĹÂ¯Â¯":5205,"ĠÂ¯Â¿Â·Â¯Â·Â·Â¯Â¯":5206,"Â¯Â»Â¯":5207,"ÃıÅĻ":5208,"Â±Â¯Â¯Â¿Â·Â¯Â¯":5209,"Â±Â¯Â¿Â¯":5210,"ÅıÄı":5211,"ÅıÅĳ":5212,"ĠÂ¯Â·Â¿Â¯Â¯Â±Â¯Â¯":5213,"Ä¯Ã¯Ä¯Ã¯":5214,"Â¸Â·Â¯":5215,"Ã±Ä³":5216,"ĠÂ¯Â¯Â±Â¯Â¯Â°":5217,"Ä·Ä¯Ãĥ":5218,"Ä·Ã¯Ã¯":5219,"ĠÂ¯Â¯ÃĹÂ¿Â¯Â¯Â¯Â¯":5220,"ÃĲÃĩ":5221,"ÅĵÃĥ":5222,"ĠÂ¯Â¯Â¯Â¯Â¿Â·Â±Â¯":5223,"ĠÃıÄ¯Ã¯":5224,"Â¯Â¿Â°Â¯Â¯Â¯Â¯":5225,"ĠÂ¯Â°Â·Â¯Â¯Â°Â¯Â¯":5226,"Â»Â¯Â¯Â¯Â°Â¯":5227,"ĠÂ¯Â¿Â·Â¯Â¿Â¿Â¯Â¯":5228,"Â¸Â¯Â´Â¯Â¯":5229,"ĠÂ¯Â±Â¯Â¯Â¯Â±Â±Â¯":5230,"ĠÂ¿Â°":5231,"ÅŁÃ±":5232,"ĠÂ³Â¹":5233,"ĠÂ¯ÃĹÂ¸Â¯Â¯Â¯Â¯Â¯":5234,"ĠÂ¯ÃĹÂ°Â¯Â·Â¯Â¯Â¯":5235,"ĠÂ¯Â¯Â±Â°Â¯Â¿Â·Â¯":5236,"ĠÂ¯Â¯Â¯Â¯Â¯Â¿Â»Â¯":5237,"ĠÂ¯Â¯Â¯Â¯ÃĹÃĹÂ¯Â¯":5238,"ĠÂ¿Â·Â¯Â¯Ã·Â´Â¯Â¯":5239,"ĠÂ¯Â¯Â¿Â±Â¯ÃĹÂ¯Â¯":5240,"Â¯Â¯Â¯Â¿Â´Â¯Â¯":5241,"Â±Â¿Â·Â¯Â¯Â¯":5242,"ĠÂ¯Â·Â±Â¯Â¯Â´Â¯Â¯":5243,"ĠÂ¯Â¿Â¿Â¯Â¸Â¯Â¯Â¯":5244,"ĠÃ¿ÃĢ":5245,"ĠÂ¯Â¯Â·Â´Â¯Â·Â´Â¯":5246,"ĠÂ¯Â¯Â¯Â¶Â¯Â·Â¯Â¯":5247,"Ã¯Å³":5248,"Ä¯Å¹":5249,"ÃıÄ¯Ã±":5250,"Â¿Â¯Â¯Â·Â´Â¯Â¯":5251,"Â¿Â¯Â¯Ã·Â°Â¯":5252,"ĠÂ¯Â¯Â¿Â»Â¯Â¯Â¯Â¯":5253,"Ä°ÃŁ":5254,"Ä¿Åĳ":5255,"Â¸Â¿Â¯Â¯":5256,"ÃĵÃ¿":5257,"Ä³ÃĻ":5258,"ĠÂ¯Â¯Â¯Â°Â¯Â±":5259,"ĠÂ¯Â¿Â¯Â¯ÃĹÂ±Â¯Â¯":5260,"ĠÂ¯Â¯Â¯Â¯Â·Â¿Â·Â¯":5261,"ĠÂ¯Â°Â°Â¯Â¯Â¯Â·Â¯":5262,"ÃĦÃı":5263,"Ä¯ÃģÄ¯Ãĵ":5264,"ĠÂ¯Â°Â¯Â¯Â¯Â·Â±Â¯":5265,"ĠÂ¯Â±Â°Â¯Â¯Â´Â°Â¯":5266,"ĠÂ¯Â¯Â´Â¯Â¯Â¿Â·Â¯":5267,"ĠÂ¯Â¯Â°Â¯Â¯Â¯Â¸Â¯":5268,"ĠÂ¯Â¯Â¸Â¯Ã·Â°Â¯Â¯":5269,"ĠÂ¯Â¿Â°Â¯Â¯Â·Â±Â¯":5270,"ĠÂ¯Â±Â±Â¯Â¿Â°Â¯Â¯":5271,"ĠÂ¯Â¯Â´Â¯Â¿Â°Â¯Â¯":5272,"ĠÂ¯Â°Â°Â¯Â¯ÃĹÂ¯Â¯":5273,"ĠÂ¯Â¯ÃĹÂ±Â¯Â±Â±Â¯":5274,"ĠÂ¯Â¯Â¯Â¸Â¯Â´Â¯Â¯":5275,"ĠÂ±Â¯Â¯Â¯Â±Â¯Â¯Â¯":5276,"ĠÂ¯Â¯Â¯Â±Â¿Â´Â¯Â¯":5277,"ĠÂ°Â¯Â¯Â±Â¯Â¯Â¯Â¯":5278,"ĠÃĹÂ¯Â¯Â¯":5279,"ĠÃ³Ãı":5280,"Â¯Â¯Â¯ÃĹÂ±Â¯Â¯":5281,"ÃıÅ·":5282,"Â±Â¯Â¯Â±Â°Â¯Â¯":5283,"Â·Â¯Â¯Â¿Â°Â¯Â¯":5284,"Â±Â¯ÃĹÂ°Â¯":5285,"ĠÂ¯Â¯Â·Â±Â¯Â´Â¯Â¯":5286,"Ã¿Ä¿":5287,"Â´Â¿Â¯":5288,"ĠÂ¯Â¯Â·Â¯Â¯Â±":5289,"Ã³Åı":5290,"Â¸Â¯Â¯Â·Â°Â¯":5291,"ĠÂ¯Â·Â¯Â¯ÃĹÂ´Â¯Â¯":5292,"ĠÂ¯Â°Â±Â¯Â¯Â¿Â¯Â¯":5293,"ĠÂ¯Â¿Â·Â¯ÃĹÂ´Â¯Â¯":5294,"ĠÂ¯Â¯Â´Â¯Â´Â¯Â¯Â¯":5295,"Â¯Â¯Â¿Â·Â¯Â¯Â¯":5296,"ĠÂ¯Â¿Â¯Â±Â¯":5297,"ĠÂ¯Ã·Â±":5298,"ĠÂ¯Â¯Â¿Â±Â¿Â·Â¯Â¯":5299,"Â¯Â¯Â¯Â·Â¿Â¯Â¯":5300,"ĠÂ¯Â±Â°Â±":5301,"ĠÂ¿Â·Â¯Â¯Â·Â°Â¯Â¯":5302,"Â¯Â±Â°":5303,"ĠÂ¯Â¯Â¯Â¸Â¯Â¸Â¯Â¯":5304,"ĠÂ¯ÃĹÂ°Â¯Â¯Â¸Â¯Â¯":5305,"ĠÂ¯Â¿Â±Â¯Â¯Â¿Â±Â¯":5306,"ĠÂ¿Â¿Â¯Â¯Â°Â¯Â¯Â¯":5307,"ĠÂ¯Â¿Â¸Â¯Â¯Â·":5308,"Ã¯Äħ":5309,"Ã¯Ã©":5310,"ÃıÃ§":5311,"Â¿Â»Â¯Â¯":5312,"ĠÂ¯Â¯Â·Â´Â¯Â·":5313,"ĠÂ¯Â¯Â¿Â¿Â·Â¯Â¯Â¯":5314,"ÅıÄ¯Ä¯":5315,"ĠÂ¯Â¿Â´Â¯Â·Â¯Â¯Â¯":5316,"Â´Â¯Â¯Â¸Â¯Â¯":5317,"Â´Â¯Â¯ÃĹÂ°Â¯":5318,"ĠÂ¯Â¯Â±Â¯Ã·Â´Â¯Â¯":5319,"Â·Â¯Â±Â±Â¯Â¯":5320,"ĠÂ¯Â¯ÃĹÂ·Â¯Â·Â¯Â¯":5321,"ÃĲÃ³":5322,"ÅĵÄ¯Ãĥ":5323,"Â´Â¯Â°":5324,"Â¯Â±Â¯Â¯Â¿Â¯Â¯":5325,"ĠÂ¯Â¯Â°Â°Â¯Â¯":5326,"ĠÂ¯Â°Â¯Â¯Â¯Â±Â±Â¯":5327,"ĠÂ¯Â¯Ã·Â¯Â»Â¯Â¯Â¯":5328,"ÃīÄ¯":5329,"ĠÂ¯Â¯ÃĹÂ°Â°Â¯Â¯Â¯":5330,"ĠÂ¯Â¿Â°Â¯Â¯Â±Â°Â¯":5331,"Â¯Â°Â±Â¯Â¯Â¯":5332,"ĠÂ¯Â¯ÃĹÂ°Â¯Â¸Â¯Â¯":5333,"Ã¯Ä³Ä¯":5334,"ĠÂ¯Â°Â°Â¯Â¯Â¿Â·Â¯":5335,"ĠÂ¯Â¯Â¿Â·Â¿Â¯Â¯Â¯":5336,"Â¯Â¯Â·Â¯Â±Â°Â¯Â¯":5337,"ĠÂ¯Â±Â¯Â¯Â¯Â¯Â´Â¯":5338,"ĠÂ°Â¯Â¯Â¯Â¯Â¿Â¯Â¯":5339,"ĠÂ¯Â¿Â·Â¯Â¯Â¯Â´Â¯":5340,"ĠÂ¯Â¿Â¿Â¯Â·Â°Â¯Â¯":5341,"ĠÂ¯Â·Â´Â¯Â¯Â¿Â¯Â¯":5342,"ĠÅıÃ¯":5343,"ĠÃ¿Ãı":5344,"ĠÂ¯Â¯Â¯Â¯Â¯Â°Â¯Â°":5345,"Ä¯Ä¸":5346,"Â·Â°Â¯Â¿Â¯Â¯":5347,"Â°Â¯Â¯Ã·":5348,"Â±Â¯Â¯Â¸Â°Â¯":5349,"Â·Â¯Â¯Â·Â±Â¯":5350,"Ã¿Ä´":5351,"ÃĥÄ¿":5352,"ÃĥÃ¯Ã¯":5353,"ĠÂ¯Â¿ÃĹÂ°":5354,"ĠÂ¯Â¯Â¿Â¯Ã·Â´Â¯Â¯":5355,"Ã·Â°Â¯Â¯Â¯Â¯Â¯":5356,"Â±Â¯Â¯Â¯Â¯Â±Â¯":5357,"ÃģÄ¯Ãĵ":5358,"Ã±Ã³":5359,"Ä·Äģ":5360,"ĠÄ¯ÃĽ":5361,"ĠÂ¯Â¯Â¯Â±Â¯Â¿Â¿Â¯":5362,"ĠÂ¯Â¿Â¯Â¯Â°":5363,"ĠÂ¯Â¯Â¯Â¯Â·Â¶Â¯Â¯":5364,"Â¯Â¿Â°":5365,"ĠÂ¯Â°Â±Â¯Â¯Â°Â¯Â¯":5366,"ÄģÃĲ":5367,"Â¯Â·Â°":5368,"ĠÂ¯Â¯Â±Â´Â¯Â¯Â¯Â¯":5369,"ĠÂ¯Â¯Â±Â¿Â·Â¯Â¯Â¯":5370,"ĠÂ¯Â±Â°Â¯Ã·Â±Â¯Â¯":5371,"ĠÂ¯Â¯ÃĹÂ¯Â±Â±Â¯Â¯":5372,"ĠÂ¯Â¯Â°Â¿Â¿Â¯Â¯Â¯":5373,"ĠÂ¯Â¯Â¿Â°ÃĹ":5374,"ÅĳÃı":5375,"Ã¯Ã¯Ãĥ":5376,"ĠÂ¯Â±Â°Â¯Â¯Ã·Â¯Â¯":5377,"ĠÂ¯Â¯Â±Â°Â¯Â·Â´Â¯":5378,"ĠÂ¯Â¯Â¯Â¯ÃĹÂ±Â°Â¯":5379,"Â¶Â°Â¯":5380,"ĠÂ¯Â¿Â°Â¯Â·":5381,"ĠÂ¯Â¿Â±Â¯Â·":5382,"ĠÂ¯Â¯Â¯Â¯Ã·ÃĹÂ¯Â¯":5383,"ĠÂ¯Â¯Â¿Â°Â¯Â¿Â±Â¯":5384,"ĠÂ¯Â¯ÃĹÂ±Â¯Â°Â°Â¯":5385,"Â¯Â¿Â¯Â±Â¯Â¯Â¯":5386,"ĠÂ¯Â¯Ã·Â±Â¯Â·Â±Â¯":5387,"ĠÂ¯Â¿Â¯Â¯Â¯Â¯Â¸Â¯":5388,"ĠÂ¯Â¿Â´Â¯Â¯Â·":5389,"Â±Â¯Â¯Â·Â¸Â¯":5390,"ĠÃĹÂ¯Â¯":5391,"ĠÄ¿Ã¯":5392,"Â°Â±Â±Â¯Â¯":5393,"ÃıÄĦ":5394,"Â¯Â¯Â¯Â¯Â·Â´Â¯":5395,"Â¿Â±Â°Â¯":5396,"Â¿Â°Â¿Â¯Â¯Â¯":5397,"Â°Â¯Â¯Â¿Â°Â¯":5398,"ĠÂ¯Â¯Â¿Â¸Â¯Â¯Â°Â¯":5399,"ÃĥÃ¿":5400,"ĠÂ¯Â¿Â¯Â¿Â·Â¯Â¯Â¯":5401,"ĠÂ¯Â·Â±Â¯Â¯Â¯":5402,"ĠÂ¯Â¯Â±Â¯Â»Â±Â¯Â¯":5403,"ÃģÃĳ":5404,"ÃģÃĲ":5405,"Ä·ÃĻ":5406,"ĠÂ¯Â¯Â¯Â°Â±Â±Â¯Â¯":5407,"ĠÂ¯Â¯Â¯Â°Â¯Ã·":5408,"Å¯Ä¿":5409,"ĠÃıÄ·":5410,"ĠÃ¯ÃŁ":5411,"ÂµÃ¯Ãı":5412,"ĠÂ¯Â¯Â±Â±Â¿":5413,"ÃĩÃĲ":5414,"ĠÂ¿Â¿Â·Â¯":5415,"ĠÂ¯Â¯Â¿Â°Â´Â¯Â¯Â¯":5416,"ÅĢÄ¯":5417,"ĠÂ¯Â¯Â¸Â¯Â¿Â±Â¯Â¯":5418,"Â¼Â³":5419,"Ä¯ÂµÃ¯Ãı":5420,"ĠÂ¯Â±Â±Â¯ÃĹÂ¯Â¯Â¯":5421,"ĠÂ¯Â°Â°Â¯Â¯Â´Â°Â¯":5422,"ĠÂ¯Â¯Â¿Â°Â¯ÃĹÂ¯Â¯":5423,"ĠÂ¯Â¯Â¿Â·Â¿Â±Â¯Â¯":5424,"ĠÂ·Â¯Â¯Â¯Â·":5425,"ĠÂ·Â¯Â¯Â¯Â¿":5426,"ÃıÃĲÃ¯":5427,"ĠÂ·Â¯Â°Â¯":5428,"Â¯Â¿Â¯Â¿Â¯Â¯Â¯":5429,"ĠÂ¿Â·Â·Â¯Â¿Â¯Â¯Â¯":5430,"Ä²Ã¯":5431,"ĠÂ±Â¯Â±Â¯":5432,"ÃıÃ¸Ãģ":5433,"ĠÂ¯Â¯Â¸Â¯Â¯Â¯Â·Â¯":5434,"ĠÂ¯Â¿Â¯Â·Â¿Â¯Â¯Â¯":5435,"ĠÂ°Â¯Â¿Â¯Â¯":5436,"Ã¯ÄĪ":5437,"Â·Â±Â°Â¯Â¯":5438,"Â·Â¿Â¸Â¯Â¯":5439,"ÃıÃıÃģ":5440,"Â¿Â´Â¯Â¯Â¯":5441,"Â¿Â¸Â¯Â¯Â¯Â¯":5442,"Â°Â¯Â¯ÃĹÂ±Â¯":5443,"Ã¿ÅĲ":5444,"ÃĥÃ¯Ãı":5445,"ĠÂ¯Â¿Â¸Â¯Â¯Â¯":5446,"ĠÂ¯Â¯Â¿Â¯Â¸":5447,"Ä¿ÃĢ":5448,"Ä¿Äĳ":5449,"Ä¯Ã¯Ãĥ":5450,"Ã³Ä¹":5451,"Ã³Âº":5452,"ĠÂ¯Â¯Â¿Â¯Â¯Â¶Â¯Â¯":5453,"ĠÂ¯Â±Â·Â¯Â¯Â±Â¯Â¯":5454,"ÃĳÅı":5455,"ĠÂ¯Â¯Â¯Â°Â»Â¯Â¯Â¯":5456,"Å¯ÃĴ":5457,"ĠÂ¯Â°Â°Â¯Â¯Â¯Â¿Â¯":5458,"ĠÄ¯Ã¯Åĥ":5459,"ĠÂ¯Â¯Â±Â°Â¯Â¯Â¿Â¯":5460,"ĠÃ¯ÃıÃ¹":5461,"ÅģÄ¯":5462,"Â¯ÃĹÂ¶Â¯Â¯":5463,"ĠÂ¯Â¯Â»Â°Â¯":5464,"ĠÂ¯Â¯Â»Â¯Ã·Â¯Â¯Â¯":5465,"ÅıÂµÄ¯":5466,"ÃıÃĳÃ¯":5467,"Ã¯ÂµÃı":5468,"Â¯Â¿Â¯Â·Â¯":5469,"ĠÂ¯Â»Â¯Â¯Â¯Â°Â¯Â¯":5470,"ĠÂ¯Â¯Â±Â±Â¿Â°Â¯Â¯":5471,"Â±Â°Â·Â¯Â¯":5472,"ĠÂ±Â°Â°Â¯Â¯Â¯Â¯Â¯":5473,"Â¯Â¯Â»Â°Â¯":5474,"Â·Ã·Â°Â¯Â¯":5475,"ÃıÅ£":5476,"Â°Â¯Â¯Â¿Â¯Â¯Â¯":5477,"ĠÂ¯Â¯Â¿Â¶Â¯Â¯Â¯Â¯":5478,"Â·Â¯Â¯Â¯Â´Â¯":5479,"ĠÂ¯Â¯Â¯Â¯Â¯Â¯Â·Â°":5480,"Ä¿Ä¹":5481,"Ä¯Ã¯Ä¯Ãĥ":5482,"Ã¯ÃıÃ¯Ã¯":5483,"Â·Â¯Â¿Â¯":5484,"ÃĵÃĳ":5485,"ĠÂ¯Â¯Â·Â¯Â¯Â°Â±Â¯":5486,"ĠÂ¯Â¯Â¿Â¯Â¯Â·Â´Â¯":5487,"Ä·Åı":5488,"ÃĲÄ³":5489,"ĠÂ¯Â¯Â¯Â°Ã·Â±Â¯Â¯":5490,"ÃĹÂ¯Â¯Â¯Â±Â¯":5491,"ĠÂ¯Â¯Â¯Â¯Â¿Â°Â°Â¯":5492,"Â¯Â¿Â´Â¯":5493,"ÄıÄ³":5494,"Â»Â·Â¯Â¯":5495,"ĠÂ¯Â±Â¯Â¯Â¿Â¸Â¯Â¯":5496,"Ã·Â¯Â¯Ã·":5497,"ĠÂ¯Â¯Â°Â±Â¯Â±Â¯Â¯":5498,"ÃıÃĥÄ¯":5499,"ĠÂ¯Â¯Â´Â¯ÃĹÂ°Â¯Â¯":5500,"ÅĦÃ¯":5501,"ĠÂ¯Ã·Â°Â¯Â·Â¯Â¯Â¯":5502,"ĠÂ¯Â¯Â¸Â¯Â°Â°Â¯Â¯":5503,"Ä¯ÃĵÄ¯":5504,"ĠÂ¯Â¯Â»Â¯Â¿Â·Â¯Â¯":5505,"ĠÂ¯Â¯Â¯Â´Â±Â¯Â¯Â¯":5506,"ĠÂ¯Â¯Â·Â±Â±Â¯Â¯Â¯":5507,"ĠÂ¯Â¯Â¿Â°Â¯Â¿Â°Â¯":5508,"ĠÂ¯Â¯Â¯Â¸Â¯Ã·Â¯Â¯":5509,"ĠÂ¯Â·Â°Â¯Â¿Â·Â¯Â¯":5510,"ÅıÂµÃı":5511,"ĠÂ·Â¯Â¿Â¯":5512,"ÃıÂºÃı":5513,"ĠÂ¯Â¿Â¸Â¯Â¯Â¿Â¯Â¯":5514,"ĠÂ°Â¯Â·Â¯Â¯Â¯Â¯Â¯":5515,"ĠÂ¯Â·Â·Â¯Â¯Â±Â°Â¯":5516,"ĠÂ¯Ã·Â°Â¯Â¿Â·Â¯Â¯":5517,"ĠÂ¯Â¯Â¯Â°Â¯Â¯Â¯Â°":5518,"ĠÂ»Â¯":5519,"ĠÂ¯Â¯Â¯Â¯Â¯Â¸Â±Â¯":5520,"Ä¯ÃĪ":5521,"Â·Â¯Â¯Â·Â°Â¯Â¯":5522,"Â¿Â¯Â¯ÃĹÂ°Â¯":5523,"ÃĹÂ°Â¯Â°Â¯Â¯":5524,"ĠÂ¯Â·Â·Â¯Â¯Â¯Â°Â¯":5525,"Ä¿ÃĦ":5526,"Â´Â¯Â¯Â¿Â±Â¯":5527,"Ã¯ÃıÃ¯Ãı":5528,"Â¸Â¯Â¯Â¯Â¯Â¯Â¯Â¯":5529,"ĠÂ¯Â¯Â¿Â¯Â¯ÃĹ":5530,"Ä·Ã¹":5531,"ĠÄ¯Ã¡":5532,"ĠÂ¯Â¯Â¯Â¯Â¿Â±":5533,"ĠÃ¯Ä±":5534,"ÃĩÃĵ":5535,"ÅŁÃĳ":5536,"ĠÂ¯Â¿Â·Â¯Â¯Â¿":5537,"ÂºÃ¯Ãı":5538,"Å¿Ãĥ":5539,"ĠÂ¯Â¯Â±Â°Â¯ÃĹÂ°Â¯":5540,"Â¯Â°Â·":5541,"ĠÂ¯Â±Â°Â±Â¯Â¯Â¯Â¯":5542,"ĠÂ¯Â°Â¯Â·":5543,"ĠÂ¯Â¯Â·Â±Â·Â¯Â¯Â¯":5544,"ĠÂ¯Â¯Â¿Â·Â¯Â·":5545,"ĠÂ¿Â¯Â¿Â¯Â¯":5546,"ĠÂ¿Â¿Â¯Â¯Â·":5547,"ÃıÃ°Ãı":5548,"ĠÂ¯Â·Â¿Â¯Â±Â°Â¯Â¯":5549,"Â±Â°Â¿Â¯Â¯":5550,"ĠÂ¯Â¯Â¯Â°Â·Â¿Â¯Â¯":5551,"ĠÂ¯Â¯ÃĹÂ¯Â¯Â¯Â¸Â¯":5552,"ĠÂ¯Â¸Â¯Â¯Â¯Â´Â¯Â¯":5553,"Â°Â´Â¯":5554,"Â·Â±Â¯Â±Â¯Â¯":5555,"ÃıÄ²":5556,"Â¿Â¯Â¯Â±":5557,"Â±Â¯Â°Â±Â¯":5558,"Â¿Â¯Â¯Â¯Â·Â±Â¯":5559,"ĠÂ¯Â¯Â·Â¿Â¿Â¯Â¯Â¯":5560,"ÃĹÂ¯Â·Â±Â¯Â¯":5561,"ÃĹÂ°Â¿Â·Â¯Â¯":5562,"ĠÂ¯Â¿ÃĹÂ¯Â·Â¯Â¯Â¯":5563,"ĠÂ¯Â¯Â¿Â¯Â±Â¿Â¯Â¯":5564,"Ä°Ä·":5565,"Ä°Ã¯Ã¯":5566,"Ä¿Ã¯Ãģ":5567,"Ä¯Ã¯Ä¯Ä¯":5568,"Ã¯ÃıÃĥ":5569,"ÃĵÄ¯Ãĥ":5570,"Ã±Ã±":5571,"ĠÂ¯Â¯Â¿Â¯Â¯Ã·Â±Â¯":5572,"ĠÂ¯Â¯Ã·Â´Â¯Â°Â¯Â¯":5573,"Â¸Â¯Â¯ÃĹÂ¸Â¯":5574,"Â±Â°Â¯Â¿Â¯Â¯":5575,"Å¯Ä·":5576,"ĠÂ¯Â¯Â±Â¿Â±Â¯Â¯Â¯":5577,"ÃŁÃ¿":5578,"ÃŁÃĳ":5579,"ĠÂ¯Â¿Â·Â¯Â¯Â¿Â±Â¯":5580,"ĠÂ¯Â¯Â´Â¯Â¯Â°Â°Â¯":5581,"ĠÂ¯Â¯Â¯Â·Ã·Â¯Â¯Â¯":5582,"ĠÂ¯Â¯Â¸Â¿Â°Â¯Â¯Â¯":5583,"ÄĩÃı":5584,"ĠÂ¯Ã·Â¿":5585,"Ã¯ÃģÃı":5586,"Â¯ÃĹÂ°":5587,"Ä¯ÃĳÃ¯":5588,"ĠÃıÃıÃ³":5589,"ĠÂ¯Â·Â¯Â°Â¯Â±Â¯Â¯":5590,"Â¯Ã·Â°":5591,"ĠÂ¯Â¯Â´Â·Â¯Â¯Â¯Â¯":5592,"ĠÂ¯Â¯Ã·Â°Â¯Ã·Â°Â¯":5593,"ÃĹÂ°Â¯Â·":5594,"ĠÂ¿Â¯Â¯Â¯Â·Â°Â¯Â¯":5595,"ĠÂ¯Â¯Â¿Â´Â·Â¯Â¯Â¯":5596,"ĠÂ¯Â»Â±Â¯Â¯":5597,"ĠÂ°Â¯Â±Â¯Â¯Â¯Â¯Â¯":5598,"ĠÂ¯Â¯Â¯ÃĹÂ±Â¯Â¯Â¯":5599,"ĠÂ¿Â·Â¯Â¯Â¯Â¯Â·Â¯":5600,"ĠÂ¯Â¯Â±Â¯Â¯Â¯Â¯Â°":5601,"ĠÂ±Â¯Â¿Â¯Â¯":5602,"ĠÃ§":5603,"ĠÃ±Ãı":5604,"Â¯Â¯Â°Â¯Â±Â¯Â¯":5605,"Â¯Â¯Â¸Â¯Â¯Â¯Â¯Â¯":5606,"Â¯Â¯Â¯Â±Â¿Â¯":5607,"Ã¯ÄĦ":5608,"Ä¯Ãĸ":5609,"Â°Â¯Â¯Â´Â°Â¯":5610,"Â±Â¯Â¯ÃĹÂ¯Â¯Â¯":5611,"ĠÂ¯Â¿Â¿Â¯Â·":5612,"ĠÂ¯Â·Â±Â°Â¯Â¯Â¯Â¯":5613,"Ã·Â°Â¿Â¯Â¯Â¯":5614,"ÃģÄ¯Ä¯":5615,"ĠÂ¯Â¯Â¿Â¯Â¯Â°Â±Â¯":5616,"Ä·Ãħ":5617,"ĠÂ¯Â±Â·Â¯Â¯Â·Â¯Â¯":5618,"ÃĳÄ¯Ã¯":5619,"ÃĲÂµ":5620,"ÃĢÄ¿":5621,"ĠÄ¯Ä¯Ãĥ":5622,"ĠÂ¯Â¯Ã·Â´Â¯Â¯":5623,"ĠÂ¯Â¯Ã·Â·Â¯Â±Â¯Â¯":5624,"ĠÂ¯Â¿Â¯Â¯Â¯Â¿Â¸Â¯":5625,"Â±Â°Â¯Â°Â¯":5626,"ÄıÃ³":5627,"Ã°Ã°":5628,"ĠÂ¯Â¯Â±Â¿Â¯":5629,"ÃŁÃĵ":5630,"ÃĩÄ°":5631,"ĠÃ¯ÃıÄĩ":5632,"ĠÂ¿Â¸":5633,"ÅĲÃ¯":5634,"ĠÂ¯Â±Â°Â¯Â¯Â·Â±Â¯":5635,"ĠÂ¯Â¯Â¯Â¯ÃĹÂ»Â¯Â¯":5636,"Â¯Ã·Â¸Â¯":5637,"Â¯Â·Â¯Â·Â¯Â¯Â¯":5638,"ĠÂ¿Â¯Â¯Â¯Â¯ÃĹÂ¯Â¯":5639,"ĠÂ¯Â·Â´Â¯Â·Â´Â¯Â¯":5640,"Â±Â°Â±Â¯Â¯":5641,"ĠÂ¯Â¯Â»Â¯Â¯Â»Â¯Â¯":5642,"ĠÂ·Â·Â¯Â¯Â¯Â¿Â¯Â¯":5643,"ĠÂ¿Â¿Â¯Â¯Â¯Â¯Â°Â¯":5644,"ĠÂ¯Â¿ÃĹÂ±Â¯Â¯Â¯Â¯":5645,"ĠÂ½":5646,"ĠÅĩ":5647,"ĠÄıÃı":5648,"Â·ÃĹ":5649,"Â¿Â±Â¯Â°Â¯Â¯":5650,"Â°Â¯Â¯Â¿Â¿Â¯":5651,"Â¿Â¯Â¯Â·Â±Â¯":5652,"Â°Â¯Ã·Â°Â¯Â¯":5653,"Â¿Â¯Â¯Â¯Â·Â´Â¯":5654,"ĠÂ¯Â¿Â°Â¯Â¯Â¯Â·Â¯":5655,"ĠÂ¯Â¯Â¿Â¯Â°Â·Â¯Â¯":5656,"Â¸Â¿":5657,"Ã±Ä¯Ã¯":5658,"ĠÂ¯Â¯Â°Â¯Â¯Ã·":5659,"ĠÂ¯Â¯Â±Â¯Â¯Â¸Â°Â¯":5660,"ĠÂ¯Â±Â¿Â¯Â¯Â°Â¯Â¯":5661,"ĠÂ¯Â±Â·Â¯Â¯Â°Â¯Â¯":5662,"Ä³Ä¿":5663,"Â¿Â¯Â·Â¯Â¯Â¯Â¯":5664,"Â¯Â¯Â·Â¯Â¯Â°Â¯Â¯":5665,"ĠÂ¯Â¯Ã·Â´Â¯Â¿Â¯Â¯":5666,"ĠÂ¯Â¯Â¯Â¯Â¿Â¶Â¯Â¯":5667,"ĠÂ¯Â¯Â¯Â¯Â·Â¿Â°Â¯":5668,"Â¯Â·Â±Â°Â¯":5669,"ĠÂ¯Â¯Â°Â´Â¯Â¯Â¯Â¯":5670,"ĠÂ¯Â¯Â°Â±Â¯Â·Â¯Â¯":5671,"Ã¯ÃĲÃı":5672,"ĠÂ¯Ã·Â±Â¯Â¯Â¿Â¯Â¯":5673,"ĠÂ¯Â¯Â±Â°Â¯Â·Â·Â¯":5674,"ĠÂ¯Â¯Â»Â¯Â¯Â¯Â°Â¯":5675,"Â¯Â°Â¯Â¯Â¯Â¯Â¯Â¯":5676,"Â¶Â¯Â°Â¯Â¯":5677,"ÆıÃĢ":5678,"ĠÂ¯Â¯Â¿Â·Â¯Â¿":5679,"ĠÂ¯Â±Â±Â¯Â¯Â´Â¯Â¯":5680,"ĠÂ·Â¯Â¯Â¯Â¯Â±Â°Â¯":5681,"ĠÂ¯Â¿Â¿Â¯Â±Â¯Â¯Â¯":5682,"ĠÂ¯Â·Â¯Â¯Â·Â·Â¯Â¯":5683,"ĠÅ¯Ã¯":5684,"Ä½Ã¯":5685,"ĠÂ±Â¯Â·Â¯Â¯":5686,"ĠÄ°Ã¯":5687,"ĠÄ¿Ãĥ":5688,"Â¯Â¯Â¯Â°Â·Â¯":5689,"ÃıÅ±":5690,"Â¿ÃĹÂ¯Â¯Â¯Â¯Â¯":5691,"Â¿Â¯Â¯Â¯ÃĹÂ´Â¯":5692,"ĠÂ¯Â¯Â·Â°Â¯Â¯Â¿Â¯":5693,"Ã¿Ã¸":5694,"Ä°Äģ":5695,"ĠÂ¯Â·Â±Â°":5696,"Ã·Â·Â¯Â¯Â¯":5697,"Ä³Ä¯Ã¯":5698,"Â¿Â¯Â°Â¯Â¯Â¯Â¯":5699,"Â¿Â¯Â¿Â¸Â¯Â¯":5700,"ĠÂ¯Â¯Â¯Â±Â¯ÃĹÂ°Â¯":5701,"ÅĵÃ¿":5702,"Ä±Ä¿":5703,"ÅĹÄ³":5704,"Å¯Ãī":5705,"ĠÃ¯ÃĦ":5706,"Â¯Â¿Â±":5707,"ÂµÃĲ":5708,"Â»Â¯Â¯Â¯Â¯Â¯Â¯":5709,"ĠÂ¯Â±Â¯Â¯Â»Â¯Â¯Â¯":5710,"Ã·Â¯Â¯Â·Â¯Â¯Â¯":5711,"Ã¯Ä¯Ãĵ":5712,"Â¯Â°Â·Â±Â¯Â¯":5713,"ĠÂ¿Â¯Â±":5714,"ĠÂ¯Â¯Â¯Â¿Â¯Â¸Â¯Â¯":5715,"Â¯Â·Â¯Â·Â¯Â¯":5716,"ÃıÃĳÄ¯":5717,"ÃıÂºÃ¯Ãı":5718,"ĠÂ¯Â¯Â·Â¯Â¿Â·":5719,"ĠÂ¿Â¿Â¯Â¿Â¯Â¯Â¯Â¯":5720,"ĠÂ¯Â¯Â¯Â±Â·Â¿Â¯Â¯":5721,"ĠÂ°Â¯Â¯Â¯Â·Â¯Â¯Â¯":5722,"ĠÂ¯Â¿Â·Â¯Â¿Â´Â¯Â¯":5723,"ĠÂ¯Â¯Â¯Â¯Â¯Â·Â¯Â±":5724,"ĠÂ¯Â¯Â¯Â¯Â¯Â·Â¯Â°":5725,"ĠÃĽ":5726,"Ä¯Ã¼":5727,"Â¿ÃĹÂ¯Â¿Â¯Â¯Â¯":5728,"Ã¿Ã¹":5729,"Â°Â¯Â¯Â¯Â·Â¯Â¯":5730,"Ä¿Ã¯Ãı":5731,"Ä¯Ã¯Ä°":5732,"ĠÂ¯Â¯Â±Â¯Â¿Â¯":5733,"Â·Â¯Â·Â´Â¯Â¯":5734,"ÃĵÄ¿":5735,"ĠÂ¯Â¯Â·Â¯Â¯Ã·Â´Â¯":5736,"ĠÂ¯Â¯Â±Â¯Â¯Â¿Â´Â¯":5737,"ĠÄ¯Ã´":5738,"ÅĵÃĳ":5739,"ĠÂ¯Â¯Â¯Â¯Â·Â¿Â±Â¯":5740,"ĠÂ¯Â·Â¯Â¯Ã·Â±Â¯Â¯":5741,"Â´Â¯Â·Â·Â¯":5742,"ĠÂ¯Â·Â¯Â¯Â¯Â·Â±Â¯":5743,"ĠÂ¯Â¯Â¯Â±Â°Â¿Â¯Â¯":5744,"ÄıÃĩ":5745,"ÂµÄ°":5746,"ĠÂ¯Â¯Â¯Â¿ÃĹÂ¯Â¯Â¯":5747,"Â¯Â¯Â¿Â¿Â¯Â¯Â¯":5748,"ÃıÃ¯ÃĢ":5749,"ĠÂ¯Â¯Â¿Â±ÃĹÂ¯Â¯Â¯":5750,"ÅĶÄģ":5751,"ĠÂ¯ÃĹÂ¯Â¯Â¯Â¸Â¯Â¯":5752,"ĠÂ¯Â¿Â°Â¯Â¯Â¿Â±Â¯":5753,"ĠÂ¯Â¿Â°Â¯Â´Â¯Â¯Â¯":5754,"ĠÂ¯Â¯ÃĹÂ±Â±Â°Â¯Â¯":5755,"ĠÂ¯Â¯Â¯Â·Â¯Â¯Â´Â¯":5756,"ĠÂ¯Â±Â±Â¯Â¯Â·Â°Â¯":5757,"ĠÂ±Â°Â¯Â¯Â¯Â¯":5758,"Â±Â¯Â·Â·Â¯Â¯":5759,"Â°Â·Â¿Â¯Â¯":5760,"ĠÂ¯Â¿Â´Â¯Â¯Â·Â°Â¯":5761,"ĠÂ·Â·Â¯Â¯Â·":5762,"ĠÂ·Â¯Â¯Â±":5763,"ĠÂ¯Â¿Â´Â¯Â°Â¯Â¯Â¯":5764,"ĠÂ¯Â¯Â¯Â¿Â¯Â¯Â¿Â¯":5765,"Â¸Â¯Â·Â¸Â¯":5766,"Å©":5767,"ĠÄ»":5768,"ĠÃĭ":5769,"Â¯Â¯Â¯Ã·Â±Â¯Â¯":5770,"Â°Â·Â¯Â¯Â¯Â¯Â¯":5771,"ÃıÃ¤":5772,"Â¿Â°Â¯Â°Â¯Â¯":5773,"Â¿Â¯Â¯Â¿Â¸Â¯":5774,"ĠÂ¯Â¯Â·Â¯Â¿Â¯":5775,"ĠÂ¯Â·Â±Â¯Â¯Â¯Â±Â¯":5776,"ĠÂ¯Â·Â¿Â°Â¯Â¯Â¯Â¯":5777,"ÃģÄ°":5778,"ÃĢÃ¹":5779,"ÃĢÄ¯Ãı":5780,"ÃĢÄ¯Ãĵ":5781,"ÅĵÄ±":5782,"Ä±Ä±":5783,"ÅĹÄ¯Ãĥ":5784,"Å¯ÃĤ":5785,"Ã°Ã±":5786,"Ã°ÃĻ":5787,"ÃĩÃģ":5788,"ĠÂ¯Â¿Â·Â¯Â±Â±Â¯Â¯":5789,"ÅĳÄ¯":5790,"ÅĳÃĥ":5791,"ÃıÃģÄ¯Åĵ":5792,"ĠÂ¯ÃĹÂ°Â¯Â¯Â¯Â·Â¯":5793,"ĠÂ¯Â¿Â¯Â±Â¿Â¯Â¯Â¯":5794,"ÃħÄ¯":5795,"ĠÂ¯Â¯Â¸Â¯Ã·":5796,"Â¯Â°Â¯Â¿Â¯Â¯Â¯":5797,"ĠÂ¯Â¯Â¿Â±Â¯Â·":5798,"Â¯Â·Â¯Â¿Â¯Â¯":5799,"ĠÂ¯Â±Â±Â¯Â¯Â¸Â¯Â¯":5800,"ĠÂ¯Â¿Â¸Â¯Â¯Â±Â¯Â¯":5801,"ĠÂ¿Â·Â±Â¯Â¯Â¯Â¯Â¯":5802,"ĠÂ¯Ã·Â¯Â¯Â¯Ã·Â¯Â¯":5803,"Â±Â¿Â±Â¯Â¯Â¯":5804,"ĠÂ¯Â°Â°Â°Â¯Â¯Â¯Â¯":5805,"Â°Â¯Â·Â¸Â¯":5806,"ĠÂ¯Â·Â´Â¯Ã·":5807,"ĠÂ°Â¯Â·Â¯":5808,"ĠÂ¯Â¿Â´Â¯Â¿Â¯Â¯Â¯":5809,"ĠÂ°Â¯Â¯Â°Â¯Â¯Â¯Â¯":5810,"ĠÃ·Â¯Â¯Â¯":5811,"ĠÂ·Â¯Â°Â¯Â¯":5812,"Â·Â¸Â¯Â¯Â¯Â¯":5813,"ÃıÄŁ":5814,"ĠÂ¯Â¯Â¿Â¯Â¯Â¯Â¯Â°":5815,"ÅıÅĹ":5816,"Â´Â¯Â¿":5817,"ÃĹÂ°Â¿Â¯Â¯Â¯":5818,"Ã·Â¯Â·":5819,"Â¸Â°Â¯Â¯Â¯Â¯":5820,"ĠÂ¯Â¯Â·Â¯Â¯Â°":5821,"ĠÂ¯Â¯Â±Â¯Â¯Â°Â±Â¯":5822,"ĠÂ¯Â¯ÃĹÂ´Â¯Â¯Â°Â¯":5823,"ÅĵÄ¯Ãĵ":5824,"ĠÂ¯Â¿Â¯Â¯Â¯Ã·Â±Â¯":5825,"ÅĹÃĵ":5826,"ĠÃ¯ÄĢ":5827,"Â´Â¯Â·Â´Â¯Â¯":5828,"ĠÂ¯Â¯Â¯Â±Ã·":5829,"ÄıÅı":5830,"ĠÂ¯Â±Â¯Â¯Â¿Â´Â¯Â¯":5831,"ĠÂ¯Â±Â¯Â¯Â¯Â·Â·Â¯":5832,"ĠÂ¿Â°Â¯":5833,"Â¯Â°Â¯Â¯Â°Â¯":5834,"ĠÂ¯Â¿Â·Â¯Â¯Ã·Â´Â¯":5835,"Ä¹ÃĢ":5836,"ÅĲÃı":5837,"Ã¯ÃĳÄ¯Ã¯":5838,"ÃıÃ¯Ãĥ":5839,"ĠÂ¯Â·Â¯Â±Â·Â¯Â¯Â¯":5840,"Â¯Ã·Â¯Â¯Â¯Â¯":5841,"ĠÂ¯ÃĹÂ¯Â¯Â·":5842,"ĠÂ¿Â·Â¯Â¯ÃĹÂ´Â¯Â¯":5843,"ĠÂ¯Â¯ÃĹÂ±Â±Â¯Â¯Â¯":5844,"ĠÂ¿Â¯Â·Â¯Â¯":5845,"ĠÂ¯Â¯Â¯Â¯Â¯Â°Â´Â¯":5846,"ĠÂ¯Ã·Â¯Â¯Â¯Â±Â°Â¯":5847,"ĠÂ¯Â»Â¯Â¯Â¯Â¿Â¯Â¯":5848,"ĠÂ·Â·Â¯Â¯Â¯Â±Â¯Â¯":5849,"ĠÂ¿Â¯Â¯Â¯Â¯Â¯Â¿Â¯":5850,"ÃıÄ´Ãĥ":5851,"Ã¶Ãı":5852,"ĠÂ¯Â¯Â¯Â»Â°Â¯Â¯Â¯":5853,"ÆĪ":5854,"Â¯Â¯Â±Â¯Â°Â¯Â¯":5855,"Â¯Â¯Â¯Â´":5856,"Ã¯Äĺ":5857,"Ã¯ÃĿ":5858,"ÃıÃıÃĥ":5859,"Â¿Â±Â¯Â¿Â¯Â¯":5860,"Â¿Â°Â·":5861,"Â¿Â¯Â¯Â´Â°Â¯":5862,"ĠÂ¯Â¯Â·Â´Â¯Â¯Â°Â¯":5863,"ĠÂ¯Â¯Â·Â·Â¯Â¯Â±Â¯":5864,"ÅıÃ´":5865,"Ã¿ÃĦ":5866,"ÃĥÃĻ":5867,"ĠÂ¯Â¿Â±Â°Â¯":5868,"Ä°Åĥ":5869,"ĠÂ¯Â·Â¿Â±Â¯Â¯Â¯Â¯":5870,"ĠÂ¯Â·Â·Â¯Â¯Â¯Â±Â¯":5871,"Ä¿Åı":5872,"Â·Â¯Â·Â±Â¯":5873,"Ã±Ã¹":5874,"Ä³Ä·":5875,"ĠÂ¯Â¯ÃĹÂ´Â¯Â¯":5876,"ĠÂ¯Â¯ÃĹÂ¯Â¿Â´Â¯Â¯":5877,"ÃĲÃĶ":5878,"ĠÄ¯ÃĴ":5879,"ÅĹÃ¿":5880,"ÅĹÃĳ":5881,"Â¸Â¯Â¯Â´Â¯Â¯":5882,"Ã¹ÅĶ":5883,"Â¯Â°Â¯Â¯Â¸Â¯Â¯":5884,"ĠÂ¯Â°Â¯Â¯Â¯Â·Â·Â¯":5885,"Ä¹Ä¯Ã¯":5886,"ÅĳÃ³":5887,"ĠÂ¯Â±Â°Â¯Â¯Â·Â´Â¯":5888,"ĠÂ¯ÃĹÂ±Â¯Â¯Â¯Â°Â¯":5889,"ÄĹÃ¯":5890,"ĠÂ¯Â¯Â´Â¯Ã·Â°Â¯Â¯":5891,"Ã¯ÃĳÃ¯":5892,"ÃıÃıÄ¯Ã¯":5893,"ĠÂ¯Ã·Â±Â¯Â¯Â°Â¯Â¯":5894,"ĠÂ¯Â¯Â±Â°Â¯Â·Â±Â¯":5895,"Ã¯ÃģÃ¯":5896,"ĠÂ¯Â¯Â¯Â¯Â°Â»Â¯Â¯":5897,"ĠÂ¯Â¯ÃĹÂ¯Â¯Â¿Â·Â¯":5898,"ĠÂ¯Â¯ÃĹÂ°Â¯Â·Â·Â¯":5899,"Â¯Â°Â¯Â·":5900,"ĠÂ¯Â°Â¯Â±Â¯":5901,"ĠÂ¿Â¯Â¯Â¯ÃĹ":5902,"ĠÂ¯Â¯Â¯Â¸Â¯Â±Â±Â¯":5903,"Â¯Â¯Â·Â¯Â°Â¯":5904,"Ã¯Ã°Ãı":5905,"ĠÂ¯Â·Â±Â¯ÃĹÂ¯Â¯Â¯":5906,"ĠÂ·Â¯Â¯Â¯Â¯Â·":5907,"ĠÂ¯Â¯Â°Â°Ã·":5908,"ĠÅıÄ¯":5909,"ĠÂ¯Â¯Ã·Â´Â¿Â¯Â¯Â¯":5910,"ĠÂ¯Â¿Â¸Â¯Â¯ÃĹÂ´Â¯":5911,"ÅıÃĳÃ¯":5912,"ĠÂ¯Â¯Â¶Â¯Â¯Â°Â¯Â¯":5913,"ĠÂ¯ÃĹÂ´Â¯Â¯Â°Â¯Â¯":5914,"ĠÂ·Â·Â¯Â¿Â·Â¯Â¯Â¯":5915,"ĠÂ¯Â¯Ã·Â°Â¯Â¯Â´Â¯":5916,"Â¯Â¶":5917,"Ã¯Ã¥":5918,"ĠÂ¯Â¯Â¯Â¯Â¯Â°Â¯Â±":5919,"Â·Â´":5920,"Â·Â¿Â°Â¯Â¯Â¯":5921,"Â¿ÃĹ":5922,"Â±Â¯Â¯Â°":5923,"Â¿Â¯Â¯Â·Â¯":5924,"ĠÂ¯Â¯Â·Â¯Â¯Â¯Â¯":5925,"ĠÂ¯Â¯Â·Â·Â¯Â¯":5926,"ĠÂ¯Â¯Â·Â¿Â·Â¯Â¯Â¯":5927,"Ã¿Ã¯Ä¯":5928,"Â´Â¿Â¯Â¯":5929,"ÃĹÂ±Â¯Â·Â¯Â¯":5930,"ĠÂ¯Â¿Â¿Â±Â¯Â¯Â¯Â¯":5931,"Ä¿Ã°":5932,"Â¸Â°":5933,"Â¸Â¯Â¿Â°Â¯Â¯":5934,"ÃĵÃ³":5935,"Ã±ÃŁ":5936,"Ã³Åĥ":5937,"ÃĳÃĶ":5938,"ÃĲÄ¯Ã¯":5939,"ĠÄ¯Åķ":5940,"Å¯Ãµ":5941,"Å¯Ã²":5942,"ĠÂ¯Â°Â±Â°Â¯Â¯Â¯Â¯":5943,"ÄģÅĹ":5944,"ĠÂ¯Â¿Â·Â¯Ã·Â·Â¯Â¯":5945,"ĠÂ¯Â±Â¯Â¯Â±Â±Â¯Â¯":5946,"Â¸Â¯Ã·":5947,"Ä¯ÃıÃĥ":5948,"ÅĢÃı":5949,"Ä´Ãı":5950,"ĠÂ¯Â¯Â¯Â·Â¿Â°Â¯Â¯":5951,"Å¿Ä¯":5952,"ÃıÃģÃı":5953,"ĠÂ¯Â¯Â¯Â¿Â¿Â·Â¯Â¯":5954,"ĠÂ¯Â¯Ã·Â°Â°Â¯Â¯Â¯":5955,"ĠÂ¯Ã·Â¸Â¯Â¯Â·Â¯Â¯":5956,"ĠÂ¯Â¯ÃĹÂ°Â±Â¯Â¯Â¯":5957,"ĠÂ¯Â¯Â¯Â¯Â±Â°Â°Â¯":5958,"ĠÂ¯Â±Â¯Â°Â¯":5959,"ĠÂ¯Â±Â¯Â±Â¯":5960,"ĠÂ¯ÃĹÂ¯Â¯Â¿Â·Â¯Â¯":5961,"ĠÂ¯Â¯Â¿Â°Â¯Â¿Â·Â¯":5962,"ĠÂ¯Â¯ÃĹÂ±Â¯Â»Â¯Â¯":5963,"ĠÂ¯Â·Â°Â¯Â¿":5964,"Ã§Ãı":5965,"ĠÂ¯Â¯Â¿Â·Â¿Â·Â¯Â¯":5966,"Â¯Â¯ÃĹÂ¿Â¯Â¯":5967,"ĠÂ±Â·Â¯Â¯Â¯Â¯Â¯Â¯":5968,"ĠÂ¯Â¯Â¯Â¯Â¯ÃĹÂ¿Â¯":5969,"ĠÂ¯Â·Â¿Â¯Â´Â¯Â¯Â¯":5970,"ĠÂ¯Â´Â°Â¯Â¯":5971,"ÃĥÄ¯ÅĹ":5972,"ĠÂ·Â·Â¯Â¯Â±Â°Â¯Â¯":5973,"ĠÂ·Â¯Â¯Â°":5974,"ĠÂ¯ÃĹÂ°Â¯ÃĹÂ°Â¯Â¯":5975,"ĠÂ¯Â¿Â´Â¯Â±Â¯Â¯Â¯":5976,"ĠÂ¯Â¯Â°Â¯Ã·Â·Â¯Â¯":5977,"ĠÂ¯Â¯Â¯Â»Â¯Â¿Â¯Â¯":5978,"Ã¯Ä¯Ã±":5979,"Ã¯Ã¼":5980,"Ä¯Ã¶":5981,"Â¯Â¯Â¯Â¯Â¯Â¸Â¯":5982,"Â±Â¯Â¯ÃĹÂ°Â¯Â¯":5983,"Â¿Â¯Â¯Â¿Â¸Â¯Â¯":5984,"Â°Â¯Â¿Â¯":5985,"Â°Â¯Ã·Â´Â¯":5986,"Ã¿ÃĴ":5987,"Â´Â°Â¯Â¯Â¯":5988,"ĠÂ¯Â¿Â¸Â¯Â¯Â¯Â°Â¯":5989,"Ã·Â¯Â¯Â¯Â±Â¯Â¯":5990,"Ä¿Ä¯Ã¯":5991,"Ä¿Åĥ":5992,"Ä¯Ã¯ÃıÃĥ":5993,"Â¸Â·Â¯Â¯":5994,"ÃģÃ°":5995,"ĠÂ¯Â¯Â¿Â¯Â¯Â±":5996,"ĠÂ¯Â±Â´Â¯Â¯":5997,"ÃĲÃĲ":5998,"Â¿Â¯Â±Â±Â¯Â¯":5999,"ĠÂ¯Â¯Â¯Â¯Â¿Â·Â·Â¯":6000,"ÅĥÂµ":6001,"ĠÂ¯Â°Â¸Â¯Â¯Â¯Â¯Â¯":6002,"ĠÂ¯Â°Â±Â¯Â°Â¯Â¯Â¯":6003,"Â´Â¯ÃĹÂ¯Â¯Â¯":6004,"ÄıÃ±":6005,"ÃĩÃĢ":6006,"ĠÃ¯ÃıÄ¿":6007,"ĠÂ¯Â¿Â·Â¯ÃĹ":6008,"ĠÂ¯Â±Â¯Â¯Â±":6009,"ĠÂ¯Â¯Â¯Â·Â¯Â·Â±Â¯":6010,"ĠÂ¯Â¯Â°Â°Â¿":6011,"ĠÂ¯ÃĹÂ·Â¯Â¯":6012,"ĠÂ¯ÃĹÂ¿Â¯":6013,"ĠÂ¯Ã·Â°Â¯Â·":6014,"ĠÂ¯Â¯Â·Â°Â¸Â¯Â¯Â¯":6015,"ÃĽÄ¯":6016,"ĠÂ¯Â¯Â¯Â¯ÃĹÂ¯Â·Â¯":6017,"Â¯Â°Â°":6018,"ĠÂ¯Â¯Ã·Â°Â¯Â¸Â¯Â¯":6019,"ÃĹÂ°Â¯Â±Â°Â¯":6020,"ĠÂ¯Â·Â°Â¯ÃĹÂ¯Â¯Â¯":6021,"ĠÂ¯Â·Â°Â¯Â¿Â°Â¯Â¯":6022,"ĠÂ¯Â¿Â±Â¯Â¯Â´Â¯Â¯":6023,"ĠÂ¯Â±Â±Â¯Â¯Â·Â·Â¯":6024,"ĠÂ¯Â¯Â·Â¯Â°Â¿Â¯Â¯":6025,"ĠÂ¿Â·Â¯Â·Â·Â¯Â¯Â¯":6026,"ĠÂ¯Ã·Â¯Â¯Â¯Â·":6027,"ĠÂ°Â¯Â¿Â¯Â¯Â¯Â¯Â¯":6028,"ĠÂ¯Â¯Ã·Â´Â¯Ã·":6029,"ĠÂ¯Â¯Â¶Â¯Â¯Â·Â¯Â¯":6030,"ÅıÄ³Ãĵ":6031,"ĠÂ¯Â¯Â¯ÃĹÂ°Â¯Â¯Â¯":6032,"Â±Â¯Â¯Ã·Â¸Â¯":6033,"ĠÅ¯Ãĳ":6034,"Â¯Â¯Â¯Â¯Â»Â¯":6035,"Â±Â¯ÃĹÂ´Â¯Â¯":6036,"ĠÂ¯Â¯Â¿Â»":6037,"Ã¿Ã¯Ãı":6038,"Ã¿Ä¯Ãı":6039,"Ã¿Ã²":6040,"ĠÂ¯Â·Â·Â¯Â¯Â¯":6041,"ÃĵÄ°Ãģ":6042,"Ã±Ã¯Ãı":6043,"ĠÂ¯Â¯Â±Â¯Â¯ÃĹÂ´Â¯":6044,"ĠÂ¯Â¯Â¯Â°Â°Â°Â¯Â¯":6045,"ĠÄ¯Ä¯Ä¯":6046,"ĠÄ¯ÄĻ":6047,"ĠÂ¯Â¯Ã·Â¸Â¯Â±Â°Â¯":6048,"Ä±Åı":6049,"ÅĹÄ±":6050,"Â¸Â¯Â¯Â¿Â·Â¯":6051,"ĠÂ¯Â·Â¯Â¯Â¯Â¿Â¿Â¯":6052,"ĠÂ¯Â¯Â±Â±Â¯Â¯Â±Â¯":6053,"ÃĩÃ±":6054,"Â»Â¯Â·":6055,"ĠÂ¯Â±Â¯Â¯Â¯Ã·":6056,"ĠÂ¯Â°Â¯Â¯Â¯ÃĹÂ°Â¯":6057,"ĠÂ¯Â¿Â·Â¯Â¯Â¿Â¿Â¯":6058,"ĠÃ¯Ã¯Ä·":6059,"ĠÂ¯Â¿Â¯Â°Â¯Â±Â¯Â¯":6060,"ĠÂ¯Ã·Â±Â¯Â¯Â¯Â°Â¯":6061,"ĠÂ¯Â¯Â·Â°Â·Â°Â¯Â¯":6062,"ÃıÃ¯Ãģ":6063,"ĠÂ¯Â¯Â¯Â¯Â±Â´Â±Â¯":6064,"Â¯ÃĹÂ¯Â¯Â¯Â¯":6065,"ĠÃıÃıÃ±":6066,"ĠÂ¯Â¯Â»Â±Â¯":6067,"ÃıÃ±Ä¯":6068,"ĠÂ¯Â±Â°Â·":6069,"ĠÂ¯Â¯Ã·Â°Â¯Â·Â·Â¯":6070,"ĠÂ¯Â¯Â¿Â±Â¯Â¿":6071,"ĠÂ¯Â·Â°Â¯Â¯Â»Â¯Â¯":6072,"ĠÂ¯Â¯Â¿Â·Â·Â´Â¯Â¯":6073,"Ã¯Ä±Ãĵ":6074,"ĠÂ¿Â¯Â·":6075,"ĠÂ¯Â·Â±Â¯Â±Â´Â¯Â¯":6076,"Â°Â¿Â·Â¯Â¯Â¯":6077,"Â¯Â¯Â¯Â¿Â¿Â¯Â¯":6078,"ĠÅıÃ¿":6079,"ĠÂ¯Â»Â°Â¯":6080,"Å¯ÃĳÄ¯":6081,"ĠÂ¯Â¯Â±Â¯Â¯Â·Â¿Â¯":6082,"ĠÂ¯Â±Â¯Â¯Â·Â¿Â¯Â¯":6083,"ĠÂ¯Â¯Â¯Ã·Â°Â¯Â¯Â¯":6084,"ĠÂ·Â¯Â¯Â¯Â¯Â¯Â¿Â¯":6085,"ĠÂ±Â°Â¯Â¯Â¯Â°Â¯Â¯":6086,"ĠÂ¯Â¯Â¯Â¯Â¿Â¯Â¯Â°":6087,"ĠÂ¯Â¯Â°Â¯Â¯Â¯Â¯Â°":6088,"ĠÅĳ":6089,"ĠÂ±Â¯Â·":6090,"Â¯Â¯Â´Â¯Â¯Â¯Â¯":6091,"Â¯Â¯Â±Â¯Â¿Â¯Â¯":6092,"Â¯Â¯Â±Â¯Â±Â¯Â¯":6093,"Â¯Â¯Â¸Â±Â¯":6094,"Â¯Â¯Â¯Â»":6095,"Ã¯Å±":6096,"Â°Â°Â°Â¯Â¯":6097,"Â°Â°Â·Â¯Â¯":6098,"Â¯Â¯Â¯Â¯Â¿Â¿Â¯":6099,"Â±Â¯Â¯ÃĹÂ´Â¯Â¯":6100,"Â¿Â¯Â¯Â°":6101,"ÅıÄ¯Ãĥ":6102,"Ã¿Åĳ":6103,"ĠÂ¯Â¿Â¯Â¿Â±Â¯Â¯Â¯":6104,"ĠÂ¯Â·Â°Â¯Â¯Â¯Â·Â¯":6105,"ĠÂ¯Â·Â¯Â¯Â¯Â¯Â¯Â°":6106,"ĠÂ¯Â·Â»Â¯Â±Â¯Â¯Â¯":6107,"Ã·Â´":6108,"Â¸Â¯Â·Â±Â¯":6109,"Â¸Â¯Â¿Â¸Â¯":6110,"ÃĵÄ±":6111,"ÃĵÃĦ":6112,"ĠÂ¯Â±Ã·Â¯Â¯Â¯Â¯Â¯":6113,"Ä³Åı":6114,"Ä³ÃĢ":6115,"ĠÂ¯Â¯Ã·Â¿Â¯Â¯Â¯Â¯":6116,"ĠÂ¯Â¯Ã·Â¯Â¯Â¿Â·Â¯":6117,"ĠÂ¯Â¿Â¯Â¯Â¯ÃĹÂ´Â¯":6118,"Â¸Â¯Â¯Â´Â¯":6119,"Å¯Ä¹":6120,"ÄĥÃ±":6121,"ÄıÄ¿":6122,"ĠÂ¯Â±Â¯Â¯Â°":6123,"ĠÂ¯Â¯ÃĹÂ¯Â±":6124,"ĠÂ¯Â¿Â·Â¯Â¯ÃĹÂ´Â¯":6125,"ÅĲÃ¿":6126,"Â¯Â¯Â¿Â±Â¯Â¯Â¯":6127,"Ã¯ÃĥÄ¯Ã±":6128,"ĠÂ¯Â¯ÃĹÂ¯Â¯Â±Â±Â¯":6129,"Ã¯ÃĢÄ¯Ãĳ":6130,"Â¯Â°Ã·Â¯Â¯Â¯":6131,"ÄŁÄ·":6132,"ĠÂ¯Â¯Ã·Â°Â¯Â·Â±Â¯":6133,"Â¿Â¯Â¯Â¯Â¯Â¿Â¯":6134,"ĠÂ¯Â¯Â¯Â¸Â¯ÃĹÂ¯Â¯":6135,"ĠÂ¯Â·Â°Â¯Â±Â´Â¯Â¯":6136,"ĠÂ¿Â¯ÃĹÂ¯":6137,"ĠÂ¯Â·Â±Â¯Â¿Â·Â¯Â¯":6138,"Â¯Â¿Â¯Â±Â¯Â¯":6139,"ĠÂ¿Â¯Â¯Â¯Â¯Â·":6140,"ĠÂ¯Â»Â±":6141,"ĠÂ¯Â»Â¯Â¯Â·Â¯Â¯Â¯":6142,"ĠÂ¯Â¿Â¿Â¯Â¿Â·Â¯Â¯":6143,"ĠÂ¯Â¯Â°Â±Ã·Â¯Â¯Â¯":6144,"ĠÂ°Â±Â¯Â¯Â¯Â¯Â¯Â¯":6145,"ĠÂ·Â¯Â¯Â¯Â¯Â¯Â·Â¯":6146,"ĠÂ¯Â¯Â±Â¿Â´Â¯Â¯Â¯":6147,"ĠÂ¯Â¯Â¯Â¸Â¯Â¯Â¿Â¯":6148,"ĠÂ¯Â¯Â¯Â¯Â·Â¯Â¯Â±":6149,"ĠÂ¯Â¯Â¯Â¯Â·Â¯Â¯Â°":6150,"ĠÂ¯Â¶Â¯Â¯Â¯Â¯Â¯Â¯":6151,"ĠÄĩ":6152,"ĠÄ±Ã¯":6153,"ĠÂ¯Â¯Â¯Â¯Â¯Â±Â¯Â±":6154,"Ä¯Ä¯Ãģ":6155,"Â¿Â¯Â¯Â¯Â¿":6156,"ĠÂ¯Â¯Â¿Â¿Â±Â¯Â¯Â¯":6157,"Â±Â¯Â¯Â¯ÃĹÂ¯Â¯":6158,"ÅıÄ¯Ãı":6159,"ÃĹÂ´Â¯Â¯Â¯":6160,"ÃĥÃıÃı":6161,"ÃģÃĢ":6162,"ÃģÄ¯Ã³":6163,"ĠÂ¯Â¯Â°Â¯Â±Â¯":6164,"Ã±Ä·":6165,"ĠÂ¯Â¯Â±Â¯Â¯Â¿Â¸Â¯":6166,"Ä·Ä·":6167,"Ä³Ã¯Ã¯":6168,"ĠÂ¯Â¯ÃĹÂ¯Â¯Â·Â·Â¯":6169,"ÃĲÃĵ":6170,"ÅĵÅģ":6171,"ÃĹÂ¯Â¯Â·":6172,"Å¯Ä³":6173,"ĠÃ¯Ãļ":6174,"Ã¹Ä°":6175,"ÅĥÄ¯Ãģ":6176,"Â¯Â¿Â¶Â¯Â¯":6177,"ĠÂ¯Â°Â·Â¯Â¯Â·Â¯Â¯":6178,"ĠÂ¯Â°Â·Â°Â¯Â¯Â¯Â¯":6179,"Â¯Â·Â°Â¯Â¯Â¯Â¯":6180,"Ã°Ã´":6181,"Â²Â¹":6182,"ÃĩÃĳ":6183,"ĠÂ¿Â±Â°Â¯":6184,"ĠÂ¿ÃĹÂ¯Â¯Â¯Â¯Â¯Â¯":6185,"ĠÂ¯Â¯Â°Â¿Â¯Â°Â¯Â¯":6186,"ĠÂ¯Â¿Â·Â¯Â¯Â»Â¯Â¯":6187,"Ã¯ÃĵÄ¯Ãģ":6188,"ÄĢÃ¯":6189,"ÄĢÄ¯":6190,"ĠÂ¯Â¯Â´Â¯Â±":6191,"ĠÂ¯Â¯Â±Â°Ã·Â¯Â¯Â¯":6192,"Â»Â¯Â¯Â°Â¯":6193,"ĠÂ¯Â¯Ã·Â°Â·Â·Â¯Â¯":6194,"Ä¯Ã³Ãı":6195,"ÃĹÂ¯Â±Â¯":6196,"ĠÂ¯Â¯Ã·Â°Â¯Â·Â´Â¯":6197,"ĠÂ¯Â¯Â¿Â±Â¯Â·Â°Â¯":6198,"ĠÂ¯Â¯Â¯Â¸Â°Â¯Â¯Â¯":6199,"ĠÂ¯Â±Â±Â¯Â¯Â°Â°Â¯":6200,"ĠÂ¯Â¸Â¸Â¯":6201,"Â±Â·Â·Â¯Â¯":6202,"Â±Â¯Â·Â¸Â¯":6203,"Â±Â¯Â¿Â¿Â¯Â¯":6204,"ĠÂ¯Â¿Â¸Â¯Â°Â¯Â¯Â¯":6205,"ĠÂ¯Â¯Â·Â¯Â¿Â±Â°Â¯":6206,"ĠÂ¿Â¿Â¯Â¯Â¯Â´Â¯Â¯":6207,"ĠÂ·Â¯Â¯Â¿Â¯Â¯Â¯Â¯":6208,"Â¯Â»Â±Â¯":6209,"ĠÂ¯Â¯Â¯Ã·Â·Â¯Â¯Â¯":6210,"ĠÂ±Â¯Â¯Â±":6211,"ĠÂ¯Â¯Â¯Â¯Â¯Â´Â·Â¯":6212,"ĠÂ¯Â¯Â¯Â¯Â¸Â¯Â±Â¯":6213,"Ã¯ÅĪ":6214,"Ä¯Ãł":6215,"Ä¯Å´":6216,"ÃıÄĲ":6217,"Â¯Â¯Â¯Â¯Ã·Â´Â¯":6218,"Â¿Â°Â¿Â·Â¯Â¯":6219,"Â·Â¯Â¯Â¿Â¸Â¯":6220,"Â±Â¯ÃĹÂ±Â¯":6221,"ĠÂ¯Â¯Â·Â¿Â°Â¯Â¯Â¯":6222,"Â´Â°Â¯Â¯Â¯Â¯":6223,"ÃĹÂ¯ÃĹÂ¯Â¯Â¯":6224,"ĠÂ¯Â¯Â·Â¯Â»Â°Â¯Â¯":6225,"Ä°ÄĹ":6226,"Ã±Âµ":6227,"ĠÂ¯Â¯Â°Â¯Â¯Ã·Â±Â¯":6228,"ĠÂ¯Â¯Â¯Â°Â°Â·Â¯Â¯":6229,"ĠÃ¯Ãķ":6230,"Â¯Â¿Â±Â¯Â¯Â¯Â¯":6231,"ĠÂ¯Â°Â°Â·":6232,"ÄıÃł":6233,"Â»Â¯Â¯Â¿Â¯Â¯":6234,"Ä¯ÃıÄ¯Ãģ":6235,"ĠÂ¿Â·Â°Â¯":6236,"ÅŁÃĢ":6237,"ĠÂ¯Â°Â¯Â¯Â¯ÃĹ":6238,"Ä¯Ä¯Ãĩ":6239,"ĠÂ·Â±Â°Â¯":6240,"ÂºÄ¯Ãı":6241,"Ã¸ÃĶ":6242,"Ä¯Ã¹Ãı":6243,"ĠÂ¯Â¯Â±Â°Â¯Â¿":6244,"ÅĺÄĥ":6245,"ĠÂ¯Â¯Â¯Â¯Â±Â±Â°Â¯":6246,"Ä¯ÃĵÃı":6247,"Â¯Ã·Â·Â¯":6248,"ĠÂ¯Â¯Â»Â¯Â¯Â¯Â±Â¯":6249,"ĠÂ¯Â¿Â·Â¿":6250,"Â¯Â°Â¯Â°Â¯Â¯Â¯":6251,"ĠÂ¯Â¯Â´Â¿":6252,"ĠÂ¯Â¯Â´Â¿Â¯Â¯Â¯Â¯":6253,"ĠÂ¯Â¯Â´Â¯Â¿Â¸Â¯Â¯":6254,"ĠÂ¯Â¿Â±Â¯Â±Â°Â¯Â¯":6255,"Â¯Â±Â¯Â±Â¯Â¯Â¯":6256,"ĠÂ¯Â¯Â¸Â¯Â¯Â±Â°Â¯":6257,"ĠÂ¯Â¯Â¿Â´Â¯Ã·Â¯Â¯":6258,"ĠÂ±Â¿Â¯Â¯Â¯Â¯Â¯Â¯":6259,"Ä¯Ä±Ã¯":6260,"ĠÂ¯Â¿Â¸Â¯Â·Â¯Â¯Â¯":6261,"ĠÂ¯Â¯Ã·Â±Â¯Â·Â°Â¯":6262,"ĠÂ¯Â»Â¿Â¯Â¯Â¯Â¯Â¯":6263,"ĠÂ¯Â¯Â¯Â¯Â»Â´Â¯Â¯":6264,"ÅıÃ±Ã¯":6265,"ĠÂ¯Â¯Â·Â·Â¿Â¯Â¯Â¯":6266,"ĠÂ¯Â¯Â¿Â¸Â¯Â±Â°Â¯":6267,"ĠÂ±Â¯Â¯Â¯Â¯Â¯Â°Â¯":6268,"ĠÂ±Â¯Â°Â¯Â¯":6269,"ĠÃĤ":6270,"Â¯Â¯Â´Â±Â¯":6271,"Â¯Â¯Â¯Â»Â°Â¯":6272,"Ã¯Ä¯Ãĳ":6273,"Ã¯Æı":6274,"Â³Â½":6275,"ÃıÄ»":6276,"ÃıÄĻ":6277,"ĠÂ¯Â¯Â¿Â·Â¯Â¯Â¿Â¯":6278,"ÅıÃ¡":6279,"Ã¿ÃıÃı":6280,"ÃĥÃ³":6281,"ĠÂ¯Â¿Â¿Â¯Â¯Â¯Â±Â¯":6282,"Ä°Ä³":6283,"ĠÂ¯Â·Â¿Â¯Â¯Â·Â¯Â¯":6284,"Ã·Â¿Â¯":6285,"Ã·Â°Â¯Â·Â¯Â¯":6286,"Â´Â¯Â¯Â¸Â¯":6287,"Ã¯ÃıÃĢ":6288,"Ã¯ÃıÄ¯Ä¯":6289,"Ã±Ä°":6290,"Ã³Ä±Ãĵ":6291,"ĠÂ¯Â±Â¿Â¯Â¯Â±Â¯Â¯":6292,"ĠÂ¯Â±Â·Â¯Â±Â¯Â¯Â¯":6293,"ĠÂ¯Â¯ÃĹÂ¯Â·Â·Â¯Â¯":6294,"ĠÄ¯ÅĦ":6295,"ĠÄ¯Äī":6296,"ÅĵÄ¯Ãģ":6297,"ĠÂ¯Â¯Â¯Â¯Â¿Â°":6298,"Â¸Â¯Â¯Ã·Â¯Â¯":6299,"Å¯Ãĩ":6300,"Å¯Ãħ":6301,"ĠÃıÃ¹":6302,"ĠÃıÃ¿Ãı":6303,"ĠÂ¯Â¯Â¯Â¯Â·Â°":6304,"ĠÂ¯Â¯Â±Â´Â¯":6305,"Â¸Â¯ÃĹ":6306,"Ã·Â¯Â¯ÃĹÂ¯Â¯":6307,"ĠÂ¿Â¸Â¯":6308,"ĠÂ¯Â°Â¯Â¯Â»Â¯Â¯Â¯":6309,"ĠÂ¯Â¿Â·Â¯Â¯Ã·":6310,"Ã¯Ã¯ÃĲ":6311,"ĠÂ¯Â¯Ã·Â¯ÃĹÂ°Â¯Â¯":6312,"ÄĹÃı":6313,"Â¯Â¯Â¿Â±Â°Â¯":6314,"ĠÂ¯Ã·Â¸Â¯Â¯Â°Â¯Â¯":6315,"ĠÂ¯Â¯ÃĹÂ°Ã·Â¯Â¯Â¯":6316,"ÃĽÂµ":6317,"Ã¯ÃĢÃ¯":6318,"ĠÂ¯Â°Â°Â¯Â¿Â±Â¯Â¯":6319,"ĠÂ¯Â¿Â·Â·Â¯Â¯Â¯Â¯":6320,"ÃıÄ¯Ä±":6321,"Â¶Â¯Â¿Â¯Â¯":6322,"ĠÂ¿Â·Â¯Â¯Â´Â¯Â¯Â¯":6323,"Ã¯Ã³Ä¯":6324,"Â¯Â¯Â·Â¯Â±Â¯":6325,"ĠÂ¿Â¯Â¿":6326,"ĠÂ¿Â¯Â±Â¯Â¯":6327,"ĠÂ¯Â¯Â¿Â´Â¯Â°Â°Â¯":6328,"ĠÂ·Â¯Â¯Â¯Â±Â°Â¯Â¯":6329,"ĠÂ¯Â·Â±Â¯Â·":6330,"Ã²Ä¯":6331,"Â°Â¿Â¿Â¯Â¯Â¯":6332,"ĠÂ¯Â¸Â±":6333,"ĠÂ¿Â·Â¯Â¿Â¿Â¯Â¯Â¯":6334,"ĠÂ¯Â»Â·Â¯Â¯Â¯Â¯Â¯":6335,"ĠÂ¯Â·Â·Â¯Â¯ÃĹÂ¯Â¯":6336,"ĠÂ¯Â·Â¸Â¯Â±Â°Â¯Â¯":6337,"ĠÂ°Â·":6338,"ĠÂ¯Â¯Â¯Â¯Â¯Â±Â¯":6339,"ĠÂ¯Â¯Â¯Â¯Â¯Â¿Â¯Â°":6340,"Â¯Â¯Â¯Â¯Ã·Â¯Â¯Â¯":6341,"Â±Â¯Â¯Â¿Â±Â¯Â¯":6342,"Â±Â¯Â¯ÃĹÂ·Â¯":6343,"Â±Â¯ÃĹÂ±Â¯Â¯":6344,"Â±Â¯Ã·Â´Â¯Â¯":6345,"Â±Â¯Â¶Â¯Â¯Â¯":6346,"Â±Â¯Â¯Â¯Â±Â°Â¯":6347,"ĠÂ¯Â¿Â¿Â¯Â¯Â¯Â°Â¯":6348,"Ã·Â¯Â¯Â¯Â·Â¯Â¯":6349,"Ã·Â´Â¯Â¯Â¯Â¯":6350,"Ã¯ÃıÄ¯Ãģ":6351,"Â·Â¯Â¿Â°Â¯":6352,"Â·Â¯ÃĹÂ±Â¯Â¯":6353,"ÃģÃ¯Ãı":6354,"ĠÂ¯Â¯Â°Â¯Â°Â±Â¯Â¯":6355,"Ä·Åĵ":6356,"Ä·ÃŁ":6357,"ÃĲÃĳ":6358,"Â¿Â¯ÃĹÂ¯Â¯":6359,"Â¯Â·Â¯Â¯Â¯Â°Â¯":6360,"ĠÂ¯Â¯Ã·Â±Â¯Â´Â¯Â¯":6361,"ĠÂ¯Â¯Ã·Â¸Â¯Â°Â¯Â¯":6362,"Å¯ÅĲ":6363,"Å¯ÄĢ":6364,"ĠÂ¯Â°Â·Â¯Â·Â¯Â¯Â¯":6365,"ÄģÄ¸":6366,"Â¯Â·Â»Â¯Â¯":6367,"ÂµÃ¯ÃĢ":6368,"ÃĺÃĦ":6369,"ÃŁÂµ":6370,"ĠÂ¿Â±Â°Â¯Â¯":6371,"Ä¯ÃĥÃı":6372,"ĠÂ¯Â¯Â¯Â·Â¯Â»Â¯Â¯":6373,"Â¯Â°Â¯Â¯Â±Â¯":6374,"Ã¯ÃĵÄ¯Ã±":6375,"ĠÂ·Â·Â¯Â¯Â¯Â¯":6376,"Â¯Â¿Â¯Â¯Â·Â¯Â¯":6377,"ĠÂ¯Â¿Â¯Â¿Â¯":6378,"Ã¯ÃĥÄ¯Ã¯":6379,"Ã£Ä¯":6380,"ĠÂ¯Â¯Â»Â¯Â·Â°Â¯Â¯":6381,"ÃıÃ±Ã¯Ãı":6382,"ĠÂ¯Â±Â°Â°":6383,"ĠÂ¯Â±Â±Â¯Â±Â°Â¯Â¯":6384,"ĠÂ¯Â±Â±Â¯Â¿Â¸Â¯Â¯":6385,"ĠÂ¯Â¿Â°Â¯Â¿Â¸Â¯Â¯":6386,"ĠÂ¯Â°Â¯Â´Â¯Â¯Â¯Â¯":6387,"ĠÂ¯Â°Â¯Â¿Â·Â¯Â¯Â¯":6388,"Â¯Â±Â´Â¯Â¯Â¯":6389,"ĠÂ¯Â°Â°Â¯Â¯Â¿":6390,"ĠÂ¯Â¿Â°Â°Â¯Â¯Â¯Â¯":6391,"ĠÂ¯Â¯Â¿Â·Â¿":6392,"ĠÂ·Â¯Â±Â°Â¯Â¯Â¯Â¯":6393,"Â³Â¹Â³":6394,"ĠÂ¿Â·Â°Â¯Â¯Â¯Â¯Â¯":6395,"ĠÂ¯Â´Â¿Â¯Â¯Â¯Â¯Â¯":6396,"ĠÂ¯Â¯Â·Â¯Â¯Â·Â¸Â¯":6397,"ÅıÃ±Ãģ":6398,"ĠÂ¯Â¿Â¯Â¯Â·Â¿Â¯Â¯":6399,"Â¿Â¯Â¿Â´Â¯Â¯":6400,"Â¸Â¯Â·Â´Â¯":6401,"ÆĶ":6402,"ĠÄ¿Ä¯":6403,"Â¯Â¯Â°Â¯Â·Â¯Â¯":6404,"Â¯Â¯Â¶":6405,"Â¯Â¯ÃĹÂ¯Â¯Â¯Â¯Â¯":6406,"Â¯Â¯Â¯Â±Â±Â¯Â¯":6407,"ĠÂ¯Â°Â¯Â¯Â¯Â¯Â¯":6408,"ÃıÄ¯Âµ":6409,"Â°Â¯Â¯Â±":6410,"Â·Â¯Â¯Â±Â°Â¯Â¯":6411,"Â¿Â¯Â¯Â¸Â¯Â¯Â¯":6412,"ĠÂ¯Â¯Â·Â±Â¯Â¯Â·Â¯":6413,"ĠÂ¯Â¯Â¿Â±Â¯Â¯Â¿Â¯":6414,"ÃĥÃĵ":6415,"ÃĥÂº":6416,"ĠÂ¯Â¯Â·Â¯Â»":6417,"ĠÂ¯Â¯Â·Â¯Â´Â°Â¯Â¯":6418,"ĠÂ¯Â¿Â·Â°Â¯":6419,"Ä¯Ã¯ÃĲ":6420,"ÃĵÃ°Ãģ":6421,"ĠÂ¯Â¯Â°Â¯Â¯Â¸Â°Â¯":6422,"Ã³ÃĽ":6423,"Ä·Ä¯Ãģ":6424,"Ä·Ã¯Ãģ":6425,"ĠÂ¯Â±Â·Â°Â¯Â¯Â¯Â¯":6426,"ĠÂ¯Â±ÃĹÂ°Â¯Â¯Â¯Â¯":6427,"Ä³Åĥ":6428,"ÃĲÅĦ":6429,"ÃĹÂ¯Â¯Â¯Â´Â¯Â¯":6430,"ĠÄ¯Äĳ":6431,"ĠÂ¯Â¿Â¯Â¯Â¯Â¶Â¯Â¯":6432,"Å¯Äĵ":6433,"ĠÃıÃıÃı":6434,"ĠÃ¯ÅĹ":6435,"ĠÃ¯Ãī":6436,"ĠÂ¯Â°Â¿Â¯Â¯Â±Â¯Â¯":6437,"Â´Â¯Â°Â¯Â¯Â¯Â¯":6438,"ĠÂ¯Â·Â¯Â¯Â¯ÃĹ":6439,"ÃĩÃ³":6440,"Â¯Â·Â¯Â¯Â±Â¯Â¯Â¯":6441,"Ã¯ÃĵÃı":6442,"Ä´Ãģ":6443,"Ä´Ã±":6444,"ĠÂ¯Â¯Â´Â¯Â¯Â¿":6445,"Â·Â°Â¯Â¯Â°Â¯Â¯":6446,"ĠÃ¯Ã¯ÃĶ":6447,"ĠÂ¯Â¯Â¯Â¿Â¿":6448,"ĠÂ¯Â¯Â´Â¯Â·Â±Â¯Â¯":6449,"ĠÂ¯Â¯Â±Â°Â·Â±Â¯Â¯":6450,"ĠÂ¯Â¯Â±Â°Â¿Â¿Â¯Â¯":6451,"ĠÂ¯Ã·Â´Â¯Â¯Â°Â¯Â¯":6452,"ÃıÃ¯Ã¯Ãı":6453,"ĠÂ¯Â¯ÃĹÂ°ÃĹÂ¯Â¯Â¯":6454,"Â¯ÃĹÂ¯Â°Â¯":6455,"Ä¯ÃĳÃı":6456,"ĠÂ¯Â·Â¯Â·Â¯":6457,"ĠÂ¯ÃĹÂ¯Â¯Â¯Â±Â°Â¯":6458,"ĠÂ¯Â¯Â¯Â´Â¿Â±Â¯Â¯":6459,"Â¯Â°Â¿Â°Â¯Â¯":6460,"ĠÂ¯Â±Â¯Â¿Â·Â¯Â¯Â¯":6461,"ĠÂ¯Â¿Â°Â¯Ã·Â°Â¯Â¯":6462,"ĠÂ¯ÃĹÂ¯Â¯Â±Â°Â¯Â¯":6463,"ĠÂ¯ÃĹÂ¯Â¯Â¸Â¯Â¯Â¯":6464,"ĠÂ¿Â·Â¯Â¯Â¸Â¯Â¯Â¯":6465,"Ã¯Ã±Ã¯":6466,"ĠÂ¿Â¯Â·Â¯Â¿Â¯Â¯Â¯":6467,"ĠÂ¯Â·Â±Â¯Â¿Â±Â¯Â¯":6468,"Â°Â¿Â±Â°Â¯":6469,"ĠÂ¿Â·Â¯Â±Â·Â¯Â¯Â¯":6470,"ĠÂ¯Â¯Â´Â¯Â¯Â¯Â´Â¯":6471,"ĠÂ°Â¯Â¯Â¯Â±Â¯Â¯Â¯":6472,"ĠÂ¯Â¿Â¯Â¯Ã·Â¿Â¯Â¯":6473,"Â¯Â¯Â¸Â¯Â¯Â¯Â¯":6474,"Â¯Â¯Â¯Â±Â°":6475,"Â°Â´":6476,"Ä¯ÃĿ":6477,"Â¯Â¯Â¯Â¯Â¯Â¿":6478,"Â±Â¯Â¯Â·Â´Â¯Â¯":6479,"Â·Â¯Â¯Â°Â¯Â¯Â¯":6480,"Â¿Â¯Â¯Ã·Â´Â¯":6481,"Â°Â¯ÃĹÂ±Â¯Â¯":6482,"ĠÂ¯Â¯Â·Â·Â¯Â¿Â¯Â¯":6483,"ÅıÅ¯":6484,"ĠÂ¯Â¯Â·Â¯Â¿Â¯Â°Â¯":6485,"ĠÂ¯Â¯Â¿Â¯Â±Â·Â¯Â¯":6486,"ĠÂ¯Â·Â´Â¯Â·Â¯Â¯Â¯":6487,"ĠÂ¯Â¯Â±Â¯Â±Â¿Â¯Â¯":6488,"ÃģÃĥ":6489,"ÃģÄ¸":6490,"ÃĵÅı":6491,"Ã±Ãĩ":6492,"ĠÂ¯Â¯Â±Â¯Â¯Â¶Â¯Â¯":6493,"ĠÂ¯Â±Â·Â¯Â°Â¯Â¯Â¯":6494,"ÃĳÄģ":6495,"ĠÂ¯Â¯ÃĹÂ¸Â¯Â°Â¯Â¯":6496,"ÃĲÃ¿":6497,"Â¿Â¯Â»Â°Â¯Â¯":6498,"ÃĢÃĲ":6499,"ĠÂ¯Â¯Â¯Â°Â¯Ã·Â´Â¯":6500,"ĠÃıÂµ":6501,"ĠÃıÃī":6502,"ĠÃ¯Âµ":6503,"ĠÂ¯Â¯Â¯Â¯Â·Â°Â±Â¯":6504,"ÅĥÄ¯Ãĥ":6505,"Â´Â¯ÃĹÂ°Â¯":6506,"Â¯Â·Â¸Â¯Â¯Â¯":6507,"Ã°Ä³":6508,"Ã°Ãĺ":6509,"ÃĩÃ¿":6510,"ĠÃ¯ÃıÅ³":6511,"ĠÂ¯Â±Â¯Â¯Â¯Â¿Â¿Â¯":6512,"ĠÂ¯Â¯ÃĹÂ¯Ã·Â±Â¯Â¯":6513,"ĠÂ¯Â¯Â°Â¿Â¯":6514,"ÅĢÃĵ":6515,"ĠÂ·Â¿Â¯Â¯Â¯":6516,"ĠÂ¯Â¯Â¯Â·ÃĹ":6517,"Ã´Ãģ":6518,"ĠÂ¯ÃĹÂ±":6519,"ĠÂ¯ÃĹÂ¸Â¯":6520,"ĠÂ¯ÃĹÂ¯Â±Â¯Â¯Â¯Â¯":6521,"ĠÂ¯Â¯Â¸Â±Â¯":6522,"ĠÂ¯Â¯Â±Â°Ã·":6523,"ĠÂ¯Â¯Â±Â°Â¯Â°Â°Â¯":6524,"ĠÂ¯Â¯Â±Â°Â¯Â¿Â±Â¯":6525,"ÃıÃĢÃ¯":6526,"ĠÂ¯Â¯ÃĹÂ¯Â¯ÃĹÂ°Â¯":6527,"Ã¯ÃĢÃı":6528,"Â¯Ã·Â¶Â¯Â¯":6529,"ĠÂ¯Â¯ÃĹÂ°Â¯Â·Â±Â¯":6530,"ĠÂ¯Â¯Ã·Â°Â¯Ã·":6531,"ĠÂ¯Â°Â¯Â¿Â¯":6532,"ĠÂ¯Â¯Ã·Â±Â·":6533,"ĠÂ¯Â¯ÃĹÂ±Â¯Ã·Â¯Â¯":6534,"ĠÂ¯Â¿Â±Â¯Â¯Â¿Â·Â¯":6535,"ĠÂ¯Â¯Â¯Â¸Â·Â¯Â¯Â¯":6536,"Â¯Â·Â¯Â¿Â·Â¯Â¯":6537,"ĠÂ¯Â°Â¯Â¯Â¯Â¯Â¸Â¯":6538,"ĠÂ¯Ã·Â¯Â¯Â¿Â·Â¯Â¯":6539,"ÃıÄ±Ä¯":6540,"ĠÂ·Â¯Â·Â¯Â¯":6541,"ÅıÃ¯Ã¯Ãı":6542,"Â°Â¿Â¸Â¯Â¯Â¯":6543,"Â¯Â¿Â¯Â°Â¯Â¯":6544,"Â¯Â¿Â¯Â·Â¯Â¯":6545,"ÃıÃ°Ä¯":6546,"ĠÂ·Â¯Â¯Â¯Â¯Â´Â¯Â¯":6547,"ĠÂ¯Â·Â·Â¯Â¿":6548,"ĠÅıÃĻ":6549,"ĠÂ¿Â¯Â¯Â±Â¯":6550,"ĠÂ¯Â¯Â·Â¯Â¿Â»Â¯Â¯":6551,"ĠÂ¿Â¿Â¯Â¯Â¯Â·Â·Â¯":6552,"ĠÂ¯Â¿Â¿Â¯Ã·Â¯Â¯Â¯":6553,"ĠÂ¯Â¿Â¿Â¯Â¿Â¿Â¯Â¯":6554,"ĠÂ¯Â±Â°Â¯Â·Â·Â¯Â¯":6555,"ĠÂ¯Â¸Â¯Â¯Â¿Â·Â¯Â¯":6556,"ĠÂ¯Â¸Â¯Â¯Â·Â°Â¯Â¯":6557,"ĠÅ¯ÃĻ":6558,"ĠÂ¯Â±Â¯Â¯Â·Â·Â¯Â¯":6559,"ĠÂ¯Â¯Â°Â¯Ã·Â¿Â¯Â¯":6560,"ĠÃ·Â¯Â¯Â¯Â¯":6561,"ĠÃĹÂ°Â¯Â¯Â¯Â¯Â¯Â¯":6562,"Å«":6563,"Æ¡":6564,"ÆĻ":6565,"ĠÃħ":6566,"ĠÂ°Â¯Â°Â¯Â¯":6567,"Â¯Â¯Â¯Â¸":6568,"ĠÂ¯Â¸Â¯Â¯Â¯Â¯":6569,"Â±Â´":6570,"Ã¯ÅıÃģ":6571,"Ã¯Ä¯Ã³":6572,"Â°Â±Â¯Â¯Â¯Â¯Â¯":6573,"Â°ÃĹÂ¯Â¯":6574,"ÃıÅ°":6575,"Â·Â¯Â¯Ã·Â¯Â¯Â¯":6576,"Â¿Â¯Â¯Â°Â°Â¯Â¯":6577,"Â·Â¯Â¯Â¯Â·":6578,"Â±Â¯Â¯Â¯Â·":6579,"Ã¿Ä¯Ã¯":6580,"ÃĹÂ¯Ã·":6581,"ĠÂ¯Â¯Â·Â¯Â°Â¯":6582,"ĠÂ¯Â¯Â¯Â¯Â¯Â¯Â¿Â°":6583,"ĠÂ¯Â¯Â¯Â¯Â¯Â¯Â±Â±":6584,"ĠÂ¯Â¯Â¿Â¯Â·Â¯":6585,"Ä°ÃĢ":6586,"ĠÂ¯Â·Â±Â¯Â¯Â±Â°Â¯":6587,"Ä¯Ã¯Ä¯Ãĵ":6588,"Â±Â¯Â¯Â¯Â¯Â·Â¯":6589,"Â·Â¯ÃĹÂ°Â¯":6590,"Ã³Ã³":6591,"ÃĳÃ¿":6592,"ÃĳÂµ":6593,"ÃĳÂº":6594,"ÃĢÃĵ":6595,"ĠÂ¯Â¯Â¯Â°Â±Â·Â¯Â¯":6596,"Ä±Äĥ":6597,"Ä±Ã´":6598,"ÅĹÅĥ":6599,"Â¸Â¯Â¯Â¸Â¯":6600,"Â¸Â¯Â¯Â°Â°Â¯":6601,"ĠÂ¯Â¯Â¯Â¯Â·Ã·Â¯Â¯":6602,"ÄĥÄ±":6603,"ĠÂ¯Â°Â¿Â¯Â¯Â°Â¯Â¯":6604,"ĠÂ¯Â°Â±Â¯Â¯Â¯Â°Â¯":6605,"Â´Â¯Â±":6606,"Â´Â¯Â·Â±Â¯":6607,"ÄıÃĻ":6608,"ÃĺÃĥ":6609,"Â¸Â¯Â°Â¯":6610,"Ã·Â¯Â¯Â±Â¯Â¯Â¯":6611,"ĠÂ¿Â±Â¯":6612,"ĠÂ¿Â·Â±Â¯":6613,"ĠÂ¿Â±Â°Â¯Â¯Â¯Â¯Â¯":6614,"ĠÂ¯Â°Â¯Â¯Â¯Ã·":6615,"ĠÃ¯Ã¯Åı":6616,"ÃıÃģÄ¯Ä¯":6617,"ÅıÃģÃ¯":6618,"ÅıÃģÄ¯Åĵ":6619,"ĠÂ¯Ã·Â´Â¯Â¯Â·Â¯Â¯":6620,"ĠÂ¯Â·Â¯Â°Â±Â¯Â¯Â¯":6621,"ĠÂ¯Â¿Â°Â¯Â¯ÃĹ":6622,"ÄŁÄ¯":6623,"ĠÂ¯Â¯Ã·Â°Â¯Â°Â°Â¯":6624,"ÃĭÃ¯":6625,"ĠÂ¯Â¯Â¯Â¯Ã·Â°Â±Â¯":6626,"ĠÂ¿Â¯Â¯Â¯Â¿Â±Â¯Â¯":6627,"ĠÂ¿Â·Â¯Â¯Â¯ÃĹÂ¯Â¯":6628,"ĠÂ¿Â·Â¯Â¯Â¯Â°Â°Â¯":6629,"ĠÂ¯Â·Â°Â¯Â¯Â±Â°Â¯":6630,"ĠÂ¯Â¯ÃĹÂ±Â¯Â·Â·Â¯":6631,"Â¯Â¯Ã·Â±":6632,"Â±Â¿Â´Â¯Â¯Â¯":6633,"Â·Â°Â°Â¯Â¯Â¯":6634,"ĠÂ¯Â¯Â·Â±Â¯ÃĹÂ¯Â¯":6635,"ĠÂ¯Â¿Â´Â¯Â¯Â·Â±Â¯":6636,"ĠÂ¯Â¯Â±Â¯Â¯Â·Â¸Â¯":6637,"ĠÂ¯Â¸Â¯Â¯Â±Â¯Â¯Â¯":6638,"Ä¿ÂµÃ¯":6639,"Ä¿ÂµÅı":6640,"ĠÂ¯Â¯Â·Â·Â¯Â±Â±Â¯":6641,"Å¯Ã±Ä¯":6642,"ĠÂ¯Â¿Â¯Â¯Ã·Â¸Â¯Â¯":6643,"ĠÃ·Â¯Â¯":6644,"ĠÃ»":6645,"Ä¯Åĺ":6646,"Ä¯Ãľ":6647,"Ä¯ÃĬ":6648,"Â¯Â¯Â¯Â¯Â´Â°Â¯":6649,"Â·Â¯Â¯Â±Â±Â¯":6650,"Â¿Â¯Â¯Â¿Â¯":6651,"Â°Â¯ÃĹÂ¸Â¯":6652,"ĠÂ¯Â¯Â·Â¯Â¯Â¯Â¯Â±":6653,"ĠÂ¯Â¯Â¿Â¶Â¯":6654,"Ã¿ÅĹ":6655,"Ã¿Äı":6656,"Ã·Â°Â¯Â°Â¯Â¯":6657,"Ä¿Äģ":6658,"Ã¯ÃıÃģ":6659,"Ã¯ÃıÃıÃĥ":6660,"ĠÂ¯Â¯Â±Â¯Â»":6661,"Ã³ÃŁ":6662,"Ã³ÅĽ":6663,"Ä·Ãĩ":6664,"ÃĲÃ°":6665,"Â¿Â¯Â±Â°Â¯":6666,"Â¯Â¿Â¯Â¯Â¯Â°Â¯":6667,"ĠÄ¯Ä¯Ã±":6668,"ĠÂ¯Â¿Â¯Â¯Â¯Â¿Â¿Â¯":6669,"ĠÂ¯Â·Â¯Â¯Â¿Â¿Â¯Â¯":6670,"ĠÂ¯Â°Â±Â¯Â¯Â¯":6671,"ĠÂ¯Â°Â¿Â¯Â¿Â¯Â¯Â¯":6672,"Ã°Åı":6673,"ĠÂ¯Â¯Â±Â±Â·Â¯Â¯Â¯":6674,"ĠÂ¯Â±Â¯Â¯Ã·Â±Â¯Â¯":6675,"ĠÂ¯Â¯Â°Â·Â·Â¯Â¯Â¯":6676,"ĠÂ¯Â¯Â¿Â°Â°":6677,"ĠÂ¯Â±Â°Â¯Â¯Â»Â¯Â¯":6678,"ĠÂ¯Â¯Ã·Â¯Ã·":6679,"ĠÃ¯Ã¯Ä³":6680,"ĠÂ¯ÃĹÂ¯Â¯Â¯Â¯Â¿Â¯":6681,"ĠÂ¯Â¿Â¯Â°Â¯Â·Â¯Â¯":6682,"ĠÂ¯Â¿Â¯Â·Â¯Â¿Â¯Â¯":6683,"ĠÂ¯Â¯Â¯Â¯Â°Â·":6684,"ĠÂ¯Â¯Â¯Â´Â¯Â°Â°Â¯":6685,"ĠÂ¯Â¿Â°Â¯Â¯ÃĹÂ°Â¯":6686,"Å·Ãģ":6687,"Å·Ã±":6688,"ÃĭÃı":6689,"ĠÂ¯Â¯Â·Â±Â¿Â´Â¯Â¯":6690,"Â¯Â±Â¯Â¿Â¯":6691,"ĠÂ¯Â·Â°Â¯Â·Â´Â¯Â¯":6692,"Ã§Ä¯":6693,"ĠÂ±Â·":6694,"ĠÂ±Â±Â¯Â¯Â¯Â°Â¯Â¯":6695,"ĠÂ·Â¯Â¯Â¯ÃĹÂ¯Â¯Â¯":6696,"ÃıÄ±Ã¯":6697,"ĠÂ¯Â·Â±Â¯Â¿":6698,"ĠÂ¯Â¯Ã·Â±Â¯Â°Â°Â¯":6699,"Ã¯Ä°Ãģ":6700,"ĠÂ¯Â·Â·Â¯Ã·Â°Â¯Â¯":6701,"ĠÂ¯Â¿Â´Â¯Â¯Â±Â°Â¯":6702,"ĠÃ¿Ã¯":6703,"ĠÂ¯Â´Â¯Â¯Â´Â¯Â¯Â¯":6704,"Ä¿ÂµÃı":6705,"ĠÂ¿Â¿Â°Â¯Â¯Â¯Â¯Â¯":6706,"Å·ÂµÄ¯":6707,"Æħ":6708,"ĠÂ°Â°Â¯":6709,"Â¯Â¯Â»Â¯":6710,"Â¯Â¯Â¯Â´Â±Â¯":6711,"Â¿ÃĹÂ¯Â±Â¯Â¯Â¯":6712,"Â·Â¯Â¯Â´Â¯":6713,"Â¿Â¯Â¯ÃĹÂ°Â¯Â¯":6714,"Â¿Â¯Â¯Â¯Â¸Â¯":6715,"Â¿Â¯Â¯Â¯ÃĹÂ°Â¯":6716,"ĠÂ¯Â¯Â·Â¸Â¯Â·Â¯Â¯":6717,"ĠÂ¯Â¯Â¿Â´Â¯Â¯Â¿Â¯":6718,"Â°Â¯Â¯Â¯Â¸Â¯":6719,"ĠÂ¯Â·Â±Â°Â¯":6720,"ĠÂ¯Â·Â¸Â¯Â¯Â°Â¯Â¯":6721,"Ä¿Å¹":6722,"Ä¯Ã¯Ãĵ":6723,"Â´Â¯Â¯Â·Â°Â¯":6724,"ĠÂ¯Â¯Â°Â¯Â°Â·Â¯Â¯":6725,"ĠÂ¯Â¯Â°Â¯Â±Â¿Â¯Â¯":6726,"ĠÂ¯Â¯Â°Â¯Â°Â¿Â¯Â¯":6727,"ĠÂ¯Â¯Â¿Â¯Â¯Â´Â°Â¯":6728,"ĠÂ¯Â±Â·Â¯Â·Â¯Â¯Â¯":6729,"Ä³Ã¯Ãı":6730,"ÃĳÃ´":6731,"ĠÂ¯Â¯ÃĹÂ´Â¯Â¿Â¯Â¯":6732,"ÃĢÂµ":6733,"ĠÂ¯Â¿Â¯Â¯Â¯Â±":6734,"ĠÃ¯Ä¹":6735,"ĠÂ¯Â¯Â¯Â¯Â·Â¿":6736,"Â¯Â¿Â±Â±Â¯":6737,"ĠÂ¯Â°Â·Â¯Â¯Â±Â¯Â¯":6738,"ĠÂ¯Â°Â±Â¯Â·Â¯Â¯Â¯":6739,"Â´Â¯Ã·Â¯Â¯Â¯":6740,"Â´Â¯Â¸Â¯Â¯Â¯":6741,"ĠÂ¯Â·Â¯Â¯Â¯Ã·":6742,"ÂµÃĢ":6743,"ÃŁÅı":6744,"ÃĩÂµ":6745,"Â»Â¯Â¿Â·Â¯Â¯":6746,"Â»Â¯Â±Â°Â¯Â¯":6747,"Â¸Â¯ÃĹÂ°Â¯Â¯":6748,"ĠÂ¿Â´Â¯Â¯Â¯Â¯Â¯Â¯":6749,"ĠÂ¯Â¯ÃĹÂ¯ÃĹÂ°Â¯Â¯":6750,"ĠÂ¯Â¯Â°Â°Â¯Â±Â°Â¯":6751,"ÅŁÄ±":6752,"ĠÂ¯Â¯Â¿Â°ÃĹÂ±Â¯Â¯":6753,"ĠÂ¯Â¿Â·Â¯Â¯ÃĹÂ¸Â¯":6754,"ĠÂ¯Â±Â°Â¯Â¯Â¿Â°Â¯":6755,"ÃıÃĥÄ¯Ä·":6756,"ĠÂ·Â±Â°Â¯Â¯Â¯Â¯Â¯":6757,"ĠÂ¯Â¯Â´Â¯Â¯Â·Â·Â¯":6758,"ĠÃ¯Ã¯Ä¿":6759,"ĠÂ¯Â¿Â¯Â±Â¯Â°Â¯Â¯":6760,"ÃĽÃ¯":6761,"ÅĺÃ³":6762,"ĠÂ¯ÃĹÂ¯Â¯Â¯Â¶Â¯Â¯":6763,"ÃıÃ±Ãı":6764,"ĠÂ¯Â±Â±Â¯Â°Â°Â¯Â¯":6765,"ÃĴÄ¯":6766,"ÆıÃĲ":6767,"ÃĤÃı":6768,"ĠÂ¯Â¯Â¯Â¸Â·":6769,"ÃıÄ°Ã¯":6770,"Ä¯Ä³Ã¯":6771,"Â¯Â·Â¯Â¿Â¯":6772,"ĠÂ¯Â¯Ã·Â±Â¯ÃĹÂ¯Â¯":6773,"ĠÂ¯Â¸Â°Â¯Â·Â°Â¯Â¯":6774,"Â±Â·Â¿Â¯Â¯":6775,"Ã¯Ä°Ãı":6776,"ĠÂ±Â¯Â¿Â¯":6777,"Ã¿Ä±Ä¯":6778,"ĠÂ·Â¯Â¯Â¿":6779,"ĠÂ¯Â¿Â·Â¯Â¯Â·Â¸Â¯":6780,"ĠÂ¯Â¯ÃĹÂ´Â¿Â¯Â¯Â¯":6781,"ĠÂ¯Â¯Â¯Â¯Â´Â´Â¯Â¯":6782,"ĠÂ¯Â¯Â¶Â¯Â¯Â¿Â¯Â¯":6783,"ĠÂ¯Â±Â´Â±Â¯Â¯Â¯Â¯":6784,"ĠÂ´Â¯Â¯":6785,"Â¯Â¯Â°Â¯Â°Â¯Â¯":6786,"Â¯Â¯Â¯Â°Â¿Â¯":6787,"Â±Â°Â¿Â·Â¯Â¯":6788,"Â°Â±Â´Â¯Â¯":6789,"Ä¯Ä¶":6790,"Ä¯ÅĤ":6791,"ÃıÄĳ":6792,"ÃıÄµ":6793,"Â°Â¯Â¯Â¶Â¯Â¯":6794,"ĠÂ¯Â¯Â¿Â¿Â¯Â±Â¯Â¯":6795,"Ã¿Ä¯Ä¯":6796,"ÃĹÂ±Â¯Â°Â¯Â¯":6797,"ĠÂ¯Â¯Â·Â¯Â±Â¯":6798,"ĠÂ¯Â¿Â°Â¯Â¯Â¯Â¿Â¯":6799,"ĠÂ¯Â·Ã·Â¯Â¯Â¯Â¯Â¯":6800,"Ã·Â¯Â¿Â·Â¯Â¯":6801,"Ä¿Äı":6802,"Ä¯Ã¯Ã¯Ãĥ":6803,"Â´Â¯Â¯Ã·Â¯Â¯":6804,"Ã¯ÃıÅı":6805,"ĠÂ¯Â¯Â±Â¯ÃĹÂ´Â¯Â¯":6806,"ÃģÅı":6807,"ÃģÃģ":6808,"ÃģÄ¯Ä³":6809,"Ã±Åĺ":6810,"ĠÂ¯Â¯Â°Â¯Â¯Â¿Â´Â¯":6811,"ĠÂ¯Â¯Â±Â¯Â¯Ã·Â´Â¯":6812,"Ä·Ã°":6813,"ĠÂ¯Â±Â¸Â¯Â¿Â¯Â¯Â¯":6814,"Ä³Ä¯Ãı":6815,"ÃĢÃģ":6816,"ĠÄ¯Ä¯Ãģ":6817,"ĠÂ¯Â¯Â¯Â°Â¯Â¿Â¸Â¯":6818,"ĠÂ¯Â¯Ã·Â¶":6819,"ĠÂ¯Â¿Â¯Â¯Ã·Â·Â¯Â¯":6820,"ÅĵÃĵ":6821,"Â¸Â¯Â¯Â·Â±Â¯":6822,"Â¸Â¯Â¯ÃĹÂ±Â¯":6823,"ĠÃıÅĥ":6824,"ÃĻÃ°":6825,"Â¯Â·Â°Â°Â¯":6826,"ÄıÂº":6827,"ĠÂ¯Â¯Â±Â±Â¯Â¯":6828,"ÃŁÃ³":6829,"ÃĩÄ³":6830,"Â¸Â¯Ã·Â¯Â¯Â¯":6831,"ĠÂ¯Â°Â¯Â¯Â°":6832,"ĠÂ¯Â¯Â°Â°Â¯Â¯Â±Â¯":6833,"ÅŁÃĩ":6834,"ÃĹÂ°Â¯Â¯Â°Â¯":6835,"Ã¯Ã¯Ãĳ":6836,"ĠÂ¯Â±Â°Â¯Â¯Â·Â·Â¯":6837,"Ä¯Ä¯Ã±":6838,"ÄĢÃĺ":6839,"ĠÂ·Â·Â¯Â¯Â¯Â¯Â±Â¯":6840,"Ä¯Ã¿Ã¯":6841,"Ä¯Ã¿ÃĻ":6842,"ÂºÄ¯Ã±":6843,"ÂºÄ¯Ã¹":6844,"ĠÂ¯ÃĹÂ°Â¯Â·":6845,"ĠÂ¯Â¯Â¯Â¿Â±Â°Â¯Â¯":6846,"ĠÂ¯Â¯Â´Â¯Ã·Â´Â¯Â¯":6847,"ĠÂ¯Â¯Â±Â°Â·Â°Â¯Â¯":6848,"ÃıÃıÃ¯Ãı":6849,"ĠÂ¯Â¯ÃĹÂ°Â·Â°Â¯Â¯":6850,"ĠÂ¯Â·Â¯Â°Â·Â¯Â¯Â¯":6851,"ÅĶÃ¯":6852,"Ä¯ÄĥÃĳ":6853,"Å³Ãı":6854,"ĠÂ¯Â¿Â·Â±Â¿Â¯Â¯Â¯":6855,"ĠÂ¿Â·Â¯Â¯Â»Â¯Â¯Â¯":6856,"Ã¯Ä³Ã¯":6857,"Â¯Â±Â±":6858,"Ã¯Ã±Ãı":6859,"ĠÂ¯Â¯Â·Â±Â°Â¯Â¯Â¯":6860,"ĠÂ¯Â°Â°Â¯Â¯Â±Â±Â¯":6861,"ĠÂ¯Â¯Â¿Â°Â¯Â¿":6862,"ĠÂ¯Â¯ÃĹÂ±Â¯Â·Â°Â¯":6863,"ĠÂ¯ÃĹÂ°Â¯Â¯Â¿Â·Â¯":6864,"ĠÂ¯Â¯Â¯Â¿Â¯ÃĹÂ¯Â¯":6865,"Ã¯ÃĦÄ¯":6866,"ÃıÃĲÃı":6867,"ĠÂ¿Â¿Â¯Â¯Â¿":6868,"ĠÂ¿Â¯Â¯Â¯Â¯Â¸Â¯Â¯":6869,"ĠÂ¯Â¸Â¯Â¯Â¯Â¯Â°Â¯":6870,"ĠÂ¯Â·Â¿Â¯Â»Â¯Â¯Â¯":6871,"ĠÂ¯Â¯Â±Â±Â±Â¯Â¯Â¯":6872,"ĠÂ¯Â±Â±Â°":6873,"ĠÂ¯Â·Â´Â¯Â°Â¯Â¯Â¯":6874,"ĠÂ¯Â¯Â°Â¯Â¿Â»Â¯Â¯":6875,"ĠÂ¯Â·Â·Â¯Â¯Â·":6876,"ĠÂ¯Â¯Â¯Â±Â·Â·Â¯Â¯":6877,"ĠÂ¯Â¯Â¯Â»Â±Â¯Â¯Â¯":6878,"ĠÂ¯Â¯Â¿Â°Â¯Â¯Â¸Â¯":6879,"ĠÂ¯Â¯Â¯Â¯Â¿Â¯Â¯Â±":6880,"Äľ":6881,"Åº":6882,"ĠÅĢ":6883,"ĠÂ¶":6884,"Â¯Â¯Â´Â¯Â¯Â¯Â¯Â¯":6885,"Â¯Â¯Â¸Â±Â¯Â¯":6886,"ĠÂ¯Â±Â¯Â¯Â¯Â¯Â¯":6887,"Â±Â»":6888,"Ä¯Ãļ":6889,"Â¯Â¯Â¯Â¯Â±Â°Â¯Â¯":6890,"Â·Â¯Â¯Â¿Â·Â¯Â¯":6891,"Â¿Â¯Â¯Â»Â¯Â¯":6892,"Â±Â¯Ã·Â±Â¯Â¯":6893,"ĠÂ¯Â¯Â¿Â°Â¯Â¯Â¿Â¯":6894,"ĠÂ¯Â¯Â·Â¯Â¿Â¯Â±Â¯":6895,"Ã·Â°Â¿Â·Â¯Â¯":6896,"Â´Â¯Â¯Â¿":6897,"ĠÂ¯Â¯Â±Â¯Ã·Â·Â¯Â¯":6898,"ÃĵÃ¹":6899,"Ã±Ä¸":6900,"Ã³Åĳ":6901,"ĠÂ¯Â±Ã·Â¯":6902,"ĠÂ¯Â±Â¿Â±Â¯Â¯Â¯Â¯":6903,"ĠÂ¯Â¯ÃĹÂ¸Â¯Â·":6904,"ÃĹÂ¯Â¯Â¯Â¿Â¯Â¯":6905,"ÅĵÄ¯Ã¯":6906,"ÅĵÄĥ":6907,"Ä±Ä³":6908,"ÅĹÄ¯Ãģ":6909,"Â¸Â¯Â¯Â·Â´Â¯":6910,"Â±Â°Â¯Â±Â¯":6911,"ÃĻÅĥ":6912,"Ã¹ÃĢ":6913,"ÄĥÂµ":6914,"ÄģÃĢ":6915,"ĠÂ¯Â·Â¯Â¯Â¯Â·Â´Â¯":6916,"ĠÄ¯Ã¯Ã¹":6917,"ÄıÃ´":6918,"Ä¯ÃıÃĢ":6919,"ĠÂ¯Â±Â¯Â¯Â¯Â·Â´Â¯":6920,"ĠÂ¯Â¯ÃĹÂ¯ÃĹ":6921,"ĠÂ¯Â¯ÃĹÂ¯Â»Â¯Â¯Â¯":6922,"ĠÂ¯Â¯Â°Â¿Â°Â¯Â¯Â¯":6923,"ĠÂ¯Â¯Â°Â·Â±Â¯Â¯Â¯":6924,"ĠÂ¯Â±Â°Â¯Â¯Â±Â±Â¯":6925,"ĠÂ·Â°":6926,"Ä¯Ã¿Ãı":6927,"ĠÂ¯Â¯Â¯Â·Â¿Â¿Â¯Â¯":6928,"ĠÂ¯ÃĹÂ¸Â¯Â¯":6929,"ĠÂ¯Â¯Â¯Â¿Â·Â°Â¯Â¯":6930,"Ä¸Ãĥ":6931,"ĠÂ¯Â¯Ã·Â°Ã·Â¯Â¯Â¯":6932,"ĠÂ¯Ã·ÃĹÂ¯Â¯Â¯Â¯Â¯":6933,"ÃĽÃı":6934,"Ã¯ÃĥÃı":6935,"Â¯ÃĹÂ¯Â·Â¯":6936,"ĠÂ¯Â¯Â¿Â±Ã·Â¯Â¯Â¯":6937,"Ã¯ÃĢÄ¯Ã¯":6938,"ĠÂ¯Â¿Â°Â¯Â¯Â¿Â·Â¯":6939,"ĠÂ¯Â¿Â°Â¯Â¯Â»Â¯Â¯":6940,"Ä»Ä¯":6941,"ĠÂ¯Â¯Â¿Â±Â¯Â°Â°Â¯":6942,"ÅĽÃ¯":6943,"ĠÂ¿Â¯Â¯Â¯Â´Â¯Â¯Â¯":6944,"ĠÂ¯Â·Â°Â¯Â¯Ã·Â¯Â¯":6945,"ĠÂ¯Â¯Â¿Â·Â¯Â¿Â±Â¯":6946,"ĠÂ¯Â¯Â¿Â´Â¿":6947,"Ã¯Ã°Ã¯":6948,"ĠÂ¯Â¯Ã·Â±Â¯Ã·Â¯Â¯":6949,"Â¿Â¯Â·Â·Â¯Â¯":6950,"ĠÂ¯Â·Â·Â¯Â·":6951,"Â±Â¯Â¿Â¸Â¯":6952,"ĠÂ¯Â¿Â¸Â¯Ã·":6953,"ĠÂ¿Â¯Â¯Â°":6954,"ĠÂ¯Â¯Â·Â´Â¿Â·Â¯Â¯":6955,"ĠÂ¯Â¯Ã·Â´Â¯Ã·Â¯Â¯":6956,"ĠÂ¯Â´Â¯Â¯Â±Â¯Â¯Â¯":6957,"Â´Â¯Â·Â¸Â¯":6958,"ĠÂ·Â·Â¯Â¯Â¯Â·Â¯Â¯":6959,"ĠÂ¯Â¯Â¶Â¯Â¯Â±Â¯Â¯":6960,"ĠÂ¯Â¯Â¶Â¯Â·Â¯Â¯Â¯":6961,"Ã¶Åĵ":6962,"ĠÂ¯Â¯Â·Â¯Ã·Â¸Â¯Â¯":6963,"Ãŀ":6964,"ĠÂ»Â¯Â¯Â¯":6965,"Â¯Â¯Â±Â·Â¯Â¯Â¯":6966,"Â¯Â¯Â¯Â¶Â¯":6967,"Â±Â±Â±Â¯Â¯":6968,"Ã¯Ä¼":6969,"Â°Â±Â°Â¯":6970,"Â°Ã·Â·Â¯Â¯":6971,"Ä¯Ã¤":6972,"ÃıÃ¯Ãĳ":6973,"ÃıÄĵ":6974,"Â¿Â¿Â±Â¯Â¯Â¯":6975,"Â·Â¯Â¯Â»Â¯Â¯":6976,"Â°Â¯Ã·Â°Â¯":6977,"Â±Â¯Â¸Â°Â¯":6978,"ÅıÃ£":6979,"Ã¿Ä¹":6980,"Â´ÃĹ":6981,"Ä°ÃĦ":6982,"Ä¿Åĵ":6983,"Ä¿Åģ":6984,"Ä¯Ã¯Ä·":6985,"Ä¯Ã¯ÃĢ":6986,"Ä¯Ã¯Ã¯Ãĵ":6987,"Â´Â¯Â¯Â·Â±Â¯":6988,"Â¸Â¯Â¿Â°Â¯":6989,"Ã±Ã¿":6990,"Ã±Ã¯ÃŁ":6991,"ĠÂ¯Â¯Â¿Â¯Â¯Â°":6992,"ĠÂ¯Â±Â¸Â¯Â¯":6993,"ĠÂ¯Â±Â±Â¿Â¿Â¯Â¯Â¯":6994,"ĠÂ¯Â¯ÃĹÂ¶Â¯Â¯Â¯Â¯":6995,"Â¯Â·Â¯Â¯Â¯Â±Â¯":6996,"ĠÂ¯Â¯Ã·Â¯Â¯Â¯Â¿Â¯":6997,"ĠÂ¯Â¯Ã·Â¸Â¯Â¿Â¯Â¯":6998,"ĠÂ¯Â¯Â¯Â¯Â¿Â¿Â·Â¯":6999,"ĠÂ¯Â¿Â¯Â¯Â¯Â°":7000,"Â±Â°Â¯Â·Â¯Â¯":7001,"Â±Â°Â¯Â·Â¯":7002,"ĠÃıÅģ":7003,"ĠÃ¯Å¯":7004,"ĠÃ¯Ä¯Ãı":7005,"ĠÃ¯Äī":7006,"ĠÂ¯Â¯Â¯Â¯Â·Â±Â±Â¯":7007,"Â¯Â¿Ã·Â¯Â¯":7008,"ÄģÃĳ":7009,"ĠÂ¯Â·Â¯Â¯Â¯Ã·Â°Â¯":7010,"ĠÂ¯Â¯Â¯Â±Â°Â·Â¯Â¯":7011,"Â¯Â·Â¿Â¯":7012,"ĠÄ¯Ã¯ÃĻ":7013,"ĠÄ¯Ã¯ÅĶ":7014,"Ã°Ã¿":7015,"ĠÂ¯Â±Â¯Â¯Â±Â´Â¯Â¯":7016,"ĠÂ¯Â±Â¯Â¯Â¿Â¿Â¯Â¯":7017,"ĠÂ¯Â±Â¯Â¯Â¯ÃĹÂ±Â¯":7018,"ĠÂ¯Â°Â¯Â¯Â¿Â¸Â¯Â¯":7019,"ĠÂ¯Â¯Â°Â±Â¯Â¯Â°Â¯":7020,"ÅĲÄ¯":7021,"ĠÂ·Â°Â¯Â¯Â¯":7022,"ĠÂ¯Â¯Â¯Â·ÃĹÂ°Â¯Â¯":7023,"Å¿Ä±":7024,"ĠÂ¯ÃĹÂ·":7025,"ĠÂ¯Â¯Â¸Â¿Â¯Â¯Â¯Â¯":7026,"ĠÂ¯Â¯Â¯Â¿Ã·Â¯Â¯Â¯":7027,"Ä¯Ã¹Ã¯":7028,"ĠÂ¯Ã·Ã·Â¯":7029,"ĠÂ¯Ã·Â°Â¯Â±Â¯Â¯Â¯":7030,"Ã¯ÃĶÄ¯":7031,"ĠÂ¯Â¯Â¸Â¯Â±Â¿Â¯Â¯":7032,"Ä¯ÄĥÃı":7033,"Â¯Â°Â·Â¯":7034,"ĠÂ¯Â¯ÃĹÂ°Â¯ÃĹ":7035,"ĠÂ¯Â¿Â·Â°Â¿Â·Â¯Â¯":7036,"Å·Ãĳ":7037,"ĠÂ¯Â±Â±Â¯Ã·Â¯Â¯Â¯":7038,"Ä»Ã±":7039,"ĠÂ¯Â¯Â¿Â±Â¯Â¿Â°Â¯":7040,"ĠÂ¯Â°Â¯Â¿Â±Â¯Â¯Â¯":7041,"Ä¯ÃĻÄ¯":7042,"ĠÂ¯Â¯Ã·Â±Â¿Â°Â¯Â¯":7043,"ĠÂ¯ÃĹÂ°Â¯Â¯Â·":7044,"Ã§Ã¯":7045,"ĠÂ¯Ã·Â°Â¯Â¯Ã·Â¯Â¯":7046,"ĠÂ¯Â¯Â¯Â¸Â¿Â·Â¯Â¯":7047,"Ã¯ÂºÄ¯Ãģ":7048,"ĠÂ¯Â¯Â¯Â¿Â¯Â·":7049,"ĠÂ¯Â±Â±Â¯Â¯Â¿Â·Â¯":7050,"ĠÂ·Â¯Â¯Â¯Â¿Â±Â¯Â¯":7051,"Â°Â¿Â°Â¯Â¯Â¯":7052,"ĠÂ¯Â¯Â¯Â±Â¯Â¯Â¸Â¯":7053,"Â¯Â¿Â¯Â¿Â¯Â¯":7054,"ĠÂ¯Â¸Â±Â¯":7055,"Â±Â¯Â·Â¿Â¯Â¯":7056,"ĠÂ¯Â¯ÃĹÂ´Â¯ÃĹÂ¯Â¯":7057,"ĠÂ¯Â·Â·Â¯Â¯Â±Â±Â¯":7058,"ĠÂ¯Â±Â°Â¯Â¯Â¯Â´Â¯":7059,"ĠÂ¿Â¿Â¯Â¯Â¯Â¯Â·Â¯":7060,"ĠÂ±Â°Â¯Â¯Â±Â¯Â¯Â¯":7061,"ĠÂ±Â¯Â¯Â°":7062,"Â·Â¯Â¿Â´Â¯Â¯":7063,"ĠÂ¯Â´Â¯Â¯Â¯Â´Â¯Â¯":7064,"ĠÂ¯Â¿Â·Â¯Â¿Â·":7065,"ĠÂ°Â¯Â¯Â±":7066,"ĠÂ¯Â±Â°Â¯Â¿Â»Â¯Â¯":7067,"ĠÂ¯Â¿Â°Â¯Â¯Â¯Â´Â¯":7068,"ĠÂ¯Â¯Â¯Â¯Ã·Â¯Â°Â¯":7069,"ĠÂ¯Â¯Â¯Â¯Ã·Â¯Â±Â¯":7070,"ĠÂ¯Â¯Â¯Â»Â¯Â¯Â°Â¯":7071,"ĠÂ°Â¯Â±Â¯Â¯":7072,"ĠÄ´":7073,"ĠÂ±Â¯Â±Â¯Â¯":7074,"ĠÃ£":7075,"Ã¯Ä¯Ã¿":7076,"Â¿Â±Â·Â¯Â¯Â¯":7077,"Â·Â¯Â¯ÃĹÂ°Â¯":7078,"Â·Â¯Â¯Â·Â·Â¯":7079,"ĠÂ¯Â¯Â¯Â¿Â¯Â¯Â¯":7080,"Â°Â¯Â¸Â°Â¯Â¯":7081,"Â°Â¯Ã·Â±Â¯":7082,"Â±Â¯Ã·Â±Â¯":7083,"Â¿Â¯Â¯Â¯Â·Â·Â¯":7084,"ĠÂ¯Â¯Â·Â·Â¯Â¯Â°Â¯":7085,"Ã¿ÃıÄ¯":7086,"Ã¿Ä°Ä¯":7087,"Â´Â±Â¯Â¯Â¯Â¯":7088,"ĠÂ¯Â¯Â·Â¯ÃĹÂ´Â¯Â¯":7089,"ĠÂ¯Â¯Â·Â¯Â°Â¯Â°Â¯":7090,"Ä°Ä¯Ã¿":7091,"ĠÂ¯Â·Â¿Â¯Â¯Â¯Â±Â¯":7092,"ĠÂ¯Â·Â¿Â¯Â¯Â´Â¯Â¯":7093,"ĠÂ¯Â·Â¯Â¿Â¿Â¯Â¯Â¯":7094,"ÃģÃ³":7095,"ÃĵÄ¯Ã¯":7096,"Ã³Ä¯Ã¯":7097,"Ã³Ãĩ":7098,"Ã³Ä¯Ãĵ":7099,"Ä·ÃĲ":7100,"Ä·ÃıÃ¯":7101,"ĠÂ¯Â±Â¿Â¯Â¿Â¯Â¯Â¯":7102,"Ä³ÃŁ":7103,"ĠÂ¯Â¯ÃĹÂ¿":7104,"ĠÂ¯Â¯ÃĹÂ·Â¯Â°Â¯Â¯":7105,"ĠÂ¯Â¯ÃĹÂ¸Â¯Â±Â¯Â¯":7106,"ÃĲÅı":7107,"Â¿Â¯Â±Â¿Â¯Â¯Â¯":7108,"Â¿Â¯Â°Â±Â¯Â¯":7109,"Â¯Â¿Â¯Â¯Â¯Â±Â¯":7110,"ĠÄ¯Å¡":7111,"ĠÂ¯Â¯Â¯Â±Â¯Â·Â´Â¯":7112,"ÅĵÃ³":7113,"ĠÂ¯Â¯Â¯Â¯Â¿Â±Â¿Â¯":7114,"ÅĹÄ±ÃĻ":7115,"Â¸Â¯Â¯ÃĹÂ°Â¯Â¯":7116,"Â±Â°Â¯Â°Â¯Â¯":7117,"Â±Â°Â¯Â±Â°Â¯":7118,"ĠÃ¯Ä¯Ãģ":7119,"ÄĥÄ°":7120,"Ã°Ä¯Ã¯":7121,"ĠÃ¯ÃıÃĵ":7122,"ĠÃ¯ÃıÄĥ":7123,"Â¯Â¯Â·Â¿Â¯Â¯Â¯":7124,"ĠÂ¯Â°Â¯Â¯Â¯Â·Â´Â¯":7125,"ĠÂ¯Â¯Â¿Â°Â·Â´Â¯Â¯":7126,"ÅĢÃĳ":7127,"ÃıÃĥÃ¯":7128,"Ä¯Ä¯Ãĳ":7129,"ĠÂ¯Â¯Â´Â¯Â¯ÃĹ":7130,"Â·Â°Â¯Â¯Â·":7131,"Ã¯ÃĲÄ¯Ã¯":7132,"ÄĹÃĥ":7133,"ĠÂ¯Â¯Â¯Â¿Â»Â¯Â¯Â¯":7134,"ĠÂ¯Â¯Ã·Â°ÃĹÂ¯Â¯Â¯":7135,"Â¯ÃĹÂ±":7136,"Å³Ã¯":7137,"ĠÂ¯Â¯Â¯Â´Â¯Â¿Â·Â¯":7138,"ĠÂ¯Â¿Â·Â·":7139,"Å±Ãĳ":7140,"Å±Âµ":7141,"ĠÂ¿Â·Â¯Â¯Ã·":7142,"ĠÂ¯Â¿Â±Â¯Ã·Â¯Â¯Â¯":7143,"Â¯Â¯Â±Â¯Â±Â¯Â¯Â¯":7144,"ĠÂ¯Â°Â¯Â±Â¯Â¿Â¯Â¯":7145,"Â¯Â±Â¸Â¯Â¯Â¯":7146,"ĠÂ¯Â°Â°Â¯Â¯Ã·Â¯Â¯":7147,"ĠÂ¯Â¯Â¿Â°Â¯Â·Â°Â¯":7148,"ÃĤÄ¯":7149,"ĠÂ¯Â¯Â¯Â¸Â¯Â°Â°Â¯":7150,"ĠÂ¯ÃĹÂ°Â¯Â¯Â±Â°Â¯":7151,"ĠÂ¯Â·Â°Â¯Ã·Â¯Â¯Â¯":7152,"ĠÂ¯Â¯Â¿Â·Â±Â¯Â¯Â¯":7153,"ĠÂ¯Â¯Â¿Â·Â°Â¯Â¯Â¯":7154,"ĠÂ¯Â¯Â¿Â·Â±Â°Â¯Â¯":7155,"ĠÂ¯Â¯Â¿Â´Â¯Â¿Â·Â¯":7156,"ĠÂ¯Â¯Â¯Â·Â¯Â¯Â¸Â¯":7157,"ĠÂ¯Â¯Ã·Â¯Â¯Â±Â±Â¯":7158,"Â¯Â·Â¯Â´Â¯Â¯Â¯":7159,"ĠÂ±Â°Â°Â¯":7160,"ĠÂ±Â¿Â¿Â¯Â¯Â¯Â¯Â¯":7161,"Ã¯ÂµÄ¯Ã³":7162,"Â¯Â¿Â¯Â°Â¯Â¯Â¯":7163,"ĠÂ¯Â¸Â´Â¯Â¯Â¯Â¯Â¯":7164,"ĠÂ¿Â¿Â¯Â¯Â¯ÃĹÂ¯Â¯":7165,"ĠÃ¯ÃĵÃģ":7166,"ĠÂ¯Â¯Â·Â¯Â¯Â·Â¿Â¯":7167,"ĠÂ¯ÃĹÂ°Â¯Â±Â¯Â¯Â¯":7168,"ĠÂ°Â¿Â¯Â¯Â¯Â¯Â¯Â¯":7169,"ĠÂ¯Â·Â·Â¯Â¯Â·Â·Â¯":7170,"ĠÅ¯Ãķ":7171,"ĠÂ¯Â¯Â¶Â¯Â¿Â¯Â¯Â¯":7172,"ĠÂ¯Â¯Â¯Â»Â¿Â¯Â¯Â¯":7173,"ĠÂ¯Â¯Â¿Â¯ÃĹÂ·Â¯Â¯":7174,"ĠÂ¯Â¿Â´Â¯Â¿Â·Â¯Â¯":7175,"ĠÂ°Â¯Â¯Â°":7176,"ĠÂ±Â±Â¯Â¯Â±Â¯Â¯Â¯":7177,"ĠÂ¯Â±Â´Â¯Â±Â´Â¯Â¯":7178,"ĠÂ¯Â¿Ã·Â´Â¯Â¯Â¯Â¯":7179,"ĠÂ¯Â¯Â¯Â¯Â´Â¯Â±Â¯":7180,"ĠÂ¯Â°Â´Â±Â¯Â¯Â¯Â¯":7181,"ÄĨ":7182,"Æī":7183,"ĠÅĻ":7184,"ĠÂ¯Â¯Â¯Â¯Â±Â¯Â¯Â·":7185,"Â±ÃĹÂ¯Â¯":7186,"Ã¯Å£":7187,"Â°Â¸Â¯Â¯":7188,"Ä¯Ä¯Ã¯Ãı":7189,"Ä¯ÄĤ":7190,"Â·Â±Â¿Â¯Â¯Â¯":7191,"Â¿ÃĹÂ¯Â¯Â¯":7192,"Â¿Â°Â¿":7193,"Â°Â¯Â¯Â°Â¯Â¯Â¯":7194,"ĠÂ¯Â¯Â¿Â¸Â¯Â¯Â±Â¯":7195,"ÅıÅŁ":7196,"ÅıÄ¹":7197,"Ã¿Åģ":7198,"Â´Â±Â¯Â¯Â¯":7199,"Â´Â´Â¯":7200,"ÃĥÃ¹":7201,"ĠÂ¯Â¿Ã·Â°":7202,"Â°Â¯Â¯Â¯Â¯Â°Â¯":7203,"Ä°Ä±":7204,"ĠÂ¯Â·ÃĹÂ°Â¯Â¯Â¯Â¯":7205,"Ä¿ÃŁ":7206,"Ä¿Ã¯Ä¯":7207,"Ä¯Ã¯Ãĳ":7208,"Ä¯Ã¯Ãĩ":7209,"Â´Â¯Â¯ÃĹ":7210,"ĠÂ¯Â¯Â±Â¯Â°Â¯":7211,"ÃģÄ¯Åı":7212,"ĠÂ¯Â¯Â°Â¯Â·Â¯":7213,"ĠÂ¯Â¯Â°Â¯Â»Â°Â¯Â¯":7214,"Ä³Ä³":7215,"Ä³Ãī":7216,"Ä³Ãħ":7217,"ÃĳÃıÃĥ":7218,"ĠÂ¯Â¯ÃĹÂ¯Â¯Â·Â±Â¯":7219,"ĠÄ¯Æĥ":7220,"ĠÂ¯Â¯Ã·Â¿Â°Â¯Â¯Â¯":7221,"ĠÂ¯Â¯Â¯Â¯Â¿Â±Â·Â¯":7222,"Å¯ÃŁ":7223,"Å¯Âº":7224,"ĠÃ¯Ãħ":7225,"Ã¹Ã¯Ãı":7226,"Â´Â¯Ã·Â°Â¯":7227,"ĠÄ¯Ã¯ÅŁ":7228,"ÂµÃĥ":7229,"ĠÂ¯Â¯Â±Â·Â¯Â±Â¯Â¯":7230,"ÃĩÄ¸":7231,"ÃĹÂ°Â¯Â¯Â°Â¯Â¯":7232,"ĠÂ¯Â¯Â¯Â¯Â¯Â·Â¶Â¯":7233,"ĠÂ¯Â¿Â·Â¯Â¯Â¿Â°Â¯":7234,"ĠÂ·Â¿":7235,"ÂºÅ¯":7236,"ÅıÃģÄ¯Ãĵ":7237,"ĠÂ¯Â¯ÃĹÂ°Â±Â°Â¯Â¯":7238,"ĠÂ¯Â¯Â¯Â¯Â±Â°Â±Â¯":7239,"ĠÂ¯Â¯Â¸Â¯ÃĹÂ°Â¯Â¯":7240,"Â·Â°Â¯Â·":7241,"ĠÂ¯Â¯Â»Â¯Â¿":7242,"ĠÂ¯Â¯Â»Â¯Â°Â´Â¯Â¯":7243,"ĠÂ¯Â¯Â¯Â´Ã·Â¯Â¯Â¯":7244,"ĠÂ¯Â¿Â·Â±Â¯":7245,"Â¯Â°Â¯Â·Â¯":7246,"Â¯Â°Â¯Â±Â°Â¯Â¯":7247,"ĠÂ¯Â¿Â°Â¯Â°Â°Â¯Â¯":7248,"ĠÂ¯Â¿Â±Â¯Â¿Â°Â¯Â¯":7249,"Â¯Â±Â¿Â·Â¯Â¯":7250,"Â¯Â±Â¿Â°Â¯Â¯":7251,"ÃıÂµÃ¯Ãı":7252,"ÆıÅı":7253,"Â¯Â±Â¯Â°Â¯Â¯Â¯":7254,"ĠÂ¯ÃĹÂ°Â¯Â¯Â°Â°Â¯":7255,"ĠÂ¯Â¯Â¿Â·Â¯Â·Â°Â¯":7256,"ĠÂ¯Â·Â°Â¯Ã·":7257,"ĠÂ¯Â¿Â±Â¯Â¯Ã·":7258,"ĠÂ¯Â¿Â±Â¯Â¯Â·Â±Â¯":7259,"Â¯Â¯Â·Â¯Â±":7260,"Â¯Â¯Â·Â¯Â°Â´Â¯Â¯":7261,"Â¯Â·Â¯Â°Â¯Â¯Â¯":7262,"ĠÂ¯Â±Â±Â¯Â¯ÃĹ":7263,"ĠÂ¯Â±Â±Â¯Â¯ÃĹÂ°Â¯":7264,"ĠÂ¯Â±Â±Â¯Â¯Â·Â±Â¯":7265,"ĠÂ¯Â¸Â°Â¯Â¯Â¿Â¯Â¯":7266,"Â±Â¿Â¸Â¯Â¯Â¯":7267,"ĠÅıÃ³":7268,"ĠÂ¯Â»Â¯Â¯Â¯Â±Â¯Â¯":7269,"ĠÂ·Â·Â¯Â¯Â¿Â¯Â¯Â¯":7270,"ĠÂ¯Â¿Â¸Â¯Â¯Â·Â±Â¯":7271,"Â¯Â»Â¿Â¯Â¯":7272,"Â¯Â»Â°Â¯":7273,"ĠÅ¯Ä¯":7274,"ĠÅ¯ÃĲ":7275,"ĠÄ¿Ãĳ":7276,"ĠÂ¯Â¯Â¯Â°Â¯Â·Â¸Â¯":7277,"Ä¿Ã³Ãĳ":7278,"Â·Â¯Â·Â·Â¯Â¯":7279,"ĠÂ¯Â¯ÃĹÂ°Â¯Â¯Â´Â¯":7280,"ĠÂ¯Â¯Â¸Â¯Â¯Â¯Â¿Â¯":7281,"ĠÂ±Â¯Â¯Â¯Â¯Â¯Â±Â¯":7282,"ĠÂ¯Â´Â¯Â¯Â¯Â¯Â°Â¯":7283,"ĠÂ¯Â°Â¯Â¯Â¯Â¯Â¯Â°":7284,"Æł":7285,"ĠÃ³Ã¯":7286,"ĠÂ¯Â¯Â¯Â¯Â¯Â¿Â¯Â±":7287,"Ä¯ÅıÃģ":7288,"Ä¯ÄĲ":7289,"ÃıÄ¯Ãĳ":7290,"ÃıÄ¯Ãĵ":7291,"Â·Â¯Â¯Â±":7292,"Â·Â¯Â¯ÃĹÂ¯Â¯Â¯":7293,"Â·Â¯Â¯Â·Â´Â¯Â¯":7294,"Â¯Â¯Â¯Â¯Â¯Â¯Â°":7295,"Â¿Â¯Â¯Â»Â¯Â¯Â¯":7296,"Â¿Â¯Â¯Â¿Â´Â¯Â¯":7297,"Â¿Â¯Â¯Â¯Â±Â±Â¯":7298,"Â¿Â¯Â¯Â¯Ã·Â´Â¯":7299,"ĠÂ¯Â¯Â¿Â¯Â¯Â¯Â¯Â±":7300,"Â·Â¯Â¯Â¯Â±Â°Â¯":7301,"ÅıÄŁ":7302,"Â´Â°":7303,"Â´Â¯Â¿Â¿Â¯":7304,"ĠÂ¯Â¿Â¯Â¯Â¯Â¯Â¯":7305,"ĠÂ¯Â¿Â»Â¯Â¯":7306,"ĠÂ¯Â¯Â¿Â¯Â¶Â¯Â¯Â¯":7307,"Ä°ÅĹ":7308,"ĠÂ¯Â·ÃĹÂ¯Â·Â¯Â¯Â¯":7309,"Ã·Â¯Â¯Â¯Â¿Â¯Â¯":7310,"Ä¿ÃĲ":7311,"Ä¯Ã¯Ã¿":7312,"Â·Â¯Â±Â´Â¯Â¯":7313,"Â·Â¯Â°Â±Â¯Â¯":7314,"Â·Â¯Â¶Â¯Â¯Â¯":7315,"ĠÂ¯Â¯Â·Â¯Â¯Â¸Â°Â¯":7316,"ĠÂ¯Â¯Â°Â¯Â¯Â±":7317,"Ä·Ä¯Ã³":7318,"Ä·Ãµ":7319,"Ä·Ä±Ãĵ":7320,"Ä³Äı":7321,"ÃĳÅĢ":7322,"ÃĢÅı":7323,"ĠÂ¯Â¯Ã·Â¯Â¯Â·Â°Â¯":7324,"ĠÂ¯Â¯Â¯Â±Â¯Ã·":7325,"Ä±Äģ":7326,"Ä±ÃĶ":7327,"ÃĹÂ¯Â¯Ã·Â¯Â¯":7328,"Å¯Ä²":7329,"ĠÃıÅĢ":7330,"ĠÂ¯Â¯Â¯Â±Â»Â¯Â¯Â¯":7331,"Â¯Â·ÃĹÂ¯Â¯":7332,"ĠÂ¯Â¯Â±Â·Â¯Â°Â¯Â¯":7333,"ÃŁÅĵ":7334,"ĠÃ¯ÃıÅĥ":7335,"ĠÂ¯Â¿Â·Â¯ÃĹÂ±Â¯Â¯":7336,"Ä¯ÃıÂµ":7337,"ĠÂ¯Â±Â¯Â¯Â¯Ã·Â±Â¯":7338,"ĠÂ¿Â·Â·Â¯":7339,"ĠÂ¿Â¿Â¯Â·Â¿Â¯Â¯Â¯":7340,"ĠÂ¯Â°Â¯Â¯Â±":7341,"ĠÂ¯Â¯Â°Â·Â¯Â°Â¯Â¯":7342,"Â¿Â±Â¯Â¯Â±Â¯Â¯":7343,"ÅĢÄ·":7344,"ÄĢÃĳ":7345,"ĠÂ·Â°Â¯":7346,"ÃıÃģÄ¯Åı":7347,"Ã¸ÃĲ":7348,"ĠÂ¯Â¯Â´Â¯ÃĹ":7349,"ĠÂ¯Â¯Â´Â¯Â»Â¯Â¯Â¯":7350,"Â»Â¯Â¯Â±Â¯":7351,"ÃīÃ¯":7352,"ĠÂ¯Ã·Â¸Â¯Â¿Â¯Â¯Â¯":7353,"ĠÂ¯Â¯Â¯Â´Â¯Â·Â¸Â¯":7354,"Ä¯ÂµÃ¯Ãĥ":7355,"ÅıÃĥÄ¯Ä·":7356,"ĠÂ¯Â°Â°Â¯Â·Â±Â¯Â¯":7357,"ĠÂ¯Â°Â°Â¯Ã·Â´Â¯Â¯":7358,"Å³Âµ":7359,"ĠÂ¯ÃĹÂ¯Â¯Â¯Â¿Â·Â¯":7360,"ĠÂ¯ÃĹÂ¯Â¯Â¯Â¿Â±Â¯":7361,"Â¯Â¯Â°Â¯Â°":7362,"ÃıÄ¯Ä¿":7363,"ÄŁÃĥ":7364,"ĠÂ¯Â±Â¯Â·Â¯":7365,"ĠÂ¯Â¯Â¯Â¯Ã·Â°":7366,"ĠÂ¯Â°Â¯Â·Â¯":7367,"Â¯Â±Â¿":7368,"Â¯Â¯Â¯Â¿Â¯Â°Â¯":7369,"Â¿Â°Â¯Â±Â¯Â¯Â¯":7370,"ĠÂ¿Â¯Â¯Â¯ÃĹÂ°Â¯Â¯":7371,"ĠÂ¿Â¯Â¯Â¯Ã·Â°Â¯Â¯":7372,"ÆıÃĥ":7373,"ĠÂ¯Â¯Â·Â°Â¯Â¿Â·Â¯":7374,"ĠÂ¯Â¿Â±Â¯Â¯Â¿":7375,"ĠÂ¯Â¯Â¿Â´Â¿Â·Â¯Â¯":7376,"ĠÂ¯Â¯Â¯Â¸Â¯Â¿Â·Â¯":7377,"Ã»Ãı":7378,"ĠÂ¯Â¯Â¿Â´Â¯Â¸Â¯Â¯":7379,"ĠÂ¯Â¯Â¿Â´Â¯ÃĹÂ¯Â¯":7380,"ÃıÃĲÄ¯":7381,"ĠÂ¯Â¿Â¸Â¯Â¿Â·Â¯Â¯":7382,"Â¯Â¿Â¯Â¿Â¯":7383,"ĠÂ¯Â·Â·Â¯Â±Â°Â¯Â¯":7384,"ĠÂ¯Â»Â°Â¯Â¯Â°Â¯Â¯":7385,"Ä¯ÅĵÃģ":7386,"ĠÂ¿Â¯Â¯Â¿":7387,"ĠÂ¯Â¯Â°Â±Â±Â¯Â¯Â¯":7388,"ĠÂ¯Â¯Ã·Â´Â¯Â¿Â·Â¯":7389,"ÃĬÃ¯":7390,"ĠÂ¯Â¯Â¿Â¸Â¯Ã·":7391,"ĠÂ¯Â¯Â¶Â¯Â±Â¯Â¯Â¯":7392,"ĠÂ¿Â¿Â·":7393,"ĠÂ¿Â¿ÃĹÂ¯Â¯Â¯Â¯Â¯":7394,"ĠÃ·Â°Â¯Â¯Â¯Â¯Â¯Â¯":7395,"Â°Â°Â¿Â¯Â¯":7396,"ĠÂ¯Â¯Â±Â·Â°Â¯Â¯Â¯":7397,"ĠÂ¯Â¯Â¯Â¯Â¯Â´Â´Â¯":7398,"ĠÂ¶Â¯Â¯Â¯Â¯Â¯Â¯Â¯":7399,"Ä©":7400,"Â¯Â±Â¯Â´Â¯Â¯":7401,"Â·Â±Â°Â¯":7402,"Â·Â±Â¯Â·Â¯Â¯":7403,"Â·Â°Â·Â¯Â¯Â¯":7404,"ÃıÄ¯Ã¹":7405,"Â°Â¯Â¯ÃĹÂ¯Â¯Â¯":7406,"Â¯Â¯Â¯Â¯Â¯Â¯Â°Â¯":7407,"ĠÂ¯Â¯Â·Â»Â¯Â¯Â¯Â¯":7408,"Â·Â¯Â¯Â¯Â¸Â¯Â¯":7409,"ĠÂ¯Â¯Â·Â¯Â¶Â¯Â¯Â¯":7410,"ĠÂ¯Â¿ÃĹÂ°Â¯":7411,"Ä°Ä°":7412,"ĠÂ¯Â·Â°Â¿Â±Â¯Â¯Â¯":7413,"Ã·Â°Â¯Â¿Â¯Â¯":7414,"Â´Â¯Â¯Â»Â¯Â¯":7415,"Ã¯ÃıÄ¯Ã¿":7416,"Â·Â¯Â¿Â·Â¯Â¯Â¯":7417,"ÃģÃ±":7418,"ÃģÃĺ":7419,"ÃĵÄ¯Ãģ":7420,"Ã±Ä¯Ãı":7421,"ĠÂ¯Â¯Â°Â¯Â¯ÃĹÂ´Â¯":7422,"ĠÂ¯Â¯Â±Â¯Â¯Â±Â·Â¯":7423,"ĠÂ¯Â¯Â±Â¯Â¯ÃĹÂ·Â¯":7424,"Ã³Åģ":7425,"ĠÂ¯Â±Â¿Â¯Â±Â¯Â¯Â¯":7426,"ĠÂ¯Â±Ã·Â°Â¯Â¯Â¯Â¯":7427,"ĠÂ¯Â±Â±Â¯Â¯Â¯Â¿Â¯":7428,"ÃĳÄ¯Ãĥ":7429,"ÃĲÄ¯Ã±":7430,"ÃĢÄ¯Ã±":7431,"ĠÄ¯ÃĦ":7432,"ĠÂ¯Â¯Â¯Â°Â¯ÃĹÂ´Â¯":7433,"ĠÂ¯Â¯Â¯Â±Â¯Â¶Â¯Â¯":7434,"ÅĵÄ¯Äĥ":7435,"ÅĹÅĵ":7436,"ĠÂ¯Â·Â¯Â¯Â°Â±Â¯Â¯":7437,"ÅĥÄ¿":7438,"ÅĥÃĳ":7439,"Â¯Â¿Â·Â°Â¯":7440,"ĠÂ¯Â°Ã·Â¯Â¯Â¯Â¯Â¯":7441,"Â´Â¯Â°Â¯":7442,"Â´Â¯ÃĹÂ°Â¯Â¯":7443,"Â´Â¯Â»Â¯Â¯":7444,"Â¯Â·Â¿":7445,"Â¯Â·Â±Â¯Â¯Â¯Â¯":7446,"Ã°Ä°":7447,"ÃĦÄ¯Ã¯":7448,"ÃĩÅı":7449,"ÃĩÃ°":7450,"Â»Â¯Â·Â¯Â¯Â¯":7451,"ĠÂ¿ÃĹ":7452,"ĠÂ¯Â¯Â°Â±Â¿":7453,"Â¯Â·Â¯Â¯Â¿Â¯Â¯":7454,"Â¯Â°Â¯Â¯Â¯Â°Â¯":7455,"ĠÂ¯Â±Â°Â¯Â¯Â¶Â¯Â¯":7456,"Ä¯Ä¯Ãĵ":7457,"ĠÂ·Â±Â±Â¯Â¯Â¯Â¯Â¯":7458,"ĠÂ¯Â¯Â´Â¯Â¯Â±Â±Â¯":7459,"ĠÂ¯Â¯Â¸Â¯Â·Â±Â¯Â¯":7460,"ÄĹÃĢ":7461,"ĠÂ¯Â¿Â¯Â°Â¯Â°Â¯Â¯":7462,"ÅıÃģÃı":7463,"Ä¯Ã¹Ä¯":7464,"ĠÂ¯Ã·Â±Â¯Â¿Â¯Â¯Â¯":7465,"ĠÂ¯Â¯Â±Â°Â¯Ã·Â°Â¯":7466,"ĠÂ¯Â¯Â¯Â¯Â±Â°":7467,"ĠÂ¯Â¯Â¯Â¯Â±Ã·Â¯Â¯":7468,"ÃıÃĢÃı":7469,"Â¯ÃĹÂ±Â¯Â¯Â¯Â¯":7470,"Â¯ÃĹÂ¯Â±Â¯":7471,"Â¯Â¯Â°Â¯Â±Â¯":7472,"Ã·Â¯Â»Â¯Â¯Â¯":7473,"ĠÂ¯Â±Â°Â¿Â¿Â¯Â¯Â¯":7474,"Â¯Â±Â¯Â·Â¯":7475,"ĠÂ¯Â¯Â¿Â°Â¯Â°Â°Â¯":7476,"ĠÂ¯Â¯Â·Â°Â¯Â¿Â±Â¯":7477,"ĠÂ¯Â±Â±Â¯Â¯Ã·":7478,"ĠÂ¯Â±Â±Â¯Â¯Â¿Â¿Â¯":7479,"Ã²Ã¯":7480,"ĠÂ¿Â¯Â¯Â¯Â¯Â·Â±Â¯":7481,"ĠÂ¿Â·Â¯Â·Â¯Â¯Â¯Â¯":7482,"ĠÂ¯Â¯Â°Â°Â±Â¯Â¯Â¯":7483,"ĠÂ¯Â¯Â°Â°ÃĹÂ´Â¯Â¯":7484,"ĠÅıÃĲ":7485,"ĠÂ¯Â´Â±Â¯":7486,"Â¯Â¯Â¿Â¯Â±Â¯":7487,"Â¿Â°ÃĹ":7488,"ĠÂ·Â¯Â¯Â·Â¯Â¯Â¯Â¯":7489,"Â¯Â»Â´Â¯Â¯":7490,"ĠÂ¿Â¿Â±Â¯Â¯Â¯Â¯Â¯":7491,"Ä§Ãı":7492,"ĠÂ¯Â·Â¯Â¯Â¿Â´Â¯Â¯":7493,"ĠÄ¹":7494,"ĠÂ»Â¯Â¯":7495,"ĠÄ·Ä¯":7496,"Â±Â¸Â¯":7497,"Â·Â¿Â¯Â¯Â¯Â¯Â¯":7498,"ÃıÅī":7499,"Â¯Â¯Â¯Â¯Ã·Â¯":7500,"Â¯Â¯Â¯Â¯Â¯Â¯Â±Â¯":7501,"Â±Â¯Â°Â¯Â¯Â¯Â¯":7502,"Â±Â¯Â±Â¯Â¯Â¯Â¯":7503,"Â±Â¯Â´Â±Â¯Â¯":7504,"ĠÂ¯Â¯Â¿Â¯Â¯Â¯Â¯":7505,"ÅıÄ¯Ãģ":7506,"ÃĹÂ·":7507,"ÃĹÂ¸Â¯Â¯":7508,"ÃĹÂ´Â¯Â¯Â¯Â¯":7509,"ĠÂ¯Â¯Â¿Â¯Â´Â°Â¯Â¯":7510,"Ä°Å¯":7511,"Ä°Ãī":7512,"ĠÂ¯Â·ÃĹ":7513,"Â´Â¯Â¯Â·Â·Â¯":7514,"Â¸Â°Â¯Â¯Â¯":7515,"ÃģÄ±":7516,"ĠÂ¯Â¯Â·Â¯Â¯ÃĹÂ´Â¯":7517,"Ã±ÅĲ":7518,"Ã³Ä¯Ãı":7519,"Ã³Ä¸":7520,"ĠÂ¯Â±Â¿Â¯Â¸Â¯Â¯Â¯":7521,"ÃĳÃ±":7522,"Â¿Â¯Â¸Â¯Â¯":7523,"ÃĹÂ¯Â¯Â¯Â´Â¯":7524,"ĠÂ¯Â¿Â¯Â¯Â¸Â°Â¯Â¯":7525,"ĠÃ¯Åĳ":7526,"ÄĥÃĺ":7527,"ĠÂ¯Â°Â¸Â¯":7528,"ĠÂ¯Â°Â±Â¯Â±Â¯Â¯Â¯":7529,"ĠÂ¯Â°Ã·Â°Â¯Â¯Â¯Â¯":7530,"ÄģÃ°":7531,"ĠÂ¯Â·Â¯Â¯Â¯Â¿Â¸Â¯":7532,"ĠÄ¯Ã¯Ä´":7533,"Ã°Âµ":7534,"Â¯Â±Â¯Â¯Â¯Â°Â¯":7535,"ĠÂ¯Â¯Â±Â·Â¿Â¯Â¯Â¯":7536,"ÃĺÃĢ":7537,"Â¸Â¯Â¯Â¯Â´Â¯":7538,"ĠÃ¯ÃıÄ³":7539,"Â¸Â¯ÃĹÂ°Â¯":7540,"ĠÂ¯Â¯ÃĹÂ¯ÃĹÂ±Â¯Â¯":7541,"ĠÂ¯Â¯Â°Â·Â¿Â¯Â¯Â¯":7542,"Ä¹Ãĥ":7543,"ĠÂ·Â¸Â¯Â¯":7544,"ÅģÃ¹":7545,"ĠÂ¯Â¿Â¯Â·Â¯":7546,"Ã¯ÃĳÃıÃĥ":7547,"ÃħÃ¯":7548,"ĠÂ¯Ã·Â°Â¯Â¯Â¯Â¿Â¯":7549,"ĠÂ¯Ã·Â´Â¯Â·Â¯Â¯Â¯":7550,"ĠÂ¯Â¯Â±Â°Â¯ÃĹÂ´Â¯":7551,"Ã¯ÃĥÄ¯Ãĳ":7552,"Ã¯Ä¯Ä¿":7553,"ĠÂ¯Â¿Â°Â¯Â¯Â·Â·Â¯":7554,"Â¯Â°Â±Â°Â¯":7555,"ĠÂ¯Â¿Â·Â´Â¯Â¯Â¯Â¯":7556,"Â¶Â¯Â¯Â°Â¯":7557,"ĠÂ¯Â±Â¯Â°Â±Â¯Â¯Â¯":7558,"ĠÂ¯Â¯Â´Â±Â¯":7559,"ĠÂ¯Â¯Â´Â¯Â¿Â´Â¯Â¯":7560,"ĠÂ¯ÃĹÂ¯Â¯Ã·Â¯Â¯Â¯":7561,"ĠÂ¯Â¯Â¿Â¯Â·Â¸Â¯Â¯":7562,"ĠÂ¯Â¯ÃĹÂ±Ã·":7563,"ĠÂ¯Â·Â°Â¯Â¯Â·Â±Â¯":7564,"ĠÂ¯Â¯Â¿Â·Â¯ÃĹÂ¯Â¯":7565,"ÃķÄ¯":7566,"ÄĦÃ¯":7567,"ÃĪÄ¯":7568,"ĠÂ¿Â¯Â°Â¯Â¯Â°Â¯Â¯":7569,"ĠÂ¿Â¯Â·Â¯Â¯Â·Â¯Â¯":7570,"ĠÂ¯Â¯Â¯Â¸Â¯Â¿Â°Â¯":7571,"ĠÂ¯Ã·Â¯Â¯Â·":7572,"ĠÂ·Â¯Â·":7573,"ĠÂ¯Â¯Ã·Â±Â¯Â·Â·Â¯":7574,"ĠÂ¯Â¸Â±Â¯Â¯Â¯Â¯Â¯":7575,"ĠÂ¯Â¸Â¯Â¯Â¯Â¯Â±Â¯":7576,"Ä·ÂµÃ¯Ãı":7577,"ĠÂ¯Â¯Â¯Â¯Â¯Â±ÃĹÂ¯":7578,"ĠÂ¯Â¯Â·Â±Â¯Â·Â±Â¯":7579,"ĠÂ¯Â¯Â±Â±Â°Â¯Â¯Â¯":7580,"ĠÂ¿Â¯Â¯Â±":7581,"ĠÂ¿Â¯Â¯Â¿Â¿Â¯Â¯Â¯":7582,"ĠÂ¯Â·Â±Â¯Â¯ÃĹÂ¯Â¯":7583,"Å¯ÂµÃ¯":7584,"ĠÂ·Â¯Â¯Â·Â¯":7585,"ĠÂ¯Â¯Â¯Â¯Â´Â¸Â¯Â¯":7586,"ĠÂ¯Â¯Â¯Ã·Â·Â°Â¯Â¯":7587,"ĠÂ±Â°Â¯Â¯Â°Â¯Â¯Â¯":7588,"ĠÂ¯Ã·Â´Â¯Â¯Â±Â¯Â¯":7589,"ĠÂ¯Â¯Â¯Â¶Â¯Â°Â¯Â¯":7590,"ĠÂ·Â·Â¿Â¯Â¯Â¯Â¯Â¯":7591,"ĠÂ¯Â»Â¯Â¯Â¯Â´Â¯Â¯":7592,"ĠÂ¯Â·Â¯Â·Â±Â¯Â¯Â¯":7593,"ĠÂ¯Â¯Â¸Â¯Â±Â¸Â¯Â¯":7594,"ĠÂ´Â¯Â¯Â¯Â¯Â·Â¯Â¯":7595,"Å¢":7596,"Â¯Â¯Â°Â¯Â¿Â¯Â¯":7597,"Â¯Â¯Â¯Â°Â°":7598,"Â¯Â¯Â¯Â¸Â±Â¯":7599,"Ã¯ÅıÃ¯":7600,"Ã¯Äº":7601,"Â°Â»Â¯Â¯Â¯":7602,"ÃıÃ»":7603,"ÃıÆģ":7604,"ÃıÅ´":7605,"Â¿Â¿Â·Â¯Â¯Â¯":7606,"Â¿Â¯Â¯Â¯Â°Â°Â¯":7607,"Â¿Â¯Â¯Â¯Ã·Â°Â¯":7608,"ĠÂ¯Â¯Â¿Â¿Â¯Â¿Â¯Â¯":7609,"Â·Â¯Â¯Â¯ÃĹÂ¯Â¯":7610,"Â±Â¯Â¯Â¯Â°":7611,"Â±Â¯Â¯Â¯ÃĹÂ¯":7612,"Ã¿Ä²":7613,"Ã¿ÂºÄ¯":7614,"ÃĹÂ°Â¯Â¿Â¯Â¯":7615,"ÃĥÄ³":7616,"Â°Â¯Â¯Â¯Â¯Â±Â¯":7617,"ĠÂ¯Â¯Â¿Â¯Â»Â±Â¯Â¯":7618,"ĠÂ¯Â·Ã·Â¯":7619,"ĠÂ¯Â·Â·Â°Â¯Â¯Â¯Â¯":7620,"Ã·Â°Â¯Â¯Â¯":7621,"Ã·Â¯Ã·":7622,"Ã¯ÃıÄ¯Ã³":7623,"ĠÂ¯Â¯Â±Â¯Â»Â°Â¯Â¯":7624,"Â·Â¯Â·Â¯Â¯Â¯Â¯":7625,"Â¸Â¯Â¿Â±Â¯Â¯":7626,"ÃĵÃĩ":7627,"ÃĵÅĲ":7628,"ĠÂ¯Â¯Â·Â¯Â¯Â¿Â´Â¯":7629,"ĠÂ¯Â¯Â°Â¯Â°Â´Â¯Â¯":7630,"Ã±ÃĤ":7631,"Ã³Ã¹":7632,"ĠÂ¯Â¯Â¿Â¯Â¯ÃĹÂ±Â¯":7633,"ĠÂ¯Â±Â¿Â¯Â°Â¯Â¯Â¯":7634,"ĠÂ¯Â±Â¿Â¯Â¯Â¯Â°Â¯":7635,"ÃĳÄ¯Ãı":7636,"ĠÂ¯Â¯ÃĹÂ¸Â¯Â±Â°Â¯":7637,"ĠÂ¯Â¯Â¯Â°Â°Â¯Â°Â¯":7638,"ĠÄ¯Äħ":7639,"ĠÂ¯Â¯Â¯Â°Â¯ÃĹÂ±Â¯":7640,"ĠÂ¯Â¯Â¯Â±Â¯ÃĹÂ±Â¯":7641,"Ä±Ä·":7642,"ÅĹÃĢ":7643,"ĠÃıÃıÃģ":7644,"ÄĥÃģ":7645,"ÄĥÄ¯Ãĥ":7646,"ĠÂ¯Â¯Â¯Â±Â°Â±Â¯Â¯":7647,"ÄıÃĴ":7648,"Ã°Ã¹":7649,"ÂµÃ±":7650,"ĠÂ¯Â¯Â±Â·Â¯Â¿Â¯Â¯":7651,"ĠÂ¯Â¯Â±Â±Â¯Â·":7652,"Â±Â°Â¯Â¯Â°Â¯Â¯":7653,"ÃĦÃ¿":7654,"ĠÃ¯ÃıÅı":7655,"ĠÂ¯Â±Â°Â¯Â±Â±Â¯Â¯":7656,"ĠÂ¿Â´Â¯Â¯":7657,"ĠÂ¿Â¿Â±Â¯":7658,"ĠÂ¯Â¯Â¯Â·Â¯ÃĹ":7659,"ĠÂ¯Â¯Â°Â±Â¯Â¯Â¿Â¯":7660,"ĠÂ¯Â°Â¯Â¯Â¯Â¿Â¸Â¯":7661,"ÅĲÃ³":7662,"ĠÂ¯Â±Â°Â¯Â¯Ã·":7663,"ĠÂ¯Â±Â°Â¯Â¯ÃĹÂ·Â¯":7664,"ĠÂ·Â¿Â¯":7665,"ĠÂ¯Â¯Â¯Â·Ã·Â°Â¯Â¯":7666,"Â¯Â¿Â¯Â¯Â±Â¯":7667,"Å¿ÃĲ":7668,"ĠÃ¯Ã¯Ãĥ":7669,"ĠÂ¯Â¯Â´Â¯ÃĹÂ´Â¯Â¯":7670,"Â¯Â¯Â¿Â·Â°Â¯":7671,"ÄĩÃ¯":7672,"ÅĦÄ¯":7673,"ĠÂ¯Â¯Ã·Â°Â·Â°Â¯Â¯":7674,"ĠÂ¯Ã·Â¿Â¯Â±Â¯Â¯Â¯":7675,"ĠÂ¯Ã·Â´Â¯Â¯Â¯Â°Â¯":7676,"ĠÂ¯Â¯Â¯Â¯Â±Â·":7677,"ĠÂ¯Â¯Â¯Â¯Â±Â±Â±Â¯":7678,"Ã¯ÃĥÄ¯Ã¹":7679,"ĠÂ¯Â·Â¯Â·Â¯Â¿Â¯Â¯":7680,"ĠÂ¯Â·Â¯Â°Â±":7681,"ĠÂ¯Â¯Â¯Â¯ÃĹÂ¯Â¿Â¯":7682,"ĠÂ¯ÃĹÂ¯Â¯Â¯Â»Â¯Â¯":7683,"ĠÂ¯ÃĹÂ¯Â¯Â¯Â°Â°Â¯":7684,"ĠÂ¯Â¯Â»Â¯Â¿Â°Â¯Â¯":7685,"ÅĻÃ¯":7686,"ĠÂ¯Â¯Â¯Â´Â·":7687,"ĠÂ¯Â¯ÃĹÂ°Â¯Ã·":7688,"ĠÂ¯Â±Â¯Â¿Â¿Â¯Â¯Â¯":7689,"ĠÂ¿Â·Â¯Â¯Ã·Â°Â¯Â¯":7690,"ĠÂ¯Â¯Â¿Â±Â¯Â±Â±Â¯":7691,"ÃłÄ¯":7692,"Â¯Â¯Â±Â¯Â°Â¯":7693,"ĠÂ¯Â°Â¯Â¿Â¿Â¯Â¯Â¯":7694,"Â¯Â±Â·Â¯":7695,"Â¯Â±ÃĹÂ¯Â¯Â¯":7696,"ĠÂ¯Â¯Â·Â±Â·":7697,"ĠÂ¯Â¯Â·Â±Â·Â°Â¯Â¯":7698,"ĠÂ¯Â°Â°Â¯Â¯Â·Â°Â¯":7699,"ĠÂ¯Â¯ÃĹÂ±Â¯ÃĹ":7700,"ĠÂ¯Â¯Â¿Â·Â¯Â¸Â¯Â¯":7701,"ĠÂ¯Â¯Â¿Â·Â¯Ã·Â¯Â¯":7702,"ÄĻÄ¯":7703,"ĠÂ¯Â¯Â¿Â´Â·":7704,"Ã¯Ã°Ä¯Ãģ":7705,"ÅĩÃ¯":7706,"ĠÂ·Â¯Â¿Â¯Â¯Â·Â¯Â¯":7707,"ĠÂ·Â¯Â¯Â¯Â¯Â¸Â¯Â¯":7708,"ĠÂ·Â¯Â¯Â¯Â¯ÃĹÂ¯Â¯":7709,"ĠÂ¯Â·Â·Â¯Ã·Â¯Â¯Â¯":7710,"ĠÂ¯Â¿Â±Â±Â¯Â¯Â¯Â¯":7711,"Â°Â·Â¸Â¯Â¯":7712,"ĠÂ¯Â»Â¯Â¯Â¯Â·Â¯Â¯":7713,"ĠÂ¯Â»Â¯Â¯Â¿Â¯Â¯Â¯":7714,"Â¯Â¯Â¿Â¯Â±Â¯Â¯Â¯":7715,"ĠÂ·Â·Â¯Â¯Â±Â¯Â¯Â¯":7716,"ĠÂ¯Â¿Â¸Â¯Â¯Ã·Â¯Â¯":7717,"ĠÂ¯Â¯ÃĹÂ´Â¿Â·Â¯Â¯":7718,"Â¯Â»Â·Â¯Â¯":7719,"ĠÂ¯Â·Â·Â¯Â¯Ã·Â¯Â¯":7720,"ĠÂ¯Â¯Â±Â±Â¯ÃĹÂ¯Â¯":7721,"ĠÂ¯ÃĹÂ´Â¯Â¯Â¿Â¯Â¯":7722,"ĠÃ·Â±Â¯Â¯Â¯Â¯Â¯Â¯":7723,"Ä¶Ã¯":7724,"ĠÂ¯Â¯Â¯Â±Â¿Â»Â¯Â¯":7725,"Ã¿Ã°Ãģ":7726,"ĠÂ·Â¯Â¯Â¯Â¯Â¯Â´Â¯":7727,"ĠÂ·Â·Â¯Â¿Â¯Â¯Â¯Â¯":7728,"ĠÂ¯Â¯Â·Â¯Ã·Â¿Â¯Â¯":7729,"Â¯Â¯Â´Â±Â¯Â¯":7730,"ĠÂ¯Â¯Â¯Â¸Â¯Â¯Â¸Â¯":7731,"Ä¢":7732,"ĠÂ°Â¯Â·Â¯Â¯":7733,"ĠÃĥÃ¯":7734,"Â¯Â¯Â¯Â¸Â°Â¯Â¯":7735,"Â¯Â¯Â¯Â»Â±Â¯Â¯":7736,"Ä¯Åĭ":7737,"Â·Â´Â¯Â¯Â¯Â¯Â¯":7738,"ÃıÃ¼":7739,"Â¯Â¯Â¯Â¯ÃĹÂ´Â¯":7740,"Â¿Â¿Â±Â¯Â¯":7741,"Â·Â¯Â¯Â¸Â¯Â¯Â¯":7742,"Â·Â¯Â¯Ã·Â±Â¯":7743,"ĠÂ¯Â¯Â¯Â±Â°Â¯Â°Â¯":7744,"Â¿Â¯Â¯Ã·Â·Â¯":7745,"Â±Â¯Ã·Â°Â¯":7746,"ĠÂ¯Â¯Â¿Â¿Â¿Â¯Â¯Â¯":7747,"ÅıÅĲ":7748,"ÅıÃĪ":7749,"Ã¿Ãī":7750,"ÃĥÄ¸":7751,"ÃĥÄ¯Ãĳ":7752,"ĠÂ¯Â¿Â±Â¿":7753,"ĠÂ¯Â¯Â¿Â¯Â·Â¯Â°Â¯":7754,"Â´Â¯Â¯Â°Â°Â¯":7755,"Ã¯ÃıÂµ":7756,"Ã¯ÃıÄ¯Ãĥ":7757,"Ã¯ÃıÄ¯Ã±":7758,"Â·Â¯Ã·Â·Â¯Â¯":7759,"Â¸Â¿Â¯":7760,"Â¯Â¯Â°Â¯Â¯Â±Â¯":7761,"ÃĵÄ³":7762,"ĠÂ¯Â¯Â·Â¯Â¯Â±Â·Â¯":7763,"ĠÂ¯Â¯Â·Â¯Â¯ÃĹÂ·Â¯":7764,"ĠÂ¯Â¯Â¿Â¯Â¯Â¿Â¸Â¯":7765,"ĠÂ¯Â¯ÃĹÂ»":7766,"ÃĲÄ¿":7767,"ĠÂ¯Â¯Â¯Â°Â·Â¯":7768,"ÃĹÂ¯Â¯Â¯Â·Â¯":7769,"ĠÄ¯Å³":7770,"ĠÄ¯Å·":7771,"ĠÂ¯Â¯Â¯Â°Â¯Ã·Â±Â¯":7772,"ĠÂ¯Â¯Ã·Â¸Â¯Â¯Â°Â¯":7773,"ĠÂ¯Â¯Ã·Â°Â¯Â¯Â¿Â¯":7774,"ĠÂ¯Â¯Â¯Â±Â¯Â¸Â°Â¯":7775,"ĠÂ¯Â¿Â¯Â¯ÃĹÂ´Â¯Â¯":7776,"ĠÂ¯Â¿Â¯Â¯Â¯Â¸Â°Â¯":7777,"ĠÂ¯Â¿Â¯Â¯Â¯Ã·Â´Â¯":7778,"ÅĹÄ¯Ã¯":7779,"ÅĹÃ°":7780,"ÅĹÅ£":7781,"ĠÃıÃıÃĥ":7782,"ĠÃ¯Ä¸":7783,"ÄĥÃĲ":7784,"ÅĥÄ¹":7785,"ĠÂ¯Â·Â¯Â¯Â¯Â°":7786,"ĠÂ¯Â¯Â¯Â±Â±Â¿Â¯Â¯":7787,"Ã°Ã¯Ãı":7788,"Ã°Ã³":7789,"Ã°Ã¸":7790,"ÃŁÃĲ":7791,"ĠÃ¯ÃıÃĩ":7792,"Â»Â¿Â¯Â¯":7793,"ĠÂ¯Â¿Â·Â¯Â±":7794,"ĠÂ¯Â±Â¯Â¯Â¯Â´Â°Â¯":7795,"ĠÂ¯Â¯Â¯Â·Â¯Ã·":7796,"ĠÂ¯Â¯ÃĹÂ¯Ã·Â´Â¯Â¯":7797,"ĠÂ¯Â¯ÃĹÂ¯Â±Â·Â¯Â¯":7798,"Â¯Â±Â¯Â¯Â±Â¯":7799,"Â¯Â¯Â·Â¶Â¯Â¯":7800,"ÅĢÃģ":7801,"ĠÂ¯Â¿Â·Â¯Â¯Ã·Â±Â¯":7802,"ĠÂ¯Â¿Â·Â¯Â¯ÃĹÂ·Â¯":7803,"Ã·Â°Â¯Â¯Â°Â¯":7804,"ĠÂ¯Â±Â°Â¯Â¯Â¿Â¿Â¯":7805,"Ä¯Ä¯Ã³":7806,"Ä¯Ä¯Ã¹":7807,"ÅģÄ¿":7808,"ÅģÃģ":7809,"ĠÂ¯ÃĹÂ±Â¯Â¯Â¯":7810,"ĠÂ¯ÃĹÂ¯Â°Â¯Â¯Â¯Â¯":7811,"ĠÂ¯ÃĹÂ´Â¯Â¯Â¯Â°Â¯":7812,"Ã¸Ä°":7813,"ĠÂ¯Â¯Â¯Â¿Â±":7814,"ĠÂ¯Â¯Â±Â°ÃĹÂ°Â¯Â¯":7815,"ĠÂ¯Â¯Â±Â¯Â¯Â¯ÃĹÂ¯":7816,"ÅĺÃı":7817,"Â¯ÃĹÂ±Â°Â¯":7818,"ĠÂ¯Â¯Â¯Â¯Â°Â°Â°Â¯":7819,"ÅĶÃı":7820,"Ä¯ÂµÄ¯Ã¯":7821,"Â¯Ã·Â±Â¯Â¯Â¯":7822,"ĠÂ¯Â°Â°Â¯Â¿Â¸Â¯Â¯":7823,"ĠÂ¯Â°Â°Â¯Â±Â±Â¯Â¯":7824,"ÃıÃ±Ãĵ":7825,"ÃıÃ±Ãĳ":7826,"ĠÂ¯Â±Â°Â·Â¯Â¯Â¯Â¯":7827,"Â¯Â°Â¯ÃĹÂ¯Â¯":7828,"ĠÂ¯Â±Â¯Â±Â¯Â°Â¯Â¯":7829,"ĠÂ¯Â±Â¯Â±Â·Â¯Â¯Â¯":7830,"ĠÂ¯Â¿Â°Â¯ÃĹÂ°Â¯Â¯":7831,"ĠÂ¯ÃĹÂ¯Â¯Â·Â°Â¯Â¯":7832,"ĠÂ¿Â·Â¯Â¯ÃĹÂ°Â¯Â¯":7833,"Ä¯ÃĻÅĢ":7834,"ĠÂ¯Â¯ÃĹÂ±Â·Â°Â¯Â¯":7835,"ĠÂ¯Â¯Â¿Â·Â¯Ã·":7836,"ÃķÃı":7837,"ĠÂ¯Â¯Â°Â¯Â·Â¸Â¯Â¯":7838,"ĠÂ¯Â·Â°Â¯Â¸Â¯Â¯Â¯":7839,"ĠÂ¯Â¯Â¸Â¯Â¯Â·Â´Â¯":7840,"ĠÂ¯Â¯Â¿Â´Â¯Â·Â°Â¯":7841,"ÃıÂºÄ¯Ã¯":7842,"ĠÂ¯Â·Â±Â¯Â·Â±Â¯Â¯":7843,"ĠÂ¯Â¿Â¸Â¯Â¿":7844,"ĠÂ¯Â¯Â¯Â¯Â¯Â±Â¸Â¯":7845,"Ä¿Ä±Ä¯":7846,"ĠÂ°Â¯Â¿Â¯":7847,"ĠÂ¯Â´Â¯Â¯ÃĹÂ¯Â¯Â¯":7848,"ĠÂ±Â¯Â¯Â¯Â¿":7849,"ĠÄ·Ã³":7850,"ÃıÄ´Ãĵ":7851,"ĠÂ±Â¯Â¯Â·Â¯Â¯Â¯Â¯":7852,"ĠÃĹÂ¯Â¯Â¯Â¯":7853,"ĠÂ¯Â¯Â¿Â¯ÃĹÂ¿Â¯Â¯":7854,"Â°Â¿Â¯Â°Â¯":7855,"Ã¯Ã²Ä¯":7856,"ĠÂ·Â±Â¯Â¯Â·Â¯Â¯Â¯":7857,"Â¿Â¯Â¯Ã·Â¸Â¯Â¯":7858,"Â¿Â¿Â¸Â¯Â¯Â¯":7859,"ĠÂ¯Â±Â°Â¿Â¸Â¯Â¯Â¯":7860,"ĠÂ¯Â¯Â¯Â°Â¯Â¯Â¯Â±":7861,"ĠÂ°Â¯Â¯Â¯Â¯Â¯Â±Â¯":7862,"Å½":7863,"ĠÂ°Â¯Â¯Â·Â¯":7864,"ĠÃ·Â±Â¯":7865,"ĠÂ¯Â¯Â¯Â¯Â·Â¯Â¯Â·":7866,"Â±Â¿Â¯Â¯Â¯Â¯Â¯":7867,"Â±Â»Â¯Â¯Â¯":7868,"Â°Â»":7869,"ĠÂ¯Â¯Â¯Â¯Â¯Â¿Â¯":7870,"Â·Â±Â¯Â°Â¯Â¯":7871,"Â¿Ã·":7872,"Â¿Â»Â¯":7873,"Â±Â¯ÃĹÂ´Â¯":7874,"Â±Â¯Â°Â±Â¯Â¯":7875,"ĠÂ¯Â¯Â·Â´Â¯Â¯":7876,"ĠÂ¯Â¯Â·Â»":7877,"ĠÂ¯Â¯Â·Â¶Â¯Â¯Â¯Â¯":7878,"ĠÂ¯Â¯Â¿Â¿Â¯Â°Â¯Â¯":7879,"ĠÂ¯Â¯Â¿Â¸Â¯Â¯Â·Â¯":7880,"Â±Â¯Â¯Â¯Â¿Â·Â¯":7881,"ÅıÅĻ":7882,"Ã¿Ã°Ãı":7883,"Â´Â±Â°Â¯Â¯":7884,"ÃĹÂ´":7885,"ÃĹÂ¯Â¿Â´Â¯Â¯":7886,"ĠÂ¯Â¯Â·Â¯Â»Â±Â¯Â¯":7887,"ĠÂ¯Â¿Â¯Â¿Â°Â¯Â¯Â¯":7888,"ĠÂ¯Â¿Â¶Â¯Â¯Â¯Â¯Â¯":7889,"Ä°Åģ":7890,"Â·Â¯ÃĹÂ°Â¯Â¯":7891,"Ã±Åı":7892,"Ã³ÃıÄ¯":7893,"Ä·ÃĦ":7894,"ĠÂ¯Â±Â¿Â¯Â¯Â¿Â¯Â¯":7895,"ĠÂ¯Â±Â·Â°":7896,"ĠÂ¯Â±Â¿Â°Â¯Â¯Â¯Â¯":7897,"ĠÂ¯Â±Â´Â¯Â°Â¯Â¯Â¯":7898,"Ä³ÄĹ":7899,"ÃĹÂ¯Â¯Â¯Â±Â¯Â¯":7900,"ĠÄ¯ÃıÃ¯":7901,"ĠÄ¯Åĭ":7902,"ĠÂ¯Â¯Â¯Â°Â¯Â¸Â°Â¯":7903,"ĠÂ¯Â¯Ã·Â·Â¯Â·Â¯Â¯":7904,"Ä±ÃĲ":7905,"Ä±ÃĢ":7906,"ÃĹÂ¯Â¯Â·Â´Â¯":7907,"Å¯Ã¸":7908,"ĠÃıÃ°":7909,"ĠÃ¯Ãĩ":7910,"ĠÃ¯Äħ":7911,"ĠÂ¯Â¯Â¯Â¯Â·Â·Â°Â¯":7912,"ĠÂ¯Â·Â¯Â¯Â±Â¿Â¯Â¯":7913,"ÅĥÄ¯Ãĵ":7914,"ĠÂ¯Â°Â·Â¯Â´Â¯Â¯Â¯":7915,"ĠÂ¯Â°Â´Â¯Â·Â¯Â¯Â¯":7916,"Ã°Äı":7917,"Ã°Ãĩ":7918,"ĠÂ¯Â¯Â±Â·Â¯Â·Â¯Â¯":7919,"ÃŁÄ¿":7920,"ÃŁÄ·":7921,"ÃĩÄ¿":7922,"ĠÂ¯Â±Â¯Â¯Â°Â¿Â¯Â¯":7923,"Â¸Â¯Ã·Â´Â¯Â¯":7924,"Â¸Â¯Ã·Â¸Â¯Â¯":7925,"ĠÂ¯Â¯Â°Â±Â¯Â¯Â±Â¯":7926,"Â¯Â·Â¯Â¯Â°Â¯":7927,"ÃĹÂ°Â¯Â¯Â·Â¯Â¯":7928,"ÅĲÂµ":7929,"ÂºÃĵ":7930,"Å¿Âµ":7931,"ĠÃ¯Ã¯Ã¿":7932,"ÃıÃģÄ¯Ãģ":7933,"ĠÂ¯Â¯Â¸Â¯Â¿Â¸Â¯Â¯":7934,"Ã¸Ãĵ":7935,"ÄĩÄ¯":7936,"ĠÂ¯Â¿Â¯Â°Â·Â¯Â¯Â¯":7937,"ĠÂ¯Ã·Â±Â¯Â¯Ã·Â¯Â¯":7938,"ĠÂ¯Ã·Â´Â¯Â±Â¯Â¯Â¯":7939,"ÃĽÃĥ":7940,"ĠÂ¯Â·Â¯Â°Â¿Â¯Â¯Â¯":7941,"Ä¯ÂµÅı":7942,"ĠÂ¯Â¯Â¯Â¯ÃĹÂ°Â°Â¯":7943,"ĠÂ¯Â¿Â°Â¯Â¯Â¸Â°Â¯":7944,"Â¯Â°ÃĹ":7945,"Â¯Â¯Â°Â¯Â·Â¯":7946,"Ä¯ÄģÃı":7947,"Â¯Â¯Â¯Â·Â·Â¯Â¯":7948,"ÃĹÂ¯Â¿Â¯":7949,"ĠÂ¯Â¯Ã·Â°Â¯Ã·Â´Â¯":7950,"Ä»Ãı":7951,"Å±Ãĥ":7952,"ĠÂ¯Â¿Â°Â¯Ã·":7953,"ĠÂ¿Â·Â¯Â¯Ã·Â¯Â¯Â¯":7954,"Â¯Â±Â°Â¿Â¯Â¯Â¯":7955,"Ã¯Ã±Ä¯Ã¯":7956,"ĠÂ¿Â¯Â¯Â¯Ã·Â´Â¯Â¯":7957,"ĠÂ¯Â¯Â·Â±Â¿Â¸Â¯Â¯":7958,"ĠÂ¯Â¯ÃĹÂ±Â¿Â´Â¯Â¯":7959,"ÆıÃ°":7960,"ĠÂ¯Â¯Â¿Â°Â¯Â±Â±Â¯":7961,"Ã¯Ã³Ä¯Ã¯":7962,"ĠÂ¯Â¿Â°Â¿Â¯Â¯Â¯Â¯":7963,"ĠÂ¯Â¯Â¯Â¸Â¿":7964,"ÅıÂµÃ¯Ãı":7965,"Å°Ãĵ":7966,"ĠÂ¯Ã·Â¯Â¯Ã·Â´Â¯Â¯":7967,"ĠÂ±Â·Â¯Â¯":7968,"ĠÂ·Â¯ÃĹÂ¯":7969,"ĠÂ·Â¯Â·Â¯Â±Â¯Â¯Â¯":7970,"ĠÂ¿Â¿Â¯Â¯Ã·Â¯Â¯Â¯":7971,"ĠÂ¿Â¯Â¯Â¯Â¯Â¿Â·Â¯":7972,"Ã¯Ä°Ã¯":7973,"ĠÂ¯Â¯Â¿Â¸Â¿Â¯Â¯Â¯":7974,"ĠÂ¯Â¯Â¿Â¸Â¿Â·Â¯Â¯":7975,"ĠÂ¯Â¯Â·Â±Â¯Â·Â°Â¯":7976,"ĠÂ¿Â¯Â¯Â·Â·Â¯Â¯Â¯":7977,"ĠÂ¯Â±Â±Â¿Â¯Â¯Â¯Â¯":7978,"ĠÂ¯Â·Â¯Â¯Â¯Â¯Â¸Â¯":7979,"ĠÂ°Â¯Â·Â¯Â±Â¯Â¯Â¯":7980,"ĠÂ¯Â´Â¯Â¯Â·":7981,"Ä¿Ã±Ä¯":7982,"ĠÂ¯ÃĹÂ°Â¯Â¿Â·Â¯Â¯":7983,"ĠÂ¯Â·Â´Â¯Â¯Â·":7984,"ĠÂ¯Â¯Â·Â·Â¯Â±Â°Â¯":7985,"ĠÂ¯Â¯Â°Â¯ÃĹÂ·Â¯Â¯":7986,"ĠÂ¿Â¿Â¯Â¯Â¯Â¯Â±Â¯":7987,"ĠÂ¿Â¿ÃĹÂ¯":7988,"ĠÂ¯Ã·Â´Â¯Â¯ÃĹÂ¯Â¯":7989,"ĠÃ·Â¯Â¯Â¯Â¯Â°Â¯Â¯":7990,"ĠÂ¯Â¿ÃĹÂ¯Â´Â¯Â¯Â¯":7991,"ĠÂ¯Â°Â¯Â¯Â·Â¿Â¯Â¯":7992,"Â±Â¯Â¯Ã·Â·Â¯":7993,"Ä¯Ä¯Ã¯Ä¯":7994,"Â°Â¯Ã·Â¸Â¯":7995,"Ä·Ã³Ãģ":7996,"ÃıÃ²Ã¯":7997,"ĠÂ¯Â¯Â¯Â¯Â¸Â¯Â°Â¯":7998,"ĠÂ¯Â°Â¯Â¿Â´Â¯Â¯Â¯":7999,"ÄĿ":8000,"ĠÃĹÂ°Â¯Â¯":8001,"ĠÄĵ":8002,"Ã¯Åħ":8003,"Ã¯Ã¶":8004,"Â°Â¿Â¯Â¯Â¯Â¯Â¯":8005,"ĠÂ¯Â¯Â¯Â¯Â¯Â°Â¯Â·":8006,"ÃıÅ¡":8007,"ÃıÄ·Ä¯":8008,"Â¯Â¯Â¯Â¯ÃĹÂ±Â¯":8009,"Â¯Â¯Â¯Â¯Â±Â°":8010,"Â¿Â¿Â·Â¯Â¯":8011,"Â¿Ã·Â¯":8012,"Â°Â¯Â¯ÃĹÂ·Â¯":8013,"Â±Â¯Â¯Â¿Â°Â¯Â¯":8014,"Â±Â¯Â¯Â¶Â¯Â¯":8015,"Â·Â¯Â¯ÃĹÂ´Â¯":8016,"Â°Â¯Â°Â±Â¯":8017,"ĠÂ¯Â¯Â·Â¶":8018,"Ã¿Äģ":8019,"Ã¿ÅĶ":8020,"Â´Â¯Â¿Â°Â¯Â¯":8021,"Â´Â·Â±Â¯Â¯":8022,"Â´Â¿Â´Â¯Â¯":8023,"ÃĹÂ¯Â°Â¯":8024,"ÃĹÂ¯Â·Â¸Â¯Â¯":8025,"ÃĥÄ·":8026,"ĠÂ¯Â¯Â¯Â¯Â¯Â¯Â°":8027,"ĠÂ¯Â¿Â¿Â¯Â¯Â¯":8028,"ĠÂ¯Â¿Ã·Â¯Â¿Â¯Â¯Â¯":8029,"ĠÂ¯Â¿Â¯Â¯Â¯Â¯Â¯Â°":8030,"ĠÂ¯Â·Â´Â¯Â¯Â¯":8031,"ĠÂ¯Â·Â±Â¯Â¯Â¯Â·Â¯":8032,"ĠÂ¯Â·Â¿Â¯Â¯Â±Â°Â¯":8033,"Ã·Â±Â¯Â¯Â¯Â¯Â¯":8034,"Ã·Â¯Ã·Â¯Â¯Â¯":8035,"Â¸Â¯Â¿Â±Â¯":8036,"Â¸Â¯Â¿Â¿Â¯":8037,"ÃģÂµ":8038,"ĠÂ¯Â¯Â·Â¯Â¯Â¿Â¸Â¯":8039,"ĠÂ¯Â¯Â°Â¯Â¯Â°Â·Â¯":8040,"Ä·Åģ":8041,"ĠÂ¯Â±Â°Â°Â¯":8042,"ĠÂ¯Â¯ÃĹÂ±Â¯Â¯Â¿Â¯":8043,"ÃĲÃ¯Ãı":8044,"ÃĢÄ±":8045,"ĠÄ¯Ä·Ã¯":8046,"ĠÂ¯Â¯Â¯Â°Â¯Â¿Â´Â¯":8047,"ĠÂ¯Â¿Â¯Â¯Â¯Â´Â°Â¯":8048,"ÅĹÃ¯Ã¯":8049,"Å¯ÃıÄ¯":8050,"ĠÃıÃŁ":8051,"ĠÃ¯ÅĦ":8052,"ĠÃ¯ÅıÃ³":8053,"ĠÂ¯Â¯Â¯Â¯Â·ÃĹÂ°Â¯":8054,"Ã¹Ãĥ":8055,"ÄĥÃ¹":8056,"ĠÂ¯Â°Â±Â¯Â¿Â·Â¯Â¯":8057,"ĠÂ¯Â°Â±Â¯Â¯Â¯Â±Â¯":8058,"ĠÂ¯Â°Â¿Â°Â¯Â¯Â¯Â¯":8059,"ĠÂ¯Â·Â¯Â¯Â¯ÃĹÂ±Â¯":8060,"ĠÂ¯Â¯Â¯Â±Â±Â±Â¯Â¯":8061,"Â¯Â·Â±":8062,"ĠÄ¯Ã¯Ãĩ":8063,"Â·Â¯Â¯Â¯Â¯Â·Â¯":8064,"ÂµÃ¯Ãģ":8065,"ÃĩÃĻ":8066,"Ã·Â¯Â¯Â·Â´Â¯Â¯":8067,"ĠÂ¯Â±Â¯Â¯Â¯Â°Â±Â¯":8068,"ĠÂ¯Â±Â°Â¯Â»Â¯Â¯Â¯":8069,"ĠÂ¯Â°Â¯Â¯Â¯Ã·Â´Â¯":8070,"ĠÂ¯Â¿Â·Â¯Â¯Â¸Â°Â¯":8071,"ĠÂ¯Â¿Â·Â¯Â¯Ã·Â¸Â¯":8072,"Ã¯Ã¯Ä³":8073,"ĠÂ·Â±Â±Â¯":8074,"Â¯Â¿Â¯Â¯Â°":8075,"ÅģÄ¯Ãĵ":8076,"Ã¯ÃĲÄ¯Ãģ":8077,"ÄĹÄ°":8078,"ÄĹÃĲ":8079,"Â¯Â¯Â¿Â´Â¯Â¯Â¯":8080,"Â¯Â¯Â¿Â°Â¸Â¯Â¯Â¯":8081,"Ä¯Ã³Ä¯":8082,"ĠÂ¯Â¯Â¿Â¯Â¯Â¯Ã·Â¯":8083,"ĠÂ¯Â¯Â·Â°Ã·":8084,"ÃıÃ¯Ãĺ":8085,"ĠÂ¯Â¯ÃĹÂ°Â¿Â¸Â¯Â¯":8086,"Â¯ÃĹÂ¯Â¯Â·Â¯Â¯":8087,"ĠÂ¯Â¯ÃĹÂ¯Â¯ÃĹ":8088,"Â¿Â°Â¯Â¯Â±Â¯":8089,"Ä¯ÃĵÃģ":8090,"ĠÂ¯Â¯Â¯Â´Â¯Â±Â±Â¯":8091,"Ã¯ÃĻÄ¯":8092,"Ã¯ÃĻÃĦ":8093,"ĠÂ¯Â·Â¯Â±Â¯Â°Â¯Â¯":8094,"ÅıÃĥÄ¯":8095,"Å³Ãĳ":8096,"ĠÂ¯Â¯Â»Â¯Â·":8097,"ĠÂ¯Â¿Â°Â¯Â¯Â·Â´Â¯":8098,"Â¯Â°Â¯Â¿Â¯":8099,"ÃıÄ¯Ä³":8100,"Â¶Â¯Â¯Â·Â¯Â¯":8101,"ĠÂ¯Â±Â¯Â´":8102,"Â¯Â±Â¯Â·Â¯Â¯Â¯":8103,"ĠÂ¯Â¯Â·Â¯Â¯Â¯Â»Â¯":8104,"ĠÂ¯Â¯Â¸Â¯Â¯ÃĹ":8105,"ĠÂ¯Â¯Â¸Â¯Â¯Â¿Â·Â¯":8106,"ĠÂ¯Ã·Â°Â¯Â¯Â´Â¯Â¯":8107,"Â¯Â¯Ã·Â¯Â¯Â¯Â¯":8108,"ĠÂ¯Â¯Â¯Â¸Â±Â¯Â¯Â¯":8109,"ĠÂ¯Â±Â±Â¯Â¯Â¸Â°Â¯":8110,"ĠÂ·Â¯Â¿Â¯Â¯":8111,"Ã¯ÂµÄ¯Ã¯":8112,"Â¯Â¿Â¯ÃĹÂ¯Â¯Â¯":8113,"ĠÂ·Â¯Â¯Â¯Â¯ÃĹÂ´Â¯":8114,"ĠÂ¯Â¸Â°Â¯Â¿Â¯Â¯Â¯":8115,"ĠÂ¿Â·Â¯Â±Â¯Â¯Â¯Â¯":8116,"Ä·ÂµÃ¯Ãĵ":8117,"Ä·ÂµÃ¯ÃĶ":8118,"Â±Â·Â¿Â¯Â¯Â¯":8119,"Ã¯Ä°Ãĥ":8120,"ÄµÃı":8121,"Â±Â¯Â¿Â·Â¯Â¯Â¯":8122,"ĠÂ¯Â¯Â¿Â¸Â¯Â·":8123,"ĠÂ¿Â¯Â¯Â°Â¯Â¿Â¯Â¯":8124,"ĠÂ±Â¯Ã·Â¯":8125,"Å¯ÂµÃı":8126,"ĠÂ¯ÃĹÂ±Â¯Â¯Â´Â¯Â¯":8127,"ĠÂ°Â°":8128,"Â°ÃĹÂ·Â¯Â¯":8129,"ĠÂ¯Â¿Â¯Â¯Â¯Â·Â¸Â¯":8130,"ĠÄıÃ¯":8131,"ĠÂ¯Â¯Ã·Â¸Â¯Â·":8132,"Â°Â¯Â¿Â´Â¯Â¯":8133,"Â°Â¯Â¿Â´Â¯":8134,"ĠÃŁÃı":8135,"Ã¯ÅĶÃģ":8136,"ĠÂ¯Â±Â´Â¯Â¸Â¯Â¯Â¯":8137,"ĠÂ¯Â¯Â¯Â¯Â¶Â°Â¯Â¯":8138,"ĠÂ¯Â¯Â¯Â¯Â°Â¯Â¯Â°":8139,"ĠÂ¯Â¯Â¯Â±Â¯Â¯Â¯Â°":8140,"ĠÂ¿Â·Â°Â¯Â±Â¯Â¯Â¯":8141,"Å¶":8142,"ĠÂ±Â¿Â¯Â¯Â¯":8143,"ĠÃļ":8144,"ĠÂ¿Â¯Â¯Â·Â¯Â¯":8145,"Â¯Â»Â¯Â¯Â¯Â¯":8146,"Â¯Â¯Â±Â¯Â·Â¯Â¯":8147,"Ã¯Äµ":8148,"Ã¯Å´":8149,"Ã¯Åĭ":8150,"Ä¯Åµ":8151,"Â·Â±Â±Â¯Â¯":8152,"ÃıÄ¯Äĥ":8153,"ÃıÃĸ":8154,"Â¯Â¯Â¯Â¯Ã·Â¸Â¯":8155,"Â¿Â´Â¯Â¯Â¯Â¯Â¯":8156,"Â·Â¯Â¯Â°":8157,"Â·Â¯Â¯Â°Â°Â¯":8158,"Â¿Â¯Â¯Â·Â±Â¯Â¯":8159,"Â°Â¯Â¸Â¯":8160,"Â¿Â¯Â¯Â¯ÃĹÂ±Â¯":8161,"Â¿Â¯Â¯Â¯Ã·Â¸Â¯":8162,"ĠÂ¯Â¯Â·Â¿Â±Â¯Â¯Â¯":8163,"Â·Â¯Â¯Â¯Â¸Â¯":8164,"ÅıÄĳ":8165,"Ã¿ÃĳÄ¯":8166,"Â´ÃĹÂ¯Â¯Â¯":8167,"ÃĹÂ¸Â¯Â¯Â¯":8168,"ÃĹÂ°Â¯Â¯Â¯Â±Â¯":8169,"ÃĥÃĺ":8170,"ÃĥÃĩ":8171,"ĠÂ¯Â¯Â·Â¯ÃĹÂ·Â¯Â¯":8172,"ĠÂ¯Â¿Â¿Â¯Â¯Â±Â°Â¯":8173,"ĠÂ¯Â¿Â¿Â°Â¯Â¯Â¯Â¯":8174,"ĠÂ¯Â¿Ã·Â±Â¯Â¯Â¯Â¯":8175,"ĠÂ¯Â¯Â¿Â¯Â¸Â±Â¯Â¯":8176,"ĠÂ¯Â·Â¯Â°Â¯Â¯Â±Â¯":8177,"Ä¿Ä¯Ãı":8178,"Ä¯Ã¯Ã±":8179,"Â¸Â±Â¯Â¯Â¯":8180,"ÃģÄ¯Âµ":8181,"Ã³Äı":8182,"Ä·Ä°":8183,"ĠÂ¯Â±ÃĹ":8184,"ÃĳÃ¹":8185,"ÃĳÄ¯Ãģ":8186,"ÃĢÃ°":8187,"ÃĹÂ¯Â¯Â¯Â·Â¯Â¯":8188,"ĠÄ¯Åĩ":8189,"ĠÂ¯Â¯Ã·Â¸Â¯Â¯":8190,"ĠÂ¯Â¯Ã·Â¶Â¯":8191,"ĠÂ¯Â¯Â¯Â±Â¯Â±":8192,"ĠÂ¯Â¿Â¯Â¯Â°Â±Â¯Â¯":8193,"Â±Â°Â¯Â·":8194,"ÃĹÂ¯Â¯Â¸Â¯Â¯":8195,"Å¯Å¯":8196,"Å¯ÃĦ":8197,"Å¯ÃĽ":8198,"Å¯ÄĻ":8199,"ĠÃıÃħ":8200,"ĠÃ¯ÄĹ":8201,"ÅĥÃ¿":8202,"ĠÂ¯Â°Â·Â¯Â±Â¯Â¯Â¯":8203,"Â´Â¯Ã·Â¸Â¯":8204,"ĠÂ¯Â·Â¯Â¯Â¯Â¸Â°Â¯":8205,"ĠÂ¯Â¯Â¯Â±ÃĹÂ±Â¯Â¯":8206,"ÄıÄ±":8207,"Ã°Ã¯Ãĳ":8208,"ÃĶÃ¿":8209,"ÂµÃ¿":8210,"ÃĺÄ¿":8211,"ĠÃ¯ÃıÄ·":8212,"ĠÃ¯ÃıÅĵ":8213,"Â»Â¯Â±Â°Â¯":8214,"Â¿Â·Â¯Â¯Â±Â¯Â¯":8215,"Â³Â³Â²":8216,"Â¸Â¯Â±Â¯":8217,"Â¯Â¯Â¯Â°Â¯Â·Â¯":8218,"ĠÂ¯Â¯Â°Â±Â¯Â´Â¯Â¯":8219,"Â¯Â¯Â·Â±Â°Â¯":8220,"ĠÂ¯Â¯Â¿Â°Â±":8221,"Ä¹Ãģ":8222,"ÅĳÂµ":8223,"Ã¯ÃĵÃ¯Ãĳ":8224,"ĠÂ¯Â¯Ã·Â¯ÃĹÂ±Â¯Â¯":8225,"ĠÂ¯Â¯Ã·Â¯Â±Â±Â¯Â¯":8226,"ĠÂ¯Â¯Â¯Â·Â°":8227,"ĠÂ¯Â¯Â¯Â·Ã·":8228,"ĠÂ¯ÃĹÂ±Â¯Â¯Â¯Â±Â¯":8229,"ĠÂ¯Â¯Â¸Â°Â¯Â±Â¯Â¯":8230,"Â¯Â¯Â¿Â·":8231,"Â¯Â¯Â¿ÃĹÂ¯Â¯":8232,"ÄĩÃĵ":8233,"Ä¸Ä¯Ã¯":8234,"Ä¸Âµ":8235,"ĠÂ¯Â¿Â¯Â´Â¯Â¯Â¯Â¯":8236,"ĠÂ¯Â¯Ã·Â°Â±Â¯Â¯Â¯":8237,"Ã¯ÃĳÄ¯Ã¿":8238,"Ä¯Ã¹ÃĶ":8239,"ÃıÃıÃĢ":8240,"ĠÂ¯Ã·Â±Â¯Â¯Â¯":8241,"ĠÂ¯Ã·Â¸Â¯Â¯Â¯":8242,"ÃıÃ¯Ä±":8243,"ÃıÃ¯Ã°":8244,"ĠÂ¯Â¯ÃĹÂ°Ã·Â°Â¯Â¯":8245,"ĠÂ¯Â¯Â±Â°Â¯Â»Â¯Â¯":8246,"ĠÂ¯Â¯Â¯Â´Â¯Â·Â·Â¯":8247,"ĠÂ¯Â¯Â¿Â±Â·Â´Â¯Â¯":8248,"ĠÂ¯Â¯Â¯Â¯ÃĹÂ°":8249,"ĠÂ¯Â¯Â»Â¯Â±":8250,"ĠÂ¯Â±Â±Â¯Â·Â°Â¯Â¯":8251,"ĠÂ¯ÃĹÂ¯Â¯Â¿":8252,"ĠÂ¯Â¿Â±Â¯Â·Â±Â¯Â¯":8253,"ÃıÂµÃı":8254,"ĠÂ¯Â¯Â¯Â°Â¯Â¯Â±Â°":8255,"ÆıÄ¿":8256,"ĠÂ¯Â¯ÃĹÂ±Â¯Â·Â±Â¯":8257,"Ã§Ä¿":8258,"ĠÂ¯Â¯Â¿Â·Â¸Â¯Â¯Â¯":8259,"Â¯Â¯ÃĹÂ°":8260,"ĠÂ¿Â¯Â±Â¯Â¯Â°Â¯Â¯":8261,"ĠÂ·Â¯Â¸Â¯":8262,"ĠÂ·Â¯Â±Â¯Â¯Â±Â¯Â¯":8263,"ĠÂ¿Â¿Â¯Â¯Ã·":8264,"ĠÂ¿Â¿Â¯Â¯Ã·Â°Â¯Â¯":8265,"Â»Â¯Â»Â¯Â¯":8266,"ĠÂ¿Â¯Â¯Â¯Â¯Ã·Â¯Â¯":8267,"ĠÂ¿Â·Â¯Â°Â¯Â¯Â¯Â¯":8268,"Â±Â·Â°Â¯Â¯Â¯":8269,"Â±Â¯Â·Â±Â¯Â¯Â¯":8270,"ĠÅıÅı":8271,"ĠÂ¯Â¯Â¿Â¸Â¿":8272,"ĠÂ¿Â¿Â¯Â¯Â¯ÃĹ":8273,"Â¯Â¯Â¿Â¯Â¿Â¯Â¯":8274,"ÄºÃ¯":8275,"ĠÂ°Â¯Â±Â¯":8276,"ĠÂ·Â·Â¯Â¯Â¿Â·Â¯Â¯":8277,"ÃıÃ´Ã¯":8278,"Å¯ÃģÃı":8279,"ĠÂ±Â¯Â¯Â¯ÃĹÂ¯Â¯Â¯":8280,"ĠÂ¯ÃĹÂ°Â¯Ã·Â°Â¯Â¯":8281,"ĠÂ°Â·Â¯Â¯Â¯Â¯Â¯Â¯":8282,"ÅıÄ±Ãĵ":8283,"ĠÂ±Â°Â¯Â¯Â¿Â¯Â¯Â¯":8284,"ĠÂ±Â°Â¯Â¯Â·Â¯Â¯Â¯":8285,"ĠÂ¯Ã·Â´Â¯Â¯Â¿Â¯Â¯":8286,"ÆŁÃı":8287,"Â°Â¯Â¯Â·Â¸Â¯":8288,"ĠÂ¯Â´Â¯Â¯Â¯Ã·Â¯Â¯":8289,"ĠÂ¯Â±Â°Â¯Ã·Â·Â¯Â¯":8290,"ĠÂ°Â¯Â¯Â·Â¯Â¯Â¯Â¯":8291,"ĠÂ»Â±Â¯Â¯Â¯Â¯Â¯Â¯":8292,"ĠÂ¿Â·Â¯Â¯Â¯Â¯Â¿Â¯":8293,"Â·Â¯Â¯Â·Â¸Â¯":8294,"Â¿Â¯Â¯Ã·Â¿Â¯Â¯":8295,"ĠÂ¯Â¯Â¯Â±Â¯Â¯Â¯Â·":8296,"ĠÂ±Â¯Â¿Â¯Â¯Â¿Â¯Â¯":8297,"Ä¨":8298,"ĠÂ°Â¿":8299,"ĠÂ±Â¯Â¿":8300,"ĠÄ°Ä¯":8301,"Â¯Â¯Â¯Â±Â´Â¯Â¯":8302,"Â±Â°Â¿Â¯Â¯Â¯":8303,"Â±Ã·Â¯Â¯Â¯Â¯":8304,"Ã¯ÃĨ":8305,"Ã¯ÅĤ":8306,"Ä¯Ãį":8307,"ÃıÅıÃģ":8308,"Â¯Â¯Â¯Â¯ÃĹÂ¯Â¯Â¯":8309,"Â±Â¯Â¯Ã·Â¯Â¯Â¯":8310,"Â±Â¯Â¯Â´Â¯Â¯Â¯":8311,"Â·Â¯Â¯Ã·Â·Â¯":8312,"ĠÂ¯Â¯Â¯ÃĹÂ¯Â¯":8313,"Â¿Â¯Â¯Â°Â±Â¯":8314,"Â¿Â¯Â¯Ã·Â·Â¯Â¯":8315,"Â°Â¯Â±Â±Â¯Â¯":8316,"Â±Â¯Â»":8317,"ĠÂ¯Â¯Â·Â¸Â¯Â±Â¯Â¯":8318,"ĠÂ¯Â¯Â·Â¿Â¯Â¯Â±Â¯":8319,"ĠÂ¯Â¯Â¿Â¿Â¯Â·Â¯Â¯":8320,"Â´Â´Â¯Â¯Â¯":8321,"ĠÂ¯Â¯Â·Â¯Â·Â¯Â°Â¯":8322,"ĠÂ¯Â¯Â¯Â¯Â¯Â¯Â¿Â±":8323,"ĠÂ¯Â¯Â¯Â¯Â¯Â¯Â¿Â·":8324,"ĠÂ¯Â¯Â¯Â¯Â¯Â¯Â°Â±":8325,"ĠÂ¯Â¯Â¿Â¯Ã·Â·Â¯Â¯":8326,"Ä°Ä¯Ãı":8327,"Ä°Äĳ":8328,"ĠÂ¯Â·Ã·":8329,"ĠÂ¯Â·Â»Â¯Â¯":8330,"ĠÂ¯Â·Â¸Â¯Â¯Â·Â¯Â¯":8331,"ĠÂ¯Â·Â´Â¯Â¯Â¯Â±Â¯":8332,"ĠÂ¯Â·Â¯Â¿Â±Â¯Â¯Â¯":8333,"Ä¿Ä¯Ä¯":8334,"Ä¯Ã¯ÃĶ":8335,"Ä¯Ã¯ÃıÃĵ":8336,"Ã¯ÃıÃ¿":8337,"Ã¯ÃıÄ¯Ã¹":8338,"ĠÂ¯Â¯Â±Â¯Â´":8339,"ÃģÄ¯ÃŁ":8340,"ÃĵÅĢ":8341,"Ã±Âº":8342,"ĠÂ¯Â¯Â°Â¯Â¯Â¿Â¸Â¯":8343,"ĠÂ¯Â¯Â°Â¯Â¯Â»Â°Â¯":8344,"Ã³Ä¯Ä¯":8345,"Ã³ÃıÃı":8346,"ĠÂ¯Â¯Â¿Â¯Â¯Â¿Â´Â¯":8347,"ĠÂ¯Â±Â¿Â¯Â¯Â·Â¯Â¯":8348,"Ä³Ä¹":8349,"ÃĳÃ¯Ãı":8350,"ÃĳÄĢ":8351,"ÃĲÄ¯Ãı":8352,"ÃĢÃĥ":8353,"ÃĢÃĶ":8354,"ĠÂ¯Â¯Â¯Â°Ã·Â·Â¯Â¯":8355,"Â¯Â¿Â¯Â¯Â¯Â¿Â¯":8356,"ĠÄ¯ÃıÃı":8357,"ĠÄ¯Ã±Ãı":8358,"ĠÂ¯Â¯Ã·Â¯Â¯Â·Â±Â¯":8359,"ĠÂ¯Â¯Â¯Â±Â¯Â°Â±Â¯":8360,"ÅĵÄ¿":8361,"ÅĵÄ³":8362,"ĠÂ¯Â¯Â¯Â¯Â¿ÃĹ":8363,"ĠÂ¯Â¯Â¯Â¯Â¿Â¿Â±Â¯":8364,"ĠÂ¯Â¯Â¯Â¯Â¿Â°Â±Â¯":8365,"ÅĹÄ¿":8366,"ÅĹÄģ":8367,"Ã¹Ä¯Ä¯":8368,"ÅĥÄ±":8369,"Â¯Â¿Â»Â¯Â¯Â¯":8370,"ĠÂ¯Â°Â¿Â¯Â¯Â¿Â¯Â¯":8371,"ĠÂ¯Â°Â±Â°":8372,"ĠÂ¯Â°Â´Â¯Â±Â¯Â¯Â¯":8373,"ĠÂ¯Â°Ã·Â±":8374,"Â´Â¯Â°Â°Â¯Â¯":8375,"ĠÄ¯Ã¯Ä¹":8376,"ÄıÄĢ":8377,"Ã°Âº":8378,"ÂµÂµ":8379,"Ã·Â¯Â¯Â¯Â´Â¯Â¯":8380,"ĠÂ¯Â¯Â±Â¸":8381,"ĠÂ¯Â¯Â±Â´Â¯Â·Â¯Â¯":8382,"ÃĺÂµ":8383,"ĠÂ¯Â±Â¯Â¯Â¿Â¯":8384,"Â³Â³Â¹":8385,"Â¸Â¯Ã·Â°Â¯Â¯":8386,"ĠÂ¯Â±Â¯Â¯Â¯Ã·Â°Â¯":8387,"ĠÂ¯Â°Â¯Â¯Â¿Â´Â¯Â¯":8388,"ĠÂ¯Â¯Â°Â¿Â±Â¯":8389,"ĠÂ¯Â¯Â°Ã·Â¯Â¯Â¯Â¯":8390,"Â¯Â·Â¯Â¯Â±":8391,"ÅŁÃī":8392,"Ä¹Ã±":8393,"Ã¯ÃĵÄ¯Ã¯":8394,"ĠÂ¯Â±Â°Â¯Â¯Â¸Â°Â¯":8395,"ÄĢÄ¯Ä¯":8396,"ĠÂ·Â¸Â¯Â¯Â¯Â¯Â¯Â¯":8397,"ĠÂ¯Â¯Â´Â¯Â¯Â¿Â°Â¯":8398,"ĠÂ¯Â¯Â´Â¯Â¯Ã·Â°Â¯":8399,"ĠÂ¯Â¯Â´Â¯Â¯Â¿Â¿Â¯":8400,"Ä¯Ã±ÅĲ":8401,"ĠÂ¯Â¯Â¯Â·Â±":8402,"ĠÄ¯Ä¯Äı":8403,"ÃıÃģÄ¯Ãĳ":8404,"ĠÂ¯ÃĹÂ¿Â¯Â¯":8405,"ĠÂ¯ÃĹÂ´Â¯Â¯Â·Â¯Â¯":8406,"ĠÂ¯Â¯Â¸Â·Â¯Â¯Â¯Â¯":8407,"ĠÂ¯Â¯Â´Â¯Â±Â´Â¯Â¯":8408,"ĠÂ¯Â¿Â¯Â¿Â¯Â°Â¯Â¯":8409,"ĠÂ¯Ã·Â´Â¯Â¯Â¯":8410,"ĠÂ¯Ã·Â¯Â¯Â¯Â¯Â·Â¯":8411,"ĠÂ¯Ã·Â·Â¯Â¯Â±Â¯Â¯":8412,"ĠÂ¯Ã·Â±Â¯Â¯Â±Â°Â¯":8413,"ĠÂ¯Ã·Â´Â¯Â¯Â¯Â±Â¯":8414,"ĠÂ¯Ã·Â°Â¯Â¯Â¯Â·Â¯":8415,"ĠÂ¯Â¯Â·Â°Â·Â±Â¯Â¯":8416,"Â¯ÃĹÂ°Â¯Â¯Â¯":8417,"ĠÃıÃıÄ¿":8418,"ĠÂ¯Â·Â¯Â¿Â¯":8419,"ĠÂ¯Â·Â¯Â±Â¸Â¯Â¯Â¯":8420,"Â¯Ã·Â±":8421,"ĠÂ¯Â°Â°Â¯ÃĹÂ±Â¯Â¯":8422,"ĠÂ¯Â¯Â»Â¯ÃĹÂ¯Â¯Â¯":8423,"ĠÂ¯Â¯Â»Â±Â¯Â·Â¯Â¯":8424,"Â¯Â°Â±":8425,"Â¯Â°Â´Â¯Â¯Â¯":8426,"ĠÂ¯Â¿Â·Â¿Â¯Â¯Â¯Â¯":8427,"ĠÂ¯Â°Â¯Â±Â¯Â°Â¯Â¯":8428,"Â¯Â±Â·":8429,"Â¯Â±Â»Â¯Â¯":8430,"ĠÂ¯Â°Â°Â¯Â¯Â·Â·Â¯":8431,"Ã§Ã³":8432,"Â¯Â¯Â·Â¯Â°":8433,"Â¯Â¯Â·Â¯Â·Â¯":8434,"Â¯Â¯ÃĹÂ¿Â¯":8435,"ĠÂ¿Â¯Â°":8436,"Ã¯ÂºÅĵ":8437,"ÃıÃĲÃ¯Ãı":8438,"ĠÂ·Â¯Â·Â°Â¯Â±Â¯Â¯":8439,"ÅıÃıÃ¯Ãı":8440,"ĠÂ¯Â·Â±Â¯Â´Â¯Â¯Â¯":8441,"ĠÂ¯Â·Â±Â¯Â·Â°Â¯Â¯":8442,"ĠÂ¯Â¯Ã·Â±Â¯Â¿Â·Â¯":8443,"ĠÂ¿Â¯Â¯Â¯Â¯Â·Â°Â¯":8444,"ĠÂ¯Â¸Â°Â¯Â·Â´Â¯Â¯":8445,"Â¿Â¯Â·Â¿Â¯Â¯":8446,"ĠÂ¯Â¯Â±Â¯Â¿Â»Â¯Â¯":8447,"ĠÂ¯Â·Â·Â¯Â·Â·Â¯Â¯":8448,"Â°Â·Â±Â°Â¯":8449,"ĠÂ¯Â´Â±Â¯Â¯":8450,"ĠÂ¯Â¯Â¿Â¸Â·Â¯Â¯Â¯":8451,"ĠÂ¯Â¯Â¿Â¸Â¯Â¿":8452,"ĠÂ¯Â¯Â¯Â¯Â¿Â¯Â´Â¯":8453,"Ã¿ÃıÄ¯Ã¯":8454,"ĠÂ¯Â¿Â¿Â¯Â´Â¯Â¯Â¯":8455,"Ä¯ÅĹÃĥ":8456,"ĠÂ¯Â¯Ã·Â´Â¯Ã·Â¸Â¯":8457,"ĠÂ¯Â´Â¯Â¯Â°Â¯Â¯Â¯":8458,"ĠÂ¯Â¸Â¯Â¯Â¿":8459,"ĠÂ·Â¯Â¯Â·":8460,"ĠÂ°Â±Â¯Â¯":8461,"ĠÂ¯Â¯ÃĹÂ´Â¯Ã·Â¯Â¯":8462,"ĠÂ¯Â¯ÃĹÂ´Â¯ÃĹÂ¸Â¯":8463,"ĠÂ¯Â·Â±Â±":8464,"ĠÂ¯Â¯Â±Â±Â¯Ã·Â¯Â¯":8465,"ĠÂ¯Â¿Â¯Â¯Â¿Â»Â¯Â¯":8466,"ĠÂ¯Â¯Â¯Ã·Â¿Â¯Â¯Â¯":8467,"ĠÄıÃĶ":8468,"ĠÅıÃģÅĺ":8469,"ĠÂ¯Â¯Â¯ÃĹÂ·Â¯Â¯Â¯":8470,"Â¯Â´Â´Â¯Â¯":8471,"ĠÂ±Â°Â¯Â¯Â¯Â±Â¯Â¯":8472,"ĠÂ±Â±Â¯Â¯Â¿Â¯Â¯Â¯":8473,"Â±ÃĹÂ·Â¯Â¯":8474,"ĠÃıÃĳÃģ":8475,"ĠÂ¯Â¯Â±Â¯ÃĹÂ·Â¯Â¯":8476,"ĠÂ¯Â±Â´Â¯Â±Â°Â¯Â¯":8477,"ĠÂ¯Â·Â»Â¯Â¯Â±Â¯Â¯":8478,"ĠÂ¯Â¯Â¯Â±Â¯Â¯Â¯Â¿":8479,"ĠÂ¯Â¯Â¯Â¯Â´Â¯Â°Â¯":8480,"ĠÂ¸Â¯Â¯Â¯Â¯Â°Â¯Â¯":8481,"ĠÅıÂµ":8482,"ĠÄĭ":8483,"ĠÃĦÃ¯":8484,"Â¯Â¯Â°Â¿Â¯Â¯Â¯":8485,"ĠÂ¯Â¯Â¯Â¯Â°Â°Â¯":8486,"Â±Â±Â·Â¯Â¯Â¯":8487,"Â±Ã·Â±Â¯Â¯":8488,"Ã¯ÄĽ":8489,"Ã¯ÃĬ":8490,"Ã¯Äĭ":8491,"Ã¯ÄĤ":8492,"Â°Â±Â·Â¯Â¯":8493,"Â·Â±Â¯Â¿Â¯Â¯":8494,"Â·Â·Â¯Â¿Â¯Â¯Â¯":8495,"ÃıÃ¯ÃĲ":8496,"ÃıÆı":8497,"ÃıÄħ":8498,"ÃıÄĽ":8499,"ÃıÃº":8500,"Â¿ÃĹÂ¯Â¯":8501,"Â¿Â±Â°Â¯Â¯Â¯Â¯":8502,"Â¿ÃĹÂ°Â¯Â¯Â¯Â¯":8503,"Â¯Â¯Â¯Â¯Â¯Â¸Â¯Â¯":8504,"Â±Â¯Â¯Ã·Â°Â¯Â¯":8505,"Â·Â¯Â¯Ã·Â°Â¯Â¯":8506,"Â¿Â¯Â¯ÃĹÂ±Â¯Â¯":8507,"Â±Â¯Â±Â´Â¯Â¯":8508,"ĠÂ¯Â¯Â·Â¿Â¯Â¿Â¯Â¯":8509,"ĠÂ¯Â¯Â¿Â»Â¯":8510,"ĠÂ¯Â¯Â¿Â¿Â°Â¯Â¯Â¯":8511,"ÅıÄĢ":8512,"ÅıÅ¿":8513,"Ã¿Ãħ":8514,"Â´Â·Â´Â¯Â¯":8515,"ÃĹÂ±Â¯Â¯Â¯Â¯Â¯":8516,"ÃĥÄ¯Ãģ":8517,"ÃĥÃĴ":8518,"ÃĥÄ¯Åı":8519,"ĠÂ¯Â¿Ã·Â¯Â¯":8520,"ĠÂ¯Â¿Â´Â¯Â·":8521,"ĠÂ¯Â¯Â¿Â¯Â´":8522,"ĠÂ¯Â¯Â¿Â¯Â·Â¯Â±Â¯":8523,"ĠÂ¯Â·Â¶Â¯Â¯Â¯Â¯Â¯":8524,"Ä¿Å¯":8525,"Ä¿Äĥ":8526,"Ä¿ÅĻ":8527,"Ä¯Ã¯Ãģ":8528,"Ã¯ÃıÃ¯Ãĳ":8529,"ĠÂ¯Â¯Â±Â¯Â¶Â¯Â¯Â¯":8530,"Â·Â¯Â¸Â°Â¯":8531,"Â·Â¯Â°Â±Â¯":8532,"Â¸Â´Â¯Â¯":8533,"ÃģÄ°Ãı":8534,"ÃĵÄ°Ã³":8535,"Ã±Ä±":8536,"ĠÂ¯Â¯Â°Â¯Â¯Â»Â±Â¯":8537,"Ã³Äĥ":8538,"Ã³Äģ":8539,"Ã³Ã°Ãı":8540,"Ä·Ä¯Ãĩ":8541,"Ä·Ä³Ãĵ":8542,"ÃĳÄ¯Ä¿":8543,"Â¯Â¯Â±Â¯Â¯Â±":8544,"ÃĲÄ´":8545,"ÃĲÃ´":8546,"ÃĲÃıÃģ":8547,"Â¿Â¯Â±Â¯Â¯Â¯Â¯":8548,"Â¿Â¯Â·Â¯Â·Â¯":8549,"ĠÂ¯Â¯Â¯Â°Â»Â±Â¯Â¯":8550,"ĠÄ¯ÅĶ":8551,"ĠÂ¯Â¯Ã·Â±Â¯Â¯Â¿Â¯":8552,"ĠÂ¯Â¿Â¯Â¯Â¯Â°Â±Â¯":8553,"ÅĹÄ±Ãĥ":8554,"Å¯Åĳ":8555,"ĠÃıÃ´":8556,"ĠÃ¯Ãľ":8557,"ĠÂ¯Â¯Â¯Â¯Â·Â´Â°Â¯":8558,"ĠÂ¯Â·Â¯Â¯Â±Â·Â¯Â¯":8559,"ÄĥÄ¯Âµ":8560,"ÅĥÃģ":8561,"ĠÂ¯Â°Â»Â¯Â¯Â¯Â¯Â¯":8562,"ĠÂ¯Â°ÃĹÂ°Â¯Â¯Â¯Â¯":8563,"Â´Â¯ÃĹÂ¸Â¯":8564,"ĠÂ¯Â·Â¯Â¯Â¯Â¶Â¯Â¯":8565,"ĠÄ¯Ã¯ÅĹ":8566,"ĠÄ¯Ã¯Ä¸":8567,"ĠÄ¯Ã¯Ä¯Ä¯Ã¯Ä¯":8568,"Ã°Ä¯Ã±":8569,"ÂµÃģ":8570,"ÂµÃ³":8571,"ĠÂ¯Â¯Â±Â¸Â¯Â¯Â¯Â¯":8572,"ĠÂ¯Â¯Â±Â±Â·":8573,"ĠÃ¯ÃıÄ°":8574,"Â»Â¯Â¿":8575,"Â¿Â·Â¯Â¯Â°Â¯Â¯":8576,"Â¸Â¯Â±":8577,"Ä¯ÃıÄ¯Ãĵ":8578,"Ã·Â¯Â¯Â·":8579,"ĠÂ¯Â±Â°Â¯Â¿Â´Â¯Â¯":8580,"ĠÂ¯Â°Â¯Â¯Â¸Â°Â¯Â¯":8581,"Â¯Â¯Â¯Â±Â¯Â·Â¯":8582,"ĠÂ¯Â°Â¯Â¯Â¯Ã·Â±Â¯":8583,"ĠÂ¯Â±Â°Â¯Â¯Â¿Â¸Â¯":8584,"Ä´Ãĥ":8585,"ĠÂ·Â´Â¯":8586,"ĠÂ·Â¿Â·Â¯":8587,"ÂºÃ¯ÃĻ":8588,"Â·Â°Â¯Â¯Â·Â¯":8589,"ĠÃ¯Ã¯ÃĲ":8590,"ĠÂ¯ÃĹÂ±Â¯Â¿Â¯Â¯Â¯":8591,"ĠÂ¯ÃĹÂ´Â¯Â±Â¯Â¯Â¯":8592,"ĠÂ¯Â¯Â¸Â°Â¿Â¯Â¯Â¯":8593,"ĠÂ¯Â¯Â¯Â¿Â·Â±Â¯Â¯":8594,"ĠÂ¯Â¯Â±Â°Â¸Â¯Â¯Â¯":8595,"Ä¸Ã³":8596,"ĠÂ¯Ã·Â¯Â°Â¯Â¯Â¯Â¯":8597,"ÃıÃ¯ÃĻ":8598,"ĠÂ¯Â¯ÃĹÂ°ÃĹÂ±Â¯Â¯":8599,"ĠÂ¯Â¯Â¸Â¯Ã·Â±Â¯Â¯":8600,"ĠÃıÃıÃ¹":8601,"Â¿Â°Â¯Â¯Â°Â¯Â¯":8602,"Â¿Â°Â¯Â¯Â·Â¯":8603,"Â¿Â°Â¯Â¯ÃĹÂ¯Â¯":8604,"ĠÂ¯Â¯Â¯Â´Â¯ÃĹÂ°Â¯":8605,"Â·Â°Â¯Ã·":8606,"ĠÂ¯Â¯Â¯Â¯ÃĹÂ¿Â±Â¯":8607,"ĠÂ¯Â°Â°Â¯Â¿Â°Â¯Â¯":8608,"Â¯Â°Â¿Â¯":8609,"Ã¯Ä³Ãģ":8610,"ĠÂ¯Â¯Â¯Â¯Ã·Â°Â°Â¯":8611,"ĠÂ¯Â°Â¯Â±Â¿Â¯Â¯Â¯":8612,"Â¿Â¯Â¯Â¯Â¯Â´Â¯":8613,"ÃĴÃ¯":8614,"ĠÂ¿Â¯Â¯Â¯Ã·Â¯Â¯Â¯":8615,"ĠÂ±Â¯Â¯Â¯Â¯Â¸Â¯Â¯":8616,"Â¯Â±Â¯Â¿Â·Â¯Â¯":8617,"Â¯Â±Â¯Â·Â°Â¯Â¯":8618,"ĠÂ¯Â°Â°Â¯Â¯Â¿Â±Â¯":8619,"ĠÂ¯Â¯ÃĹÂ±Â¯Â¿":8620,"ĠÂ¯Â¯Â¿Â·Â¯Â»Â¯Â¯":8621,"ĠÂ¯Â¿Â°Â±":8622,"ĠÂ¯Â·Â°Â¯Â¿Â¸Â¯Â¯":8623,"ÄĻÃ£":8624,"Â¯Â¯Â·Â¯Â°Â¯Â¯":8625,"ĠÂ¯Â¯Â¸Â¯Â¯Â»Â¯Â¯":8626,"ĠÂ¿Â¯ÃĹÂ¯Â¯Â¯Â¯Â¯":8627,"ĠÂ¯Â¯Â¯Â¸Â¯Â·Â´Â¯":8628,"ĠÂ¯Â¯Â¿Â´Â¯Â±Â±Â¯":8629,"ĠÂ±Â±Â°Â¯":8630,"Â·Â±Â¯Â±Â¯":8631,"ĠÂ·Â¯Â¯Â¯ÃĹÂ°Â¯Â¯":8632,"ĠÂ·Â¯Â±Â¯Â¯":8633,"ĠÂ·Â¯ÃĹÂ¯Â¯Â¯Â¯Â¯":8634,"ĠÂ·Â¯Â·Â¯Â¿Â¯Â¯Â¯":8635,"ĠÂ¯Â¯Â¯Â¯Â¯Â¯Â¯Â¸":8636,"Ã²Äı":8637,"ĠÂ¯Â¯Ã·Â±Â¯Â¸Â¯Â¯":8638,"ĠÂ¿Â¿Â¯Â¯ÃĹÂ¯Â¯Â¯":8639,"ĠÂ¿Â·Â·":8640,"ĠÂ¯Â¯Â°Â°Â¿Â°Â¯Â¯":8641,"ĠÂ¯Â·Â·Â¯Â¿Â±Â¯Â¯":8642,"ÃıÃ¿Ãı":8643,"Â±Â¯Â·Â°":8644,"Â·Â°Â¿Â°Â¯Â¯":8645,"ĠÂ¯Â»Â°Â¯Â·Â¯Â¯Â¯":8646,"ĠÂ¯Â°Â°Â·Â¯Â¯Â¯Â¯":8647,"ĠÂ¯Â¯Â·Â¯Â¿ÃĹÂ¯Â¯":8648,"ĠÂ¯Â¯Â±Â¯Â·Â¸Â¯Â¯":8649,"ĠÂ¯Â·Â±Â¯Â¯Â·":8650,"ĠÂ¯Â·Â±Â¯Â¯Â¿Â±Â¯":8651,"Â¿Â¿Â¯Â±Â¯Â¯Â¯":8652,"Â¯Â¯Â¯Ã·Â·Â¯Â¯":8653,"ĠÂ¯Â¸Â¯Â¯Â°Â¯Â¯Â¯":8654,"ĠÂ¯Â¸Â¯Â¯ÃĹÂ¯Â¯Â¯":8655,"ĠÂ·Â¯Â¯Â±Â¯":8656,"ÅıÄ±Ã¯":8657,"ĠÂ·Â·Â¯Â¯Â¯Â±Â°Â¯":8658,"Ã¯Ä¹Åĵ":8659,"ĠÃ¯ÃĲÃ³":8660,"ĠÃ¯ÃĲÅ°":8661,"ĠÄ°Ã¯Ãı":8662,"ĠÂ¯Â¯Â¯Â¶Â¯Â¿Â¯Â¯":8663,"ĠÂ±Â¯Â¯Â¿Â¯Â¯Â¯Â¯":8664,"ĠÂ¯Â´Â¯Â¯Â¯Â±Â°Â¯":8665,"Ã¯Ä¸Ãģ":8666,"ĠÂ¯Â¯Â¯ÃĹÂ¯Â·Â¯Â¯":8667,"Ã¿Ã°Ä¯":8668,"Ã¯Ä´Åĵ":8669,"Ã¿ÂµÄ¯":8670,"ĠÂ¯Â¯Ã·Â¸Â¯Ã·":8671,"ĠÂ¯Â¯Â¿Â¯Â±Â¸Â¯Â¯":8672,"ĠÂ·Â±Â¯Â¯Â¿Â¯Â¯Â¯":8673,"Â°Â¯Ã·Â·Â¯":8674,"Ã¯Å¯Ä°":8675,"Â°Â¯Â¯ÃĹÂ¿Â¯":8676,"Â·Â¿Â¯Â·Â¯":8677,"ĠÂ¯Â·Â»Â¯Â±Â°Â¯Â¯":8678,"ĠÂ¯Â¯Â°Â¯Â¯Â¯Â¯Â±":8679,"ĠÂ¯Â°Â°Â¿Â¿Â¯Â¯Â¯":8680,"ĠÂ°Â¯Â¯Â¯Â°Â¯":8681,"ĠÃ°Ãı":8682,"ĠÄ³Ä¯":8683,"ĠÃĦÄ¯":8684,"ĠÂ¯Â¯Â¯Â¯Â±Â¯Â¯Â°":8685,"Â±ÃĹÂ¯":8686,"Ã¯ÅıÃĥ":8687,"Ã¯Ä¡":8688,"Â·ÃĹÂ°Â¯Â¯":8689,"Â·Â±Â¯Â¯Â±Â¯Â¯":8690,"Â¯Â¯Â¯Â¯Â±Â±Â¯Â¯":8691,"Â¿Â±Â¯Â·Â¯Â¯":8692,"Â¿Ã·Â°Â¯Â¯Â¯Â¯":8693,"Â¯Â¯Â¯Â¯Â¯Â·":8694,"Â±Â¯Â¯Â¿Â¸Â¯Â¯":8695,"ĠÂ¯Â¯Â¯Ã·Â¯Â¯":8696,"ĠÂ¯Â¯Â¯Â¿Â·Â¯":8697,"Â¯Â¯Â¯Â¯Â¯Â¯Â¿Â¯":8698,"Â¿Â¯Â¯Ã·Â±Â¯":8699,"Â°Â¯Â°Â¯Â±Â¯Â¯":8700,"Â°Â¯Â¶Â¯Â¯":8701,"Â°Â¯Ã·Â±Â¯Â¯":8702,"Â°Â¯ÃĹÂ±Â¯":8703,"ĠÂ¯Â¯Â·Â¿Â¯Â±Â¯Â¯":8704,"Â·Â¯Â¯Â¯Â·Â¿":8705,"ÅıÄ´":8706,"ÅıÃł":8707,"ÅıÃĴ":8708,"ÅıÅ¡":8709,"ÃĹÂ¸Â¯Â¯Â¯Â¯":8710,"Â¹Â³Â³":8711,"ÃĥÃĦ":8712,"ĠÂ¯Â¿ÃĹÂ¯Â¯Â±Â¯Â¯":8713,"ĠÂ¯Â·Â·Â¯Â¯Â¯Â·Â¯":8714,"Ä¿ÃıÄ¯":8715,"Ä¯Ã¯Ä¯Ãı":8716,"Ä¯Ã¯Ã¯Ã¯":8717,"Â´Â¯Â¯Ã·Â°Â¯":8718,"Ã¯ÃıÃĲ":8719,"ĠÂ¯Â¯Â±Â¯Â¿Â¯Â°Â¯":8720,"ĠÂ¯Â¯Â±Â¯Â¿Â¯Â¿Â¯":8721,"Â·Â¯Â¿Â¿Â¯Â¯":8722,"ĠÂ¯Â¯Â·Â¯Â¯Ã·Â·Â¯":8723,"ĠÂ¯Â¯Â°Â¯Â»Â±Â¯Â¯":8724,"Ã±Ä¯Ãĥ":8725,"ĠÂ¯Â¯Â°Â¯Â¯Â°Â¿Â¯":8726,"ĠÂ¯Â¯Â°Â¯Â¯ÃĹÂ·Â¯":8727,"Ã³ÂµÄ¯":8728,"ĠÂ¯Â¯Â¿Â¯Â¯Ã·Â´Â¯":8729,"ÃĳÃĩ":8730,"ĠÂ¯Â¯ÃĹÂ¶":8731,"ÃĲÅĥ":8732,"Â¿Â¯Â¿Â·Â¯Â¯Â¯":8733,"Â¿Â¯Â»Â±Â¯Â¯":8734,"Â¿Â¯Â±Â¯Â·Â°":8735,"ÃĢÄ¯Ä·":8736,"ĠÂ¯Â¯Â¯Â°Ã·Â´Â¯Â¯":8737,"ĠÄ¯ÅŁ":8738,"ĠÄ¯Ã»":8739,"ĠÄ¯Ãº":8740,"ĠÂ¯Â¯Â¯Â°Â¯Â°":8741,"Ä±Ä¯Ã¯":8742,"Ä±Åĥ":8743,"Ä±Ã°":8744,"Â±Â°Â¯ÃĹ":8745,"ÃĹÂ¯Â¯ÃĹÂ´Â¯Â¯":8746,"Å¯ÅĢ":8747,"Å¯Ã´":8748,"ĠÃıÄ¯Ãģ":8749,"ĠÃıÃ¸":8750,"ĠÃ¯ÅıÃ¯":8751,"ĠÃ¯ÃĥÃ¯":8752,"ÃĻÅĢ":8753,"ĠÂ¯Â°Â¿Â¯Â±Â¯Â¯Â¯":8754,"ĠÂ¯Â°Â¿Â±Â¯Â¯Â¯Â¯":8755,"ĠÂ¯Â°Ã·Â±Â¯Â¯Â¯Â¯":8756,"ĠÂ¯Â°Â·Â°Â°Â¯Â¯Â¯":8757,"Â´Â¯ÃĹÂ´Â¯Â¯":8758,"ĠÂ¯Â·Â¯Â¯Â¯Â°Â±Â¯":8759,"ĠÄ¯Ã¯Ä±":8760,"ÄıÃ¸":8761,"Ã°ÃĦ":8762,"Ã°ÃŁ":8763,"ÃĶÄ¿":8764,"Â¯Â±Â¯Â¯Â¯Â±Â¯":8765,"Â·Â¯Â¯Â¯Â¯Â¿Â¯":8766,"ÂµÃ¯Ãĵ":8767,"ÂµÃ¯ÃĲ":8768,"ÃŁÃī":8769,"ĠÃ¯ÃıÃĳ":8770,"ĠÃ¯ÃıÃĦ":8771,"Â»Â´Â¯Â¯":8772,"Â¸Â¯Ã·Â´Â¯":8773,"Ã·Â¯Â¯Ã·Â´Â¯Â¯":8774,"ĠÂ¿Â±Â¯Â¯Â¯Â¯":8775,"ĠÂ¯Â¯Â°Â´":8776,"ĠÂ¯Â¯Â°Â±Â·":8777,"ĠÂ¯Â¯Â°Â¿Â¯Â¯Â·Â¯":8778,"Â¯Â·Â¯Â¯Â±Â¯":8779,"ĠÂ¯Â¿Â·Â¯Â¯Â´Â°Â¯":8780,"Ã¯Ã¯ÃĢ":8781,"Ã¯Ã¯ÃĶ":8782,"Ä¯Ä¯Âµ":8783,"ĠÂ·Â·Â¯Â¯Â¯Â¯Â°Â¯":8784,"ÂºÄ¯Ã³":8785,"ĠÄ¯Ä¯Ä¿":8786,"ÃıÃģÄ¯Ãĥ":8787,"ĠÂ¯ÃĹÂ¿Â°Â¯Â¯Â¯Â¯":8788,"ĠÂ¯ÃĹÂ¿Â°Â¯Â·Â¯Â¯":8789,"Ã¯ÃĲÃıÃģ":8790,"ĠÂ¯Â¯Â¸Â°Â¯Â¯Â°Â¯":8791,"ĠÂ¯Â¯Â¸Â¯Â·Â´Â¯Â¯":8792,"ÄĹÄ¯":8793,"Â¯Â¯Â¿Â°Â¯Â¯Â¯":8794,"Ã¯ÃĳÄ¯Ãĥ":8795,"ÃıÃıÃĦ":8796,"ĠÂ¯Ã·Ã·Â¯Â¯Â¯Â¯Â¯":8797,"ĠÂ¯Ã·Â±Â¯Â¯Â¯Â±Â¯":8798,"ĠÂ¯Â¯ÃĹÂ°Ã·Â±Â¯Â¯":8799,"ĠÂ¯Â¯Â¯Â¯Â±Â±Â¯Â°":8800,"Ã¯ÃĥÅı":8801,"Ã¯ÃģÄ¯Ã¯":8802,"Â¯ÃĹÂ¯Â¯Â±Â¯Â¯":8803,"Ã¯Ä¯Ä³":8804,"ĠÂ¯Â¯Â¿Â±ÃĹ":8805,"ĠÂ¯Â¯Â¿Â±Â·Â±Â¯Â¯":8806,"ĠÂ¯Â¯Â¯Â¯ÃĹÂ±Â±Â¯":8807,"Â¯Ã·ÃĹÂ¯Â¯":8808,"ĠÂ¯ÃĹÂ¯Â¯Â¯Â¿Â°Â¯":8809,"ÅĻÄ¯":8810,"Â¯Â°ÃĹÂ¯Â¯":8811,"Â¯Â°Â¸Â¯Â¯Â¯":8812,"Â¯Â¯Â°Â¯Â°Â¯":8813,"Ã·Â¯Â±Â±Â¯Â¯":8814,"ÄĳÃĵ":8815,"ĠÂ¯Â¿Â·Â°Â¿Â¯Â¯Â¯":8816,"Å·Ã¯":8817,"Å·Ä¯":8818,"Å·Ãı":8819,"ĠÂ¯Â±Â±Â¯Â´Â¯Â¯Â¯":8820,"ĠÂ¯Â±Â±Â¯ÃĹÂ°Â¯Â¯":8821,"ÃıÄ¯Åı":8822,"ĠÂ¯Â±Â¯Â±Â±Â¯Â¯Â¯":8823,"ĠÂ¯Â¯Â´Â¿Â¯Â·Â¯Â¯":8824,"ĠÂ¯Â¯Ã·Â°Â¯Ã·Â±Â¯":8825,"ĠÂ¯Â¯Â¯Â¯Ã·Â¶Â¯Â¯":8826,"Ã¯Ã±Ä¯Ä¯":8827,"Ã¯Ã±ÃıÃı":8828,"ĠÂ¿Â·Â¯Â¯Â¯Ã·":8829,"ÃĤÄ¯Ãµ":8830,"ĠÂ¯Â¿Â°Â±Â¿Â¯Â¯Â¯":8831,"ĠÂ¯Â¿Â°Â¿Â°Â¯Â¯Â¯":8832,"ĠÂ¯Â¯Â¿Â·Â´Â¯Â¯Â¯":8833,"Â¯Â¯ÃĹÂ¸Â¯Â¯":8834,"ĠÂ¯Â±Â¯Â¯Â¯Â¯Â¸Â¯":8835,"ĠÂ¯Â¯Â¸Â¯Â¯Ã·":8836,"ĠÂ¯Â¯Â¸Â¯Â¯Â·Â·Â¯":8837,"Ã¯Ä±Ã¯":8838,"ÃıÄ°Ä¯":8839,"Ã¯ÂºÄ¯Ã±":8840,"Ã¯ÂºÄ¯Ã¹":8841,"ĠÂ¯Â¯Â¯Â¿Â¯Ã·Â¯Â¯":8842,"ĠÂ±ÃĹ":8843,"ĠÂ·Â¯Â¯Â¯Â°Â¯Â¸Â¯":8844,"Â¯Â¯Â°Â°Â¯Â±":8845,"ĠÂ·Â¯Â·Â·Â¯Â¯Â¯Â¯":8846,"ĠÂ¯Â·Â±Â¯Â·Â¯":8847,"ĠÂ¯Â¿Â¸Â¯Â¿Â±Â¯Â¯":8848,"ĠÂ¯Â¯Â¯Â¯Â¯Â°ÃĹÂ¯":8849,"ĠÂ¯Â¯Ã·Â±Â¯ÃĹÂ°Â¯":8850,"ĠÂ¿Â¿Â¯Â¯Â¿Â°Â¯Â¯":8851,"ĠÂ·Â¯Â¯Â¯Â¯Â·Â°Â¯":8852,"ĠÂ¯Â¯Â°Â°Â¸":8853,"Ä·ÂµÄ¯":8854,"Â±Â·Â·Â¯Â¯Â¯":8855,"ĠÂ¯Â·Â·Â¯Â¿Â¯Â±Â¯":8856,"ĠÂ¯Â¿Â·Â¯Â¯Â¯Â¸Â¯":8857,"Â±Â¯Â¿Â±Â°Â¯":8858,"ĠÅıÃī":8859,"ĠÂ¯Â´Â¿Â·Â¯":8860,"ĠÂ¯Â»Â±Â¯Â¯Â±Â¯Â¯":8861,"Ã¯ÅĵÃģ":8862,"ĠÂ¯Â¯Â·Â¯Â·Â¸Â¯Â¯":8863,"ĠÂ¯Â¿Â´Â¯Â¯Ã·Â¯Â¯":8864,"Â¯Â¯Â¿Â¯Â¿Â¯":8865,"Ã¯Ã´Ãģ":8866,"ĠÂ¯Â¯Â°Â±Â¿Â°Â¯Â¯":8867,"ĠÂ¯Â±Â±Â±Â¯Â¯Â¯Â¯":8868,"ĠÂ¯Â¯Â°Â°Â¯Â´Â°Â¯":8869,"ĠÂ¯Â·Â´Â¯Â·":8870,"ĠÂ·Â·Â¯Â¯Â°Â¯Â¯Â¯":8871,"Ã³ÃıÃĭ":8872,"ĠÂ±Â¯Â¯Â¯Â°":8873,"ĠÄ¯Ã¹Ãĵ":8874,"ĠÂ¯ÃĹÂ°Â¯Â°Â¯Â¯Â¯":8875,"ĠÂ¯ÃĹÂ°Â¯Â±Â°Â¯Â¯":8876,"Â¯Ã·Â¯Â¯Â¸Â¯Â¯":8877,"ĠÂ¯Â·Â·Â¯Â¯Â´Â¯Â¯":8878,"ĠÄ¿Ä¯Ãĥ":8879,"Ã¯ÃĴÄ¯":8880,"Ã¿Ã±Ä¯":8881,"ĠÂ·Â·Â¯Â¯Â¯Â¿":8882,"ĠÂ¯Ã·Â°Â¯Â°Â¯Â¯Â¯":8883,"ĠÂ¿Â¿Â¿Â¯Â¯Â¯Â¯Â¯":8884,"ĠÂ°Â¯Â¯Â¯Â°Â¯Â¯Â¯":8885,"ĠÃ·Â±Â¯Â¯Â¯Â¿Â¯Â¯":8886,"ĠÃ·Â¯Â·Â¯Â¯Â·Â¯Â¯":8887,"ĠÂ¯Â¯Â±Â°Â¿Â´Â¯Â¯":8888,"ĠÂ¯Â¯Ã·Â¸Â¿Â·Â¯Â¯":8889,"Â¯Â¿Â±Â¯Â±Â¯":8890,"Ã¯Ä´Ãģ":8891,"Ä¯ÂºÃ¯":8892,"ĠÂ¯Â·Â·Â±Â¯Â¯Â¯Â¯":8893,"Ã±Ä¯Ãº":8894,"ĠÂ±Â°Â¯Â¯Â¯Â·Â¯Â¯":8895,"Ä¿ÃĵÃģ":8896,"ĠÂ¯Â¯Â¯Â°ÃĹÂ·Â¯Â¯":8897,"ĠÂ¯Â¸Â¯Â·Â¯":8898,"ÃıÄ¸Ãģ":8899,"ĠÂ¯Â¯ÃĹÂ±Â¿Â»Â¯Â¯":8900,"ĠÂ¯Â¯Â±Â¯Â¯Â¯Â¯Â±":8901,"ĠÂ¯Â±Â±Â¯Â·Â±Â±Â¯":8902,"ÅıÃĤÃı":8903,"ĠÂ¯Â¯Â¯Â»Â¯Â¯Â±Â¯":8904,"ĠÂ°Â¯Â¯Â¯Â¯Â¯Â°Â¯":8905,"ĠÂ¯Â°ÃĹÂ¿Â¯Â¯Â¯Â¯":8906,"ĠÃ·Â¯Â·Â¯":8907,"ĠÃ·Â¯Â¸Â¯Â¯Â¯Â¯Â¯":8908,"ĠÃ·Â±Â¯Â·Â¯Â¯Â¯Â¯":8909,"ĠÂ¿Â¯Â¯Â·Â¯Â¯Â´Â¯":8910,"ĠÂ¯Â¯Â°Â¿Â±Â¯Â±Â¯":8911,"ĠÂ¯Â¯Â¯Â¯Â°Â°Â¯Â°":8912,"ĠÂ°Â¯Â¯Â¯Â°Â¯Â·Â¯":8913,"Ä¤":8914,"ÆĽ":8915,"ĠÅ·":8916,"ĠÃĴ":8917,"ĠÂ°Â¯Â·":8918,"ĠÃ±Ã¯":8919,"Â±Â´Â¯Â¯Â¯Â¯":8920,"Â±Â±Â¿Â¯Â¯Â¯":8921,"Â±Â¸Â°Â¯Â¯":8922,"Â±Â±Â°Â¯Â¯Â¯Â¯":8923,"Â±Â±Â¿Â¯Â¯":8924,"Ã¯Åĩ":8925,"Ã¯Å¡":8926,"Ã¯ÅĴ":8927,"Â°Â°Â¯Â±Â¯Â¯":8928,"Â·Â¿Â±Â¯Â¯Â¯":8929,"Â¯Â¯Â¯Â¯Â¶Â¯":8930,"Â¯Â¯Â¯Â¯Â°Â°":8931,"Â¯Â¯Â¯Â¯ÃĹÂ¸Â¯":8932,"Â°Â¯Â¯Â°Â±Â¯":8933,"Â±Â¯Â¯Â´Â°Â¯":8934,"Â·Â¯Â¯Â¿Â¸Â¯Â¯":8935,"Â·Â¯Â¯Ã·Â´Â¯":8936,"Â±Â¯Â´":8937,"Â±Â¯Ã·Â·Â¯Â¯":8938,"Â¿Â¯Â¯Â¯Ã·":8939,"ĠÂ¯Â¯Â·Â¸Â¯Â±Â°Â¯":8940,"ĠÂ¯Â¯Â¿Ã·Â¯Â¯Â¯Â¯":8941,"ĠÂ¯Â¯Â¿Â¸Â¯Â¯Â¿Â¯":8942,"Â±Â¯Â¯Â¯Â±":8943,"ÅıÃ¸":8944,"ÅıÄµ":8945,"Ã¿Ä¯Ãĥ":8946,"Ã¿Ã±Ãı":8947,"Â´Â¿Â¯Â¯Â¯Â¯":8948,"Â´Â¿Â¸Â¯Â¯":8949,"ÃĹÂ±Â°Â¯":8950,"ĠÂ¯Â¯Â·Â¯Â±Â¯Â°Â¯":8951,"ĠÂ¯Â¿Â¿Â¯Â¯Â·":8952,"ĠÂ¯Â¿Â´Â¯Â¯Â¯Â·Â¯":8953,"ĠÂ¯Â¿Â¸Â¯Â¯Â¯Â·Â¯":8954,"ĠÂ¯Â¯Â¿Â¯Â´Â±Â¯Â¯":8955,"Ä°Ã°":8956,"ĠÂ¯Â·ÃĹÂ¯Â¯":8957,"ĠÂ¯Â·ÃĹÂ¯Â¿Â¯Â¯Â¯":8958,"Ã·Â·":8959,"Ã·Â±Â¯Â°Â¯Â¯":8960,"Ã·Â°Â¿":8961,"Ä¿ÃĽ":8962,"Ä¯Ã¯Ä¿":8963,"Ä¯Ã¯Âº":8964,"Ä¯Ã¯Ä¯Äĥ":8965,"Â±Â¯Â¯Â¯Â¯Â°":8966,"Ã¯ÃıÃ±":8967,"Ã¯ÃıÄ¯Ãı":8968,"ĠÂ¯Â¯Â±Â¯Â¿Â¯Â±Â¯":8969,"Â·Â¯Â»Â¯Â¯":8970,"Â·Â¯Â»Â°Â¯Â¯":8971,"ĠÂ¯Â¯Â±Â¯Â¯ÃĹÂ¸Â¯":8972,"Ã³ÅĲ":8973,"Ã³Ãł":8974,"ĠÂ¯Â¯Â¿Â¯Â¯ÃĹÂ´Â¯":8975,"Ä·Âº":8976,"Ä³Ã°":8977,"ĠÂ¯Â¯ÃĹÂ¿Â¯":8978,"ĠÂ¯Â¯ÃĹÂ»Â¯Â¯Â¯Â¯":8979,"ÃĲÄ°":8980,"ÃĢÄ°":8981,"ÃĢÃ¯Ã¯":8982,"ĠÂ¯Â¿Â¯Â¯Â¿Â¯":8983,"ÅĵÃ¯Ãģ":8984,"Ä±Ãĩ":8985,"Ä±Ãħ":8986,"ÅĹÄ°":8987,"ÅĹÄ¯Ãĵ":8988,"Å¯Ä±Ä¯":8989,"ĠÃıÅ¯":8990,"ĠÃıÅĲ":8991,"ĠÃ¯ÃĴ":8992,"ÃĻÄ¿":8993,"Ã¹Ã¯Ãĵ":8994,"ĠÂ¯Â°Â´Â¯Â¯":8995,"ĠÂ¯Â·Â¯Â¯Â¯Â±":8996,"ĠÂ¯Â·Â¯Â¯Â¯Â°Â·Â¯":8997,"ĠÂ¯Â¯Â¯Â±Ã·Â´Â¯Â¯":8998,"ĠÂ¯Â¯Â¯Â±Â»Â°Â¯Â¯":8999,"ĠÂ¯Â¯Â¯Â±Â»Â±Â¯Â¯":9000,"ĠÄ¯Ã¯Ãģ":9001,"ÄıÃ£":9002,"Ã°Ä·":9003,"ÃĶÃĲ":9004,"ÃĶÄ¯Ãģ":9005,"Â·Â¯Â¯Â¯Â¯Â°":9006,"Â·Â¯Â¯Â¯Â¯Â·":9007,"ÂµÄ¯Ãı":9008,"ĠÂ¯Â¯Â±Â¸Â¯":9009,"ÃĩÅĲ":9010,"Â»Â¯Â¯Â·":9011,"Â¸Â¯Ã·Â±Â¯Â¯":9012,"Ä¯ÃıÄ¯Ã¯":9013,"Ä¯ÃıÃĲ":9014,"Ã·Â¯Â¯Â·Â°Â¯Â¯":9015,"ĠÂ¿ÃĹÂ¯Â¯":9016,"ĠÂ¿Â±Â±Â¯":9017,"ĠÂ¯Â°Â¯Â¯Ã·Â´Â¯Â¯":9018,"Â¯Â°Â¯Â¯Â´Â¯Â¯":9019,"Â¯Â°Â¯Â¯Â¯Â±Â¯":9020,"ĠÂ¯Â°Â¯Â¯Â¯Â¿Â¿Â¯":9021,"Ä¹Ã³":9022,"ÅĲÃĵ":9023,"ÄĢÃ±":9024,"ÄĢÃĲ":9025,"Â¿Â·Â¯Â±Â¯Â¯":9026,"ĠÂ·Â°Â°Â¯":9027,"Ä¯Ã±ÃıÃĥ":9028,"Â·Â°Â¯Â¯Â±Â¯":9029,"Â·Â°Â¯Â¯Â¿Â¯":9030,"ĠÄ¯Ä¯Ãĵ":9031,"ÅģÄ¯Ãĥ":9032,"ĠÂ¯ÃĹÃ·Â¯Â¯Â¯Â¯Â¯":9033,"ĠÂ¯ÃĹÂ´Â¯Â¯Â¯Â±Â¯":9034,"ĠÂ¯Â¯Â´Â¯Â°":9035,"Â»Â¯Â¯Â·Â¯":9036,"Â»Â¯Â¯Â¿Â¯":9037,"ÄĩÄ°":9038,"ĠÂ¯Â¯Ã·Â°Â·Â´Â¯Â¯":9039,"ĠÂ¯Â¯Ã·Â°Â·Â±Â¯Â¯":9040,"ĠÂ¯Â¯Ã·Â°Â¿Â´Â¯Â¯":9041,"Ã¯ÃĳÄ¯Ã³":9042,"ÃħÄº":9043,"ĠÂ¯Ã·Â¸Â¯Â¯Â¯Â°Â¯":9044,"ĠÂ¯Â¯Â·Â°Â¿Â¸Â¯Â¯":9045,"ĠÂ¯Â¯Â·Â°Ã·Â±Â¯Â¯":9046,"Â°Â°Â¯Â°Â¯":9047,"Â¯ÃĹÃĹÂ¯Â¯":9048,"Â¯ÃĹÂ¯Â¿Â¯":9049,"Ã¯Ä¯Åı":9050,"Ã¯Ä¯ÃĲ":9051,"Ä¯ÃĵÄ¿":9052,"ĠÂ¯Â¯Â¯Â¯ÃĹÃ·Â¯Â¯":9053,"ĠÂ¯Â¯Â¯Â¯ÃĹÂ°Â±Â¯":9054,"ĠÂ¯Â°Â°Â¯Â´Â¯Â¯Â¯":9055,"Â¯Â°Â±Â°Â¯Â¯":9056,"Â¯Â¯Â°Â¯Â±":9057,"ÄĳÃĢ":9058,"Ä¯ÄģÃĺ":9059,"Â¯Â¯Â¯Â·Â¶Â¯":9060,"Å·Ä±":9061,"ĠÂ¯Â±Â°Ã·Â±Â¯Â¯Â¯":9062,"ĠÂ¯Â±Â±Â¯Â¸Â¯Â¯Â¯":9063,"ĠÂ¯Â±Â±Â¯Â·Â±Â¯Â¯":9064,"Â¯Â°Â¯Â¿":9065,"ÃıÄ¯Ä·":9066,"ÃĹÂ¯Â»Â¯Â¯Â¯":9067,"ÄŁÃģ":9068,"ÄŁÃĵ":9069,"Â¶Â¯Â¯Â°Â¯Â¯":9070,"ĠÂ¯Â¯Â´Â·":9071,"ĠÂ¯ÃĹÂ¯Â¯Â¿Â°Â¯Â¯":9072,"ĠÂ¿Â·Â¯Â¯Â¿Â±Â¯Â¯":9073,"ĠÂ¯Â¿Â±Â¯ÃĹÂ¯Â¯Â¯":9074,"Â¯Â¯Â±Â¯Â°":9075,"ĠÂ¯Â°Â¯Â°Â¯Â±Â¯Â¯":9076,"ĠÂ¿Â¯Â¯Â¯Â¸Â¯Â¯Â¯":9077,"ĠÂ¯Â¯Â·Â°Â¯Â±Â±Â¯":9078,"ĠÂ¿Â·Â¯Â¯Â¯Â·Â´Â¯":9079,"ĠÂ¯Â·Â°Â¯Â¯Â¿":9080,"ĠÂ¯Â¿Â°Â±Â¯Â¯Â¯Â¯":9081,"ĠÂ¿Â¯ÃĹ":9082,"ĠÂ¿Â¯Â±Â¯Â¯Â·Â¯Â¯":9083,"ĠÂ¿Â¯Â¸Â¯Â¯Â¯Â¯Â¯":9084,"ĠÂ¿Â¯Â¿Â¯Â·Â¯Â¯Â¯":9085,"Â¯Â¯Ã·Â¿Â¯Â¯":9086,"ĠÂ¯Ã·Â¯Â¯Â¿":9087,"ĠÂ·Â¯Â¯Â¯Ã·Â¯Â¯Â¯":9088,"ĠÂ·Â¯Â¯Â¯Â´Â¯Â¯Â¯":9089,"Ä¯ÅıÄ¯":9090,"ÃıÂºÃ¯ÃĻ":9091,"Â¯Â¿Â¯Â·":9092,"ĠÂ¿Â¯Â¯Â¯Â¯ÃĹ":9093,"ĠÂ·Â¯Â¯Â¯Â¯Â·Â´Â¯":9094,"ĠÂ¯Â·Â·Â¯Â·Â°Â¯Â¯":9095,"ĠÂ¯Â¿Â±Â±":9096,"Â·Â°Â¿Â¸Â¯Â¯":9097,"ĠÂ¯Â¯Â·Â±Â¯Â°Â°Â¯":9098,"ĠÂ¯Â¯Â±Â±Â´Â¯Â¯Â¯":9099,"ĠÂ¯Â¿Â´Â¯Â¯ÃĹÂ°Â¯":9100,"Ã¯ÅıÄ¯":9101,"ĠÂ¯Â¿Â¿Â¯ÃĹÂ¯Â¯Â¯":9102,"Â°Â¯Â·Â·Â¯Â¯":9103,"Ä¯Ã°Ãı":9104,"ĠÂ¯Â¯Â°Â±Â¿Â±Â¯Â¯":9105,"ĠÂ¯Â¯Â¯Â¯Â»Â¸Â¯Â¯":9106,"ĠÃ¿Ãĥ":9107,"Ã¯Ã¸Ãģ":9108,"ĠÂ¯Â·Â°Â±Â¯Â¯Â¯Â¯":9109,"ĠÂ°Â¯Â°Â¯":9110,"ĠÂ¯Â¯Â°Â¯Â¿ÃĹÂ¯Â¯":9111,"ĠÂ¯Â¯Â¿Â¯Â¿Â»Â¯Â¯":9112,"ÅıÃĳÃ¯Ãĥ":9113,"ĠÂ¯Â¯Â·Â·Â·Â¯Â¯Â¯":9114,"ĠÅ¯ÃĢ":9115,"ĠÂ¯Â¯Â·Â·Â¯Â´Â¯Â¯":9116,"ĠÂ¯Â¯Â¯Â»Â¯ÃĹÂ¯Â¯":9117,"ĠÂ¯Â¿Â·Â¯Â¿Â»Â¯Â¯":9118,"ĠÂ¯Â·Â´Â¯Â¿Â¯Â¯Â¯":9119,"ĠÂ¯Â°Â¯Â¯Â·Â·Â¯Â¯":9120,"ĠÂ¯Â¯Ã·Â°Â¯Â¯Â¸Â¯":9121,"Â¿Â¯Â¯Â¿Â´Â¯":9122,"ĠÂ¯Â¿Â¿Â·Â¯Â¯Â¯Â¯":9123,"ĠÂ¯Â¯Â±Â°Â¯Â¯Â´Â¯":9124,"ĠÃ¯ÅıÄģ":9125,"ĠÂ¯Â¿Â·Â¯Ã·Â¸Â¯Â¯":9126,"ÃıÃĴÃ¯":9127,"ĠÂ´Â¯Â¯Â¯Â¯Â°Â¯Â¯":9128,"ĠÂ¯Â¯Â¯Â¯Â°Â¯Â¯Â±":9129,"ĠÂ¸Â¯Â¯Â±Â¯Â¯Â¯Â¯":9130,"ĠÂ¯Â°Â°Â¿Â·Â¯Â¯Â¯":9131,"Ã¦":9132,"Å¼":9133,"ĠÃ´":9134,"ĠÄ¸":9135,"ĠÂ±Â¯Â¯Â°Â¯":9136,"ĠÃµ":9137,"ĠÅ£":9138,"ĠÄıÃĢ":9139,"Â¯Â¯Â±Â¿Â¯Â¯Â¯":9140,"Â±Â°Â¿":9141,"Ã¯Ã«":9142,"Ã¯Ãį":9143,"Ã¯Ã¨":9144,"ĠÂ¯Â¯Â¯Â¯Â¯Â¶Â°Â¯":9145,"Ä¯Ã¥":9146,"Ä¯Å²":9147,"Â·Â´Â¯Â¯Â¯":9148,"ÃıÅĩ":9149,"ÃıÄ¯Ã¯Ãı":9150,"Â¯Â¯Â¯Â¯Ã·Â±Â¯":9151,"Â¿Â¸Â¯Â¯Â¯Â¯Â¯":9152,"Â¿Â°Â¿Â±Â¯Â¯":9153,"Â°Â¯Â¯Â°":9154,"Â°Â¯Â¯Â¿Â¸Â¯":9155,"Â·Â¯Â¯Â¸Â¯":9156,"Â·Â¯Â¯Â¿Â±Â¯Â¯":9157,"Â¿Â¯Â¯Â¯Â»Â¯Â¯":9158,"ĠÂ¯Â¯Â¿Â¯Â¯Â¯Â¯Â·":9159,"Â·Â¯Â¯Â¯Â°":9160,"Ã¿Å¯":9161,"Ã¿Ã¯Ã¯":9162,"Â´Â±":9163,"ÃĥÅ¯":9164,"ÃĥÄ¯Ãĵ":9165,"ÃĥÃ¯Ã±":9166,"ĠÂ¯Â¯Â·Â¯Â¸Â°Â¯Â¯":9167,"ĠÂ¯Â¯Â¯Â¯Â¯Â¯Â·Â±":9168,"ĠÂ¯Â·Â¸Â¯Â¿Â¯Â¯Â¯":9169,"ĠÂ¯Â·Â´Â¯Â¯Â¯Â°Â¯":9170,"Ã·Â¯Â¯Â¯Â¯Â±Â¯":9171,"Ä¿Å±":9172,"Ä¿Ãķ":9173,"Â´Â¯Â¯Â¿Â°Â¯":9174,"Ã¯ÃıÃĵ":9175,"Ã¯ÃıÃĦ":9176,"Ã¯ÃıÃıÃģ":9177,"ĠÂ¯Â¯Â±Â¯Â°Â¿Â¯Â¯":9178,"Â¸Â±":9179,"ÃĵÂº":9180,"ĠÂ¯Â¯Â±Â¯Â¯Â´Â°Â¯":9181,"ĠÂ¯Â¯Â±Â¯Â¯Â±Â¿Â¯":9182,"Ã³ÃĦ":9183,"Ä·ÅĹ":9184,"Ä·Ä¯Ã¿":9185,"Ä·Ãķ":9186,"Ä·Ä³Ã¯":9187,"ĠÂ¯Â±Â·Â¯Â¯Â¯":9188,"ĠÂ¯Â±Â·Â¯Â¯Â¿Â¯Â¯":9189,"ĠÂ¯Â±Â¿Â¯ÃĹÂ¯Â¯Â¯":9190,"ĠÂ¯Â±Â´Â¯Â¯Â±Â¯Â¯":9191,"ĠÂ¯Â±Ã·Â°":9192,"ĠÂ¯Â±Â¿Â¯Â·Â´Â¯Â¯":9193,"ĠÂ¯Â±Â¿Â·Â¯Â¯Â¯Â¯":9194,"Ä³Åĵ":9195,"ÃĲÄ¯Ã¿":9196,"ÃĢÃĺ":9197,"ĠÄ¯ÅĲ":9198,"ĠÄ¯ÅıÃģ":9199,"ĠÂ¯Â¯Ã·Â¯Â¯Â·Â·Â¯":9200,"ĠÂ¯Â¿Â¯Â¯Â¯Â±Â·Â¯":9201,"Ä±Ãī":9202,"Â¸Â¯Â¯Â·Â¸Â¯":9203,"Å¯Ä¡":9204,"ĠÃıÅĵ":9205,"ĠÃ¯ÅĵÃģ":9206,"ÃĻÃ¿":9207,"Ã¹ÃĻ":9208,"Ã¹Ã°":9209,"ÄĥÅı":9210,"ÅĥÃĥ":9211,"Â¯Â¿Â°Â°Â¯":9212,"ĠÂ¯Â°Â±Â¯Â¯Â±Â°Â¯":9213,"ĠÂ¯Â°Â¿Â¯Â·":9214,"ĠÂ¯Â°Â¿Â¯ÃĹÂ¯Â¯Â¯":9215,"Â¯Â·Â·":9216,"Â¯Â·ÃĹÂ¯Â¯Â¯":9217,"ÄıÃıÃ¯":9218,"Ã°Ä¿":9219,"ÃĶÄ¯Ã¯":9220,"Â²Â²":9221,"ĠÂ¯Â¯Â±Â±Â¯Â´Â¯Â¯":9222,"ĠÂ¯Â¯Â±Â·Â·Â¯Â¯Â¯":9223,"ÃĺÃģ":9224,"ÃĺÅĦ":9225,"ÃĦÄ¯Ä¯":9226,"ÃĩÄ±":9227,"ÃĩÃĩ":9228,"ĠÃ¯ÃıÅ¯":9229,"ĠÃ¯ÃıÃ¸":9230,"Â»Â¿Â¯Â¯Â¯":9231,"Â»Â¯Â¯Â´Â¯Â¯":9232,"ĠÂ¯Â±Â¯Â¯Â¯Â°":9233,"ĠÂ¯Â±Â¯Â¯Â¯ÃĹÂ´Â¯":9234,"ĠÂ¿Â¿Â·Â¯Â¯":9235,"ĠÂ¯Â°Â¯Â¯Ã·Â±Â¯Â¯":9236,"ĠÂ¯Â°Â¯Â¯Â±Â±Â¯Â¯":9237,"Ä¯ÃĥÄ¯Ä¯":9238,"ĠÂ¯Â¯Â¯Â·Â¯Â¿Â¸Â¯":9239,"ĠÂ¯Â¯Â°Â´Â¯":9240,"ĠÂ¯Â¯Â°Â·Â¯Â¿Â¯Â¯":9241,"Â¯Â°Â¯Â¯Â±Â°Â¯":9242,"ĠÂ¯Â°Â¯Â¯Â¯Â°Â±Â¯":9243,"ĠÂ¯Â¯Â¿Â°Â¿Â¸Â¯Â¯":9244,"Ä¹Ã¿":9245,"ÅĳÄ³":9246,"Ã¯Ã¯Ãģ":9247,"Ä¯Ä¯Ä±":9248,"ÄĢÃĻ":9249,"ĠÂ·Â¸Â¯Â¯Â¯":9250,"ÂºÃ¯Ãĳ":9251,"ĠÂ¯Â¯Â¯Â·Ã·Â±Â¯Â¯":9252,"ĠÄ¯Ä¯Ãĳ":9253,"Å¿Ã¹":9254,"ÃıÃģÃ¯ÃĲ":9255,"ĠÂ¯ÃĹÃĹÂ¯Â¯Â¯Â¯Â¯":9256,"ĠÂ¯ÃĹÂ±Â¯Â°Â¯Â¯Â¯":9257,"ĠÂ¯ÃĹÂ±Â¯Â¯Â±Â°Â¯":9258,"ĠÂ¯ÃĹÂ¯Â¿Â¯Â¯Â¯Â¯":9259,"ĠÂ¯Â¯Â¸Â±Â¯Â°Â¯Â¯":9260,"ĠÂ¯Â¯Â¸Â¯Â¿Â´Â¯Â¯":9261,"ÄĹÃ°":9262,"ÄĹÂµ":9263,"ĠÂ¯Â¯Â¯Â¿Â¿Â°Â¯Â¯":9264,"ĠÂ¯Â¯ÃĹÂ°Â·Â±Â¯Â¯":9265,"ĠÂ¯Â¯Â¯Â¯Â¯Â¿ÃĹÂ¯":9266,"ĠÂ¯Â¯Â°Â¯Â¯Â¯ÃĹÂ¯":9267,"Â¯ÃĹÂ¯Â¿Â¯Â¯Â¯":9268,"Â¯ÃĹÂ¯Â±Â¯Â¯Â¯":9269,"Ã¯Ä¯Âµ":9270,"Â¿Â°Â¯Â¯Â°Â¯":9271,"ĠÂ¯Â¯Â¯Â´Â¯Ã·":9272,"ĠÂ¯Â¯Â¯Â´Â¯Â»Â¯Â¯":9273,"Â·Â°Â¯Â·Â¯Â¯Â¯":9274,"Â·Â°Â¯Â·Â°Â¯":9275,"Ä¯ÄĥÄ¯":9276,"Ä¯ÂµÅ¯":9277,"Â¯Ã·Â¯Â±Â¯":9278,"Ã¯ÃĺÄ¯":9279,"ĠÂ¯Â¯Â»Â¯Â¸Â¯Â¯Â¯":9280,"ĠÂ¯Â¿Â°Â¯Â¯Â°Â°Â¯":9281,"Â¯Â°Â·Â°Â¯Â¯":9282,"ĠÂ¯Â±Â°Â·Â±Â¯Â¯Â¯":9283,"ÃĹÂ¯Â·Â¯":9284,"ĠÂ¯Â¯Â´Â°Â¯Â±Â¯Â¯":9285,"ĠÂ¿Â·Â¯Â¯Â°Â°Â¯Â¯":9286,"ÃµÃĳ":9287,"Â¯Â¯Â±Â¯Â±Â¯":9288,"ĠÂ¿Â¯Â¯Â¯Â°Â°Â¯Â¯":9289,"ĠÂ¿Â¯Â¯Â¯Â·Â´Â¯Â¯":9290,"ĠÂ¯Â°Â°Â¯Â¯ÃĹÂ°Â¯":9291,"ĠÂ¯Â¯Â¿Â°Â¯Â·Â´Â¯":9292,"ĠÂ¯Â¯Â¿Â°Â¯Â¿Â¸Â¯":9293,"ĠÂ¯Â¯Â·Â°Â¯Â°Â°Â¯":9294,"ĠÂ¿Â·Â¯Â¯Â¯Â¿Â°Â¯":9295,"ĠÂ¯Â·Â°Â¯Â¯Â¿Â·Â¯":9296,"ĠÂ¯Â·Â°Â¯Â·Â·Â¯Â¯":9297,"ÄĻÃĵ":9298,"ĠÂ¯Â¯Â¸Â¯Â¯Â¿Â°Â¯":9299,"Ã¯Ä±Ãı":9300,"ĠÂ¯Â¯Â¿Â´Â°Â¯Â¯Â¯":9301,"ĠÂ¯Ã·Â°Â¯Â¯ÃĹ":9302,"Â¯Â¯Ã·Â°":9303,"ĠÂ¯Â¯Â¯Â¸Â¿Â±Â¯Â¯":9304,"Ä¯Ä³Ãı":9305,"Ã¯Ã°Ä¯Ã¯":9306,"Ã¯ÃĦÃ¯":9307,"Å°Ã³":9308,"Â¯Â·Â¯Â´Â¯Â¯":9309,"ĠÂ±Â·Â¯Â¯Â¯":9310,"ĠÂ·Â¯Â¯Â¯Â¿Â°Â¯Â¯":9311,"ĠÂ·Â¯Â¯Â¯Â·Â´Â¯Â¯":9312,"Ä¯Ä±Ãģ":9313,"ÆĥÃı":9314,"ÃıÃ³Ãı":9315,"Ä¯Ä·Ä¯":9316,"ÃıÄ±Ãĳ":9317,"ĠÂ·Â¯Â±":9318,"ÃıÂºÃ¯Ãĳ":9319,"ĠÂ¯Â·Â±Â¯Â¸Â¯Â¯Â¯":9320,"Ä¯ÅĥÃ¯":9321,"ĠÂ¯Â¯Ã·Â±Â¯Ã·Â±Â¯":9322,"ĠÂ¿Â¿Â¯Â¯Â·Â°Â¯Â¯":9323,"ĠÂ¯Â¸Â°":9324,"ĠÂ¯Â´Â°":9325,"ĠÂ¯Â´Â·Â¯Â¯Â¯Â¯Â¯":9326,"ĠÂ¯Â¯Â·Â±Â¯Â±Â±Â¯":9327,"ĠÂ¯Â¯Â¯Â¯Â¯Ã·Â¿Â¯":9328,"ĠÂ¯Â»Â±Â¯Â¯Â°Â¯Â¯":9329,"ĠÂ¿Â¯Â¯Â·":9330,"ĠÂ¿Â¿Â¯Â¯Â¯Â¸Â¯Â¯":9331,"ĠÂ¿Â¿Â¯Â¯Â¯Â±Â±Â¯":9332,"ĠÂ±Â¯Â°Â¯":9333,"ĠÂ±Â¯Â·Â¯Â±Â¯Â¯Â¯":9334,"ĠÃ¿Ä¯":9335,"ĠÂ¯Â·Â°Â°Â¯Â¯Â¯Â¯":9336,"ĠÂ°Â¯Ã·Â°Â¯Â¯Â¯Â¯":9337,"ĠÂ·Â·Â¯Â¯ÃĹÂ¯Â¯Â¯":9338,"ÅıÃ±Ä¯":9339,"ĠÂ¯Â¿Â¸Â¯Â¯ÃĹÂ·Â¯":9340,"ĠÂ¯Â¯ÃĹÂ´Â¯ÃĹ":9341,"ĠÂ¯Â¯Â¿Â¸Â¯Â´Â¯Â¯":9342,"ĠÂ·Â·Â¯Â¯Â¯Â´Â¯Â¯":9343,"ĠÂ·Â·Â¯Â¯Â¯Â¿Â·Â¯":9344,"ĠÂ¯ÃĹÂ´Â¯Â¯Â¿Â·Â¯":9345,"Ã¿ÃĳÄ¯Ã¯":9346,"Â¿Â¯Â¯Â·Â¸Â¯":9347,"ĠÂ¯Â¯Â·Â´Â¯ÃĹÂ¯Â¯":9348,"ĠÃ·Â¸Â¯Â¯Â¯":9349,"ĠÃĹÂ±Â¯Â¯Â¯Â¯Â¯Â¯":9350,"ĠÂ¯Â·Â¸Â¯Â°Â¯Â¯Â¯":9351,"Ä¯Ã²Ãı":9352,"Ã¿ÂµÅı":9353,"ĠÂ¯Ã·Â´Â¯Ã·Â°Â¯Â¯":9354,"ĠÂ°Â¯Â¯Â¿Â¯Â¯Â¯Â¯":9355,"ĠÂ¯Â°Â°Â¯Â·Â¿Â¯Â¯":9356,"ĠÂ¯Â±Â¯Â¯Â¯Â·Â¸Â¯":9357,"ĠÂ¯Â¯Ã·Â¸Â¯Ã·Â´Â¯":9358,"ĠÂ¯Â¯Â¯Â¯Â¯Â´Â¿Â¯":9359,"Â¯Â¸Â¯Â±Â¯":9360,"ÃıÅĦÃ¹":9361,"ĠÂ¯Â·Â»Â¯Â±":9362,"ĠÂ¯Â°Â°Â·ÃĹÂ¯Â¯Â¯":9363,"Æĭ":9364,"ĠÅĦ":9365,"ĠÂ°Â¿Â¯Â¯Â¯":9366,"ĠÄĦ":9367,"ĠÃ¡":9368,"ĠÃĳÃı":9369,"ĠÂ¯Â¯Â´Â¯Â¯Â¯Â¯":9370,"ĠÂ¯Â¶Â¯Â¯":9371,"Â°Â¸Â¯":9372,"ĠÂ¯Â¯Â¯Â¯Â¯Â±Â¯Â·":9373,"Ä¯Ã«":9374,"ÃıÃ¯Ãĵ":9375,"ÃıÆĥ":9376,"ÃıÅıÄ¯":9377,"Â¯Â¯Â¯Â¯Â´Â¯Â¯Â¯":9378,"Â¯Â¯Â¯Â¯Â°Â°Â¯Â¯":9379,"Â¿Â±Â·":9380,"Â¿Â°Â¿Â¿Â¯Â¯":9381,"Â°Â¯Â¯ÃĹÂ¯":9382,"Â°Â¯Â¯Â»Â±Â¯":9383,"Â·Â¯Â¯Ã·Â°Â¯":9384,"Â¯Â¯Â¯Â¯Â¯Â¯Â·Â¯":9385,"Â±Â¯ÃĹÂ·Â¯":9386,"Â¿Â¯Â¯Â¯ÃĹÂ¸Â¯":9387,"ĠÂ¯Â¯Â·Â¸Â¯Â¯":9388,"ĠÂ¯Â¯Â·Â¸Â¯Â°Â¯Â¯":9389,"ĠÂ¯Â¯Â·Â¯Â¯Â¯Â¯Â·":9390,"ĠÂ¯Â¯Â¿ÃĹ":9391,"ĠÂ¯Â¯Â¿Ã·":9392,"Â±Â¯Â¯Â¯Â¿":9393,"Â±Â¯Â¯Â¯Ã·Â¯Â¯":9394,"Â´ÃĹÂ¯Â¯":9395,"Â´Â¯Â¯Â¯Â¿Â¯Â¯":9396,"ÃĥÄģ":9397,"ÃĥÃĶ":9398,"ÃĥÄ¯Ãĥ":9399,"ÃĥÅĢ":9400,"ÃĥÄ°Ä¯":9401,"Â°Â¯Â¯Â¯Â¿":9402,"Â°Â¯Â¯Â¯Â±Â°Â¯":9403,"ĠÂ¯Â¯Â¿Â¯Â¿Â¯Â°Â¯":9404,"ĠÂ¯Â¯Â¿Â¯Â°Â¯Â±Â¯":9405,"Ä°Ä¯Ä¯":9406,"Ä°Ãħ":9407,"Ä°Å·":9408,"Ä°Ã¯Ã¿":9409,"Ã·Â¯Â¯Â¿Â¯Â¯Â¯":9410,"Ã·Â±Â¯Â±Â¯Â¯":9411,"Ã·Â¯Â¿Â°Â¯Â¯":9412,"Ã·Â±Â¿Â¯Â¯Â¯":9413,"Ä¯Ã¯Åı":9414,"Ã¯ÃıÄ°":9415,"Ã¯ÃıÃŁ":9416,"Â·Â¯Â¿Â¯Â¯Â¯Â¯":9417,"Â·Â¯Â¿Â¿Â¯Â¯Â¯":9418,"Â·Â¯ÃĹÂ·Â¯":9419,"Â¸Â´Â¯":9420,"Â¸Â¯Â¯Â¯Â¿Â¯Â¯":9421,"ÃĵÃĶ":9422,"ÃĵÅģ":9423,"ÃĵÄ¯Ãĵ":9424,"ĠÂ¯Â¯Â·Â¯Â¯Â±Â¿Â¯":9425,"Ã³ÃĴ":9426,"Ã³Ä°Ãĵ":9427,"ĠÂ¯Â¯Â¿Â¯Â¯Â±Â·Â¯":9428,"ĠÂ¯Â±ÃĹÂ¯Â·Â¯Â¯Â¯":9429,"ĠÂ¯Â±ÃĹÂ±Â¯Â¯Â¯Â¯":9430,"ÃĳÃĳ":9431,"ĠÂ¯Â¯ÃĹÂ¯Â¯Â¿":9432,"ĠÂ¯Â¯ÃĹÂ¯Â·Â¿Â¯Â¯":9433,"Â¯Â¯Â±Â¯Â¯Â±Â¯":9434,"ÃĲÄ¯Ãĥ":9435,"Â¿Â¯Â°Â·Â¯Â¯Â¯":9436,"ÃĢÃ¿":9437,"ÃĢÄ·":9438,"ÃĢÅĳ":9439,"ÃĢÄ¯ÃĻ":9440,"ĠÂ¯Â¯Â¯Â°Â°Â¿Â¯Â¯":9441,"ĠÄ¯ÃıÃģ":9442,"ĠÄ¯Ã¸":9443,"ĠÄ¯ÃĤ":9444,"ĠÂ¯Â¯Â¯Â°Â¯Â¶Â¯Â¯":9445,"ĠÂ¯Â¯Â¯Â°Â¯Â°Â±Â¯":9446,"ĠÂ¯Â¯Ã·Â´Â¯Â¯Â±Â¯":9447,"ĠÂ¯Â¯Â¯Â±Â¯Ã·Â°Â¯":9448,"ĠÂ¯Â¯Â¯Â±Â¯Â´Â°Â¯":9449,"ĠÂ¯Â¿Â¯Â¯Â±Â·Â¯Â¯":9450,"ÅĵÄŁ":9451,"ÅĵÅ¡":9452,"ÅĵÆģ":9453,"ĠÂ¯Â¯Â¯Â¯Â¿Â¿Â°Â¯":9454,"Ä±Å¯":9455,"ÅĹÂµÃ¯":9456,"Â¸Â¯Â¯Ã·":9457,"ÃĹÂ¯Â¯Â·Â¯Â¯Â¯":9458,"Å¯ÄĹ":9459,"ĠÃ¯Âº":9460,"ĠÃ¯ÅĶ":9461,"ĠÃ¯ÄĻ":9462,"ÃĻÃĶ":9463,"ÃĻÄ´":9464,"Ã¹Ä¿":9465,"Ã¹Ä³":9466,"Â¯Â¿Â¸":9467,"ĠÂ¯Â°Â±Â¯Â¿Â±Â¯Â¯":9468,"ÄģÃĥ":9469,"Â´Â¯Â·Â¯":9470,"ĠÂ¯Â¯Â¯Â±Ã·Â±Â¯Â¯":9471,"Â¯Â·Â°Â¯Â¯Â¯Â¯Â¯":9472,"ĠÄ¯Ã¯ÃĢ":9473,"ÄıÃ²":9474,"Ã°ÄĢ":9475,"ÂµÃĵ":9476,"Ã·Â¯Â¯Â¯Â¸Â¯Â¯":9477,"ĠÂ¯Â¯Â±Â±Â¯Â¸Â¯Â¯":9478,"ÃĺÄ¯Ãĥ":9479,"ÃĩÅĹ":9480,"ÃĩÃ¹":9481,"ÃĩÄ´":9482,"Â»Â°Â¯Â¯Â¯Â¯":9483,"Â»ÃĹÂ¯Â¯":9484,"ĠÂ¯Â±Â¯Â¯Â°Â±Â¯Â¯":9485,"Â¸Â¯Â°Â°Â¯Â¯":9486,"Ä¯ÃģÃ¯Ãı":9487,"Ã·Â¯Â¯ÃĹÂ°Â¯":9488,"ĠÂ¯Â±Â°Â¯Â»":9489,"ĠÂ¯Â±Â°Â¯Â±Â¿Â¯Â¯":9490,"ĠÂ¯Â¯Â¯Â·Â¯ÃĹÂ°Â¯":9491,"ĠÂ¯Â¯Â¯Â·Â¯Â·Â´Â¯":9492,"Â¯Â±Â¯Â¯Â°Â¯":9493,"ĠÂ¯Â¯Â°Â±Â¯Â¯":9494,"Â¿Â±Â¯Â¯Â·Â¯Â¯":9495,"Â¯Â°Â¯Â¯Â·Â¯":9496,"ÅŁÄ³":9497,"Â¯Â¯Â¯Â±Â¯Â°":9498,"Â¯Â¯Â·Â¶Â¯":9499,"ĠÂ¯Â°Â¯Â¯Â¯Â´Â°Â¯":9500,"ĠÂ¯Â°Â¯Â¯Â¯ÃĹÂ±Â¯":9501,"Ä¹Âµ":9502,"Ã¯Ã¯ÃĻ":9503,"ĠÂ¯Â±Â°Â¯Â¯ÃĹÂ±Â¯":9504,"Ä¯Ä¯Ä¯Ã¯":9505,"Â¿Â·Â¯Â¿Â·Â¯Â¯":9506,"ĠÂ¯Â¯Ã·Â¯Ã·Â±Â¯Â¯":9507,"ĠÂ·Â±Â¯Â¯Â¯Â°Â¯Â¯":9508,"Ä¯Ã¿Ä¯":9509,"Ä¯Ã¿Ãĳ":9510,"ÂºÄ³":9511,"ĠÄ¯Ä¯Ãĩ":9512,"Ã´Ä¯Ã¯":9513,"ĠÃ¯Ã¯ÃŁ":9514,"ĠÂ¯ÃĹÂ·Â¯Â¿Â¯Â¯Â¯":9515,"ĠÂ¯ÃĹÂ´Â¯Â¿Â·Â¯Â¯":9516,"ĠÂ¯Â¯Â¸Â°Â¯Â°Â¯Â¯":9517,"ĠÂ¯Â¯Â¸Â°Â¯Â¿Â¯Â¯":9518,"Ã¸Ãģ":9519,"ĠÂ¯Â¯Â±Â°Â·Â´Â¯Â¯":9520,"Â¯Â¯Â¿Ã·Â¯Â¯":9521,"ĠÂ¯Â¯Â±Â¯Â¯Â¯Â»Â¯":9522,"ĠÂ¯Â¿Â¯Â±Â·Â¯Â¯Â¯":9523,"Ä¯Ã³Ãģ":9524,"ĠÂ¯Ã·Â·Â¯Â¯Â·Â¯Â¯":9525,"ĠÂ¯Ã·Â´Â¯Â·":9526,"ĠÂ¯Â¯Â¿Â¯Â¯Â¯Â»Â¯":9527,"ĠÂ¯Â¯Â·Â°Â±Â°Â¯Â¯":9528,"ĠÂ¯Â¯Â·Â°Â¿Â¿Â¯Â¯":9529,"Ã¯ÃĶÃı":9530,"ÃıÃ¯Ã¿":9531,"Ä¯ÃĳÃĢ":9532,"ĠÃıÃıÄ¯":9533,"ĠÂ¯Â¯Â¿Â±Â¸Â¯Â¯Â¯":9534,"ĠÂ¯Â·Â¯Â±Â¯Â¿Â¯Â¯":9535,"ĠÂ¯Â·Â¯Â°Â°Â¯Â¯Â¯":9536,"Ã£Ãı":9537,"ÃıÃĦÄ¯":9538,"Ä¯ÂµÃ¯Ãĵ":9539,"Â¯Ã·Â±Â¯Â¯Â¯Â¯":9540,"ĠÂ¯Â¯Â»Â·Â¯Â¯Â¯Â¯":9541,"ĠÂ¯Â¯Â»Â¯Â¯Â·Â°Â¯":9542,"ĠÂ¯Â¯Â»Â¿Â¿Â¯Â¯Â¯":9543,"ĠÂ¯Â¯Â¯Â´Â¯Â¿Â¿Â¯":9544,"ĠÂ¯Â¿Â·Â¿Â¿Â¯Â¯Â¯":9545,"ĠÂ¯Â±Â°Â·Â·Â¯Â¯Â¯":9546,"ÃıÄ¯Åĥ":9547,"ÄŁÃĢ":9548,"Â¶Â°Â¯Â¯":9549,"Â¶Â¯Â±Â°Â¯":9550,"ĠÂ¯Â±Â¯Â¿Â°Â¯Â¯Â¯":9551,"ĠÂ¯Â¯Â´Â°Â¯Â°Â¯Â¯":9552,"ĠÂ¯Â¯Â´Â°Â¯Â¿Â¯Â¯":9553,"ÃĹÂ°Â¯ÃĹÂ¯Â¯":9554,"ÃĭÄ°":9555,"ĠÂ¯Â¯Â¿Â±Â¯Ã·Â¯Â¯":9556,"ĠÂ¯Â¯Â¿Â±Â¯Â¿Â¿Â¯":9557,"ÃµÃ¯":9558,"ÅĽÃ³":9559,"ĠÂ¯Â¯Â¿Â¯Â·Â±Â°Â¯":9560,"Â¿Â°Â¯Â¿Â¯Â¯Â¯":9561,"ĠÂ¿Â¯Â¯Â¯Â»Â¯Â¯Â¯":9562,"ĠÂ¿Â¯Â¯Â¯Â¿Â°Â¯Â¯":9563,"ĠÂ¯Â¯Ã·Â±Â±Â¯Â¯Â¯":9564,"ĠÂ¯Â¯ÃĹÂ±Â¯ÃĹÂ±Â¯":9565,"Ä¯Ä¿Ä¯":9566,"ÄĦÃı":9567,"Â¯Â¯Â·Â¯Â¿Â¯":9568,"Â¯Â¯ÃĹÂ»Â¯":9569,"ĠÂ¯Â¯Â¸Â¯Â¯Â·Â±Â¯":9570,"ĠÂ¿Â¯Â´Â¯Â¯Â¯Â¯Â¯":9571,"ĠÂ¿Â¯Ã·Â¯Â¯Â¯Â¯Â¯":9572,"ĠÂ¯Â¯Â¯Â¸Â¸Â¯Â¯Â¯":9573,"ĠÂ¯Â¯Â¯Â¸Â¯Â·Â¸Â¯":9574,"Â½Â¹":9575,"Ä¯Ä³Ãģ":9576,"Å°Ãģ":9577,"ĠÂ¯Ã·Â¯Â¯Â±Â°Â¯Â¯":9578,"ĠÂ¯Â±Â±Â¯Â¯Â¿":9579,"ÃıÃĳÃı":9580,"ĠÂ·Â¯Â¯Â¯ÃĹ":9581,"ĠÂ·Â¯Â¯Â¯Â·Â°Â¯Â¯":9582,"Ä¯ÅıÃı":9583,"ĠÂ·Â¯Â¸Â¯Â¯Â¯Â¯Â¯":9584,"ĠÂ¯Â¯Â¯Â¯Â¯Â¯Â¯ÃĹ":9585,"Ä¯ÅĥÃ¹":9586,"ĠÂ¿Â¿Â¯Â¯Â°Â°Â¯Â¯":9587,"Ä²Ä¯":9588,"ĠÂ·Â¯Â¯Â¯Â¯Ã·Â¯Â¯":9589,"ĠÂ¯Â¸Â°Â¯Â¯Â°Â¯Â¯":9590,"ĠÂ¿Â·Â¯Â°":9591,"ĠÂ¯Ã·Â¯Â¯Â¯Â°Â°Â¯":9592,"ĠÂ¯Â¯Â±Â¯Â¿Â±Â°Â¯":9593,"Â±Â·Â±Â¯Â¯Â¯":9594,"ĠÂ³Â³Â¹":9595,"Â±Â¯Â¿Â´Â¯":9596,"Â¯Â¯Â±Â°":9597,"ĠÂ¯Â¯Â·Â±Â¯Ã·Â¯Â¯":9598,"ĠÂ¯Â°Â°Â±":9599,"ĠÂ¯Â°Â°Â¿Â¯Â¯Â¯Â¯":9600,"ĠÂ¯Â¯Â·Â¯Â¿Â¿Â·Â¯":9601,"ĠÂ¯Â·Â±Â¯Â¯Â¸Â¯Â¯":9602,"ĠÂ¯Â¿Â¿Â¯Â·Â±Â¯Â¯":9603,"ĠÂ¯Â¯Â¯Â°Â¿Â±Â°Â¯":9604,"Ã¯Ã´Ä¯":9605,"ĠÂ¯Â¯Â°Â±ÃĹÂ¯Â¯Â¯":9606,"Â±Â¯Â¯Â·Â¿Â¯":9607,"ĠÂ¯Â¯Ã·Â´Â¯Â·Â°Â¯":9608,"ĠÂ¯Â¯Ã·Â´Â¯Â·Â´Â¯":9609,"ĠÂ¯Â¸Â¯Â¯Â·":9610,"Â±Â°Â°Â¯Â¯Â¯":9611,"Â±Â°Â´Â¯Â¯":9612,"Â¿Â°Â±Â¯Â¯Â¯":9613,"ĠÂ¿Â¿Â¯Â¿":9614,"ĠÂ¯Â¯Â·Â·Â±Â¯Â¯Â¯":9615,"Â°Â±Â¯Â°Â¯":9616,"ĠÂ¯Â·Â·Â¯Â¯Â¿Â¿Â¯":9617,"ĠÅ¯ÃĶ":9618,"ÅıÄ±Ä¯":9619,"ĠÂ¯ÃĹÂ´Â¯Â¯Â±Â¯Â¯":9620,"Ä¿ÃĳÄ¯":9621,"ĠÄ¯Ä¿Ã¹":9622,"ĠÂ±Â°Â¯Â¯Â·":9623,"ĠÂ¯Â¯Â·Â´Â¯Ã·Â¯Â¯":9624,"ĠÂ¯Â¯Â¯Â»Â·Â¯Â¯Â¯":9625,"ĠÂ±Â¯Â¯Â±Â¿Â¯Â¯Â¯":9626,"ĠÃĹÂ¸Â¯Â¯Â¯":9627,"ĠÃĹÂ¿Â¯Â¯Â¯Â¯Â¯Â¯":9628,"ĠÂ±Â°Â¯Â¯Â¯Ã·":9629,"ĠÂ±Â±Â¯Â¯Â·Â¯Â¯Â¯":9630,"ĠÂ¯Â»Â¯Â¯Ã·Â¯Â¯Â¯":9631,"Ä¿ÃĵÃĢ":9632,"ĠÂ¯Ã·Â¸Â¯Â¯Â·":9633,"ĠÂ¯Â¯Â¯Â°ÃĹÂ¿Â¯Â¯":9634,"ĠÂ·Â±Â¯Â¯Â¯Â±Â°Â¯":9635,"ĠÂ¯Â¯Â±Â¯Â±Â¸Â¯Â¯":9636,"ÃıÄ¸Ãĵ":9637,"ĠÂ±Â¯Â¯Â¯Â¯Â¯Â¿Â¯":9638,"ĠÃıÃĦÃ¹":9639,"ĠÂ¯Â¯Â¯Â¯Â¯Â»Â´Â¯":9640,"ĠÂ¿Â¿Â¯Â¯Â¯Â¯Â¿Â¯":9641,"ĠÂ¸Â¯Â¯Â¯Â¿Â¸Â¯Â¯":9642,"ĠÅĽ":9643,"Â¯Â´Â±Â¯":9644,"Â¯Â¯Â¯Â´Â¯Â¯Â¯Â¯":9645,"ĠÂ¯Â¯Â¯Â¯Â¿Â¯Â¯Â·":9646,"ĠÂ¯Â¯Â¯Â¯Â¯Â¶":9647,"Â·Â¸":9648,"Â·Â°Â¯Â¯Â¯Â±Â¯":9649,"ÃıÄº":9650,"ÃıÃ¶":9651,"Â¯Â¯Â¯Â¯Â°Â±Â¯":9652,"Â¿Â¿Â°Â¯Â¯Â¯":9653,"Â°Â¯Â¯Â±Â¯Â¯Â¯":9654,"Â±Â¯Â¯Ã·Â´Â¯Â¯":9655,"Â·Â¯Â¯ÃĹÂ°Â¯Â¯":9656,"Â±Â¯Â¯Â¯Â¸Â¯Â¯":9657,"Ã¿Åĵ":9658,"Ã¿Ä¯Ãĵ":9659,"Ã¿Ä³Ä¯":9660,"Â´Â¯Â¯Â¯Â·Â¯Â¯":9661,"ÃĹÂ±Â¯Â¿Â¯Â¯":9662,"ÃĹÂ¯Â¸Â¯Â¯Â¯":9663,"ÃĹÂ¯Â·Â´Â¯Â¯":9664,"ÃĥÄ¯Ã±":9665,"ĠÂ¯Â¯Â·Â¯Â¸":9666,"ĠÂ¯Â¯Â·Â¯Â´Â±Â¯Â¯":9667,"ĠÂ¯Â¯Â·Â¯Â±Â¯Â±Â¯":9668,"ĠÂ¯Â¯Â·Â¯Â¿Â¯Â¿Â¯":9669,"ĠÂ¯Â¯Â·Â¯Â´Â·Â¯Â¯":9670,"ĠÂ¯Â¿Â¿Â°":9671,"Â°Â¯Â¯Â¯Â°":9672,"Ä°Ä¹":9673,"Ã·Â¸Â¯Â¯Â¯":9674,"Ã·Â´Â¯Â¯Â¯Â¯Â¯":9675,"Ã·Â¸Â¯Â¯Â¯Â¯":9676,"Ã·Â¯Â¿Â¸Â¯Â¯":9677,"Ä¿Ä°":9678,"Ä¿ÃĶ":9679,"Ä¿ÃıÃ¯":9680,"Ä¿Ã¡":9681,"Ä¯Ã¯Ã°":9682,"Ã¯ÃıÄ³":9683,"Â·Â¯Â¸Â°Â¯Â¯":9684,"Â·Â¯Ã·Â´Â¯Â¯":9685,"Â·Â¯ÃĹÂ¸Â¯":9686,"Â·Â¯Â´Â°Â¯Â¯":9687,"Â¸Â¯Â¯Â¯Â°Â¯Â¯":9688,"ÃģÃĶ":9689,"Â¯Â¯Â°Â¯Â¯Â°Â¯":9690,"ÃĵÄĢ":9691,"Ã±Ã¯ÃĢ":9692,"ĠÂ¯Â¯Â±Â¯Â¯Ã·Â·Â¯":9693,"Ã³Ã¯Ãĳ":9694,"ĠÂ¯Â¯Â¿Â¯Â¯Â¸Â°Â¯":9695,"Ä·Äı":9696,"Ä·Ãī":9697,"ĠÂ¯Â±Â±Â°Â¯":9698,"ÃĳÄ°Ã¿":9699,"ĠÂ¯Â¯ÃĹÂ¸Â¯Â¯Â°Â¯":9700,"ĠÂ¯Â¯ÃĹÂ´Â¯Â¯Â±Â¯":9701,"ÃĲÄ¯Ã³":9702,"Â¿Â¯Â»":9703,"ÃĢÃ¯Ãı":9704,"ĠÂ¯Â¯Â¯Â°ÃĹÂ´Â¯Â¯":9705,"ĠÂ¯Â¯Â¯Â°Â·Â¯Â±Â¯":9706,"ĠÄ¯Ã²":9707,"ĠÂ¯Â¯Â¯Â°Â¯Â±Â·Â¯":9708,"ĠÂ¯Â¯Â¯Â°Â¯Ã·Â·Â¯":9709,"ĠÂ¯Â¯Ã·Â´Â¯Â¯Â·Â¯":9710,"ÅĵÅı":9711,"ÅĹÃĲ":9712,"ÃĹÂ¯Â¯Â±Â±Â¯":9713,"ĠÃıÅĹ":9714,"ĠÃıÅıÃģ":9715,"ĠÂ¯Â¯Â¯Â¯Â·Â°Â¿Â¯":9716,"Â¯Â¿Â¿":9717,"Â¯Â¿Â·Â¯Â¯Â¯Â¯":9718,"Â¯Â¿Â·Â¿Â¯":9719,"ĠÂ¯Â°ÃĹÂ¯Â¯":9720,"ĠÂ¯Â°Â¿Â¯Â¸Â¯Â¯Â¯":9721,"ĠÂ¯Â°Â±Â¯Â¯Â¿Â·Â¯":9722,"ĠÂ¯Â°Ã·Â°":9723,"ĠÂ¯Â°ÃĹÂ¯Â±Â¯Â¯Â¯":9724,"ĠÂ¯Â°Â°Â¿Â±Â¯Â¯Â¯":9725,"Â´Â¯Â¸Â°Â¯":9726,"ĠÂ¯Â·Â¯Â¯Â¯Â°Â¿Â¯":9727,"ĠÂ¯Â·Â¯Â¯Â¯Â¿Â´Â¯":9728,"ĠÄ¯Ã¯Ã±":9729,"ÄıÃ¯Ä¯":9730,"ÄıÃķ":9731,"Ã°Ä±":9732,"Ã°ÃıÃģ":9733,"ÂµÄ¯Ä¯":9734,"ÂµÄ¯Ã³":9735,"ÃĺÃĲ":9736,"ÃĦÄ°":9737,"ÃĩÄ¯Ã¯":9738,"ÃĩÅĵ":9739,"ĠÃ¯ÃıÃĶ":9740,"ĠÃ¯ÃıÄ¹":9741,"Â»Â¯Â¯Â¯Â¯Â¯Â¯Â¯":9742,"Â»Â´Â¯":9743,"ĠÂ¯Â±Â¯Â¯Â»Â±Â¯Â¯":9744,"Â¸Â¯Â°":9745,"ĠÂ¯Â±Â¯Â¯Â¯Â¸Â°Â¯":9746,"ĠÂ¿Â·Â°Â¯Â¯":9747,"Ä¯ÃĥÄ¯ÅĹ":9748,"ĠÂ¯Â¯ÃĹÂ¯Â°Â±Â¯Â¯":9749,"ĠÂ¯Â¯Â°Â¸Â¯Â¯Â¯Â¯":9750,"ĠÂ¯Â¯Â°Â·Â¯Â´Â¯Â¯":9751,"Â¿Â±Â¯Â¯Â¿Â¯Â¯":9752,"ÅŁÃ°":9753,"Â¯Â¯Â·Â»Â¯":9754,"ĠÂ¯Â¯Â¿Â°Â±Â±Â¯Â¯":9755,"ÅĳÃĵ":9756,"Ã·Â°Â¯Â¯Â·Â¯Â¯":9757,"ĠÂ¯Â±Â°Â¯Â¯Ã·Â°Â¯":9758,"ÃıÃĥÃı":9759,"ĠÂ·ÃĹ":9760,"ĠÂ·Â¸":9761,"ĠÂ·Â¿Â±Â¯Â¯Â¯":9762,"ĠÂ·Â±Â¯Â¯Â¯Â±Â¯Â¯":9763,"ÂºÄ¿":9764,"ĠÂ¯Â¯Â¯Â·Â¿Â¸Â¯Â¯":9765,"Â·Â°Â¯Â¯ÃĹ":9766,"ĠÄ¯Ä¯Ä·":9767,"Å¿Ãĵ":9768,"ÅģÅģ":9769,"ÃıÃģÄ¯Ãķ":9770,"Ã¸Ä¿":9771,"Ã¸Åĵ":9772,"ĠÂ¯Â¯Â¯Â¿Â°":9773,"ĠÂ¯Â¿Â¯Â°Â±Â¯Â¯Â¯":9774,"ĠÂ¯Â¯Ã·Â°Â±Â±Â¯Â¯":9775,"Ã¯ÃĳÃ¯Ãı":9776,"ÃīÃı":9777,"ĠÂ¯Ã·Â¸Â¯Â¯Â±Â¯Â¯":9778,"ĠÂ¯Ã·Â¸Â¯Â¯Â¿Â¯Â¯":9779,"Ã¯ÃĶÃ¯":9780,"ÃıÃ¯Ã±":9781,"ĠÂ¯Â¯Â±Â°Â¯Â¿Â°Â¯":9782,"ĠÂ¯Â¯Â±Â°Â¯Ã·Â´Â¯":9783,"ĠÂ¯Â¯Â¯Â¯Â±Â·Â°Â¯":9784,"ĠÂ¯Â¯Â¯Â¯Â±Â¿Â±Â¯":9785,"ĠÂ¯Â¯Â¯Â¯Â¯Â¿Â¶Â¯":9786,"Ã¯ÃģÄ¿":9787,"Ã¯ÃģÄ¯Ãĥ":9788,"Â¯ÃĹÂ´":9789,"ĠÂ¯Â¯Â¯Â¯Â°Ã·Â¯Â¯":9790,"ĠÂ¯Â¯Â¯Â¯Â°Â¿Â·Â¯":9791,"ĠÂ¯Â¯Â¯Â¯Â°Â·Â°Â¯":9792,"Â¿Â°Â¯Â¯Â±Â¯Â¯":9793,"Â¿Â°Â¯Â¯Â·Â¯Â¯":9794,"ĠÂ¯Â·Â¯Â´Â¯Â¯Â¯Â¯":9795,"ĠÂ¯Â·Â¯Â°Â¯Â·Â¯Â¯":9796,"ĠÂ¯Â·Â¯Â·Â¯Â±Â¯Â¯":9797,"Ã£Ã¯Ã±":9798,"Â±Â±Â¯Â°Â¯":9799,"Ä¯ÂµÃ¯ÃĶ":9800,"Ä¯ÂµÃ¯ÃĽ":9801,"ĠÂ¯Â¯Â¯Â¯ÃĹÂ¶Â¯Â¯":9802,"ĠÂ¯Â¯Â»Â¯Â¿Â±Â¯Â¯":9803,"ĠÂ¯Â¯Â»Â¯Â·Â±Â¯Â¯":9804,"ĠÂ¯Â¯Â»Â¯Â°Â°Â¯Â¯":9805,"ÅĻÃĥ":9806,"ĠÂ¯Â¿Â°Â¯Â¯Â¿Â°Â¯":9807,"ĠÂ¯Â¯Â¯Â´Â°":9808,"ĠÂ¯Â¯Â¯Â´ÃĹÂ¯Â¯Â¯":9809,"Â¯Â¯Â°Â¯Â±Â¯Â¯Â¯":9810,"Ã·Â¯Â´Â¯Â¯Â¯":9811,"ÄĳÃģ":9812,"ĠÂ¯Â¯ÃĹÂ°Â¯Â»Â¯Â¯":9813,"ĠÂ¯Â¯ÃĹÂ°Â¯Â¿Â±Â¯":9814,"ĠÂ¯Â¯ÃĹÂ°Â¯ÃĹÂ±Â¯":9815,"ĠÂ¯Â¿Â·Â¿Â¯":9816,"ĠÂ¯Â±Â±Â¯ÃĹ":9817,"Â¯Â°Â¯ÃĹÂ¯Â¯Â¯":9818,"ÃıÄ¯ÃĻ":9819,"ĠÂ¯Â±Â¯Â°Â¯Â±Â¯Â¯":9820,"ÃĹÂ°Â¯Ã·Â¯Â¯":9821,"ĠÂ¯Â¿Â°Â¯ÃĹ":9822,"ĠÂ¯ÃĹÂ¯Â¯Â´Â¯Â¯Â¯":9823,"ĠÂ¯ÃĹÂ¯Â¯Â¿Â±Â¯Â¯":9824,"ÃµÅĳ":9825,"ĠÂ¯Â°Â¯Â°Â¯Â·Â¯Â¯":9826,"Â¯Â±Â°Â¯Â¯Â¯Â¯Â¯":9827,"ĠÂ¿Â¯Â¯Â¯Ã·":9828,"Ä¯ÃĻÃ¯":9829,"ÆıÄ°":9830,"ÆıÃĳ":9831,"Â¯Â±Â¯Â·":9832,"Â¯Â±Â¯Â¸Â¯Â¯":9833,"ĠÂ¯Â°Â°Â¯Â¯ÃĹ":9834,"ĠÂ¯Â¯Â¿Â°Â¯Ã·":9835,"ĠÂ¯Â¯Â·Â°Â¯Â¿Â°Â¯":9836,"ĠÂ¯Â¯Â·Â°Â¯Ã·Â±Â¯":9837,"ĠÂ¿Â·Â¯Â¯Â¯Ã·Â¯Â¯":9838,"ĠÂ¿Â·Â¯Â¯Â¯ÃĹÂ°Â¯":9839,"ĠÂ¿Â·Â¯Â¯Â¯Â¿Â±Â¯":9840,"ĠÂ¿Â·Â¯Â¯Â¯Â¿Â¸Â¯":9841,"ĠÂ¯ÃĹÂ°Â¯Â¯ÃĹÂ¯Â¯":9842,"ĠÂ¯Â¿Â°Â°Â¿Â¯Â¯Â¯":9843,"Ä¯Ä¿Ã±":9844,"Ã§Ã±":9845,"Ã§Ä³":9846,"ÃĪÃ¯":9847,"ĠÂ¯Â¯Â¸Â¯Â¯ÃĹÂ°Â¯":9848,"ĠÂ¿Â¯Â±Â¯Â¯Â±Â¯Â¯":9849,"ĠÂ¿Â¯Â¿Â¯Â¯Â°Â¯Â¯":9850,"ĠÂ¿Â¯Â·Â¯Â±Â¯Â¯Â¯":9851,"ĠÂ¯Ã·Â°Â¯Â¯Â°Â°Â¯":9852,"Ã¯ÃĦÄ¯ÃĻ":9853,"Å°Ãı":9854,"ĠÂ¯Â¯Â¿Â´Â¯Â·Â´Â¯":9855,"ĠÂ±Â±Â¯Â¯Â¯Â±Â¯Â¯":9856,"Â·Â±Â¯Â¸":9857,"ĠÂ¯Â·Â±Â¯Â¿Â°Â¯Â¯":9858,"ĠÂ¯Â¿Â¸Â¯Â·":9859,"ĠÂ¯Â¯Â¯Â±Â¯Â¯ÃĹÂ¯":9860,"ĠÂ¯Â¸Â°Â¯Â¯Â¯":9861,"ĠÂ¯Â¸Â°Â¯Â¯Â·Â¯Â¯":9862,"ĠÂ¯Â·Â¿Â¯ÃĹ":9863,"ĠÂ¯Â·Â¿Â¯Â¿Â±Â¯Â¯":9864,"ĠÅıÃħ":9865,"Â¯Â¯Â±Â¸Â¯Â¯":9866,"ĠÂ¯Â»Â¯Â¯Â¯Â¯":9867,"ĠÂ¯Â»Â±Â¯Â·":9868,"ĠÂ¯Â¯Â¯Â¯Â·Â¯Â´Â¯":9869,"ĠÂ¿Â¿Â¯Â¯Â¯Ã·Â¯Â¯":9870,"ĠÂ¿Â¿Â¯Â¯Â¯Â·Â´Â¯":9871,"Â°Â¯Â·Â¿Â¯":9872,"Â¯Â¯Â¯Ã·Â¸Â¯Â¯":9873,"ĠÂ¯Â·Â°Â±":9874,"ĠÂ¯Â¯Â°Â°Â¯ÃĹÂ¯Â¯":9875,"ĠÂ¯Â¯Ã·Â´Â¯Â´Â¯Â¯":9876,"Â±Â°Â±Â¯":9877,"ĠÂ¯Â¿Â¸Â¯Â¯ÃĹÂ¸Â¯":9878,"ĠÂ±Â¯Â¯Â¯Â¸Â¯Â¯Â¯":9879,"ĠÂ°Â±Â¯Â¯ÃĹÂ¯Â¯Â¯":9880,"ĠÂ¯Â¯Â°Â¯Â¯Â·Â¸Â¯":9881,"ĠÂ¯Â·Â·Â¯Â¯Â¸Â¯Â¯":9882,"ĠÄ¿Ãħ":9883,"ĠÂ±Â°Â¯Â¯Â±Â°Â¯Â¯":9884,"ĠÄıÃĲ":9885,"ÆŁÃ¯":9886,"ĠÂ·Â·Â·Â¯Â¯Â¯Â¯Â¯":9887,"Ã¿ÃĲÄ¯":9888,"ĠÂ¯ÃĹÂ´Â¯Ã·":9889,"ĠÂ¯ÃĹÂ´Â¯Ã·Â´Â¯Â¯":9890,"Â¿Â·Â±Â¯Â¯Â¯Â¯":9891,"ĠÂ¯Â¿Â´Â¯Â¿":9892,"ĠÂ¯Â¯ÃĹÂ°Â¯Â¯Â¸Â¯":9893,"ĠÂ¯Â°Â¯Â¯Â¿Â»Â¯Â¯":9894,"ĠÂ¯Â¯ÃĹÂ¸Â¯Â·Â·Â¯":9895,"ĠÂ¯Â¯Â±Â·Â´Â¯Â¯Â¯":9896,"ĠÂ¯Â·Â¿Â¯Â¯Â¸Â¯Â¯":9897,"ĠÂ¯Â¯Â±Â°Â¯Â¯Â¸Â¯":9898,"Â¯Â¸Â´Â¯Â¯":9899,"ĠÂ¯Â¯Â¯Â·Â·Â¿Â¯Â¯":9900,"ĠÂ¯Â·Â¿Â´":9901,"ĠÂ¯Â¿ÃĹÂ¯Ã·Â¯Â¯Â¯":9902,"ĠÂ¯Â¯Â¿Â¿Â¸Â¯Â¯Â¯":9903,"ĠÂ¯Â¯Â¿Â°Â¯Â¯Â´Â¯":9904,"ĠÂ¯Â·Â¯Â¯Â±Â¸Â¯Â¯":9905,"ĠÂ´Â¯Â¯Â¯Â¯Â±Â¯Â¯":9906,"ĠÂ´Â¯Â¯Â¯Â¯Â¸Â¯Â¯":9907,"ĠÂ¯Â¯Â¯Â¯Â¶Â·Â¯Â¯":9908,"ĠÂ¯Â·Â»Â¯Â±Â´Â¯Â¯":9909,"ĠÂ¯Â¯Â¸Â¯Â°Â¸Â¯Â¯":9910,"ĠÂ¯Â¯Â°Â¯Â¯Â¯Â¯Â·":9911,"ĠÂ¯Â¯Â¯Â±Â¯Â¯Â¯Â±":9912,"ĠÂ¸Â¯Â¯Â¯Â±Â¸Â¯Â¯":9913,"ĠÂ¸Â¯Â¯Â¯Â¯Â¸Â¯Â¯":9914,"Â¯Â¯ÃĹÂ¯Â±Â¯":9915,"ĠÂ¯Â±Â¯Â¯Â¯Â¯Â¯Â°":9916,"ĠÂ±Â°Â°Â¯Â°Â¯Â¯Â¯":9917,"ĠÂ·Â¯Â¸Â¯Â»Â¯Â¯Â¯":9918,"ÄĮ":9919,"ĠÂ°Â·Â¯Â¯Â¯":9920,"ĠÃĹÂ¯Â¯Â¯Â¯Â¯":9921,"ĠÃĹÂ´Â¯Â¯":9922,"ĠÄ¿Ãı":9923,"ĠÂ¯Â¯Â¯Â¯Â±Â¯Â¯":9924,"ĠÂ¯Â¯Â¯Â¯ÃĹÂ¯Â¯":9925,"ĠÂ¯Â¯Â¯Â¯Â±Â¯Â¯Â±":9926,"Â±Â¸":9927,"Â±Â±Â°Â¯":9928,"Â±Â±Â°":9929,"Â±Â»Â°Â¯Â¯":9930,"Ä¯Äº":9931,"Ä¯Ä¼":9932,"Ä¯Å§":9933,"Ä¯ÄĶ":9934,"ÃıÄ¯Äģ":9935,"Â¯Â¯Â¯Â¯Â´":9936,"Â¿Ã·Â¯Â¯Â¯":9937,"Â¿Â±Â±Â¯Â¯Â¯":9938,"Â°Â¯Â¯Ã·Â°Â¯":9939,"Â¿Â¯Â¯ÃĹÂ´Â¯":9940,"Â°Â¯Â»":9941,"ĠÂ¯Â¯Â·Â¿Â¯Â°Â¯Â¯":9942,"ĠÂ¯Â¯Â·Â¸Â¯Â·Â¸Â¯":9943,"ÅıÅ±":9944,"Ã¿Åĥ":9945,"Â´Â¯Â¿Â±Â¯":9946,"ÃĹÂ¯Â°Â¯Â¯":9947,"ÃĹÂ¯Â¯Â¯Â¯Â±Â¯":9948,"ÃĹÂ¯Â¿Â»Â¯Â¯":9949,"ĠÂ¯Â¿Â¿Â±Â¯":9950,"ĠÂ¯Â¿ÃĹÂ±Â¯":9951,"ĠÂ¯Â¿ÃĹÂ¯Â¯Â·Â¯Â¯":9952,"Â°Â¯Â¯Â¯Â¯Â°":9953,"ĠÂ¯Â¯Â¿Â¯Â±Â¯":9954,"ĠÂ¯Â·ÃĹÂ¯Â°Â¯Â¯Â¯":9955,"Ã·Â·Â¯Â¯Â¯Â¯":9956,"Ä¯Ã¯Ä¯Ã³":9957,"Â±Â¯Â¯Â¯Â¯Â¿Â¯":9958,"Â·Â¯Â°Â¯Â¯Â¯Â¯":9959,"Â·Â¯Â±Â¯Â¯Â¯Â¯":9960,"Â¸Â±Â°Â¯Â¯":9961,"Â¸Â¿Â¯Â¯Â¯Â¯":9962,"ÃģÄ¯Ãĥ":9963,"ÃĵÄ±Ãĵ":9964,"ĠÂ¯Â¯Â·Â¯Â¯Â´Â°Â¯":9965,"ĠÂ¯Â¯Â·Â¯Â¯Â°Â·Â¯":9966,"ĠÂ¯Â¯Â°Â¯Â±Â¯Â·Â¯":9967,"Ã±Åĵ":9968,"Ã±Äı":9969,"ĠÂ¯Â¯Â°Â¯Â¯Ã·Â´Â¯":9970,"ĠÂ¯Â¯Â°Â¯Â¯Ã·Â·Â¯":9971,"ĠÂ¯Â¯Â±Â¯Â¯Â»Â±Â¯":9972,"Ã³ÅĹ":9973,"Ä·Å¯":9974,"Ä·ÃĶ":9975,"Ä·Ã¯Ãĵ":9976,"Ä·ÃĽ":9977,"Ä·ÅĻ":9978,"ĠÂ¯Â±Â¿Â±Â¯":9979,"Ä³ÃĲ":9980,"Ä³ÃĦ":9981,"Ä³Äĳ":9982,"ÃĳÃ¸":9983,"ĠÂ¯Â¯ÃĹÂ·Â¯Â¯":9984,"ĠÂ¯Â¯ÃĹÂ·Â¯Â¿Â¯Â¯":9985,"ĠÂ¯Â¯ÃĹÂ¶Â¯":9986,"ĠÂ¯Â¯ÃĹÂ¯Â¿Â¿Â¯Â¯":9987,"ÃĲÅĲ":9988,"Â¿Â¯Â¸":9989,"ÃĢÃĢ":9990,"ÃĢÄı":9991,"ÃĢÄ¯Ãģ":9992,"ÃĢÃıÃģ":9993,"ĠÂ¯Â¯Â¯Â°Â¿Â¯Â°Â¯":9994,"ĠÄ¯Å°":9995,"ĠÄ¯Ä¿Ã±":9996,"ĠÂ¯Â¯Â¯Â°Â¯Â´Â°Â¯":9997,"ĠÂ¯Â¯Â¯Â±Â¯Â°":9998,"ĠÂ¯Â¯Â¯Â¯Â¿Â¿":9999,"ĠÂ¯Â¯Â¯Â¯Â¿ÃĹÂ°Â¯":10000,"ĠÂ¯Â¯Â¯Â¯Â¿Â·Â´Â¯":10001,"ĠÂ¯Â¿Â¯Â¯Â¯Â¿Â´Â¯":10002,"Å¯ÅĹ":10003,"Å¯Äµ":10004,"ĠÃ¯ÃĽ":10005,"ĠÃ¯Ä»":10006,"ĠÃ¯Ãĸ":10007,"ĠÂ¯Â¯Â¯Â¯Â·Â°Â·Â¯":10008,"ĠÂ¯Â·Â¯Â¯Â»":10009,"ĠÂ¯Â·Â¯Â¯Ã·Â·Â¯Â¯":10010,"ĠÂ¯Â·Â¯Â¯Â»Â°Â¯Â¯":10011,"ÃĻÄ¯Ãĥ":10012,"ÃĻÅĶ":10013,"Ã¹Ãĳ":10014,"Ã¹Ãĺ":10015,"ÅĥÅı":10016,"Â¯Â¿ÃĹ":10017,"Â¯Â¿Â·Â±Â¯":10018,"ĠÂ¯Â°Â¿Â¯Â¯Â·Â¯Â¯":10019,"ĠÂ¯Â°Â·Â¯Â¯Â¿Â¯Â¯":10020,"ĠÂ¯Â°Â·Â¯Â°Â¯Â¯Â¯":10021,"ĠÂ¯Â°Â¿Â°":10022,"ĠÂ¯Â°Â´Â¯Â°Â¯Â¯Â¯":10023,"Â´Â¯Â±Â¯":10024,"ĠÂ¯Â¯Â¯Â±Â±Â·Â¯Â¯":10025,"Â¯Â·Â´":10026,"Â¯Â·Â¿Â°Â¯":10027,"ĠÄ¯Ã¯Äĥ":10028,"ĠÄ¯Ã¯Ã£":10029,"ÄıÅĲ":10030,"ÄıÃī":10031,"ÂµÃĳ":10032,"Ã·Â¯Â¯Â¯Â±Â°Â¯":10033,"ĠÂ¯Â¯Â±Â¿Â¯Â·Â¯Â¯":10034,"ÃĺÃ¿":10035,"ÃĺÄ°":10036,"ÃĺÄ¯Ã¯":10037,"ÃŁÄ±":10038,"ÃŁÃĻ":10039,"ÃĩÄ·":10040,"ĠÃ¯ÃıÄĹ":10041,"ĠÂ¯Â¿Â·Â¯Â´":10042,"Ä¯ÃıÃ±":10043,"Ä¯ÃıÂº":10044,"Ä¯ÃģÄ¿":10045,"ĠÂ¯Â±Â¯Â¯Â¯Â¶Â¯Â¯":10046,"ĠÂ¿Â°Â¯Â¯Â¯Â¯":10047,"ĠÂ¯Â¯Â¯Â·Â¯Ã·Â°Â¯":10048,"ĠÂ¯Â¯Â¯Â·Â¯Â°Â±Â¯":10049,"ĠÂ¯Â¯Â°Â´Â¯Â±Â¯Â¯":10050,"Â¿Â±Â¯Â¯Â°Â¯Â¯":10051,"Â¯Â¯Â·ÃĹÂ¯Â¯":10052,"ĠÂ¯Â°Â¯Â¯Â¯Â°":10053,"ÅĢÄĳ":10054,"ĠÂ¯Â¿Â·Â¯Â¯Ã·Â·Â¯":10055,"Ä¹Ã´":10056,"ÅĳÃ¿":10057,"ÅĳÃĢ":10058,"ÅĳÄĢ":10059,"ÅĲÄ¯Ã¯":10060,"ĠÂ¯Â±Â°Â¯Â¯ÃĹÂ´Â¯":10061,"ÃıÃĥÄ¯Ãĳ":10062,"ĠÂ¯Â¯Ã·Â¯Â°":10063,"ĠÂ·Â¿Â¯Â¯Â¯Â±Â¯Â¯":10064,"ĠÂ¯Â¯Â´Â¯Â¯ÃĹÂ°Â¯":10065,"ÂºÄ¯Ãģ":10066,"ÂºÄ¯Ä¯":10067,"Â·Â°Â¯Â¯Â¿Â¯Â¯":10068,"Å¿Ä¯Âµ":10069,"ÃıÃģÄ¯Âµ":10070,"ĠÂ¯Â¯Â¸Â¿":10071,"ĠÂ¯Â¯Â¸Â±Â¿Â»Â¯Â¯":10072,"ĠÂ¯Â¯Â±Â°Â»ÃĹÂ¯Â¯":10073,"Â¯Â¯Â¿Â»Â¯":10074,"ÄĩÃĲ":10075,"ÅĦÃ±":10076,"ĠÂ¯Â¿Â¯Â±Â¯Â±Â¯Â¯":10077,"ĠÂ¯Â¿Â¯Â¿Â¯Â±Â¯Â¯":10078,"ĠÂ¯Ã·Â±Â¯Â·Â¯Â¯Â¯":10079,"ĠÂ¯Ã·Â±Â¯Â¯ÃĹÂ¯Â¯":10080,"ĠÂ¯Ã·Â´Â¯Â¯Â¯Â·Â¯":10081,"ĠÂ¯Â¯Â¿Â¯Â¯Â¯ÃĹÂ¯":10082,"ĠÂ¯Â¯Â¿Â¯Â¯Â¯Â±Â°":10083,"ÃıÃ¯Ä¯Ã¯":10084,"ĠÂ¯Â¯ÃĹÂ°ÃĹ":10085,"ĠÂ¯Â¯ÃĹÂ°Â¿Â´Â¯Â¯":10086,"ÃĽÃģ":10087,"ĠÂ¯Â¯Â¯Â¯Â±Â¿":10088,"ĠÂ¯Â¯Â¯Â¯Â±Â¿Â·Â¯":10089,"ĠÂ¯Â¯Â¯Â¯Â±Â°Â·Â¯":10090,"ÃıÃĢÄ¯Ãĳ":10091,"Ã¯ÃĥÄ¯Ä¯":10092,"Â¯ÃĹÂ»Â¯Â¯":10093,"Ã¯Ä¯Ä±":10094,"ĠÂ¯Â¯Â¯Â´Â¯Â·Â±Â¯":10095,"ĠÂ¯Â·Â¯Â±Â¯Â·Â¯Â¯":10096,"Ä¯ÂµÃ¿":10097,"ĠÂ¯Â¯Â¯Â¯ÃĹÂ·":10098,"ĠÂ¯Â¯Â¯Â¯ÃĹÂ·Â°Â¯":10099,"Â¯Ã·Â°Â¯Â¯Â¯":10100,"ĠÂ¯ÃĹÂ¯Â¯Â¯Ã·Â¯Â¯":10101,"ĠÂ¯Â¿Â·Â±Â¯Â°Â¯Â¯":10102,"ĠÂ¯Â¿Â·Â°Â¯Â°Â¯Â¯":10103,"ĠÂ¯Â±Â°Â±Â±Â¯Â¯Â¯":10104,"Â¯Â°Â¯Ã·Â¯Â¯Â¯":10105,"Â¶Â¯Â¯Â±Â¯Â¯":10106,"ĠÂ¯Â±Â¯Â°Â¯Â·Â¯Â¯":10107,"ĠÂ¯Â±Â¯Â°Â¯Â¿Â¯Â¯":10108,"ĠÂ¯Â±Â¯Â·Â¿Â¯Â¯Â¯":10109,"ĠÂ¯Â¯Ã·Â°Â¯Â¿":10110,"Ä»Ãģ":10111,"Ä»Âµ":10112,"ĠÂ¯ÃĹÂ¯Â¯Â·Â´Â¯Â¯":10113,"ÃĭÃĥ":10114,"Â¿Â±Â¯Â¿Â·Â¯":10115,"ĠÂ¯Â¯Â¯Â¯Ã·Â»Â¯Â¯":10116,"ĠÂ¯Â°Â¯Â°Â¯Â°Â¯Â¯":10117,"ÅĽÂµ":10118,"ĠÂ¯Â¯Â¿Â¯Â·ÃĹÂ¯Â¯":10119,"Ä¯ÃĻÄ¯Ãĥ":10120,"ÆıÃĵ":10121,"ĠÂ¯Â°Â°Â¯Â¯Â·Â±Â¯":10122,"ĠÂ¯Â°Â°Â¯Â¯Â¿Â¿Â¯":10123,"Å£Ãı":10124,"ĠÂ¯Â¯Â·Â°Â¯Â¿":10125,"ĠÂ¿Â·Â¯Â¯Â¯ÃĹ":10126,"ĠÂ¿Â·Â¯Â¯Â¯Â·Â·Â¯":10127,"ĠÂ¿Â·Â¯Â¯Â¯Ã·Â±Â¯":10128,"Ä¯ÃĩÃ¯":10129,"ĠÂ¯Â¯Â¿Â·Â¯Â·Â´Â¯":10130,"ĠÂ¯Â¯Â¿Â·Â¿Â¿Â¯Â¯":10131,"ĠÂ¯Â¯Â·Â¯Â¯Â¯ÃĹÂ¯":10132,"Ã¯Ä±Ã¯ÃĦ":10133,"ĠÂ¿Â¯Â±Â¯Â¿Â¯Â¯Â¯":10134,"Â¯Â¯Ã·Â¯Ã·Â¯Â¯Â¯":10135,"ĠÂ¯Â¯Â¯Â¸ÃĹÂ¯Â¯Â¯":10136,"ĠÂ¯Â¯Â¯Â¸Â¯Â·Â·Â¯":10137,"ĠÂ¯Â¯Ã·Â¯Â¯Â°Â°Â¯":10138,"ĠÂ¯Â¯Â¯Â¿Â¯Â¿Â·Â¯":10139,"Â¯Â·Â¯Â±Â´Â¯Â¯":10140,"ĠÂ¯Ã·Â¯Â¯Â¸Â¯Â¯Â¯":10141,"ĠÂ¯Ã·Â¯Â¯Â¿Â¸Â¯Â¯":10142,"ÃļÄ¯":10143,"ÅĩÂµ":10144,"ĠÂ·Â¯Â¯Â¯Â·Â±Â¯Â¯":10145,"Ä¯Ä·Ä¯Ãĩ":10146,"ĠÂ·Â¯Â¿Â¯Â·Â¯Â¯Â¯":10147,"ÃıÂºÃ¿":10148,"Ã¯Ã¿Ä¯":10149,"ĠÂ¿Â¿Â¯Â¯Â´Â¯Â¯Â¯":10150,"ĠÂ¿Â¯Â¯Â¯Â¯Â¿Â±Â¯":10151,"ĠÂ¿Â·Â°":10152,"Â¯Â¯Â¯Â¿Â»Â¯Â¯":10153,"ĠÂ¯Â¸Â°Â¯Â¿Â¸Â¯Â¯":10154,"ĠÂ¯Â¯Â°Â°Â±Â°Â¯Â¯":10155,"Â±Â·Â±Â°Â¯":10156,"ĠÂ³Â³Â³":10157,"Â±Â¯Â¿Â°Â¯Â¯Â¯":10158,"ĠÂ¯Â¯Â¿Â¸Â·":10159,"ĠÂ¯Â¯Â·Â±Â¯Â¿Â·Â¯":10160,"ĠÂ¯Â¯Â·Â±Â¯Â»Â¯Â¯":10161,"ĠÂ¯Â»Â´Â¯Â¯Â¯Â¯Â¯":10162,"ĠÂ¯Â»Â°Â¯Â¯Â·Â¯Â¯":10163,"ÃıÃĩÄ¯":10164,"ĠÂ¯Â¿Â´Â¯Â¯Â¿Â·Â¯":10165,"ĠÂ¿Â¿Â¯Â¯Â¯Â°Â°Â¯":10166,"ĠÂ¯Â·Â±Â¯Â¯Ã·Â¯Â¯":10167,"ĠÂ¯Â·Â±Â¯Â¯Â¿Â·Â¯":10168,"ĠÂ¯Â¿Â¿Â¯Â±Â°Â¯Â¯":10169,"ĠÂ±Â¯Â±Â°":10170,"ĠÂ¯Â¯Â°Â±Â°Â¯Â¯Â¯":10171,"ĠÂ¯Â·Â°Â°":10172,"ĠÂ¯Â¯Â°Â°Â¯Ã·Â¯Â¯":10173,"Ã¿Ä±Ã¯":10174,"ĠÂ¯Â·Â´Â¯Â±Â´Â¯Â¯":10175,"Å¯ÂµÄ¯Ã¯":10176,"ĠÂ·Â·Â¯Â¯ÃĹ":10177,"ĠÂ·Â·Â¯Â¯ÃĹÂ°Â¯Â¯":10178,"ÃıÃ¹Ã¯Ã¯":10179,"ĠÂ¯ÃĹÂ±Â¯Â¯Â¿Â·Â¯":10180,"ĠÂ¯Â¿Â¸Â¯Â¯ÃĹÂ±Â¯":10181,"ÅıÃĳÄ¯":10182,"ĠÂ±Â¯Â¯Â¯Â¿Â±Â¯Â¯":10183,"ĠÄ¯Ã¹Ãı":10184,"ÄĪÄ³":10185,"ĠÂ°Â¿Â¯Â¯":10186,"ĠÂ°Â±Â¯":10187,"Â¯Â»ÃĹÂ¯Â¯":10188,"ĠÂ¯Â¯ÃĹÂ´Â¯ÃĹÂ°Â¯":10189,"ĠÂ¯Â·Â·Â¯Â¯Â°Â°Â¯":10190,"ĠÂ¯Â¯Â»Â¯Â¯Â±Â°Â¯":10191,"ĠÂ¯Â¯Â¿Â¸Â¯Ã·Â¯Â¯":10192,"ĠÂ¯Â¯Â¶Â°Â¯Â¯Â¯Â¯":10193,"ĠÂ¯Â¯Â·Â·Â¯ÃĹÂ¯Â¯":10194,"ĠÂ¯Â¯Â¯Â´Â¯Â¯Â¸Â¯":10195,"ĠÂ¯Â¯Â¯Ã·Â¯Â°Â¯Â¯":10196,"ĠÂ±Â°Â¯Â¯Â¿Â·Â¯Â¯":10197,"ĠÂ¯Â¯Â·Â´Â¯Â·Â°Â¯":10198,"ĠÂ°Â¯Â¯Â¯ÃĹÂ¯Â¯Â¯":10199,"ĠÃ·Â·Â¯Â¯Â¯Â¯Â¯Â¯":10200,"ĠÃ·Â¸Â¯Â¯Â¯Â¯Â¯Â¯":10201,"Â·Â¯Â·Â¸Â¯":10202,"ĠÂ¯Â¯Â¯ÃĹÂ¿Â¯Â¯Â¯":10203,"ĠÂ¯Â¯Â¯ÃĹÂ¯Â°Â¯Â¯":10204,"ĠÂ¯Â¯Â´Â¯Â·Â·Â¯Â¯":10205,"Â¯Â´Â·Â¯Â¯":10206,"Â¯Â´Â¿Â¯Â¯":10207,"ĠÂ±Â±Â¯Â¯Â°Â¯Â¯Â¯":10208,"ĠÂ±Â±Â¯Â¯ÃĹÂ¯Â¯Â¯":10209,"ĠÂ¯Â¯Ã·Â¸Â¯Ã·Â¸Â¯":10210,"ĠÃĩÄ¯":10211,"Â¯Â¯Â¯Â¯Â·Â¸Â¯":10212,"ĠÂ¯Â»Â¯Â¯ÃĹÂ¯Â¯Â¯":10213,"ĠÂ¯Â¯Â¸Â¯Â¯Â¯Â´Â¯":10214,"ĠÂ¯Â±Â¿Â¯Â¿Â°Â¯Â¯":10215,"Ã¯Å¯Åı":10216,"ĠÄ¯Ä¯ÃıÄ¯Ä¯":10217,"Ã¿ÅĺÃĥ":10218,"Â±Â¯Â·Â¯Â´Â¯":10219,"ĠÂ¯Â´Â¯Â¯Â¯Â¯Â·Â¯":10220,"ĠÂ¯Â¯Â·Â´Â¯Â·Â¸Â¯":10221,"ÅĵÄ±Âº":10222,"ĠÂ·Â·Â¯Â¯Â¯Â¯Â·Â¯":10223,"ĠÂ¯Â¸Â¯Â¯Â¯Â¯Â·Â¯":10224,"ĠÂ¯Â·Ã·Â±Â¯Â·Â¯Â¯":10225,"Æķ":10226,"ĠÃ·Â°Â¯Â¯":10227,"ĠÅ³":10228,"ĠÂ¿Â¯Â·Â¯Â¯Â¯":10229,"ĠÂ»Â¯Â¯Â¯Â¯":10230,"ĠÃĹÂ°":10231,"ĠÄ³Ãı":10232,"ĠÃ´Ãı":10233,"Â±Â±Â·Â¯Â¯":10234,"Ã¯ÆĢ":10235,"Ã¯ÃĮ":10236,"Â°Ã·Â¯":10237,"Ä¯Åł":10238,"Ä¯Ã©":10239,"Â·Â±Â¯Â¯Â¿Â¯Â¯":10240,"Â·Â±Â¿":10241,"ÃıÄ¿Ã¯":10242,"ÃıÄĭ":10243,"ÃıÄ¡":10244,"Â¯Â¯Â¯Â¯Â¸Â°Â¯":10245,"Â¯Â¯Â¯Â¯Â¿Â¸Â¯":10246,"Â¿Â»Â¯Â¯Â¯":10247,"Â¿Â±Â¯Â¯Â¯Â°Â¯":10248,"Â¿Â¿Â¿Â¯Â¯Â¯":10249,"ĠÂ¯Â¯Â¯Â±Â°Â¯":10250,"Â¿Â¯Â¯Â¸Â°Â¯":10251,"Â¿Â¯Â¯ÃĹÂ±Â¯":10252,"Â°Â¯Â°Â¯Â¯Â¯Â¯":10253,"Â¿Â¯Â¯Â¯Â°":10254,"Â¿Â¯Â¯Â¯Ã·Â±Â¯":10255,"ĠÂ¯Â¯Â·Â·Â¯Â¯Â·Â¯":10256,"ĠÂ¯Â¯Â·Â¿Â¯Â·Â¯Â¯":10257,"Â±Â¯Â¯Â¯Â·Â¸Â¯":10258,"ÅıÄħ":10259,"Ã¿ÃĽ":10260,"Ã¿Ã£":10261,"Ã¿Å±":10262,"Ã¿ÄĲ":10263,"Ã¿Ã¯Åı":10264,"Â´Â¯Â¯Â¯Â°Â¯Â¯":10265,"Â´Â·Â¯Â¯Â¯Â¯":10266,"Â´Â¯Â¿Â°Â¯":10267,"ÃĹÂ¸":10268,"ÃĹÂ¿Â¯":10269,"ÃĹÂ±Â¯Â±Â¯Â¯":10270,"ÃĹÂ°Â¿Â±Â¯Â¯":10271,"ÃĹÂ¯Â°Â°Â¯Â¯":10272,"ÃĥÄ¹":10273,"ÃĥÅĲ":10274,"ĠÂ¯Â¯Â·Â¯Â±Â¯Â¯":10275,"ĠÂ¯Â¯Â·Â¯Â´":10276,"ĠÂ¯Â¯Â¯Â¯Â¯Â¯Â·":10277,"ĠÂ¯Â¿Â¿Â±":10278,"ĠÂ¯Â¿Â¿Â¯Â¯Â´Â¯Â¯":10279,"ĠÂ¯Â¿ÃĹÂ¯Â¯Â°Â¯Â¯":10280,"ĠÂ¯Â¿Â¸Â¯Â¯Â¯Â±Â¯":10281,"ĠÂ¯Â¿Â¯Â¯Â¯Â¯Â¯Â±":10282,"ĠÂ¯Â¿Â¸Â¯Â¯Â¯Â¿Â¯":10283,"Ä°Ä¯Ãģ":10284,"Ä°ÅŁ":10285,"ĠÂ¯Â·Â¿Â¯Â¯Â¯":10286,"ĠÂ¯Â·Ã·Â°Â¯Â¯Â¯Â¯":10287,"ĠÂ¯Â·Â¯Â¿Â°Â¯Â¯Â¯":10288,"Ã·Â¿Â¯Â¯Â¯":10289,"Ã·Â·Â¯Â¯Â¯Â¯Â¯":10290,"Ã·Â¯Â°Â¯Â¯":10291,"Ã·Â¯Â·Â°Â¯Â¯":10292,"Ä¯Ã¯Äı":10293,"Ä¯Ã¯Ã¯Ä¯":10294,"Ä¯Ã¯ÃıÄ¯":10295,"Â´Â¯Â¯Â±Â±Â¯":10296,"Â´Â¯Â¯ÃĹÂ±Â¯":10297,"Ã¯ÃıÄ¯Åĥ":10298,"ĠÂ¯Â¯Â±Â¯Â¸Â°Â¯Â¯":10299,"Â·Â¯Ã·Â±Â¯":10300,"Â·Â¯Â¿Â¸Â¯":10301,"Â¸Â¸Â¯Â¯Â¯":10302,"ÃģÃ¯Ã¯":10303,"ÃģÅĲ":10304,"ĠÂ¯Â¯Â·Â¯Â¯Â°Â¿Â¯":10305,"ĠÂ¯Â¯Â°Â¯Â»":10306,"Ã±Ä¿":10307,"Ã±Ä¯Ã¿":10308,"ĠÂ¯Â¯Â°Â¯Â¯ÃĹÂ¸Â¯":10309,"Ã³Ã¯Ãĵ":10310,"Ã³ÃĤ":10311,"Ã³Ã±Ãı":10312,"Ã³Ã±Ãĥ":10313,"Ä·Ä¯Ä¯":10314,"Ä·Ã¯Ä¯":10315,"ĠÂ¯Â±Â»Â¯Â¯Â¯Â¯Â¯":10316,"ĠÂ¯Â±Â¿Â±":10317,"ĠÂ¯Â±ÃĹÂ¯Â±Â¯Â¯Â¯":10318,"Ä³Åģ":10319,"Ä³Ã»":10320,"ÃĳÄ¯Ä¯":10321,"ĠÂ¯Â¯ÃĹÂ¸Â¯Â¿Â¯Â¯":10322,"ĠÂ¯Â¯ÃĹÂ¯Â¯Â¿Â¿Â¯":10323,"Â¯Â¯Â±Â¯Â¯Â±Â¯Â¯":10324,"ÃĲÂº":10325,"ÃĲÄ¸":10326,"ÃĲÃī":10327,"Â¿Â¯Â¿Â·Â¯":10328,"ÃĢÄ¹":10329,"ÃĢÄ¯Âµ":10330,"ĠÂ¯Â¯Â¯Â°Â¿Â¯":10331,"ĠÂ¯Â¯Â¯Â°Â±Â¿Â¯Â¯":10332,"ĠÂ¯Â¯Â¯Â°Â±Â¯Â°Â¯":10333,"ĠÄ¯Ã°Ãı":10334,"ĠÂ¯Â¯Ã·Â¯Â¿Â¸Â¯Â¯":10335,"ĠÂ¯Â¯Ã·Â¶Â¯Â¯Â¯Â¯":10336,"ĠÂ¯Â¿Â¯Â¯ÃĹÂ·Â¯Â¯":10337,"ĠÂ¯Â¿Â¯Â¯Â´Â°Â¯Â¯":10338,"ÅĵÃ¹":10339,"ĠÂ¯Â¯Â¯Â¯Â¿Ã·Â°Â¯":10340,"ĠÂ¯Â¯Â¯Â¯Â¿Â´Â°Â¯":10341,"Ä±Åĵ":10342,"Â¸Â¯Â¯Â±Â±Â¯":10343,"Â¸Â¯Â¯ÃĹÂ´Â¯Â¯":10344,"Â±Â°Â¯Â·Â¯Â¯Â¯":10345,"Â±Â°Â¯Â°Â¯Â¯Â¯":10346,"Å¯Ã¯Ä¯":10347,"Å¯ÅĻ":10348,"Å¯Ãĭ":10349,"ĠÃıÄı":10350,"ĠÃıÃ¯Ãĥ":10351,"ĠÃ¯ÄĲ":10352,"ĠÃ¯Ã°Ãı":10353,"ĠÂ¯Â·Â¯Â¯Â»Â±Â¯Â¯":10354,"ÃĻÄĦ":10355,"Ã¹Ã´":10356,"ÅĥÃĻ":10357,"ĠÂ¯Â°Â·Â¯Â¯Â¯":10358,"ĠÂ¯Â°Â¿Â¯Â°Â¯Â¯Â¯":10359,"ĠÂ¯Â°Â´Â¯Â¯Â°Â¯Â¯":10360,"ÄģÅı":10361,"ÄģÃģ":10362,"ÄģÃĵ":10363,"ÄģÄ¯Ãģ":10364,"ÄģÄ¯Ãĥ":10365,"Â´Â¯ÃĹÂ±Â¯":10366,"ĠÂ¯Â·Â¯Â¯Â¯Ã·Â±Â¯":10367,"ĠÂ¯Â¯Â¯Â±Â»":10368,"ĠÂ¯Â¯Â¯Â±ÃĹÂ·Â¯Â¯":10369,"Â¯Â·Â±Â±Â¯":10370,"Â¯Â·Â´Â°Â¯":10371,"ÄıÄı":10372,"Ã°Ä¯Ãģ":10373,"Ã°Åĺ":10374,"Ã°Ä¯Ãĩ":10375,"ÂµÃ¯ÃĶ":10376,"ÂµÃ¯Ãĥ":10377,"ĠÂ¯Â¯Â±Ã·":10378,"ÃĺÄ¯Ãģ":10379,"ÃŁÄ°":10380,"ÃŁÄĥ":10381,"ÃŁÅĥ":10382,"ÃŁÃĦ":10383,"ÃŁÂº":10384,"ÃĩÅĥ":10385,"ÃĩÃŁ":10386,"ÃĩÄ¯Ãı":10387,"ĠÂ¯Â¿Â·Â¯Â¿Â¯":10388,"Â´Â¯Â¯Â¯Â´Â¯":10389,"ĠÂ¯Â±Â¯Â¯Â±Â¿Â¯Â¯":10390,"ĠÂ¯Â±Â¯Â¯Â¿Â¯Â°Â¯":10391,"Ä¯ÃıÃ¯Ãı":10392,"Ä¯ÃıÄ¯Ä¯":10393,"Ä¯ÃıÃ¯Ä¯":10394,"Ã·Â¯Â¯Â¿":10395,"Ã·Â¯Â¯Â´Â¯Â¯":10396,"Ã·Â¯Â¯Ã·Â¯Â¯":10397,"Ã·Â¯Â¯Â·Â°Â¯":10398,"Ã·Â¯Â¯Â¿Â¸Â¯":10399,"ĠÂ¯Â±Â°Â¯Â¿Â¿Â¯Â¯":10400,"ĠÂ¿Â±Â¯Â¯Â¯Â±Â¯Â¯":10401,"ĠÂ¿Â±Â±Â¯Â¯Â¯Â¯Â¯":10402,"ĠÂ¿Â±Â¯Â¯Â±Â¯Â¯Â¯":10403,"ĠÂ¿Â°Â°Â¯Â¯Â¯Â¯Â¯":10404,"Ä¯ÃĥÄ¯Ä·":10405,"ĠÂ¯Â¯ÃĹÂ¯Â°":10406,"Â¯Â±Â¯Â¯Â±Â°Â¯":10407,"ĠÂ¯Â¯Â°Â°Â¯Â¯Â·Â¯":10408,"ĠÂ¯Â¯Â°Â·Â·":10409,"ĠÂ¯Â¯Â°Â¿Â¯Â±Â¯Â¯":10410,"Â¯Â¯Â·Â¿":10411,"Â¯Â¯Â·Â·Â¯Â¯Â¯":10412,"ĠÂ¯Â°Â¯Â¯Â¯ÃĹÂ´Â¯":10413,"ĠÂ¯Â¯Â¿Â°Â±Â°Â¯Â¯":10414,"ĠÂ¯Â¯Â¿Â°ÃĹÂ´Â¯Â¯":10415,"Â´Â¯Â¯Â¯Â¯Â°Â¯":10416,"Ã¯Ã¯ÃŁ":10417,"ÅĲÄ¯Ã±":10418,"Ã¯ÃĵÃģ":10419,"ĠÂ¯Â±Â°Â¯Â¯Â°":10420,"ÃıÃĥÄ¯Ã±":10421,"Â¿Â·Â¯Â°Â¯Â¯":10422,"Â¿Â·Â¯Â¿Â¯Â¯":10423,"ĠÂ·Â±Â°Â¯Â¯":10424,"ĠÂ·Â¿Â¯Â¯Â¿Â¯Â¯Â¯":10425,"ĠÂ¯Â¯Â¯Â·Â±Â±Â¯Â¯":10426,"ĠÂ¯Â¯Â¯Â·Â´Â·Â¯Â¯":10427,"ĠÄ¯Ä¯Ã³":10428,"Ã´ÃĲ":10429,"ÅģÃ¯Ãģ":10430,"ĠÂ¯Â¯Â¸Â°Â¿":10431,"ĠÂ¯Â¯Â´Â¯Â¸Â°Â¯Â¯":10432,"ĠÂ¯Â¯Â´Â¯Ã·Â±Â¯Â¯":10433,"ĠÂ¯Â¯Â±Â°ÃĹÂ±Â¯Â¯":10434,"ĠÂ¯Â¯Â±Â°Â·Â·Â¯Â¯":10435,"Â¯Â¯Â¿Â¸Â¯Â¯Â¯":10436,"ĠÂ¯Â¿Â¯Â¿Â¯Â·Â¯Â¯":10437,"ĠÂ¯Â¯Ã·Â°Â¿Â¿Â¯Â¯":10438,"Ã¯ÃĳÄ¯Äĥ":10439,"ÅıÃģÃ¯Ãı":10440,"ĠÂ¯Ã·Â¶":10441,"ĠÂ¯Ã·Â·Â¯Â¯Â°Â¯Â¯":10442,"ĠÂ¯Ã·Â·Â¯Â¯Â¯Â°Â¯":10443,"ĠÂ¯Â¯ÃĹÂ°Â·Â´Â¯Â¯":10444,"ÅĺÄ¯":10445,"Â¯ÃĹÂ°Â¿Â¯Â¯Â¯":10446,"ĠÂ¯Â¯Â¯Â¯Â°Â¿Â±Â¯":10447,"ĠÂ¯Â¯ÃĹÂ¯Â¯Â±":10448,"ĠÂ¯Â¯Â¯Â´Â¯ÃĹ":10449,"ĠÂ¯Â¯Â¿Â±Â´Â¯Â¯Â¯":10450,"ĠÂ¯Â·Â¯Â°Â¯Â°Â¯Â¯":10451,"ĠÂ¯Â·Â¯Â±Â¿Â¯Â¯Â¯":10452,"ĠÂ¯Â¯Â¯Â¯ÃĹÂ¿":10453,"Â¯Ã·Â°Â¯Â·Â¯Â¯":10454,"Å³Ä¯":10455,"ĠÂ¯Â¿Â°Â¯Â¯ÃĹÂ±Â¯":10456,"Ä¯ÄģÃ¯":10457,"ĠÂ¯Â¯ÃĹÂ°Â¯Â·Â´Â¯":10458,"ÃıÃ±Ã¯Ãĵ":10459,"Â¯Â¯Â¯Â·Â°":10460,"ĠÂ¯Â±Â°Â¿Â°Â¯Â¯Â¯":10461,"Â¯Â°Â¯Ã·":10462,"Â¯Â°Â¯Â¿Â°Â¯":10463,"ÃıÄ¯Ã°":10464,"ÃĹÂ¯Â±Â´Â¯Â¯":10465,"ÄŁÄ³":10466,"ÄŁÂµ":10467,"Â¶Â´Â¯Â¯":10468,"ĠÂ¯Â±Â¯Â´Â¯Â¯Â¯Â¯":10469,"ĠÂ¯Â±Â¯Â·Â±Â¯Â¯Â¯":10470,"ĠÂ¯Â±Â¯Ã·Â±Â¯Â¯Â¯":10471,"ĠÂ¯Â¯Â´Â°Â¯Â·Â¯Â¯":10472,"ĠÂ¯Â¯Â´Â¯Â¿Â¿Â¯Â¯":10473,"Å±Ä¯":10474,"Å±ÃĻ":10475,"Â¿Â±Â¯Â¿Â¯Â¯Â¯":10476,"Â¿Â±Â¯Â°Â¯Â¯Â¯":10477,"Ã¯Ä³Ãĵ":10478,"ĠÂ¯Â°Â¯Â°Â¿Â¯Â¯Â¯":10479,"Â¯Â±Â¿Â±Â¯Â¯":10480,"ÃĴÃı":10481,"ĠÂ±Â¯Â¯Â¯Â¯Â´Â¯Â¯":10482,"Ä¯ÃĻÅı":10483,"ĠÂ¯Â¯Â·Â°Â¯ÃĹ":10484,"ĠÂ¿Â·Â¯Â¯Â¯Â·Â°Â¯":10485,"ĠÂ¿Â·Â¯Â¯Â¯Â¿Â¿Â¯":10486,"Ã¯Ã³Ãı":10487,"ĠÂ¯Â·Â°Â¯Â¯Â¸Â°Â¯":10488,"ĠÂ¯Â¯ÃĹÂ±Â¯Â¿Â±Â¯":10489,"ĠÂ¯Â¯ÃĹÂ±Â¯Â¸Â°Â¯":10490,"Ä¯Ä¿Ã¯":10491,"ĠÂ¯Â·Â°Â¯Â±":10492,"ĠÂ¯Â¿Â±Â¯Â¯Â±Â±Â¯":10493,"Ã§Ãĳ":10494,"Â¯Â¯Â·Â¯Â°Â°Â¯Â¯":10495,"ĠÂ¯Â¯Â¸Â¯Â¯Â±Â±Â¯":10496,"Ã¯Ä±Ä¯Ã¯":10497,"ĠÂ¿Â¯Â·Â¯Â¯Â±Â¯Â¯":10498,"ĠÂ¯Ã·Â°Â¯Â¯ÃĹÂ°Â¯":10499,"ÅıÂµÄ¯Ã¯":10500,"Ã¯Ã°Ä¯Ã±":10501,"ĠÂ¯Ã·Â¯Â¯Â¿Â±Â¯Â¯":10502,"ĠÂ¯Ã·Â¯Â¯Â¿Â°Â¯Â¯":10503,"ĠÂ¯Â±Â±Â¯Â¯Â»Â¯Â¯":10504,"ĠÂ±Â¿Â¯Â¯":10505,"ĠÂ±Â±Â°Â¯Â±Â¯Â¯Â¯":10506,"Ä¯Ä±Ä¯":10507,"ÃıÃ³Ã¯":10508,"ĠÂ·Â¯Â¿":10509,"ĠÂ·Â¯Â·Â¯Â°Â¯Â¯Â¯":10510,"Â°Â¿Â´Â¯Â¯Â¯":10511,"ĠÂ¯Â¯Â¯Â¯Â¯Â°Â»Â¯":10512,"ĠÂ¿Â¿Â¯Â¯Ã·Â´Â¯Â¯":10513,"ĠÂ¿Â¯Â¯Â¯Â¯Â¿":10514,"ĠÂ·Â¯Â¯Â¯Â¯Â¿":10515,"ĠÂ·Â¯Â¯Â¯Â¯Ã·Â°Â¯":10516,"ĠÂ¯Â¸Â·Â¯Â¯Â¯Â¯Â¯":10517,"ĠÂ¯Â¸Â°Â¯Â¯Â±Â¯Â¯":10518,"ĠÂ¿Â·Â¯Â±":10519,"ĠÂ¯Â¯Â°Â°Â·Â±Â¯Â¯":10520,"ĠÂ¯Â¯Â±Â¯Â¿ÃĹÂ¯Â¯":10521,"ĠÂ¯Â·Â·Â¯ÃĹÂ¯Â¯Â¯":10522,"ĠÂ¯Â·Â·Â¯Â°Â°Â¯Â¯":10523,"ĠÂ¯Â´Â¿Â¯":10524,"ĠÂ¯Â´Â°Â¯Â¯Â°Â¯Â¯":10525,"Â¯Â¯Â°ÃĹÂ¯Â¯":10526,"ĠÂ¯Â¿Â¸Â¯Ã·Â°Â¯Â¯":10527,"ĠÂ¯Â»Â¿Â¯":10528,"ĠÂ¯Â°Â°Â±Â¯Â¯Â¯Â¯":10529,"ĠÂ¯Â¯Â´Â¯Â¯Â¯Â¸Â¯":10530,"ĠÂ¿Â¯Â¯Â´":10531,"Ã¯ÅĵÃ¯":10532,"ĠÂ¯Â·Â±Â¯Â¯Â·Â°Â¯":10533,"ĠÂ¯Â¿Â¿Â¯Ã·Â°Â¯Â¯":10534,"ÃıÄ³Ã¯":10535,"ĠÂ±Â¯Â¸Â¯Â¯Â¯Â¯Â¯":10536,"ĠÂ±Â¯Ã·Â¯Â¯Â¯Â¯Â¯":10537,"Â°Â¯Â·Â¸Â¯Â¯":10538,"ĠÂ¯Â¯Â°Â±Â·Â°Â¯Â¯":10539,"Å¯ÃĳÄ¯Ã±":10540,"ĠÂ¯Â¯Ã·Â´Â¿":10541,"Ä¯ÅĹÃ¯":10542,"ĠÂ¯Â¯Â°Â°Â¯Â¿":10543,"ĠÂ¯Â¯Â°Â°Â¯Â¿Â°Â¯":10544,"Ã¿Ä±ÃĻ":10545,"ĠÂ¯Â·Â´Â¯ÃĹÂ´Â¯Â¯":10546,"ĠÂ¯ÃĹÂ±Â¯Â¯Â¿":10547,"ĠÂ¯ÃĹÂ±Â¯Â¯Â°Â°Â¯":10548,"ĠÂ¯Â´Â¯Â¯Â¿Â·Â¯Â¯":10549,"ĠÂ¯Â¸Â¯Â¯Â¸Â¯Â¯Â¯":10550,"Å¯ÃģÄ¯":10551,"ĠÂ¯ÃĹÂ°Â¯Â¿":10552,"ĠÂ¯Â¯ÃĹÂ´Â¿":10553,"ĠÂ°Â±":10554,"ĠÂ°Â±Â¯Â¯Â¯":10555,"ĠÂ¯Â¯Â»Â¯Â¯Â¸Â¯Â¯":10556,"ĠÂ¯Â¯Â»Â¯Â¯ÃĹÂ°Â¯":10557,"ĠÂ¯Â¯Â±Â±Â¯Â·Â°Â¯":10558,"ĠÂ¯Â·Â´Â¯Â¯ÃĹÂ¯Â¯":10559,"ĠÂ¯Â¯Â¯Ã·Â¯Â±Â¯Â¯":10560,"Â°ÃĹÂ¿Â¯Â¯":10561,"Ä¿Ä³Ãĳ":10562,"ĠÂ¯Â¯Â·Â´Â¯Ã·":10563,"ĠÂ¯Â¸Â¯Â¯Â¯Â·":10564,"ĠÂ¯Â¯Â¯Â¶Â¯Â¯Â°Â¯":10565,"ĠÃ·Â·Â¯Â¯Â¯Â¯Â±Â¯":10566,"ĠÂ¯Â¯Ã·Â¸Â¯Â·Â·Â¯":10567,
[...]
